{
  "version": "1.0",
  "truncation": null,
  "padding": null,
  "added_tokens": [
    {
      "id": 0,
      "content": "<|endoftext|>",
      "single_word": false,
      "lstrip": false,
      "rstrip": false,
      "normalized": false,
      "special": true
    }
  ],
  "normalizer": null,
  "pre_tokenizer": {
    "type": "ByteLevel",
    "add_prefix_space": false,
    "trim_offsets": true,
    "use_regex": true
  },
  "post_processor": {
    "type": "ByteLevel",
    "add_prefix_space": true,
    "trim_offsets": false,
    "use_regex": true
  },
  "decoder": {
    "type": "ByteLevel",
    "add_prefix_space": true,
    "trim_offsets": true,
    "use_regex": true
  },
  "model": {
    "type": "BPE",
    "dropout": null,
    "unk_token": null,
    "continuing_subword_prefix": "",
    "end_of_word_suffix": "",
    "fuse_unk": false,
    "vocab": {
      "<|endoftext|>": 0,
      "!": 1,
      "\"": 2,
      "#": 3,
      "$": 4,
      "%": 5,
      "&": 6,
      "'": 7,
      "(": 8,
      ")": 9,
      "*": 10,
      "+": 11,
      ",": 12,
      "-": 13,
      ".": 14,
      "/": 15,
      "0": 16,
      "1": 17,
      "2": 18,
      "3": 19,
      "4": 20,
      "5": 21,
      "6": 22,
      "7": 23,
      "8": 24,
      "9": 25,
      ":": 26,
      ";": 27,
      "<": 28,
      "=": 29,
      ">": 30,
      "?": 31,
      "@": 32,
      "A": 33,
      "B": 34,
      "C": 35,
      "D": 36,
      "E": 37,
      "F": 38,
      "G": 39,
      "H": 40,
      "I": 41,
      "J": 42,
      "K": 43,
      "L": 44,
      "M": 45,
      "N": 46,
      "O": 47,
      "P": 48,
      "Q": 49,
      "R": 50,
      "S": 51,
      "T": 52,
      "U": 53,
      "V": 54,
      "W": 55,
      "X": 56,
      "Y": 57,
      "Z": 58,
      "[": 59,
      "\\": 60,
      "]": 61,
      "^": 62,
      "_": 63,
      "`": 64,
      "a": 65,
      "b": 66,
      "c": 67,
      "d": 68,
      "e": 69,
      "f": 70,
      "g": 71,
      "h": 72,
      "i": 73,
      "j": 74,
      "k": 75,
      "l": 76,
      "m": 77,
      "n": 78,
      "o": 79,
      "p": 80,
      "q": 81,
      "r": 82,
      "s": 83,
      "t": 84,
      "u": 85,
      "v": 86,
      "w": 87,
      "x": 88,
      "y": 89,
      "z": 90,
      "{": 91,
      "|": 92,
      "}": 93,
      "~": 94,
      "¡": 95,
      "¢": 96,
      "£": 97,
      "¤": 98,
      "¥": 99,
      "¦": 100,
      "§": 101,
      "¨": 102,
      "©": 103,
      "ª": 104,
      "«": 105,
      "¬": 106,
      "®": 107,
      "¯": 108,
      "°": 109,
      "±": 110,
      "²": 111,
      "³": 112,
      "´": 113,
      "µ": 114,
      "¶": 115,
      "·": 116,
      "¸": 117,
      "¹": 118,
      "º": 119,
      "»": 120,
      "¼": 121,
      "½": 122,
      "¾": 123,
      "¿": 124,
      "À": 125,
      "Á": 126,
      "Â": 127,
      "Ã": 128,
      "Ä": 129,
      "Å": 130,
      "Æ": 131,
      "Ç": 132,
      "È": 133,
      "É": 134,
      "Ê": 135,
      "Ë": 136,
      "Ì": 137,
      "Í": 138,
      "Î": 139,
      "Ï": 140,
      "Ð": 141,
      "Ñ": 142,
      "Ò": 143,
      "Ó": 144,
      "Ô": 145,
      "Õ": 146,
      "Ö": 147,
      "×": 148,
      "Ø": 149,
      "Ù": 150,
      "Ú": 151,
      "Û": 152,
      "Ü": 153,
      "Ý": 154,
      "Þ": 155,
      "ß": 156,
      "à": 157,
      "á": 158,
      "â": 159,
      "ã": 160,
      "ä": 161,
      "å": 162,
      "æ": 163,
      "ç": 164,
      "è": 165,
      "é": 166,
      "ê": 167,
      "ë": 168,
      "ì": 169,
      "í": 170,
      "î": 171,
      "ï": 172,
      "ð": 173,
      "ñ": 174,
      "ò": 175,
      "ó": 176,
      "ô": 177,
      "õ": 178,
      "ö": 179,
      "÷": 180,
      "ø": 181,
      "ù": 182,
      "ú": 183,
      "û": 184,
      "ü": 185,
      "ý": 186,
      "þ": 187,
      "ÿ": 188,
      "Ā": 189,
      "ā": 190,
      "Ă": 191,
      "ă": 192,
      "Ą": 193,
      "ą": 194,
      "Ć": 195,
      "ć": 196,
      "Ĉ": 197,
      "ĉ": 198,
      "Ċ": 199,
      "ċ": 200,
      "Č": 201,
      "č": 202,
      "Ď": 203,
      "ď": 204,
      "Đ": 205,
      "đ": 206,
      "Ē": 207,
      "ē": 208,
      "Ĕ": 209,
      "ĕ": 210,
      "Ė": 211,
      "ė": 212,
      "Ę": 213,
      "ę": 214,
      "Ě": 215,
      "ě": 216,
      "Ĝ": 217,
      "ĝ": 218,
      "Ğ": 219,
      "ğ": 220,
      "Ġ": 221,
      "ġ": 222,
      "Ģ": 223,
      "ģ": 224,
      "Ĥ": 225,
      "ĥ": 226,
      "Ħ": 227,
      "ħ": 228,
      "Ĩ": 229,
      "ĩ": 230,
      "Ī": 231,
      "ī": 232,
      "Ĭ": 233,
      "ĭ": 234,
      "Į": 235,
      "į": 236,
      "İ": 237,
      "ı": 238,
      "Ĳ": 239,
      "ĳ": 240,
      "Ĵ": 241,
      "ĵ": 242,
      "Ķ": 243,
      "ķ": 244,
      "ĸ": 245,
      "Ĺ": 246,
      "ĺ": 247,
      "Ļ": 248,
      "ļ": 249,
      "Ľ": 250,
      "ľ": 251,
      "Ŀ": 252,
      "ŀ": 253,
      "Ł": 254,
      "ł": 255,
      "Ń": 256,
      "Ġt": 257,
      "Ġa": 258,
      "in": 259,
      "er": 260,
      "on": 261,
      "Ġth": 262,
      "re": 263,
      "Ġs": 264,
      "Ġc": 265,
      "at": 266,
      "or": 267,
      "en": 268,
      "Ġthe": 269,
      "es": 270,
      "it": 271,
      "Ġp": 272,
      "is": 273,
      "an": 274,
      "Ġw": 275,
      "al": 276,
      "Ġo": 277,
      "Ġf": 278,
      "Ġb": 279,
      "ar": 280,
      "Ġm": 281,
      "ed": 282,
      "ing": 283,
      "ou": 284,
      "le": 285,
      "Ġan": 286,
      "Ġd": 287,
      "ion": 288,
      "ic": 289,
      "Ġin": 290,
      "Ġh": 291,
      "Ġto": 292,
      "Ġof": 293,
      "ro": 294,
      "Ġand": 295,
      "as": 296,
      "Ġn": 297,
      "ct": 298,
      "ent": 299,
      "Ġe": 300,
      "Ġl": 301,
      "th": 302,
      "om": 303,
      "Ġre": 304,
      "st": 305,
      "il": 306,
      "ch": 307,
      "Ġg": 308,
      "el": 309,
      "Ġ(": 310,
      "et": 311,
      "ol": 312,
      "id": 313,
      "im": 314,
      "Ġy": 315,
      "Ġu": 316,
      "ig": 317,
      "00": 318,
      "Ġis": 319,
      "ur": 320,
      "ve": 321,
      "ra": 322,
      "ation": 323,
      "se": 324,
      "ce": 325,
      "ut": 326,
      "Ġfor": 327,
      "ow": 328,
      "Ġyou": 329,
      "Ġ2": 330,
      "ot": 331,
      "ay": 332,
      "am": 333,
      "Ġst": 334,
      "Ġon": 335,
      "Ġ1": 336,
      "ly": 337,
      "Ġv": 338,
      "if": 339,
      "ad": 340,
      "ers": 341,
      "Ġbe": 342,
      "em": 343,
      "ith": 344,
      "ag": 345,
      "Ġpro": 346,
      "ul": 347,
      "ir": 348,
      "un": 349,
      "ter": 350,
      "od": 351,
      "Ġcon": 352,
      "ab": 353,
      "Ġwh": 354,
      "Ġal": 355,
      "Ġthat": 356,
      "Ġit": 357,
      "??": 358,
      "Ġ.": 359,
      "op": 360,
      "um": 361,
      "ver": 362,
      "Ġwith": 363,
      "Ġas": 364,
      "ck": 365,
      "Ġr": 366,
      "qu": 367,
      "us": 368,
      "Ġor": 369,
      "ht": 370,
      "ist": 371,
      "est": 372,
      "Ġj": 373,
      "ess": 374,
      "Ġwe": 375,
      "ri": 376,
      "Ġcom": 377,
      "pl": 378,
      "Ġch": 379,
      "ction": 380,
      "ate": 381,
      "Ġse": 382,
      ",\"": 383,
      "Ġk": 384,
      "res": 385,
      "Ġne": 386,
      "Ġ-": 387,
      "ment": 388,
      "and": 389,
      "Ġex": 390,
      "Ġare": 391,
      "Ġ20": 392,
      "ill": 393,
      "ap": 394,
      "Ġde": 395,
      "iv": 396,
      "os": 397,
      "ore": 398,
      "Ġthis": 399,
      "ity": 400,
      "Ġsh": 401,
      "end": 402,
      "pe": 403,
      "oun": 404,
      "ight": 405,
      "Ġsu": 406,
      "ex": 407,
      "..": 408,
      "Ġi": 409,
      "for": 410,
      "'s": 411,
      "ere": 412,
      "\":": 413,
      "ant": 414,
      "rom": 415,
      "ain": 416,
      "art": 417,
      "Ġ\"": 418,
      "ies": 419,
      "Ġby": 420,
      "ak": 421,
      "ive": 422,
      "lo": 423,
      "com": 424,
      "Ġyour": 425,
      "Ġle": 426,
      "Ġun": 427,
      "Ġcan": 428,
      "ort": 429,
      "Ġat": 430,
      "ld": 431,
      "all": 432,
      "ci": 433,
      "age": 434,
      "ine": 435,
      "Ġus": 436,
      "pt": 437,
      "per": 438,
      "ge": 439,
      "ust": 440,
      "ure": 441,
      "ave": 442,
      "Ġfrom": 443,
      "Ġnot": 444,
      "\",\"": 445,
      "og": 446,
      "ber": 447,
      "Ġwor": 448,
      ").": 449,
      "Ġar": 450,
      "iz": 451,
      "ie": 452,
      "Ġpl": 453,
      "Ġad": 454,
      "pp": 455,
      "20": 456,
      "der": 457,
      "oo": 458,
      "ac": 459,
      "ack": 460,
      "ard": 461,
      "ther": 462,
      "ru": 463,
      "ia": 464,
      "Ġcomp": 465,
      "ach": 466,
      "con": 467,
      "are": 468,
      "cl": 469,
      "yb": 470,
      "ical": 471,
      "able": 472,
      "ost": 473,
      "ud": 474,
      "form": 475,
      "ail": 476,
      "of": 477,
      "ice": 478,
      "Ġhave": 479,
      "ans": 480,
      "Ġall": 481,
      "out": 482,
      "ign": 483,
      "ite": 484,
      "ind": 485,
      "our": 486,
      "Ġ3": 487,
      "Ġhe": 488,
      "ass": 489,
      "Ġdo": 490,
      "Ġcl": 491,
      "Ġif": 492,
      "Ġcont": 493,
      "ell": 494,
      "ary": 495,
      "Ġ201": 496,
      "Ġim": 497,
      "the": 498,
      "003": 499,
      "ext": 500,
      "ide": 501,
      "Ġen": 502,
      "ition": 503,
      "av": 504,
      "ect": 505,
      "du": 506,
      "ult": 507,
      "),": 508,
      "ire": 509,
      "Ġ=": 510,
      "ast": 511,
      "Ġ0": 512,
      "ome": 513,
      "ip": 514,
      "ase": 515,
      "????": 516,
      "ib": 517,
      "Ġwill": 518,
      "cc": 519,
      "ry": 520,
      "ence": 521,
      "Ġab": 522,
      ");": 523,
      "ook": 524,
      "ub": 525,
      "one": 526,
      "10": 527,
      "act": 528,
      "Ġres": 529,
      "ue": 530,
      "we": 531,
      "ph": 532,
      "Ġ?": 533,
      "Ġ4": 534,
      "pro": 535,
      "ated": 536,
      "Ġme": 537,
      "ich": 538,
      "ial": 539,
      "ations": 540,
      "ound": 541,
      "ik": 542,
      "ame": 543,
      "Ġnew": 544,
      "Ġso": 545,
      "to": 546,
      "fer": 547,
      "Ġwas": 548,
      "px": 549,
      "ould": 550,
      "Ġ{": 551,
      "ance": 552,
      "ime": 553,
      "so": 554,
      "int": 555,
      "Ġ5": 556,
      "ath": 557,
      "ata": 558,
      "ĠĠ": 559,
      "unction": 560,
      "ff": 561,
      "99": 562,
      "sh": 563,
      "ple": 564,
      "ace": 565,
      "Ġ6": 566,
      "ree": 567,
      "\":\"": 568,
      "ual": 569,
      "ory": 570,
      "ress": 571,
      "Ġdis": 572,
      "ions": 573,
      "ps": 574,
      "oc": 575,
      "ang": 576,
      "Ġsp": 577,
      "Ġ&": 578,
      "Ġmore": 579,
      "ong": 580,
      "ount": 581,
      "\\\"": 582,
      "text": 583,
      "Ġour": 584,
      "ous": 585,
      "Ġro": 586,
      "23": 587,
      "Ġgo": 588,
      "Ġbut": 589,
      "ish": 590,
      "Ġem": 591,
      "lect": 592,
      "Ġhas": 593,
      "Ġqu": 594,
      "de": 595,
      "ms": 596,
      "Ġthey": 597,
      "arch": 598,
      "Ġman": 599,
      "urn": 600,
      "erv": 601,
      "oug": 602,
      "ile": 603,
      "Ġout": 604,
      "Ġno": 605,
      "Ġfe": 606,
      "Ġinter": 607,
      "col": 608,
      "Ġper": 609,
      "11": 610,
      "Ġdes": 611,
      "Ġ$": 612,
      "ren": 613,
      "Ġone": 614,
      "\\/": 615,
      "--": 616,
      "Ġup": 617,
      "ark": 618,
      "ake": 619,
      "te": 620,
      "ne": 621,
      "Ġte": 622,
      "Ġany": 623,
      "Ġtra": 624,
      "ens": 625,
      "\",": 626,
      "ents": 627,
      "ick": 628,
      "own": 629,
      "Ġ|": 630,
      "Ġ}": 631,
      "vel": 632,
      "}.": 633,
      "ink": 634,
      "cial": 635,
      "port": 636,
      "ds": 637,
      "au": 638,
      "Ġmay": 639,
      "Ġwhich": 640,
      "Ġtheir": 641,
      "bs": 642,
      "Ġpre": 643,
      "ors": 644,
      "ty": 645,
      "this": 646,
      "Ġpart": 647,
      "Ġsome": 648,
      "pr": 649,
      "Ġcol": 650,
      "//": 651,
      "Ġev": 652,
      "12": 653,
      "19": 654,
      "Ġtime": 655,
      "ode": 656,
      "Ġtr": 657,
      "Ġwork": 658,
      "Ġcomm": 659,
      "Ġam": 660,
      "Ġhow": 661,
      "Ġpr": 662,
      "ics": 663,
      "ww": 664,
      "he": 665,
      "duct": 666,
      "Ġacc": 667,
      "Ġother": 668,
      "ough": 669,
      "Ġinst": 670,
      "){": 671,
      "Ġsy": 672,
      "ov": 673,
      "Ġadd": 674,
      "Ġthere": 675,
      "ely": 676,
      "ings": 677,
      "ys": 678,
      "22": 679,
      "ram": 680,
      "low": 681,
      "Ġuse": 682,
      "cess": 683,
      "Ġph": 684,
      "16": 685,
      "iew": 686,
      "ian": 687,
      "ont": 688,
      "'t": 689,
      "arg": 690,
      "Ġdata": 691,
      "==": 692,
      "Ġind": 693,
      "cre": 694,
      "15": 695,
      "Ġval": 696,
      "bo": 697,
      "Ġag": 698,
      "ize": 699,
      "Ġspe": 700,
      "turn": 701,
      "Ġreg": 702,
      "ces": 703,
      "Ġabout": 704,
      "ear": 705,
      "ery": 706,
      "Ġalso": 707,
      "Ġ7": 708,
      "Ġset": 709,
      "row": 710,
      "000": 711,
      "14": 712,
      "Ġ'": 713,
      "Ġbo": 714,
      "lement": 715,
      "...": 716,
      "reat": 717,
      "ert": 718,
      "(\"": 719,
      "igh": 720,
      "Ġapp": 721,
      "irst": 722,
      "25": 723,
      "ays": 724,
      "var": 725,
      "ble": 726,
      "ding": 727,
      "Ġcons": 728,
      "13": 729,
      "ull": 730,
      "__": 731,
      "Ġkn": 732,
      "over": 733,
      "ax": 734,
      "Ġwhen": 735,
      "Ġneed": 736,
      "atch": 737,
      "ike": 738,
      "Ġed": 739,
      "line": 740,
      "Ġtw": 741,
      "olog": 742,
      "Ġra": 743,
      "ove": 744,
      "ft": 745,
      "ates": 746,
      "gr": 747,
      "Ġserv": 748,
      "wor": 749,
      "Ġthan": 750,
      "Ġits": 751,
      "ject": 752,
      "ubl": 753,
      "function": 754,
      "wh": 755,
      "Ġx": 756,
      "color": 757,
      "stem": 758,
      "Ġget": 759,
      "Ġnum": 760,
      "Ġmod": 761,
      "aw": 762,
      "ater": 763,
      "Ġthese": 764,
      "cont": 765,
      "Ġwhat": 766,
      "Ġpol": 767,
      "Ġmy": 768,
      "Ġprov": 769,
      "18": 770,
      "Ġap": 771,
      "be": 772,
      "cri": 773,
      "Ġke": 774,
      "Ġwho": 775,
      "Ġhel": 776,
      "ices": 777,
      "but": 778,
      "ally": 779,
      "arn": 780,
      "Ġpo": 781,
      "Ġworld": 782,
      "Ġ10": 783,
      "Ġbr": 784,
      "Ġsol": 785,
      "ict": 786,
      "Ġover": 787,
      "les": 788,
      "iss": 789,
      "Ġrec": 790,
      "formation": 791,
      "Ġpe": 792,
      "wid": 793,
      "Ġ8": 794,
      "ific": 795,
      "Ġ19": 796,
      "<|": 797,
      "endof": 798,
      "|>": 799,
      "endoftext": 800,
      "ener": 801,
      "Ġfirst": 802,
      "fter": 803,
      "plic": 804,
      "ages": 805,
      "Ġ200": 806,
      "Ġoff": 807,
      "ild": 808,
      "eng": 809,
      "Ġplay": 810,
      "Ġvar": 811,
      "Ġrequ": 812,
      "Ġonly": 813,
      "very": 814,
      "cy": 815,
      "Ġrel": 816,
      "Ġbu": 817,
      "}}": 818,
      "ons": 819,
      "clud": 820,
      "ible": 821,
      "Ġsub": 822,
      "Ġgr": 823,
      ".[": 824,
      "Ġunder": 825,
      "Ġdesign": 826,
      "Ġsystem": 827,
      "ep": 828,
      "ility": 829,
      "play": 830,
      "ational": 831,
      "pos": 832,
      "66": 833,
      "dis": 834,
      "Ġbet": 835,
      "Ġ+": 836,
      "tr": 837,
      "50": 838,
      "://": 839,
      "17": 840,
      "Ġinformation": 841,
      "get": 842,
      "man": 843,
      "Ġ#": 844,
      "its": 845,
      "put": 846,
      "Ġ/": 847,
      "Ġthem": 848,
      "ss": 849,
      "land": 850,
      "ug": 851,
      "up": 852,
      "Ġinto": 853,
      "33": 854,
      "ating": 855,
      "raph": 856,
      "app": 857,
      "led": 858,
      "Ġyear": 859,
      "ml": 860,
      "Ġclass": 861,
      "ise": 862,
      "Ġgu": 863,
      "Ġtwo": 864,
      "ange": 865,
      "Ġmost": 866,
      "oy": 867,
      "Ġpos": 868,
      "Ġass": 869,
      "ob": 870,
      "ied": 871,
      "Ġsch": 872,
      "val": 873,
      "Ġ[": 874,
      "Ġthen": 875,
      "Ġbl": 876,
      "Ġsim": 877,
      "Ġtrans": 878,
      "Ġsm": 879,
      "Ġart": 880,
      "Ġac": 881,
      "ton": 882,
      "Ġdif": 883,
      "Ġlike": 884,
      "Ġeach": 885,
      "24": 886,
      "Ġhigh": 887,
      "ative": 888,
      "gor": 889,
      "=\\\"": 890,
      "min": 891,
      "Ġco": 892,
      "Ġ._": 893,
      "let": 894,
      "ose": 895,
      "fore": 896,
      "Ġsuch": 897,
      "ited": 898,
      "Ġfunction": 899,
      "air": 900,
      "view": 901,
      "sp": 902,
      "ale": 903,
      "ular": 904,
      "Ġhis": 905,
      "&&": 906,
      "Ġ9": 907,
      "Ġprog": 908,
      "Ġz": 909,
      "med": 910,
      ".,": 911,
      "Ġwere": 912,
      "Ġbeen": 913,
      "width": 914,
      "\".": 915,
      "Ġwould": 916,
      "Ġprocess": 917,
      "ev": 918,
      "io": 919,
      "itt": 920,
      "ower": 921,
      "ced": 922,
      "Ġsc": 923,
      "tt": 924,
      "inal": 925,
      "Ġmed": 926,
      "ctions": 927,
      "Ġent": 928,
      "td": 929,
      "ks": 930,
      "ause": 931,
      "Ġact": 932,
      "Ġread": 933,
      "Ġ<": 934,
      "ures": 935,
      "21": 936,
      "Ġbus": 937,
      "pect": 938,
      "ll": 939,
      "lock": 940,
      "ities": 941,
      "ious": 942,
      "ke": 943,
      "Ġform": 944,
      "Ġrep": 945,
      "Ġused": 946,
      "Ġinclud": 947,
      "ily": 948,
      "Ġcre": 949,
      "iel": 950,
      "erson": 951,
      "Ġty": 952,
      "ĠĠĠĠ": 953,
      "als": 954,
      "Ġstud": 955,
      "ract": 956,
      "not": 957,
      "Ġbas": 958,
      "search": 959,
      "ople": 960,
      "ix": 961,
      "yle": 962,
      "Ġsupp": 963,
      "ublic": 964,
      "Ġcent": 965,
      "Ġmake": 966,
      "ines": 967,
      "ology": 968,
      "urren": 969,
      "Ġter": 970,
      "Ġinv": 971,
      "Ġmin": 972,
      "Ġjust": 973,
      "ments": 974,
      "ood": 975,
      "},": 976,
      "Ġknow": 977,
      "Ġhelp": 978,
      "Ġright": 979,
      "Ġopt": 980,
      "mber": 981,
      "back": 982,
      "Ġnumber": 983,
      "ful": 984,
      "Ġint": 985,
      "Ġsee": 986,
      "Ġexam": 987,
      "Ġexper": 988,
      "rough": 989,
      "Ġproble": 990,
      "list": 991,
      "ues": 992,
      "Ġgener": 993,
      "fin": 994,
      "28": 995,
      "Ġproduct": 996,
      "78": 997,
      "Ġfol": 998,
      "Ġcomput": 999,
      "Ġpeople": 1000,
      "Ġmark": 1001,
      "riv": 1002,
      "Ġlist": 1003,
      "Ġrem": 1004,
      "Ġcor": 1005,
      "Ġher": 1006,
      "irt": 1007,
      "day": 1008,
      "ution": 1009,
      "Ġcar": 1010,
      "Ġsa": 1011,
      "Ġdiffer": 1012,
      "200": 1013,
      "ivers": 1014,
      "ins": 1015,
      "Ġback": 1016,
      "Ġmem": 1017,
      "iness": 1018,
      "tern": 1019,
      "ature": 1020,
      "Ġwr": 1021,
      "30": 1022,
      "lex": 1023,
      "',": 1024,
      "Ġlook": 1025,
      "Ġ2023": 1026,
      "ider": 1027,
      "????????": 1028,
      "ash": 1029,
      "ident": 1030,
      "Ġfl": 1031,
      "Ġafter": 1032,
      "Ġevery": 1033,
      "ement": 1034,
      "Ġmon": 1035,
      "velop": 1036,
      "Ġthrough": 1037,
      "Ġtech": 1038,
      "Ġav": 1039,
      "gorith": 1040,
      "Ġusing": 1041,
      "ord": 1042,
      "Ġsci": 1043,
      "cept": 1044,
      "uring": 1045,
      "._": 1046,
      "26": 1047,
      "Ġfind": 1048,
      "order": 1049,
      "Ġbec": 1050,
      "Ġwebs": 1051,
      "Ġshow": 1052,
      "ning": 1053,
      "ade": 1054,
      "ts": 1055,
      "ner": 1056,
      "Ġ\\": 1057,
      "thing": 1058,
      "ah": 1059,
      "Ġdisc": 1060,
      "read": 1061,
      "old": 1062,
      "top": 1063,
      "Ġmany": 1064,
      "return": 1065,
      "font": 1066,
      "ural": 1067,
      "Ġdet": 1068,
      "Ġreal": 1069,
      "Ġoper": 1070,
      "Ġway": 1071,
      "Ġvis": 1072,
      "Ġatt": 1073,
      "eck": 1074,
      "ank": 1075,
      "ient": 1076,
      "Ġins": 1077,
      "alth": 1078,
      "cript": 1079,
      "40": 1080,
      "Ġvalue": 1081,
      "element": 1082,
      "opt": 1083,
      "fl": 1084,
      "ric": 1085,
      "Ġwhere": 1086,
      "Ġresult": 1087,
      "Ġel": 1088,
      "ife": 1089,
      "Ġbest": 1090,
      "ond": 1091,
      "Ġstr": 1092,
      "ier": 1093,
      "Ġshould": 1094,
      "Ġfollow": 1095,
      "Ġcook": 1096,
      "Ġwell": 1097,
      "Ġlearn": 1098,
      "right": 1099,
      "Ġperson": 1100,
      "resent": 1101,
      "pre": 1102,
      "Ġbusiness": 1103,
      "par": 1104,
      "Ġloc": 1105,
      "Ġbel": 1106,
      "Ġeng": 1107,
      "Ġpoint": 1108,
      "\\\\": 1109,
      "Ġcall": 1110,
      "ets": 1111,
      "irect": 1112,
      "ify": 1113,
      "Ġext": 1114,
      "('": 1115,
      "Ġend": 1116,
      "dition": 1117,
      "0000": 1118,
      "Ġdevelop": 1119,
      "fe": 1120,
      "Ġret": 1121,
      "az": 1122,
      ":\"": 1123,
      "ott": 1124,
      "ument": 1125,
      "Ġalgorith": 1126,
      "ybar": 1127,
      "Ġarch": 1128,
      "Ġnow": 1129,
      "ustom": 1130,
      "Ġtechn": 1131,
      "Ġadv": 1132,
      "Ġcommun": 1133,
      "Ġdel": 1134,
      "www": 1135,
      "Ġdec": 1136,
      "html": 1137,
      "Ġnor": 1138,
      "select": 1139,
      "ern": 1140,
      "yn": 1141,
      "Ġhad": 1142,
      "elf": 1143,
      "Ġjo": 1144,
      "Ġfr": 1145,
      "Ġob": 1146,
      "Ġfin": 1147,
      "gan": 1148,
      "wn": 1149,
      "29": 1150,
      "))": 1151,
      "Ġhtt": 1152,
      "Ġprogram": 1153,
      "Ġhere": 1154,
      "str": 1155,
      "Ġwebsite": 1156,
      "Ġwant": 1157,
      "Ġexp": 1158,
      "ruct": 1159,
      "Ġaccess": 1160,
      "other": 1161,
      "Ġhome": 1162,
      "Ġlo": 1163,
      "27": 1164,
      "ween": 1165,
      "Ġplan": 1166,
      "Ġchar": 1167,
      "Ġpur": 1168,
      "me": 1169,
      "Ġbecause": 1170,
      "Ġreturn": 1171,
      "Ġcount": 1172,
      "Ġdoes": 1173,
      "set": 1174,
      "Ġwhile": 1175,
      "ting": 1176,
      "log": 1177,
      "ward": 1178,
      "cent": 1179,
      "height": 1180,
      "36": 1181,
      "ploy": 1182,
      "Ġpage": 1183,
      "ground": 1184,
      "Ġorder": 1185,
      "Ġconst": 1186,
      "Ġeff": 1187,
      "48": 1188,
      "ason": 1189,
      "âĢ": 1190,
      "âĢ¢": 1191,
      "mail": 1192,
      "....": 1193,
      "Ġfree": 1194,
      "thod": 1195,
      "38": 1196,
      "Ġequ": 1197,
      "uch": 1198,
      "Ġsign": 1199,
      "Ġsur": 1200,
      "display": 1201,
      "Ġear": 1202,
      "Ġvery": 1203,
      "Ġcr": 1204,
      "ism": 1205,
      "ically": 1206,
      "Ġdifferent": 1207,
      "iqu": 1208,
      "rol": 1209,
      "):": 1210,
      "ized": 1211,
      "net": 1212,
      "Ġ:": 1213,
      "ray": 1214,
      "abel": 1215,
      "Ġcap": 1216,
      "Ġstart": 1217,
      "ody": 1218,
      "Ġ,": 1219,
      "type": 1220,
      "Ġbeing": 1221,
      "by": 1222,
      "Ġgreat": 1223,
      "Ġpost": 1224,
      "Ġdist": 1225,
      "09": 1226,
      "irtual": 1227,
      "ium": 1228,
      "46": 1229,
      "Ġop": 1230,
      "br": 1231,
      "Ġbetween": 1232,
      "ribut": 1233,
      "Ġcam": 1234,
      "Ġexample": 1235,
      "Ġ12": 1236,
      "und": 1237,
      "ailable": 1238,
      "Ġsk": 1239,
      "ury": 1240,
      "Ġanal": 1241,
      "box": 1242,
      "data": 1243,
      "ool": 1244,
      "Ġdown": 1245,
      "Ġlong": 1246,
      "Ġpay": 1247,
      "ator": 1248,
      "itle": 1249,
      "Ġsame": 1250,
      "lease": 1251,
      "ipp": 1252,
      "product": 1253,
      "aking": 1254,
      ":#": 1255,
      "oup": 1256,
      "gy": 1257,
      "57": 1258,
      "Ġorig": 1259,
      "rue": 1260,
      "Ġsupport": 1261,
      "comm": 1262,
      "att": 1263,
      "Ġcould": 1264,
      "86": 1265,
      "ina": 1266,
      "Ġdon": 1267,
      "item": 1268,
      "ever": 1269,
      "eme": 1270,
      "Ġonline": 1271,
      "Ġeven": 1272,
      "name": 1273,
      "Ġunivers": 1274,
      "nt": 1275,
      "Ġtop": 1276,
      "Ġhealth": 1277,
      "ene": 1278,
      "ee": 1279,
      "Ġday": 1280,
      "Ġemploy": 1281,
      "portant": 1282,
      "ars": 1283,
      "Ġproblem": 1284,
      "ength": 1285,
      "Ġser": 1286,
      "Ġshe": 1287,
      "100": 1288,
      "ai": 1289,
      "uc": 1290,
      "Ġmain": 1291,
      "trans": 1292,
      "argin": 1293,
      "any": 1294,
      "80": 1295,
      "ired": 1296,
      "Ġmult": 1297,
      "ived": 1298,
      "Ġprovid": 1299,
      "ives": 1300,
      "sw": 1301,
      "=\"": 1302,
      "Ġgood": 1303,
      "Ġdirect": 1304,
      "uss": 1305,
      "class": 1306,
      "Ġappro": 1307,
      "56": 1308,
      "Ġyears": 1309,
      "bers": 1310,
      "Ġhist": 1311,
      "ames": 1312,
      "urrent": 1313,
      "new": 1314,
      ".?": 1315,
      "Ġposs": 1316,
      "ather": 1317,
      "ield": 1318,
      "Ġlink": 1319,
      "Ġiss": 1320,
      "Ġlog": 1321,
      "indow": 1322,
      "ience": 1323,
      "Ġservices": 1324,
      "ability": 1325,
      "'re": 1326,
      ",.": 1327,
      "Ġservice": 1328,
      "Ġspec": 1329,
      "()": 1330,
      "Ġcustom": 1331,
      "Ġbook": 1332,
      "sc": 1333,
      "men": 1334,
      "ional": 1335,
      "oid": 1336,
      "add": 1337,
      "Ġmar": 1338,
      "ital": 1339,
      "Ġkey": 1340,
      "left": 1341,
      "Ġview": 1342,
      "Ġpower": 1343,
      "70": 1344,
      "Ġconsider": 1345,
      "ok": 1346,
      "Ġest": 1347,
      "ified": 1348,
      "59": 1349,
      "ety": 1350,
      "ences": 1351,
      "Ġcle": 1352,
      "Ġproper": 1353,
      "ister": 1354,
      "39": 1355,
      "?\",\"": 1356,
      "Ġprof": 1357,
      "\":\"?\",\"": 1358,
      "44": 1359,
      "ential": 1360,
      "Ġhand": 1361,
      "cur": 1362,
      "Ġdi": 1363,
      "red": 1364,
      "Ġpat": 1365,
      "akes": 1366,
      "imes": 1367,
      "err": 1368,
      "ush": 1369,
      "Ġhttps": 1370,
      "Ġsl": 1371,
      "ince": 1372,
      "Ġitem": 1373,
      "Ġpar": 1374,
      "alse": 1375,
      "margin": 1376,
      "(--": 1377,
      "htt": 1378,
      "Ġlife": 1379,
      "||": 1380,
      "head": 1381,
      "igure": 1382,
      "fr": 1383,
      "Ġvirtual": 1384,
      "way": 1385,
      "co": 1386,
      "image": 1387,
      "Ġtake": 1388,
      "Ġeas": 1389,
      "acy": 1390,
      "Ġma": 1391,
      "xt": 1392,
      "Ġstat": 1393,
      "requ": 1394,
      "Ġ)": 1395,
      "Ġsize": 1396,
      "Ġsearch": 1397,
      "Ġfil": 1398,
      "Ġdep": 1399,
      "Ġnet": 1400,
      "Ġge": 1401,
      "Ġ13": 1402,
      "Ġstate": 1403,
      "ral": 1404,
      "ually": 1405,
      "Ġcare": 1406,
      "Ġ18": 1407,
      "shop": 1408,
      "Ġmodel": 1409,
      "fa": 1410,
      "vent": 1411,
      "ember": 1412,
      "Ġlet": 1413,
      "vis": 1414,
      "work": 1415,
      "Ġfound": 1416,
      "Ġrun": 1417,
      "bl": 1418,
      "Ġbefore": 1419,
      "Ġcase": 1420,
      "Ġfam": 1421,
      "cr": 1422,
      "background": 1423,
      "eric": 1424,
      "des": 1425,
      "Ġwar": 1426,
      "Ġalgorithm": 1427,
      "Ġagain": 1428,
      "icy": 1429,
      "mod": 1430,
      "ger": 1431,
      "oft": 1432,
      "76": 1433,
      "ality": 1434,
      "Ġmade": 1435,
      "ware": 1436,
      "Ġperform": 1437,
      "Ġmuch": 1438,
      "Ġlaw": 1439,
      "Ġ11": 1440,
      "Ġinstru": 1441,
      "sub": 1442,
      "58": 1443,
      "inter": 1444,
      "Ġmanag": 1445,
      "Ġcontain": 1446,
      "79": 1447,
      "aut": 1448,
      "{\"": 1449,
      "ists": 1450,
      "ouse": 1451,
      "une": 1452,
      "arge": 1453,
      "idd": 1454,
      "Ġsmall": 1455,
      "Ġcour": 1456,
      "Ġown": 1457,
      "Ġcal": 1458,
      "Ġmust": 1459,
      "Ġ2019": 1460,
      "ization": 1461,
      "Ġhum": 1462,
      "Ġfact": 1463,
      "Ġboth": 1464,
      "Ġ2022": 1465,
      "size": 1466,
      "pad": 1467,
      ".\"": 1468,
      "Ġ*": 1469,
      "Ġuniversity": 1470,
      "ute": 1471,
      "unch": 1472,
      "Ġau": 1473,
      "content": 1474,
      "],": 1475,
      "ased": 1476,
      "Ġvari": 1477,
      ")}": 1478,
      "place": 1479,
      "ency": 1480,
      "Ġmarket": 1481,
      "Ġoriginal": 1482,
      "Ġjan": 1483,
      "cond": 1484,
      "border": 1485,
      "ek": 1486,
      "style": 1487,
      "fo": 1488,
      "cle": 1489,
      "Ġapplic": 1490,
      "pare": 1491,
      "Ġsw": 1492,
      "Ġplease": 1493,
      "Ġcost": 1494,
      "Ġchild": 1495,
      "cart": 1496,
      "ten": 1497,
      "ross": 1498,
      "54": 1499,
      "angu": 1500,
      "Ġ>": 1501,
      "odes": 1502,
      "Ġdiv": 1503,
      "Ġemail": 1504,
      "price": 1505,
      "Ġavailable": 1506,
      "lection": 1507,
      "Ġaddition": 1508,
      "cember": 1509,
      "Ġaut": 1510,
      "theme": 1511,
      "Ġincre": 1512,
      "Ġresp": 1513,
      "null": 1514,
      "Ġresearch": 1515,
      "ule": 1516,
      "Ġlight": 1517,
      "Ġlim": 1518,
      "come": 1519,
      "Ġ{{": 1520,
      "rop": 1521,
      "Ġintern": 1522,
      "rap": 1523,
      "pg": 1524,
      "stand": 1525,
      "ns": 1526,
      "Ġet": 1527,
      "Ġcontent": 1528,
      "Ġallow": 1529,
      "Ġlead": 1530,
      "ness": 1531,
      "Ġpriv": 1532,
      "Ġstand": 1533,
      "Ġmethod": 1534,
      "Ġgraph": 1535,
      "ining": 1536,
      "Ġline": 1537,
      "icle": 1538,
      "code": 1539,
      "Ġmet": 1540,
      "glo": 1541,
      "Ġorgan": 1542,
      "Ġspecial": 1543,
      "Ġste": 1544,
      "Ġtem": 1545,
      "Ġhowever": 1546,
      "Ġ...": 1547,
      "emat": 1548,
      "Ġtype": 1549,
      "Ġsite": 1550,
      "Ġscience": 1551,
      "opy": 1552,
      "load": 1553,
      "Ġrece": 1554,
      "Ġduring": 1555,
      "Ġproject": 1556,
      "Ġmov": 1557,
      "ants": 1558,
      "riev": 1559,
      "Ġnews": 1560,
      "Ġaddress": 1561,
      "Ġpublic": 1562,
      "Ġtest": 1563,
      "Ġ16": 1564,
      "po": 1565,
      "Ġstore": 1566,
      "ense": 1567,
      "position": 1568,
      "di": 1569,
      "Ġfull": 1570,
      "Ġbrow": 1571,
      "title": 1572,
      "ann": 1573,
      "Ġpartic": 1574,
      "bn": 1575,
      "Ġpress": 1576,
      "ock": 1577,
      "padding": 1578,
      "ases": 1579,
      "cd": 1580,
      "Ġthose": 1581,
      "Ġ!": 1582,
      "index": 1583,
      "Ġteam": 1584,
      "Ġlevel": 1585,
      "Ġexpl": 1586,
      "Ġselect": 1587,
      "Ġquest": 1588,
      "Ġsing": 1589,
      "Ġelement": 1590,
      "Ġdecember": 1591,
      "Ġgra": 1592,
      "rem": 1593,
      "Ġlast": 1594,
      "alk": 1595,
      "Ġaug": 1596,
      "iver": 1597,
      "itch": 1598,
      "Ġwithout": 1599,
      "rieved": 1600,
      "Ġnat": 1601,
      "Ġcontrol": 1602,
      "Ġgre": 1603,
      "gg": 1604,
      "less": 1605,
      "ograph": 1606,
      "iting": 1607,
      "Ġ15": 1608,
      "Ġexperience": 1609,
      "Ġmach": 1610,
      "bal": 1611,
      "org": 1612,
      "Ġisland": 1613,
      "ips": 1614,
      "Ġ2021": 1615,
      "Ġschool": 1616,
      "Ġmath": 1617,
      "Ġ//": 1618,
      "Ġpass": 1619,
      "49": 1620,
      "Ġnext": 1621,
      "iven": 1622,
      "mal": 1623,
      "Ġju": 1624,
      "60": 1625,
      "Ġaccount": 1626,
      "Ġoct": 1627,
      "ocus": 1628,
      "Ġspace": 1629,
      "ately": 1630,
      "Ġnon": 1631,
      "Ġelect": 1632,
      "37": 1633,
      "Ġair": 1634,
      "Ġeffect": 1635,
      "Ġplace": 1636,
      "omet": 1637,
      "Ġmonth": 1638,
      "Ġcookies": 1639,
      "Ġthink": 1640,
      "Ġref": 1641,
      "Ġtext": 1642,
      "Ġwithin": 1643,
      "Ġretrieved": 1644,
      "ym": 1645,
      "Ġvol": 1646,
      "uary": 1647,
      "lish": 1648,
      "ved": 1649,
      "count": 1650,
      "plement": 1651,
      "web": 1652,
      "Ġpossible": 1653,
      "45": 1654,
      "][": 1655,
      "===": 1656,
      "Ġprovide": 1657,
      "Ġport": 1658,
      "ertain": 1659,
      "cs": 1660,
      "Ġpolicy": 1661,
      "Ġbro": 1662,
      "Ġ#>": 1663,
      "Ġcheck": 1664,
      "url": 1665,
      "itor": 1666,
      "Ġtyp": 1667,
      "Ġpop": 1668,
      "Ġsince": 1669,
      "Ġapr": 1670,
      "Ġleg": 1671,
      "Ġcode": 1672,
      "Ġrequest": 1673,
      "Ġbre": 1674,
      "ober": 1675,
      "son": 1676,
      "ottom": 1677,
      "}._": 1678,
      "Ġident": 1679,
      "Ġuser": 1680,
      "Ġfollowing": 1681,
      "Ġ2020": 1682,
      "____": 1683,
      "Ġide": 1684,
      "35": 1685,
      "Ġsou": 1686,
      "Ġwords": 1687,
      "\\\"\\": 1688,
      "Ġwater": 1689,
      "block": 1690,
      "Ġname": 1691,
      "my": 1692,
      "Ġdev": 1693,
      "Ġopen": 1694,
      "menu": 1695,
      "Ġgeneral": 1696,
      "orn": 1697,
      "Ġhistory": 1698,
      "Ġblack": 1699,
      "Ġcompany": 1700,
      "Ġgame": 1701,
      "\")": 1702,
      "Ġreport": 1703,
      "Ġpersonal": 1704,
      "Ġthree": 1705,
      "].": 1706,
      "Ġprodu": 1707,
      "Ġ199": 1708,
      "apter": 1709,
      "nect": 1710,
      "align": 1711,
      "Ġterms": 1712,
      "ots": 1713,
      "Ġproducts": 1714,
      "ptember": 1715,
      "ote": 1716,
      "Ġcurrent": 1717,
      "jpg": 1718,
      "Ġ$)": 1719,
      "Ġcondition": 1720,
      "ways": 1721,
      "ones": 1722,
      "Ġgl": 1723,
      "Ġcontin": 1724,
      "Ġdid": 1725,
      "Ġsection": 1726,
      "Ġmarch": 1727,
      "Ġgroup": 1728,
      "Ġtheory": 1729,
      "vert": 1730,
      "ma": 1731,
      "watch": 1732,
      "Ġinterest": 1733,
      "Ġreview": 1734,
      "'ll": 1735,
      "Ġcontact": 1736,
      "imate": 1737,
      "77": 1738,
      "olution": 1739,
      "vg": 1740,
      "gb": 1741,
      "Ġcy": 1742,
      "Ġlangu": 1743,
      "flex": 1744,
      "Ġinc": 1745,
      "Ġlarge": 1746,
      "Ġrepresent": 1747,
      "Ġoctober": 1748,
      "Ġoffer": 1749,
      "ves": 1750,
      "Ġincluding": 1751,
      "Ġcharact": 1752,
      "af": 1753,
      "uro": 1754,
      "----": 1755,
      "Ġpack": 1756,
      "ift": 1757,
      "Ġsecond": 1758,
      "iter": 1759,
      "Ġmight": 1760,
      "Ġglo": 1761,
      "ards": 1762,
      "Ġnove": 1763,
      "Ġ14": 1764,
      "Ġnovember": 1765,
      "Ġtry": 1766,
      "55": 1767,
      "Ġstruct": 1768,
      "Ġimplement": 1769,
      "Ġapril": 1770,
      "ites": 1771,
      "ser": 1772,
      "(){": 1773,
      "gin": 1774,
      "su": 1775,
      "oph": 1776,
      "ively": 1777,
      "go": 1778,
      "bu": 1779,
      "Ġpath": 1780,
      "Ġpract": 1781,
      "32": 1782,
      "Ġbuil": 1783,
      "Ġsum": 1784,
      "Ġchange": 1785,
      "Ġauth": 1786,
      "time": 1787,
      "Ġjanuary": 1788,
      "icon": 1789,
      "por": 1790,
      "ccess": 1791,
      "Ġinvest": 1792,
      "rist": 1793,
      "Ġlat": 1794,
      "imum": 1795,
      "Ġseptember": 1796,
      "Ġstill": 1797,
      "sm": 1798,
      "Ġ%": 1799,
      "Ġweb": 1800,
      "Ġaugust": 1801,
      "Ġchang": 1802,
      "book": 1803,
      "length": 1804,
      "Ġanother": 1805,
      "ges": 1806,
      "Ġprice": 1807,
      "globo": 1808,
      "Ġnatural": 1809,
      "ysis": 1810,
      "page": 1811,
      "Ġphys": 1812,
      "ource": 1813,
      "Ġdetail": 1814,
      "ec": 1815,
      ":{": 1816,
      "Ġ??": 1817,
      "button": 1818,
      "Ġhol": 1819,
      "Ġnode": 1820,
      "Ġpres": 1821,
      "ling": 1822,
      "Ġmat": 1823,
      "https": 1824,
      "ron": 1825,
      "Ġtree": 1826,
      "89": 1827,
      "Ġes": 1828,
      "riend": 1829,
      "Ġsocial": 1830,
      "mm": 1831,
      "ision": 1832,
      "iron": 1833,
      "Ġmathemat": 1834,
      "Ġtri": 1835,
      "loc": 1836,
      "Ġdefin": 1837,
      "ateg": 1838,
      "Ġregister": 1839,
      "selector": 1840,
      "Ġcomputer": 1841,
      "Ġsal": 1842,
      "tain": 1843,
      "ipping": 1844,
      "'ve": 1845,
      "ven": 1846,
      "Ġsoft": 1847,
      "ibr": 1848,
      "Ġjune": 1849,
      "Ġhapp": 1850,
      "Ġconf": 1851,
      "ission": 1852,
      "Ġve": 1853,
      "Ġbased": 1854,
      "Ġhead": 1855,
      "ought": 1856,
      "use": 1857,
      "Ġimportant": 1858,
      "error": 1859,
      "Ġplayers": 1860,
      "atures": 1861,
      "Ġ17": 1862,
      "now": 1863,
      "Ġtable": 1864,
      "34": 1865,
      "ires": 1866,
      "ane": 1867,
      "Ġtoo": 1868,
      "light": 1869,
      "Ġsun": 1870,
      "Ġcity": 1871,
      "Ġjuly": 1872,
      "ĠÂ": 1873,
      "Ġgover": 1874,
      "mb": 1875,
      "Ġlove": 1876,
      "aterial": 1877,
      "ming": 1878,
      "cing": 1879,
      "Ġtool": 1880,
      "label": 1881,
      "Ġtrack": 1882,
      "Ġhard": 1883,
      "bru": 1884,
      "Ġgive": 1885,
      "Ġisbn": 1886,
      "iving": 1887,
      "option": 1888,
      "Ġarchived": 1889,
      "you": 1890,
      "();": 1891,
      "Ġdem": 1892,
      "Ġsystems": 1893,
      "how": 1894,
      "Ġshare": 1895,
      "Ġcir": 1896,
      "contain": 1897,
      "Ġfamily": 1898,
      "ze": 1899,
      "Ġless": 1900,
      "88": 1901,
      "rel": 1902,
      "body": 1903,
      "nav": 1904,
      "doc": 1905,
      "Ġmus": 1906,
      "Ġver": 1907,
      "aving": 1908,
      "Ġobject": 1909,
      "Ġaff": 1910,
      "link": 1911,
      "ytheme": 1912,
      "fect": 1913,
      "soci": 1914,
      "after": 1915,
      "&&(": 1916,
      "key": 1917,
      "Ġlearning": 1918,
      "weight": 1919,
      "Ġann": 1920,
      "ideo": 1921,
      "mer": 1922,
      "itive": 1923,
      "ley": 1924,
      "value": 1925,
      "ples": 1926,
      "**": 1927,
      "Ġwom": 1928,
      "Ġcreate": 1929,
      "Ġdays": 1930,
      "='": 1931,
      "Ġaf": 1932,
      "Ġold": 1933,
      "Ġgiven": 1934,
      "Ġsat": 1935,
      "Ġwindow": 1936,
      "amp": 1937,
      "Ġaround": 1938,
      "oney": 1939,
      "Ġq": 1940,
      "iod": 1941,
      "Ġbetter": 1942,
      "Ġcommunity": 1943,
      "Ġdoc": 1944,
      "bruary": 1945,
      "Ġcreat": 1946,
      "Ġprofess": 1947,
      "Ġkeep": 1948,
      "Ġfew": 1949,
      "Ġeduc": 1950,
      "Ġgovern": 1951,
      "Ġstyle": 1952,
      "no": 1953,
      "69": 1954,
      "ending": 1955,
      "199": 1956,
      "ior": 1957,
      "Ġsay": 1958,
      "bar": 1959,
      "ering": 1960,
      "Ġli": 1961,
      "Ġhuman": 1962,
      "Ġanalysis": 1963,
      "Ġwhe": 1964,
      "bed": 1965,
      "cription": 1966,
      "lete": 1967,
      "ache": 1968,
      "hip": 1969,
      "ledge": 1970,
      "Ġimp": 1971,
      "Ġimpro": 1972,
      "Ġameric": 1973,
      "Ġmo": 1974,
      "do": 1975,
      "els": 1976,
      ".;": 1977,
      "\").": 1978,
      "Ġunderstand": 1979,
      "sol": 1980,
      "Ġ2017": 1981,
      "Ġweek": 1982,
      "Ġla": 1983,
      "with": 1984,
      "75": 1985,
      "Ġ30": 1986,
      "Ġhy": 1987,
      "Ġmax": 1988,
      "vers": 1989,
      "ique": 1990,
      "off": 1991,
      "oss": 1992,
      "Ġmemory": 1993,
      "check": 1994,
      "Ġstor": 1995,
      "wrap": 1996,
      "ries": 1997,
      "Ġ2016": 1998,
      "Ġfar": 1999,
      "Ġhar": 2000,
      "ivid": 2001,
      "Ġresults": 2002,
      "icles": 2003,
      "Ġrights": 2004,
      "Ġelse": 2005,
      "none": 2006,
      "sk": 2007,
      "Ġinte": 2008,
      "atic": 2009,
      "Ġknown": 2010,
      "Ġdig": 2011,
      "ference": 2012,
      "Ġmaterial": 2013,
      "conom": 2014,
      "Ġvalues": 2015,
      "Ġimage": 2016,
      "na": 2017,
      "fil": 2018,
      "Ġdevelopment": 2019,
      "vious": 2020,
      "Ġinternational": 2021,
      "ford": 2022,
      "down": 2023,
      "mon": 2024,
      "Ġje": 2025,
      "Ġ2018": 2026,
      "Ġwhy": 2027,
      "Ġbeh": 2028,
      "ublish": 2029,
      "Ġassoci": 2030,
      "sy": 2031,
      "Ġleft": 2032,
      "aster": 2033,
      "ĠĠĠĠĠĠĠĠ": 2034,
      "Ġcover": 2035,
      "abled": 2036,
      "Ġalways": 2037,
      "ng": 2038,
      "978": 2039,
      "Ġinput": 2040,
      "ume": 2041,
      "Ġshort": 2042,
      "bottom": 2043,
      "Ġris": 2044,
      "ids": 2045,
      "Ġindust": 2046,
      "face": 2047,
      "Ġlocal": 2048,
      "31": 2049,
      "Ġca": 2050,
      "document": 2051,
      "Ġfebruary": 2052,
      "Ġmanagement": 2053,
      "eter": 2054,
      "Ġinstall": 2055,
      "Ġjour": 2056,
      "fault": 2057,
      "Ġtimes": 2058,
      "css": 2059,
      "Ġthings": 2060,
      "Ġ100": 2061,
      "query": 2062,
      "ha": 2063,
      "Ġ<#": 2064,
      "06": 2065,
      "etic": 2066,
      "span": 2067,
      "Ġant": 2068,
      "Ġlow": 2069,
      "Ġoften": 2070,
      "47": 2071,
      "87": 2072,
      "Ġvi": 2073,
      "ux": 2074,
      "ird": 2075,
      "Ġblock": 2076,
      "ration": 2077,
      "Ġbig": 2078,
      "Ġprom": 2079,
      "ules": 2080,
      "media": 2081,
      "Ġ?)": 2082,
      "Ġconnect": 2083,
      "Ġcenter": 2084,
      "Ġtrue": 2085,
      "Ġhim": 2086,
      "df": 2087,
      "Ġmedia": 2088,
      "Ġengine": 2089,
      "Ġcolor": 2090,
      "date": 2091,
      "Ġsaid": 2092,
      "Ġgrow": 2093,
      "ino": 2094,
      "Ġnear": 2095,
      "Ġsecur": 2096,
      "til": 2097,
      "hover": 2098,
      "Ġdiscuss": 2099,
      "\");": 2100,
      "Ġbar": 2101,
      "max": 2102,
      "Ġbuy": 2103,
      "Ġvers": 2104,
      "Ġphot": 2105,
      "Ġstates": 2106,
      "Ġperiod": 2107,
      "main": 2108,
      "Ġcho": 2109,
      "ither": 2110,
      "post": 2111,
      "Ġdom": 2112,
      "Ġ2015": 2113,
      "Ġsuccess": 2114,
      "Ġsingle": 2115,
      "can": 2116,
      "Ġtechnology": 2117,
      "Ġocc": 2118,
      "Ġlot": 2119,
      "Ġlanguage": 2120,
      "Ġfun": 2121,
      "Ġdra": 2122,
      "ification": 2123,
      "ĠâĢ¢": 2124,
      "Ġrequire": 2125,
      "ently": 2126,
      "Ġexpress": 2127,
      "false": 2128,
      "Ġbra": 2129,
      "ulation": 2130,
      "Ġcry": 2131,
      "Ġstre": 2132,
      "Ġcult": 2133,
      "Ġstudy": 2134,
      "her": 2135,
      "Ġred": 2136,
      "sa": 2137,
      "ours": 2138,
      "Ġ2013": 2139,
      "Ġ&&": 2140,
      "Ġsort": 2141,
      "Ġdef": 2142,
      "Ġposition": 2143,
      "ands": 2144,
      "Ġsever": 2145,
      "ape": 2146,
      "Ġappe": 2147,
      "Ġredu": 2148,
      "fort": 2149,
      "Ġ????": 2150,
      "urther": 2151,
      "true": 2152,
      "Ġsimple": 2153,
      "Ġprint": 2154,
      "reg": 2155,
      "Ġopp": 2156,
      "Ġgames": 2157,
      "Ġpm": 2158,
      "Ġcommon": 2159,
      "Ġindivid": 2160,
      "more": 2161,
      "Ġfield": 2162,
      "tra": 2163,
      "Ġbank": 2164,
      "Ġbi": 2165,
      "viron": 2166,
      "Ġcalled": 2167,
      "Ġur": 2168,
      "Ġfo": 2169,
      "edit": 2170,
      "Ġchrist": 2171,
      "ope": 2172,
      "input": 2173,
      "Ġmag": 2174,
      "iction": 2175,
      "ittle": 2176,
      "Ġparticular": 2177,
      "Ġfile": 2178,
      "elling": 2179,
      "Ġpresent": 2180,
      "Ġarea": 2181,
      "Ġsched": 2182,
      "Ġrest": 2183,
      "Ġleast": 2184,
      "ibility": 2185,
      "04": 2186,
      "Ġfigure": 2187,
      "ilar": 2188,
      "itical": 2189,
      "Ġrequired": 2190,
      "oud": 2191,
      "Ġfac": 2192,
      "08": 2193,
      "Ġ24": 2194,
      "essage": 2195,
      "Ġfriend": 2196,
      "what": 2197,
      "Ġshop": 2198,
      "elementor": 2199,
      "Ġmachine": 2200,
      "replic": 2201,
      "Ġmill": 2202,
      "Ġtoday": 2203,
      "Ġmeans": 2204,
      "Ġeconom": 2205,
      "Ġcopy": 2206,
      "Ġwa": 2207,
      "ged": 2208,
      "Ġener": 2209,
      "Ġfut": 2210,
      "ended": 2211,
      "Ġreally": 2212,
      "child": 2213,
      "Ġtot": 2214,
      "Ġnumbers": 2215,
      "ination": 2216,
      "Ġmen": 2217,
      "Ġreason": 2218,
      "erved": 2219,
      "Ġbene": 2220,
      "ese": 2221,
      "hn": 2222,
      "sl": 2223,
      "Ġgen": 2224,
      "header": 2225,
      "ined": 2226,
      "Ġdr": 2227,
      "cell": 2228,
      "ork": 2229,
      "Ġpot": 2230,
      "Ġarray": 2231,
      "Ġprivacy": 2232,
      "aim": 2233,
      "crunch": 2234,
      "'m": 2235,
      "Ġworlds": 2236,
      "Ġseason": 2237,
      "Ġfour": 2238,
      "Ġconc": 2239,
      "ources": 2240,
      "Ġfeatures": 2241,
      "Ġmatch": 2242,
      "Ġneeds": 2243,
      "Ġlive": 2244,
      "Ġcomb": 2245,
      "container": 2246,
      "Ġevents": 2247,
      "Ġable": 2248,
      "Ġphil": 2249,
      "that": 2250,
      "imal": 2251,
      "sr": 2252,
      "Ġhouse": 2253,
      "ask": 2254,
      "aps": 2255,
      "Ġturn": 2256,
      "Ġwhite": 2257,
      "ring": 2258,
      "Ġ2012": 2259,
      "Ġ50": 2260,
      "tot": 2261,
      "just": 2262,
      "Ġindividual": 2263,
      "Ġchina": 2264,
      "Ġnetwork": 2265,
      "Ġfore": 2266,
      "bit": 2267,
      "Ġarticle": 2268,
      "Ġproperty": 2269,
      "Ġdoi": 2270,
      "Ġtreat": 2271,
      "Ġpublish": 2272,
      "Ġpa": 2273,
      "Ġvisit": 2274,
      "42": 2275,
      "Ġproblems": 2276,
      "umb": 2277,
      "Ġcourse": 2278,
      "Ġnational": 2279,
      "Ġbit": 2280,
      "Ġmultip": 2281,
      "from": 2282,
      "ana": 2283,
      "Ġevent": 2284,
      "ances": 2285,
      "Ġeasy": 2286,
      "dep": 2287,
      "Ġsuper": 2288,
      "Ġcome": 2289,
      "ls": 2290,
      "Ġ2014": 2291,
      "lim": 2292,
      "Ġbenef": 2293,
      "Ġactiv": 2294,
      "[\"": 2295,
      "Ġlittle": 2296,
      "Ġmaking": 2297,
      "Ġmean": 2298,
      "Ġnever": 2299,
      "case": 2300,
      "Ġapproach": 2301,
      "ney": 2302,
      "Ġglobal": 2303,
      "Ġinclude": 2304,
      "Ġ25": 2305,
      "Ġgoing": 2306,
      "Ġpoints": 2307,
      "Ġmeas": 2308,
      "pa": 2309,
      "Ġdate": 2310,
      "Ġsure": 2311,
      "aring": 2312,
      "gra": 2313,
      "Ġwhether": 2314,
      "inary": 2315,
      "Ġens": 2316,
      "05": 2317,
      "41": 2318,
      "Ġansw": 2319,
      "Ġfeel": 2320,
      "Ġsouth": 2321,
      "void": 2322,
      "Ġcertain": 2323,
      "icro": 2324,
      "rect": 2325,
      "Ġlic": 2326,
      "Ġenviron": 2327,
      "Ġauthor": 2328,
      "Ġpp": 2329,
      "Ġpri": 2330,
      "Ġfood": 2331,
      "Ġpurch": 2332,
      "........": 2333,
      "Ġ%}": 2334,
      "Ġquick": 2335,
      "ably": 2336,
      "Ġclick": 2337,
      "Ġknowledge": 2338,
      "Ġflow": 2339,
      "Ġmor": 2340,
      "Ġmoney": 2341,
      "Ġmil": 2342,
      "Ġinstruction": 2343,
      "umn": 2344,
      "Ġbelie": 2345,
      "mit": 2346,
      "section": 2347,
      "please": 2348,
      "Ġquality": 2349,
      "Ġchapter": 2350,
      "Ġworking": 2351,
      "Ġsolution": 2352,
      "Ġpap": 2353,
      "Ġrange": 2354,
      "???": 2355,
      "Ġsoftware": 2356,
      "Ġmove": 2357,
      "usd": 2358,
      "Ġmodern": 2359,
      "obile": 2360,
      "ready": 2361,
      "anced": 2362,
      "aa": 2363,
      "Ġsecurity": 2364,
      "most": 2365,
      "Ġtraining": 2366,
      "tab": 2367,
      "Ġassign": 2368,
      "Ġface": 2369,
      "Ġmer": 2370,
      "Ġeuro": 2371,
      "Ġprob": 2372,
      "Ġnodes": 2373,
      "urs": 2374,
      "resp": 2375,
      "utions": 2376,
      "Ġedge": 2377,
      "action": 2378,
      "Ġdocument": 2379,
      "Ġvideo": 2380,
      "ides": 2381,
      "public": 2382,
      "edia": 2383,
      "').": 2384,
      "ye": 2385,
      "Ġthus": 2386,
      "Ġrom": 2387,
      "Ġamount": 2388,
      "Ġrecord": 2389,
      "nal": 2390,
      "Ġsomething": 2391,
      "Ġcommunic": 2392,
      "alt": 2393,
      "idge": 2394,
      "Ġprot": 2395,
      "Ġcharacter": 2396,
      "Ġdescri": 2397,
      "ental": 2398,
      "arget": 2399,
      "oose": 2400,
      "Ġitems": 2401,
      "@@": 2402,
      "ij": 2403,
      "Ġfurther": 2404,
      "Ġsepar": 2405,
      "enn": 2406,
      "Ġlibr": 2407,
      "ising": 2408,
      "thers": 2409,
      "Ġchildren": 2410,
      "gu": 2411,
      "gether": 2412,
      "icient": 2413,
      "mark": 2414,
      "Ġseries": 2415,
      "ised": 2416,
      "Ġexpect": 2417,
      "Ġspecific": 2418,
      "Ġinstructions": 2419,
      "acity": 2420,
      "roll": 2421,
      "Ġautom": 2422,
      "Ġstructure": 2423,
      "Ġbox": 2424,
      "Ġsimilar": 2425,
      "lose": 2426,
      "Ġagainst": 2427,
      "Ġsubs": 2428,
      "Ġwomen": 2429,
      "\"),": 2430,
      "53": 2431,
      "ention": 2432,
      "Ġland": 2433,
      "Ġenergy": 2434,
      "ables": 2435,
      "dom": 2436,
      "Ġsequ": 2437,
      "bt": 2438,
      "center": 2439,
      "Ġclos": 2440,
      "Ġyork": 2441,
      "Ġclear": 2442,
      "Ġput": 2443,
      "Ġfalse": 2444,
      "Ġul": 2445,
      "Ġfuture": 2446,
      "aces": 2447,
      "07": 2448,
      "flow": 2449,
      "anch": 2450,
      "Ġonce": 2451,
      "Ġdam": 2452,
      "Ġflo": 2453,
      "idden": 2454,
      "Ġdat": 2455,
      "Ġgovernment": 2456,
      "uk": 2457,
      "Ġcoll": 2458,
      "bra": 2459,
      "Ġseveral": 2460,
      "Ġwon": 2461,
      "Ġmiss": 2462,
      "ients": 2463,
      "Ġpain": 2464,
      "Ġsoci": 2465,
      "Ġunited": 2466,
      "Ġperformance": 2467,
      "Ġask": 2468,
      "rodu": 2469,
      "Ġaway": 2470,
      "\"]": 2471,
      "inst": 2472,
      "important": 2473,
      "Ġearly": 2474,
      "wik": 2475,
      "64": 2476,
      "ians": 2477,
      "mar": 2478,
      "Ġtre": 2479,
      "Ġfinan": 2480,
      "side": 2481,
      "Ġtax": 2482,
      "Ġeither": 2483,
      "li": 2484,
      "ply": 2485,
      "Ġsale": 2486,
      "there": 2487,
      "div": 2488,
      "jor": 2489,
      "Ġcolle": 2490,
      "cm": 2491,
      "Ġboard": 2492,
      "Ġstar": 2493,
      "ogn": 2494,
      "creen": 2495,
      "Ġclean": 2496,
      "Ġlooking": 2497,
      "word": 2498,
      "yl": 2499,
      "apan": 2500,
      "Ġapply": 2501,
      "call": 2502,
      "urance": 2503,
      "Ġadmin": 2504,
      "Ġfocus": 2505,
      "hol": 2506,
      "gh": 2507,
      "Ġlimited": 2508,
      "ctor": 2509,
      "Ġnecess": 2510,
      "Ġbelow": 2511,
      "Ġess": 2512,
      "jo": 2513,
      "site": 2514,
      "Ġ2011": 2515,
      "Ġrelations": 2516,
      "Ġdyn": 2517,
      "Ġemployee": 2518,
      "Ġtotal": 2519,
      "ica": 2520,
      "pecial": 2521,
      "Ġenc": 2522,
      "Ġenter": 2523,
      "Ġoptions": 2524,
      "73": 2525,
      "Ġlay": 2526,
      "Ġkind": 2527,
      "ung": 2528,
      "83": 2529,
      "90": 2530,
      "Ġoffice": 2531,
      "Ġmot": 2532,
      "tings": 2533,
      "Ġcut": 2534,
      "Ġpattern": 2535,
      "Ġid": 2536,
      "ili": 2537,
      "},{\"": 2538,
      "43": 2539,
      "Ġshall": 2540,
      "window": 2541,
      "Ġtogether": 2542,
      "Ġabove": 2543,
      "Ġmakes": 2544,
      "Ġfinal": 2545,
      "clus": 2546,
      "Ġacross": 2547,
      "Ġaust": 2548,
      "see": 2549,
      "{\\": 2550,
      "sch": 2551,
      "Ġlarg": 2552,
      "medi": 2553,
      "Ġconditions": 2554,
      "ada": 2555,
      "Ġperfect": 2556,
      "Ġeducation": 2557,
      "Ġdeter": 2558,
      "Ġislands": 2559,
      "self": 2560,
      "Ġill": 2561,
      "Ġmeet": 2562,
      "Ġcollection": 2563,
      "kit": 2564,
      "Ġthird": 2565,
      "Ġlabel": 2566,
      "Ġimages": 2567,
      "ille": 2568,
      "ivery": 2569,
      "Ġinit": 2570,
      "ams": 2571,
      "Ġshipping": 2572,
      "figure": 2573,
      "Ġlater": 2574,
      "Ġ<|": 2575,
      "Ġbuild": 2576,
      "active": 2577,
      "ae": 2578,
      "istic": 2579,
      "Ġplayed": 2580,
      "');": 2581,
      "iant": 2582,
      "rame": 2583,
      "inese": 2584,
      "Ġdetails": 2585,
      "85": 2586,
      "ills": 2587,
      "ories": 2588,
      "db": 2589,
      "Ġ==": 2590,
      "Ġcas": 2591,
      "Ġimprove": 2592,
      "Ġce": 2593,
      "Ġ},": 2594,
      "Ġnote": 2595,
      "Ġobs": 2596,
      "empt": 2597,
      "options": 2598,
      "ogle": 2599,
      "Ġadditional": 2600,
      "cul": 2601,
      "apt": 2602,
      "iddle": 2603,
      "ties": 2604,
      "era": 2605,
      "Ġbody": 2606,
      "ĠÂ©": 2607,
      "ii": 2608,
      "Ġever": 2609,
      "Ġoffic": 2610,
      "Ġenvironment": 2611,
      "Ġang": 2612,
      "ains": 2613,
      "Ġbound": 2614,
      "img": 2615,
      "Ġcred": 2616,
      "cor": 2617,
      "Ġcard": 2618,
      "Ġmass": 2619,
      "Ġcomplete": 2620,
      "999": 2621,
      "Ġgreen": 2622,
      "Ġbegin": 2623,
      "ceed": 2624,
      "Ġsource": 2625,
      "Ġstandard": 2626,
      "gen": 2627,
      "Ġdav": 2628,
      "cast": 2629,
      "Ġmembers": 2630,
      "Ġblog": 2631,
      "Ġgold": 2632,
      "Ġcomplet": 2633,
      "Ġcomplex": 2634,
      "02": 2635,
      "ography": 2636,
      "Ġside": 2637,
      "Ġelements": 2638,
      "uf": 2639,
      "Ġ2009": 2640,
      "Ġden": 2641,
      "Ġep": 2642,
      "Ġtravel": 2643,
      "based": 2644,
      "Ġrespons": 2645,
      "Ġwin": 2646,
      "Ġmusic": 2647,
      "Ġther": 2648,
      "Ġdue": 2649,
      "Ġwrite": 2650,
      "Ġdigital": 2651,
      "svg": 2652,
      "Ġrele": 2653,
      "Ġstep": 2654,
      "ategory": 2655,
      "600": 2656,
      "ca": 2657,
      "first": 2658,
      "uments": 2659,
      "verage": 2660,
      "Ġcur": 2661,
      "ensive": 2662,
      "Ġbecome": 2663,
      "Ġguide": 2664,
      "Ġdiscover": 2665,
      "Ġrecomm": 2666,
      "Ġusers": 2667,
      "Ġprin": 2668,
      "Ġearth": 2669,
      "Ġapplication": 2670,
      "Ġsil": 2671,
      "Ġprovided": 2672,
      ".)": 2673,
      "alf": 2674,
      "Ġfat": 2675,
      "resh": 2676,
      "Ġ????????": 2677,
      "Ġsubject": 2678,
      "03": 2679,
      "Ġfinancial": 2680,
      "Ġreserved": 2681,
      "Ġdownload": 2682,
      "rive": 2683,
      "Ġoption": 2684,
      "Ġinvol": 2685,
      "Ġmajor": 2686,
      "ving": 2687,
      "nd": 2688,
      "Ġprote": 2689,
      "Ġrespect": 2690,
      "itation": 2691,
      "Ġload": 2692,
      "Ġcra": 2693,
      "Ġreach": 2694,
      "Ġparty": 2695,
      "const": 2696,
      "ball": 2697,
      "ump": 2698,
      "84": 2699,
      "Ġconcept": 2700,
      "wrapper": 2701,
      "Ġcountry": 2702,
      "Ġchanges": 2703,
      "mo": 2704,
      "Ġmicro": 2705,
      "remove": 2706,
      "comp": 2707,
      "Ġjournal": 2708,
      "Ġword": 2709,
      "ats": 2710,
      "Ġmedic": 2711,
      "uck": 2712,
      "Ġquestion": 2713,
      "{{": 2714,
      "Ġbase": 2715,
      "Ġcollect": 2716,
      "wan": 2717,
      "65": 2718,
      "Ġsan": 2719,
      "change": 2720,
      "before": 2721,
      "Ġmulti": 2722,
      "widget": 2723,
      "nor": 2724,
      "part": 2725,
      "Ġroom": 2726,
      "Ġquestions": 2727,
      "Ġlab": 2728,
      "parent": 2729,
      "Ġrisk": 2730,
      "Ġhaving": 2731,
      "Ġ2010": 2732,
      "Ġnorth": 2733,
      "Ġmonths": 2734,
      "01": 2735,
      "Ġreceive": 2736,
      "Ġsam": 2737,
      "Ġplat": 2738,
      "Ġaccept": 2739,
      "ields": 2740,
      "Ġfront": 2741,
      "num": 2742,
      "Ġinsurance": 2743,
      "Ġsent": 2744,
      "Ġstack": 2745,
      "irm": 2746,
      "Ġinfl": 2747,
      "Ġaction": 2748,
      "Ġanaly": 2749,
      "onse": 2750,
      "ison": 2751,
      "Ġexec": 2752,
      "click": 2753,
      "Ġaud": 2754,
      "Ġalong": 2755,
      "replica": 2756,
      "Ġself": 2757,
      "Ġpark": 2758,
      "Ġweight": 2759,
      "67": 2760,
      "email": 2761,
      "ribute": 2762,
      "Ġbasic": 2763,
      "cer": 2764,
      "Ġuntil": 2765,
      "Ġsave": 2766,
      "Ġeurope": 2767,
      "ological": 2768,
      "Ġshows": 2769,
      "transform": 2770,
      "webkit": 2771,
      "')": 2772,
      "depend": 2773,
      "ler": 2774,
      "Ġprevious": 2775,
      "Ġcontains": 2776,
      "izes": 2777,
      "Ġoffers": 2778,
      "Ġ{%": 2779,
      "wards": 2780,
      "ead": 2781,
      "Ġcirc": 2782,
      "Ġrelated": 2783,
      "home": 2784,
      "Ġdone": 2785,
      "Ġothers": 2786,
      "Ġappl": 2787,
      "Ġrev": 2788,
      "Ġissues": 2789,
      "igation": 2790,
      "ags": 2791,
      "room": 2792,
      "Ġtru": 2793,
      "Ġsend": 2794,
      "ategor": 2795,
      "Ġcoun": 2796,
      "Ġalgorithms": 2797,
      "ero": 2798,
      "Ġindex": 2799,
      "bon": 2800,
      "ored": 2801,
      "Ġdelivery": 2802,
      "Ġbuilding": 2803,
      "ruction": 2804,
      "Ġblue": 2805,
      "Ġintrodu": 2806,
      "\":{\"": 2807,
      "Ġstudents": 2808,
      ":-": 2809,
      "default": 2810,
      "bre": 2811,
      "Ġchoose": 2812,
      "Ġrunning": 2813,
      "Ġpan": 2814,
      "izing": 2815,
      "300": 2816,
      "ba": 2817,
      "rams": 2818,
      "Ġsolid": 2819,
      "cp": 2820,
      "Ġrefer": 2821,
      "Ġ_": 2822,
      "Ġtypes": 2823,
      "Ġalready": 2824,
      "andom": 2825,
      "Ġrecor": 2826,
      "Ġsimply": 2827,
      "Ġnormal": 2828,
      "ban": 2829,
      "Ġprotect": 2830,
      "Ġseem": 2831,
      "Ġgir": 2832,
      "Ġdan": 2833,
      "Ġexist": 2834,
      "pol": 2835,
      "pose": 2836,
      "Ġach": 2837,
      "','": 2838,
      "car": 2839,
      "asing": 2840,
      "Ġtools": 2841,
      "Ġthought": 2842,
      "Ġfill": 2843,
      "Ġuses": 2844,
      "Ġamerican": 2845,
      "ien": 2846,
      "each": 2847,
      "Ġgod": 2848,
      "Ġemp": 2849,
      "prog": 2850,
      "Ġworks": 2851,
      "Ġlength": 2852,
      "Ġpast": 2853,
      "Ġstock": 2854,
      "Ġchinese": 2855,
      "Ġscient": 2856,
      "Ġbrand": 2857,
      "itten": 2858,
      "\";": 2859,
      "Ġwww": 2860,
      "Ġbeaut": 2861,
      "98": 2862,
      "Ġupd": 2863,
      "Ġtakes": 2864,
      "osoph": 2865,
      "Ġvia": 2866,
      "Ġchall": 2867,
      "Ġprofessional": 2868,
      "wise": 2869,
      "Ġunit": 2870,
      "Ġcore": 2871,
      "Ġlower": 2872,
      "Ġvarious": 2873,
      "Ġadminist": 2874,
      "Ġwid": 2875,
      "Ġfall": 2876,
      "Ġbrowser": 2877,
      "well": 2878,
      "Ġtradition": 2879,
      "plan": 2880,
      "airs": 2881,
      "Ġir": 2882,
      "Ġuk": 2883,
      "Ġsaf": 2884,
      "Ġpare": 2885,
      "Ġche": 2886,
      "Ġmultiple": 2887,
      "war": 2888,
      "Ġregular": 2889,
      "Ġdiff": 2890,
      "Ġfa": 2891,
      "itect": 2892,
      "nov": 2893,
      "Ġlatest": 2894,
      "Ġthough": 2895,
      "point": 2896,
      "fill": 2897,
      "Ġhot": 2898,
      "Ġteach": 2899,
      "Ġinstit": 2900,
      "Ġfire": 2901,
      "Ġjohn": 2902,
      "ype": 2903,
      "eur": 2904,
      "Ġcounty": 2905,
      "show": 2906,
      "Ġoperations": 2907,
      "];": 2908,
      "front": 2909,
      "Ġlegal": 2910,
      "Ġimpact": 2911,
      "Ġlibrary": 2912,
      "Ġfeature": 2913,
      "ilities": 2914,
      "ared": 2915,
      "Ġcannot": 2916,
      "find": 2917,
      "68": 2918,
      "Ġjapan": 2919,
      "414": 2920,
      "Ġ23": 2921,
      "Ġenough": 2922,
      "Ġmedical": 2923,
      "Ġpotential": 2924,
      "?\":\"": 2925,
      "Ġentire": 2926,
      "Ġrepublic": 2927,
      "Ġbreak": 2928,
      "ping": 2929,
      "Ġpie": 2930,
      "Ġbill": 2931,
      "52": 2932,
      "Ġlik": 2933,
      "istics": 2934,
      "Ġcorrect": 2935,
      "________": 2936,
      "Ġhom": 2937,
      "Ġfit": 2938,
      "Ġcompet": 2939,
      "\",\"?\":\"": 2940,
      "Ġjob": 2941,
      "Ġsport": 2942,
      "Ġmind": 2943,
      "ima": 2944,
      "sequ": 2945,
      "500": 2946,
      "Ġsugg": 2947,
      "ured": 2948,
      "aff": 2949,
      "idence": 2950,
      "Ġdeal": 2951,
      "Ġlocation": 2952,
      "Ġpages": 2953,
      "ises": 2954,
      "Ġcell": 2955,
      "Ġcentury": 2956,
      "Ġcryst": 2957,
      "Ġnav": 2958,
      "Ġstrong": 2959,
      "Ġprovides": 2960,
      "Ġsuggest": 2961,
      "Ġways": 2962,
      "Ġbal": 2963,
      "Ġ21": 2964,
      "when": 2965,
      "Ġtim": 2966,
      "Ġger": 2967,
      "Ġdeep": 2968,
      "Ġindic": 2969,
      "Ġtemper": 2970,
      "Ġsit": 2971,
      "Ġbad": 2972,
      "Ġcompan": 2973,
      "gl": 2974,
      "ref": 2975,
      "Ġapplications": 2976,
      "leg": 2977,
      "Ġpick": 2978,
      "ua": 2979,
      "user": 2980,
      "Ġ22": 2981,
      "Ġsec": 2982,
      "Ġeast": 2983,
      "Ġrate": 2984,
      "print": 2985,
      "Ġmarketing": 2986,
      "Ġwait": 2987,
      "ued": 2988,
      "Ġprior": 2989,
      "ators": 2990,
      "ixed": 2991,
      "focus": 2992,
      "joy": 2993,
      "Ġmich": 2994,
      "ension": 2995,
      "field": 2996,
      "aries": 2997,
      "Ġjav": 2998,
      "Ġindustry": 2999,
      "Ġdoesn": 3000,
      "plit": 3001,
      "Ġmethods": 3002,
      "cip": 3003,
      "cal": 3004,
      "Ġrole": 3005,
      "oups": 3006,
      "Ġsolutions": 3007,
      "bb": 3008,
      "tdb": 3009,
      "ari": 3010,
      "Ġmal": 3011,
      "chan": 3012,
      "Ġarg": 3013,
      "where": 3014,
      "Ġcomes": 3015,
      "Ġcentral": 3016,
      "ival": 3017,
      "Ġskin": 3018,
      "((": 3019,
      "63": 3020,
      "method": 3021,
      "products": 3022,
      "Ġenglish": 3023,
      "Ġstory": 3024,
      "open": 3025,
      "ports": 3026,
      "works": 3027,
      "Ġprograms": 3028,
      "ners": 3029,
      "Ġindepend": 3030,
      "conf": 3031,
      "Ġregist": 3032,
      "ouch": 3033,
      "aken": 3034,
      "Ġmathematics": 3035,
      "Ġvert": 3036,
      "Ġcustomer": 3037,
      "Ġessential": 3038,
      "Ġwatch": 3039,
      "Ġchem": 3040,
      "Ġdesigned": 3041,
      "Ġfund": 3042,
      "proper": 3043,
      "Ġsignific": 3044,
      "Ġrelig": 3045,
      "Ġnecessary": 3046,
      "Ġrather": 3047,
      "artment": 3048,
      "ship": 3049,
      "Ġclaim": 3050,
      "Ġneeded": 3051,
      "Ġ2008": 3052,
      "fam": 3053,
      "met": 3054,
      "Ġpers": 3055,
      "Ġdou": 3056,
      "Ġleave": 3057,
      "Ġprim": 3058,
      "ablish": 3059,
      "Ġheav": 3060,
      "Ġhours": 3061,
      "Ġversion": 3062,
      "62": 3063,
      "Ġage": 3064,
      "Ġregard": 3065,
      "Ġanswer": 3066,
      "(),": 3067,
      "Ġchoice": 3068,
      "Ġensure": 3069,
      "\\/\\/": 3070,
      "Ġachie": 3071,
      "cons": 3072,
      "social": 3073,
      "Ġque": 3074,
      "Ġafric": 3075,
      ")),": 3076,
      "aj": 3077,
      "uation": 3078,
      "bor": 3079,
      "Ġcontract": 3080,
      "Ġvalid": 3081,
      "Ġsolar": 3082,
      "bert": 3083,
      "plate": 3084,
      "ĠĠĠ": 3085,
      "ham": 3086,
      "next": 3087,
      "Ġ2007": 3088,
      "00000000": 3089,
      "Ġerror": 3090,
      "mt": 3091,
      "column": 3092,
      "eline": 3093,
      "Ġshown": 3094,
      "Ġagree": 3095,
      "Ġ});": 3096,
      "Ġpractice": 3097,
      "ders": 3098,
      "Ġchat": 3099,
      "insert": 3100,
      "Ġareas": 3101,
      "Ġpopular": 3102,
      "Ġplatform": 3103,
      "%;": 3104,
      "Ġer": 3105,
      "iday": 3106,
      "Ġrob": 3107,
      "Ġscreen": 3108,
      "Ġprocessing": 3109,
      "hel": 3110,
      "Ġ}}": 3111,
      "(\".": 3112,
      "ox": 3113,
      "wr": 3114,
      "Ġplayer": 3115,
      "cdn": 3116,
      "Ġrad": 3117,
      "Ġ40": 3118,
      "Ġinstead": 3119,
      "Ġindia": 3120,
      "ÃĹ": 3121,
      "asons": 3122,
      "unity": 3123,
      "hidden": 3124,
      "iam": 3125,
      "Ġbir": 3126,
      "aur": 3127,
      "inner": 3128,
      "pri": 3129,
      "Ġtalk": 3130,
      "Ġactually": 3131,
      "ercial": 3132,
      "Ġarchitect": 3133,
      "Ġaustral": 3134,
      "Ġcharg": 3135,
      "Ġemer": 3136,
      "95": 3137,
      "tem": 3138,
      "Ġgam": 3139,
      "used": 3140,
      "Ġsociety": 3141,
      "Ġox": 3142,
      "2023": 3143,
      "Ġbooks": 3144,
      "Ġfail": 3145,
      "Ġminimum": 3146,
      "items": 3147,
      "Ġrecords": 3148,
      "Ġsar": 3149,
      "icult": 3150,
      "Ġhost": 3151,
      "utes": 3152,
      "press": 3153,
      "Ġgeomet": 3154,
      "ender": 3155,
      "Ġclimate": 3156,
      "Ġreading": 3157,
      "Ġlinks": 3158,
      "oter": 3159,
      "Ġgoogle": 3160,
      "Ġinternet": 3161,
      "aged": 3162,
      "urrency": 3163,
      "world": 3164,
      "aiwan": 3165,
      "ging": 3166,
      "Ġyet": 3167,
      "aced": 3168,
      "Ġremov": 3169,
      "Ġsales": 3170,
      "Ġpaper": 3171,
      "Ġengineering": 3172,
      "Ġbon": 3173,
      "info": 3174,
      "node": 3175,
      "ores": 3176,
      "Ġdoing": 3177,
      "http": 3178,
      "Ġenjoy": 3179,
      "Ġstudies": 3180,
      "free": 3181,
      "Ġdog": 3182,
      "Ġphilosoph": 3183,
      "96": 3184,
      "cient": 3185,
      "74": 3186,
      "uses": 3187,
      "Ġparts": 3188,
      "queryselector": 3189,
      "--------": 3190,
      "je": 3191,
      "uff": 3192,
      "Ġintegr": 3193,
      "dd": 3194,
      "Ġ28": 3195,
      "Ġstop": 3196,
      "Ġking": 3197,
      "fff": 3198,
      "Ġbehav": 3199,
      "mission": 3200,
      "Ġwest": 3201,
      "actions": 3202,
      "Ġequal": 3203,
      "Ġissue": 3204,
      "Ġproperties": 3205,
      "Ġdavid": 3206,
      "Ġcross": 3207,
      "though": 3208,
      "Ġcomment": 3209,
      "Ġwriting": 3210,
      "';": 3211,
      "Ġfre": 3212,
      "Ġfast": 3213,
      "Ġmaterials": 3214,
      "aging": 3215,
      "phone": 3216,
      "defin": 3217,
      "Ġmount": 3218,
      "elves": 3219,
      "Ġcredit": 3220,
      "Ġcov": 3221,
      "Ġextra": 3222,
      "!==": 3223,
      "Ġnature": 3224,
      "thes": 3225,
      "Ġroad": 3226,
      "Ġoutput": 3227,
      "rench": 3228,
      "Ġpal": 3229,
      "Ġfav": 3230,
      "adem": 3231,
      "!!": 3232,
      "Ġwall": 3233,
      "ided": 3234,
      "Ġcompon": 3235,
      "Ġestablish": 3236,
      "src": 3237,
      "Ġunique": 3238,
      "Ġdisplay": 3239,
      "Ġamong": 3240,
      "gre": 3241,
      "images": 3242,
      "js": 3243,
      "Ġexact": 3244,
      "Ġthing": 3245,
      "amic": 3246,
      "Ġprem": 3247,
      "ony": 3248,
      "Ġsem": 3249,
      "ends": 3250,
      "Ġtrust": 3251,
      "dius": 3252,
      "Ġcopyright": 3253,
      "Ġbits": 3254,
      "eds": 3255,
      "Ġusually": 3256,
      "vi": 3257,
      "start": 3258,
      "Ġestate": 3259,
      "sec": 3260,
      "Ġsex": 3261,
      "Ġwritten": 3262,
      "aint": 3263,
      "72": 3264,
      "={": 3265,
      "Ġ2006": 3266,
      "Ġcreated": 3267,
      "Ġmaintain": 3268,
      "la": 3269,
      "Ġresources": 3270,
      "imation": 3271,
      "Ġamaz": 3272,
      "ufact": 3273,
      "bi": 3274,
      "best": 3275,
      "like": 3276,
      "acing": 3277,
      "Ġrecogn": 3278,
      "Ġfive": 3279,
      "Ġmiddle": 3280,
      "Ġcustomers": 3281,
      "Ġstra": 3282,
      "Ġtur": 3283,
      "aly": 3284,
      "Ġedges": 3285,
      "Ġopport": 3286,
      "limited": 3287,
      "Ġcrystal": 3288,
      "yes": 3289,
      "94": 3290,
      "mp": 3291,
      "Ġterm": 3292,
      "mas": 3293,
      "ui": 3294,
      "valid": 3295,
      "ji": 3296,
      "your": 3297,
      "Ġimm": 3298,
      "last": 3299,
      "Ġwik": 3300,
      "Ġloss": 3301,
      "Ġcloud": 3302,
      "Ġremain": 3303,
      "current": 3304,
      "Ġresponse": 3305,
      "isf": 3306,
      "Ġaverage": 3307,
      "erc": 3308,
      "Ġrich": 3309,
      "pop": 3310,
      "Ġbenefits": 3311,
      "adow": 3312,
      "Ġwhole": 3313,
      "Ġ||": 3314,
      "Ġincrease": 3315,
      "Ġbab": 3316,
      "Ġham": 3317,
      "Ġhistor": 3318,
      "file": 3319,
      "Ġhs": 3320,
      "ster": 3321,
      "Ġconsent": 3322,
      "Ġ26": 3323,
      "dict": 3324,
      "ribution": 3325,
      "Ġetc": 3326,
      "ellig": 3327,
      "Ġsets": 3328,
      "thern": 3329,
      "Ġwood": 3330,
      "'d": 3331,
      "Ġfrequ": 3332,
      "Ġpurpose": 3333,
      "Ġpurchase": 3334,
      ":[": 3335,
      "Ġsav": 3336,
      "append": 3337,
      "Ġmom": 3338,
      "itting": 3339,
      "fs": 3340,
      "Ġmessage": 3341,
      "Ġneg": 3342,
      "tw": 3343,
      "create": 3344,
      "ffer": 3345,
      "cat": 3346,
      "Ġnull": 3347,
      "Ġcompanies": 3348,
      "then": 3349,
      "Ġcalcul": 3350,
      "ga": 3351,
      "Ġimdb": 3352,
      "Ġincludes": 3353,
      "Ġdeliver": 3354,
      "totype": 3355,
      "Ġfair": 3356,
      "Ġnight": 3357,
      "family": 3358,
      "Ġheart": 3359,
      "available": 3360,
      "Ġtitle": 3361,
      "Ġdeath": 3362,
      "Ġinsert": 3363,
      "Ġexcept": 3364,
      "Ġdifficult": 3365,
      "Ġcases": 3366,
      "Ġgetting": 3367,
      "init": 3368,
      "uxury": 3369,
      "iers": 3370,
      "stat": 3371,
      "osph": 3372,
      "Ġaccor": 3373,
      "Ġassist": 3374,
      "Ġmeasure": 3375,
      "Ġoperation": 3376,
      "eth": 3377,
      "Ġefficient": 3378,
      "Ġwish": 3379,
      "Ġgot": 3380,
      "Ġinitial": 3381,
      "Ġadded": 3382,
      "Ġsqu": 3383,
      "itted": 3384,
      "Ġphysical": 3385,
      "Ġsignificant": 3386,
      "({": 3387,
      "Ġaltern": 3388,
      "irection": 3389,
      "Ġsafety": 3390,
      "unt": 3391,
      "poses": 3392,
      "ira": 3393,
      "Ġder": 3394,
      "51": 3395,
      "Ġ@": 3396,
      "Ġrgb": 3397,
      "comple": 3398,
      "control": 3399,
      "400": 3400,
      "Ġmanufact": 3401,
      "Ġaccording": 3402,
      "auto": 3403,
      "Ġtour": 3404,
      "Ġmap": 3405,
      "oper": 3406,
      "Ġdevice": 3407,
      "mat": 3408,
      "Ġprivate": 3409,
      "verse": 3410,
      "Ġeverything": 3411,
      "Ġidea": 3412,
      "Ġseen": 3413,
      "\":\"\",\"": 3414,
      "oring": 3415,
      "Ġunlimited": 3416,
      "Ġrout": 3417,
      "har": 3418,
      "Ġmillion": 3419,
      "Ġconsum": 3420,
      "itter": 3421,
      "high": 3422,
      "pdf": 3423,
      "Ġmechan": 3424,
      "Ġedition": 3425,
      "dr": 3426,
      "Ġ32": 3427,
      "board": 3428,
      "Ġjew": 3429,
      "Ġprefer": 3430,
      "}},": 3431,
      "Ġframe": 3432,
      "cean": 3433,
      "Ġheight": 3434,
      "Ġphone": 3435,
      "Ġliving": 3436,
      "Ġbecom": 3437,
      "Ġhor": 3438,
      "Ġbib": 3439,
      "char": 3440,
      "prototype": 3441,
      "pecially": 3442,
      "Ġfeed": 3443,
      "Ġagre": 3444,
      "feature": 3445,
      "Ġdefinition": 3446,
      "copy": 3447,
      "ny": 3448,
      "Ġrandom": 3449,
      "Ġsell": 3450,
      "Ġ;": 3451,
      "Ġcorresp": 3452,
      "Ġplanet": 3453,
      "gs": 3454,
      "Ġdatab": 3455,
      "Ġdest": 3456,
      "Ġhttp": 3457,
      "Ġwalk": 3458,
      "Ġsomeone": 3459,
      "many": 3460,
      "Ġbroad": 3461,
      "ivity": 3462,
      "Ġtherefore": 3463,
      "Ġallows": 3464,
      "Ġconcern": 3465,
      "Ġstarted": 3466,
      "Ġstorage": 3467,
      "Ġtell": 3468,
      "Ġclose": 3469,
      "Ġsound": 3470,
      "eless": 3471,
      "oll": 3472,
      "Ġtransl": 3473,
      "aily": 3474,
      "Ġconstant": 3475,
      "rial": 3476,
      "ris": 3477,
      "ressive": 3478,
      "Ġobjects": 3479,
      "Ġrules": 3480,
      "2013": 3481,
      "Ġtips": 3482,
      "rest": 3483,
      "Ġgroups": 3484,
      "Ġoptim": 3485,
      "fully": 3486,
      "ometimes": 3487,
      "hi": 3488,
      "miss": 3489,
      "ished": 3490,
      "words": 3491,
      "Ġbranch": 3492,
      "Ġdecision": 3493,
      "Ġhappen": 3494,
      "gener": 3495,
      "Ġpsy": 3496,
      "Ġef": 3497,
      "Ġsens": 3498,
      "Ġvac": 3499,
      "Ġculture": 3500,
      "##": 3501,
      "Ġcou": 3502,
      "Ġdirectly": 3503,
      "110": 3504,
      "Ġfunctions": 3505,
      "Ġsong": 3506,
      "Ġimmedi": 3507,
      "Ġalthough": 3508,
      "Ġconsist": 3509,
      "Ġ27": 3510,
      "Ġpayment": 3511,
      "Ġcookie": 3512,
      "Ġmaximum": 3513,
      "gi": 3514,
      "Ġasse": 3515,
      "Ġassess": 3516,
      "Ġhigher": 3517,
      "Ġwash": 3518,
      "97": 3519,
      "dem": 3520,
      "Ġcris": 3521,
      "${": 3522,
      "ements": 3523,
      "letter": 3524,
      "Ġremove": 3525,
      "ken": 3526,
      "some": 3527,
      "anc": 3528,
      "Ġideas": 3529,
      "buil": 3530,
      "care": 3531,
      "drop": 3532,
      "ef": 3533,
      "Ġcommercial": 3534,
      "Ġpict": 3535,
      "Ġconsidered": 3536,
      "Ġsequence": 3537,
      "Ġpsych": 3538,
      "Ġ2000": 3539,
      "Ġproof": 3540,
      "hand": 3541,
      "antity": 3542,
      "Ġ===": 3543,
      "Ġcycle": 3544,
      "Ġimplementation": 3545,
      "ael": 3546,
      "Ġmis": 3547,
      "comput": 3548,
      "Ġinflu": 3549,
      "Ġadvert": 3550,
      "Ġcompar": 3551,
      "Ġproduction": 3552,
      "agram": 3553,
      "string": 3554,
      "Ġtaken": 3555,
      "Ġsays": 3556,
      "variant": 3557,
      "Ġarticles": 3558,
      "ville": 3559,
      "Ġintellig": 3560,
      "Ġforward": 3561,
      "onom": 3562,
      "Ġfra": 3563,
      "Ġacadem": 3564,
      "Ġpublished": 3565,
      "gest": 3566,
      "dark": 3567,
      "Ġswe": 3568,
      "estern": 3569,
      "clos": 3570,
      "Ġmatter": 3571,
      "mult": 3572,
      "Ġmobile": 3573,
      "Ġliter": 3574,
      "-.": 3575,
      "Ġful": 3576,
      "table": 3577,
      "Ġrequires": 3578,
      "=/": 3579,
      "Ġcourt": 3580,
      "Ġmember": 3581,
      "Ġcommunication": 3582,
      "Ġtemperature": 3583,
      ")}.": 3584,
      "Ġorganization": 3585,
      "math": 3586,
      "atter": 3587,
      "Ġverified": 3588,
      "property": 3589,
      "Ġled": 3590,
      "Ġcorpor": 3591,
      "custom": 3592,
      "Ġrock": 3593,
      "ream": 3594,
      "enc": 3595,
      "force": 3596,
      "Ġaffect": 3597,
      "spe": 3598,
      "Ġai": 3599,
      "Ġeth": 3600,
      "ste": 3601,
      "Ġwide": 3602,
      "ils": 3603,
      "displaystyle": 3604,
      "Ġ\\/": 3605,
      "eral": 3606,
      "Ġmac": 3607,
      "Ġnam": 3608,
      "Ġpolitical": 3609,
      "test": 3610,
      "Ġgree": 3611,
      "Ġcollege": 3612,
      "fol": 3613,
      "under": 3614,
      "Ġround": 3615,
      "Ġnotice": 3616,
      "vant": 3617,
      "zz": 3618,
      "Ġfriends": 3619,
      "ama": 3620,
      "Ġassume": 3621,
      "object": 3622,
      "Ġveh": 3623,
      "rant": 3624,
      "description": 3625,
      "Ġrecommend": 3626,
      "gment": 3627,
      "Ġcert": 3628,
      "Ġspeed": 3629,
      "Ġsle": 3630,
      "lin": 3631,
      "Ġconne": 3632,
      "hr": 3633,
      "Ġtren": 3634,
      "Ġwed": 3635,
      "year": 3636,
      "erve": 3637,
      "Ġparticip": 3638,
      "kn": 3639,
      "Ġbur": 3640,
      "else": 3641,
      "Ġbring": 3642,
      "Ġprogramming": 3643,
      "Ġpurposes": 3644,
      "istry": 3645,
      "Ġavoid": 3646,
      "Ġmodels": 3647,
      "asy": 3648,
      "ession": 3649,
      "arily": 3650,
      "cel": 3651,
      "mi": 3652,
      "Ġtaking": 3653,
      "Ġcat": 3654,
      "Ġfields": 3655,
      "selected": 3656,
      "radius": 3657,
      "82": 3658,
      "cid": 3659,
      "Ġusd": 3660,
      "transl": 3661,
      "Ġappear": 3662,
      "Ġtarget": 3663,
      "atory": 3664,
      "Ġstrateg": 3665,
      "ees": 3666,
      "Ġsense": 3667,
      "Ġfant": 3668,
      "bd": 3669,
      "dra": 3670,
      "Ġhalf": 3671,
      "articles": 3672,
      "Ġstay": 3673,
      ",[": 3674,
      "cache": 3675,
      "share": 3676,
      "Ġdaily": 3677,
      "Ġ29": 3678,
      "ogg": 3679,
      "Ġespecially": 3680,
      "ols": 3681,
      "rix": 3682,
      "Ġtransfer": 3683,
      "equ": 3684,
      "has": 3685,
      "Ġtaiwan": 3686,
      "array": 3687,
      "ondon": 3688,
      "?\"": 3689,
      "Ġcache": 3690,
      "location": 3691,
      "Ġofficial": 3692,
      "hist": 3693,
      "ude": 3694,
      "Ġsoon": 3695,
      "Ġassum": 3696,
      "Ġstored": 3697,
      "Ġpcs": 3698,
      "white": 3699,
      "++": 3700,
      "Ġsans": 3701,
      "Ġ${": 3702,
      "Ġtheore": 3703,
      "Ġmist": 3704,
      "Ġgard": 3705,
      "Ġdraw": 3706,
      "iable": 3707,
      "Ġgar": 3708,
      "Ġbrit": 3709,
      "istan": 3710,
      "solute": 3711,
      "Ġvir": 3712,
      "Ġfoot": 3713,
      "Ġlicense": 3714,
      "Ġtraditional": 3715,
      ";-": 3716,
      "Ġcompl": 3717,
      "Ġrepair": 3718,
      "Ġmathematical": 3719,
      "posed": 3720,
      "Ġroman": 3721,
      "</": 3722,
      "pm": 3723,
      "Ġsports": 3724,
      "Ġjack": 3725,
      "osp": 3726,
      "Ġlikely": 3727,
      "rict": 3728,
      "arant": 3729,
      "Ġgas": 3730,
      "note": 3731,
      "????????????????": 3732,
      "ters": 3733,
      "âĨ": 3734,
      "Ġsn": 3735,
      "Ġboo": 3736,
      "Ġtypically": 3737,
      "âĨĴ": 3738,
      "Ġlinear": 3739,
      "ube": 3740,
      "Ġsafe": 3741,
      "Ġobtain": 3742,
      "Ġcurrently": 3743,
      "\"===": 3744,
      "wood": 3745,
      "enabled": 3746,
      "Ġbed": 3747,
      "Ġhold": 3748,
      "Ġsymb": 3749,
      "Ġdevices": 3750,
      "uel": 3751,
      "Ġlonger": 3752,
      "['": 3753,
      "Ġtv": 3754,
      "Ġroot": 3755,
      "Ġsatisf": 3756,
      "Ġmedicine": 3757,
      "ellow": 3758,
      "Ġcasino": 3759,
      "Ġprevent": 3760,
      "Ġlaunch": 3761,
      "Ġindependent": 3762,
      "Ġcharacters": 3763,
      "ategories": 3764,
      "Ġstatement": 3765,
      "Ġexamples": 3766,
      "},\"": 3767,
      "Ġprocessor": 3768,
      "Ġeveryone": 3769,
      "iance": 3770,
      "sey": 3771,
      "lying": 3772,
      "Ġcontinue": 3773,
      "pn": 3774,
      "Ġcategory": 3775,
      "1909": 3776,
      "Ġpromot": 3777,
      "eks": 3778,
      "Ġfilter": 3779,
      "ao": 3780,
      "Ġeval": 3781,
      "arm": 3782,
      "Ġselection": 3783,
      "Ġdirector": 3784,
      "bur": 3785,
      "sign": 3786,
      "Ġpen": 3787,
      "Ġben": 3788,
      "Ġreplace": 3789,
      "rat": 3790,
      "ternal": 3791,
      "Ġfacebook": 3792,
      ":!": 3793,
      "gar": 3794,
      "exam": 3795,
      "Ġtrade": 3796,
      "('.": 3797,
      "han": 3798,
      "aling": 3799,
      "Ġded": 3800,
      "Ġinstance": 3801,
      "iques": 3802,
      "Ġproviding": 3803,
      "here": 3804,
      "};": 3805,
      "Ġcru": 3806,
      "itable": 3807,
      "Ġcrisis": 3808,
      "sim": 3809,
      "ried": 3810,
      "Ġtreatment": 3811,
      "result": 3812,
      "cles": 3813,
      "astic": 3814,
      "61": 3815,
      "pay": 3816,
      "ialog": 3817,
      "Ġgeometry": 3818,
      "urch": 3819,
      "tim": 3820,
      "Ġcause": 3821,
      "Ġfish": 3822,
      "ascript": 3823,
      "Ġstage": 3824,
      "Ġsup": 3825,
      "Ġitself": 3826,
      "Ġsometimes": 3827,
      "Ġlock": 3828,
      "Ġbuilt": 3829,
      "Ġapprox": 3830,
      "Ġcosts": 3831,
      "Ġprotection": 3832,
      "':": 3833,
      "replace": 3834,
      "eles": 3835,
      "Ġdepartment": 3836,
      "iful": 3837,
      "Ġalmost": 3838,
      "Ġexchange": 3839,
      "wp": 3840,
      "Ġbud": 3841,
      "Ġspring": 3842,
      "que": 3843,
      "Ġparam": 3844,
      "Ġelectric": 3845,
      "bc": 3846,
      "cret": 3847,
      "gree": 3848,
      "message": 3849,
      "ria": 3850,
      "Ġauto": 3851,
      "Ġdise": 3852,
      "Ġsho": 3853,
      "aker": 3854,
      "map": 3855,
      "Ġpet": 3856,
      "olf": 3857,
      "Ġven": 3858,
      "ipedia": 3859,
      "Ġswitch": 3860,
      "Ġexpert": 3861,
      "Ġcop": 3862,
      "opacity": 3863,
      "Ġanything": 3864,
      "itary": 3865,
      "Ġrot": 3866,
      "Ġviol": 3867,
      "Ġconsult": 3868,
      "Ġrevolution": 3869,
      "Ġdriv": 3870,
      "Ġrule": 3871,
      "osing": 3872,
      "Ġcommit": 3873,
      "sat": 3874,
      "Ġfed": 3875,
      "outh": 3876,
      "Ġaccur": 3877,
      "Ġincluded": 3878,
      "asa": 3879,
      "Ġcapt": 3880,
      "Ġquite": 3881,
      "hy": 3882,
      "selling": 3883,
      "uration": 3884,
      "abor": 3885,
      "Ġexerc": 3886,
      "Ġ60": 3887,
      "Ġrelease": 3888,
      "Ġplus": 3889,
      "auth": 3890,
      "Ġuseful": 3891,
      "Ġbelieve": 3892,
      "Ġdetermin": 3893,
      "cribe": 3894,
      "footer": 3895,
      "Ġassociated": 3896,
      "Ġforum": 3897,
      "event": 3898,
      "Ġthroughout": 3899,
      "800": 3900,
      "cho": 3901,
      "Ġlinked": 3902,
      "Ġprobably": 3903,
      "Ġbibcode": 3904,
      "]:": 3905,
      "ius": 3906,
      "Ġbinary": 3907,
      "ushima": 3908,
      "bury": 3909,
      "imens": 3910,
      "Ġchalleng": 3911,
      "Ġdesigners": 3912,
      "design": 3913,
      "Ġdecl": 3914,
      "Ġdescribed": 3915,
      "ky": 3916,
      "path": 3917,
      "omial": 3918,
      "ĠÂ·": 3919,
      "293": 3920,
      "cook": 3921,
      "Ġciv": 3922,
      "ipment": 3923,
      "Ġprojects": 3924,
      "Ġrequirements": 3925,
      "hu": 3926,
      "Ġearn": 3927,
      "Ġlondon": 3928,
      "Ġunderstanding": 3929,
      "house": 3930,
      "Ġ]": 3931,
      "Ġdie": 3932,
      "vey": 3933,
      "Ġdistrict": 3934,
      "Ġconnected": 3935,
      "Ġdatabase": 3936,
      "hib": 3937,
      "Ġconference": 3938,
      "Ġotherwise": 3939,
      "nam": 3940,
      "Ġmess": 3941,
      "){.": 3942,
      "Ġpositive": 3943,
      "model": 3944,
      "sor": 3945,
      "Ġcart": 3946,
      "number": 3947,
      "Ġweeks": 3948,
      "Ġdeals": 3949,
      "Ġnetworks": 3950,
      "wa": 3951,
      "xx": 3952,
      "Ġocean": 3953,
      "ifts": 3954,
      "Ġreflect": 3955,
      "93": 3956,
      "]=": 3957,
      "Ġice": 3958,
      "Ġgift": 3959,
      "unic": 3960,
      "country": 3961,
      "Ġgrowth": 3962,
      "................": 3963,
      "(.": 3964,
      "bridge": 3965,
      "small": 3966,
      "Ġprinci": 3967,
      "Ġgirls": 3968,
      "pal": 3969,
      "Ġmid": 3970,
      "ici": 3971,
      "iforn": 3972,
      "Ġeffective": 3973,
      "Ġpip": 3974,
      "level": 3975,
      "Ġdefined": 3976,
      "81": 3977,
      "compare": 3978,
      "gypt": 3979,
      "api": 3980,
      "Ġability": 3981,
      "Ġmoving": 3982,
      "soft": 3983,
      "tabushima": 3984,
      "190925": 3985,
      "togg": 3986,
      "Ġorders": 3987,
      "Ġ67": 3988,
      "transition": 3989,
      "Â©": 3990,
      "Ġmaster": 3991,
      "Ġdiscount": 3992,
      "Ġcamera": 3993,
      "Ġproceed": 3994,
      "Ġcanada": 3995,
      "Ġterr": 3996,
      "Ġcreative": 3997,
      "Ġlevels": 3998,
      "@@@@": 3999,
      "wiki": 4000,
      "while": 4001,
      "Ġball": 4002,
      "Ġinnov": 4003,
      "Ġdoor": 4004,
      "module": 4005,
      "filter": 4006,
      "Ġisn": 4007,
      "Ġwrong": 4008,
      "Ġadvant": 4009,
      "yer": 4010,
      "\":[": 4011,
      "featured": 4012,
      "Ġsix": 4013,
      "Ġlate": 4014,
      "Ġconduct": 4015,
      "Ġregistered": 4016,
      "card": 4017,
      "Ġneigh": 4018,
      "Ġpolyn": 4019,
      "Ġhighly": 4020,
      "Ġdeveloped": 4021,
      "Ġdidn": 4022,
      "ya": 4023,
      "plication": 4024,
      "Ġpair": 4025,
      "Ġstaff": 4026,
      "Ġjer": 4027,
      "Ġsciences": 4028,
      "Ġinstallation": 4029,
      "yond": 4030,
      "Ġqual": 4031,
      "system": 4032,
      "mine": 4033,
      "Ġloop": 4034,
      "Ġapplied": 4035,
      "Ġfavor": 4036,
      "zer": 4037,
      "Ġborder": 4038,
      "Ġvs": 4039,
      "Ġskills": 4040,
      "Ġselected": 4041,
      "mbly": 4042,
      "Ġrent": 4043,
      "Ġyes": 4044,
      "Ġfiles": 4045,
      "Ġleaders": 4046,
      "aneous": 4047,
      "orig": 4048,
      "Ġaustralia": 4049,
      "Ġdescription": 4050,
      "Ġpartners": 4051,
      "Ġsurface": 4052,
      "Ġelectron": 4053,
      "Ġannoun": 4054,
      ",._": 4055,
      "Ġut": 4056,
      "Ġemployer": 4057,
      "Ġschedule": 4058,
      "gebra": 4059,
      "Ġcontext": 4060,
      "Ġupon": 4061,
      "lebr": 4062,
      "ico": 4063,
      "agement": 4064,
      "Ġwhose": 4065,
      "Ġgreater": 4066,
      "Ġquickly": 4067,
      "clusive": 4068,
      "Ġsubsection": 4069,
      "Ġurl": 4070,
      "ĠÎ": 4071,
      "Ġ()": 4072,
      "ago": 4073,
      "Ġguarant": 4074,
      "Ġwent": 4075,
      "Ġyourself": 4076,
      "listing": 4077,
      "Ġdiam": 4078,
      "inos": 4079,
      "star": 4080,
      "Ġlean": 4081,
      "ption": 4082,
      "Ġinterview": 4083,
      "Ġprec": 4084,
      "Ġregion": 4085,
      ")},": 4086,
      "pan": 4087,
      "Ġii": 4088,
      "Ġbutton": 4089,
      "Ġready": 4090,
      "Ġinvestment": 4091,
      "Ġht": 4092,
      "Ġrecent": 4093,
      "attribute": 4094,
      "Ġeasily": 4095
    },
    "merges": [
      "Ġ t",
      "Ġ a",
      "i n",
      "e r",
      "o n",
      "Ġt h",
      "r e",
      "Ġ s",
      "Ġ c",
      "a t",
      "o r",
      "e n",
      "Ġth e",
      "e s",
      "i t",
      "Ġ p",
      "i s",
      "a n",
      "Ġ w",
      "a l",
      "Ġ o",
      "Ġ f",
      "Ġ b",
      "a r",
      "Ġ m",
      "e d",
      "in g",
      "o u",
      "l e",
      "Ġa n",
      "Ġ d",
      "i on",
      "i c",
      "Ġ in",
      "Ġ h",
      "Ġt o",
      "Ġo f",
      "r o",
      "Ġan d",
      "a s",
      "Ġ n",
      "c t",
      "en t",
      "Ġ e",
      "Ġ l",
      "t h",
      "o m",
      "Ġ re",
      "s t",
      "i l",
      "c h",
      "Ġ g",
      "e l",
      "Ġ (",
      "e t",
      "o l",
      "i d",
      "i m",
      "Ġ y",
      "Ġ u",
      "i g",
      "0 0",
      "Ġ is",
      "u r",
      "v e",
      "r a",
      "at ion",
      "s e",
      "c e",
      "u t",
      "Ġf or",
      "o w",
      "Ġy ou",
      "Ġ 2",
      "o t",
      "a y",
      "a m",
      "Ġs t",
      "Ġ on",
      "Ġ 1",
      "l y",
      "Ġ v",
      "i f",
      "a d",
      "er s",
      "Ġb e",
      "e m",
      "it h",
      "a g",
      "Ġp ro",
      "u l",
      "i r",
      "u n",
      "t er",
      "o d",
      "Ġc on",
      "a b",
      "Ġw h",
      "Ġa l",
      "Ġth at",
      "Ġ it",
      "? ?",
      "Ġ .",
      "o p",
      "u m",
      "v er",
      "Ġw ith",
      "Ġa s",
      "c k",
      "Ġ r",
      "q u",
      "u s",
      "Ġ or",
      "h t",
      "is t",
      "es t",
      "Ġ j",
      "es s",
      "Ġw e",
      "r i",
      "Ġc om",
      "p l",
      "Ġc h",
      "ct ion",
      "at e",
      "Ġs e",
      ", \"",
      "Ġ k",
      "re s",
      "Ġn e",
      "Ġ -",
      "m ent",
      "an d",
      "Ġe x",
      "Ġa re",
      "Ġ2 0",
      "il l",
      "a p",
      "Ġd e",
      "i v",
      "o s",
      "o re",
      "Ġth is",
      "it y",
      "Ġs h",
      "en d",
      "p e",
      "ou n",
      "ig ht",
      "Ġs u",
      "e x",
      ". .",
      "Ġ i",
      "f or",
      "' s",
      "er e",
      "\" :",
      "an t",
      "ro m",
      "a in",
      "ar t",
      "Ġ \"",
      "i es",
      "Ġb y",
      "a k",
      "i ve",
      "l o",
      "c om",
      "Ġyou r",
      "Ġ le",
      "Ġu n",
      "Ġc an",
      "or t",
      "Ġa t",
      "l d",
      "al l",
      "c i",
      "ag e",
      "in e",
      "Ġu s",
      "p t",
      "p er",
      "g e",
      "u st",
      "u re",
      "a ve",
      "Ġf rom",
      "Ġn ot",
      "\" ,\"",
      "o g",
      "b er",
      "Ġw or",
      ") .",
      "Ġa r",
      "i z",
      "i e",
      "Ġp l",
      "Ġa d",
      "p p",
      "2 0",
      "d er",
      "o o",
      "a c",
      "a ck",
      "ar d",
      "th er",
      "r u",
      "i a",
      "Ġcom p",
      "a ch",
      "c on",
      "a re",
      "c l",
      "y b",
      "ic al",
      "ab le",
      "o st",
      "u d",
      "for m",
      "a il",
      "o f",
      "ic e",
      "Ġh ave",
      "an s",
      "Ġal l",
      "ou t",
      "ig n",
      "it e",
      "in d",
      "ou r",
      "Ġ 3",
      "Ġh e",
      "as s",
      "Ġd o",
      "Ġc l",
      "Ġ if",
      "Ġcon t",
      "el l",
      "ar y",
      "Ġ20 1",
      "Ġ im",
      "th e",
      "00 3",
      "ex t",
      "id e",
      "Ġ en",
      "it ion",
      "a v",
      "e ct",
      "d u",
      "ul t",
      ") ,",
      "i re",
      "Ġ =",
      "as t",
      "Ġ 0",
      "om e",
      "i p",
      "as e",
      "?? ??",
      "i b",
      "Ġw ill",
      "c c",
      "r y",
      "en ce",
      "Ġa b",
      ") ;",
      "oo k",
      "u b",
      "on e",
      "1 0",
      "a ct",
      "Ġre s",
      "u e",
      "w e",
      "p h",
      "Ġ ?",
      "Ġ 4",
      "p ro",
      "at ed",
      "Ġm e",
      "ic h",
      "i al",
      "ation s",
      "oun d",
      "i k",
      "am e",
      "Ġne w",
      "Ġs o",
      "t o",
      "f er",
      "Ġw as",
      "p x",
      "ou ld",
      "Ġ {",
      "an ce",
      "im e",
      "s o",
      "in t",
      "Ġ 5",
      "at h",
      "at a",
      "Ġ Ġ",
      "un ction",
      "f f",
      "9 9",
      "s h",
      "p le",
      "a ce",
      "Ġ 6",
      "re e",
      "\": \"",
      "u al",
      "or y",
      "res s",
      "Ġd is",
      "ion s",
      "p s",
      "o c",
      "an g",
      "Ġs p",
      "Ġ &",
      "Ġm ore",
      "on g",
      "oun t",
      "\\ \"",
      "t ext",
      "Ġo ur",
      "ou s",
      "Ġ ro",
      "2 3",
      "Ġg o",
      "Ġb ut",
      "is h",
      "Ġe m",
      "le ct",
      "Ġh as",
      "Ġ qu",
      "d e",
      "m s",
      "Ġthe y",
      "ar ch",
      "Ġm an",
      "ur n",
      "er v",
      "ou g",
      "i le",
      "Ġo ut",
      "Ġn o",
      "Ġf e",
      "Ġin ter",
      "c ol",
      "Ġp er",
      "1 1",
      "Ġd es",
      "Ġ $",
      "re n",
      "Ġon e",
      "\\ /",
      "- -",
      "Ġu p",
      "ar k",
      "ak e",
      "t e",
      "n e",
      "Ġt e",
      "Ġan y",
      "Ġt ra",
      "en s",
      "\" ,",
      "ent s",
      "ic k",
      "ow n",
      "Ġ |",
      "Ġ }",
      "v el",
      "} .",
      "in k",
      "ci al",
      "p ort",
      "d s",
      "a u",
      "Ġm ay",
      "Ġwh ich",
      "Ġthe ir",
      "b s",
      "Ġp re",
      "or s",
      "t y",
      "th is",
      "Ġp art",
      "Ġs ome",
      "p r",
      "Ġc ol",
      "/ /",
      "Ġe v",
      "1 2",
      "1 9",
      "Ġt ime",
      "od e",
      "Ġt r",
      "Ġwor k",
      "Ġcom m",
      "Ġa m",
      "Ġh ow",
      "Ġp r",
      "ic s",
      "w w",
      "h e",
      "du ct",
      "Ġa cc",
      "Ġo ther",
      "oug h",
      "Ġin st",
      ") {",
      "Ġs y",
      "o v",
      "Ġad d",
      "Ġth ere",
      "el y",
      "ing s",
      "y s",
      "2 2",
      "ra m",
      "l ow",
      "Ġu se",
      "c ess",
      "Ġp h",
      "1 6",
      "ie w",
      "i an",
      "on t",
      "' t",
      "ar g",
      "Ġd ata",
      "= =",
      "Ġin d",
      "c re",
      "1 5",
      "Ġv al",
      "b o",
      "Ġa g",
      "iz e",
      "Ġs pe",
      "t urn",
      "Ġre g",
      "c es",
      "Ġab out",
      "e ar",
      "er y",
      "Ġal so",
      "Ġ 7",
      "Ġs et",
      "ro w",
      "00 0",
      "1 4",
      "Ġ '",
      "Ġb o",
      "le ment",
      ".. .",
      "re at",
      "er t",
      "( \"",
      "ig h",
      "Ġa pp",
      "ir st",
      "2 5",
      "ay s",
      "v ar",
      "b le",
      "d ing",
      "Ġcon s",
      "1 3",
      "ul l",
      "_ _",
      "Ġk n",
      "o ver",
      "a x",
      "Ġwh en",
      "Ġne ed",
      "at ch",
      "ik e",
      "Ġ ed",
      "l ine",
      "Ġt w",
      "ol og",
      "Ġ ra",
      "o ve",
      "f t",
      "at es",
      "g r",
      "Ġs erv",
      "w or",
      "Ġth an",
      "Ġit s",
      "j ect",
      "ub l",
      "f unction",
      "w h",
      "Ġ x",
      "col or",
      "st em",
      "Ġg et",
      "Ġn um",
      "Ġm od",
      "a w",
      "at er",
      "Ġthe se",
      "con t",
      "Ġwh at",
      "Ġp ol",
      "Ġm y",
      "Ġpro v",
      "1 8",
      "Ġa p",
      "b e",
      "c ri",
      "Ġk e",
      "Ġwh o",
      "Ġh el",
      "ic es",
      "b ut",
      "al ly",
      "ar n",
      "Ġp o",
      "Ġwor ld",
      "Ġ1 0",
      "Ġb r",
      "Ġs ol",
      "ic t",
      "Ġo ver",
      "l es",
      "is s",
      "Ġre c",
      "form ation",
      "Ġp e",
      "w id",
      "Ġ 8",
      "if ic",
      "Ġ1 9",
      "< |",
      "end of",
      "| >",
      "endof text",
      "en er",
      "Ġf irst",
      "f ter",
      "pl ic",
      "ag es",
      "Ġ2 00",
      "Ġof f",
      "il d",
      "en g",
      "Ġpl ay",
      "Ġv ar",
      "Ġre qu",
      "Ġon ly",
      "ver y",
      "c y",
      "Ġre l",
      "Ġb u",
      "} }",
      "on s",
      "cl ud",
      "ib le",
      "Ġsu b",
      "Ġg r",
      ". [",
      "Ġun der",
      "Ġdes ign",
      "Ġsy stem",
      "e p",
      "il ity",
      "pl ay",
      "ation al",
      "p os",
      "6 6",
      "d is",
      "Ġb et",
      "Ġ +",
      "t r",
      "5 0",
      ": //",
      "1 7",
      "Ġin formation",
      "g et",
      "m an",
      "Ġ #",
      "it s",
      "p ut",
      "Ġ /",
      "Ġthe m",
      "s s",
      "l and",
      "u g",
      "u p",
      "Ġin to",
      "3 3",
      "at ing",
      "ra ph",
      "ap p",
      "l ed",
      "Ġy ear",
      "m l",
      "Ġcl ass",
      "is e",
      "Ġg u",
      "Ġtw o",
      "an ge",
      "Ġm ost",
      "o y",
      "Ġp os",
      "Ġas s",
      "o b",
      "i ed",
      "Ġs ch",
      "v al",
      "Ġ [",
      "Ġth en",
      "Ġb l",
      "Ġs im",
      "Ġtr ans",
      "Ġs m",
      "Ġar t",
      "Ġa c",
      "t on",
      "Ġd if",
      "Ġl ike",
      "Ġe ach",
      "2 4",
      "Ġh igh",
      "at ive",
      "g or",
      "= \\\"",
      "m in",
      "Ġc o",
      "Ġ. _",
      "le t",
      "o se",
      "f ore",
      "Ġsu ch",
      "it ed",
      "Ġf unction",
      "a ir",
      "v iew",
      "s p",
      "al e",
      "ul ar",
      "Ġh is",
      "& &",
      "Ġ 9",
      "Ġpro g",
      "Ġ z",
      "m ed",
      ". ,",
      "Ġw ere",
      "Ġbe en",
      "wid th",
      "\" .",
      "Ġw ould",
      "Ġpro cess",
      "e v",
      "i o",
      "it t",
      "ow er",
      "c ed",
      "Ġs c",
      "t t",
      "in al",
      "Ġm ed",
      "ction s",
      "Ġ ent",
      "t d",
      "k s",
      "au se",
      "Ġa ct",
      "Ġre ad",
      "Ġ <",
      "u res",
      "2 1",
      "Ġb us",
      "pe ct",
      "l l",
      "lo ck",
      "it ies",
      "i ous",
      "k e",
      "Ġfor m",
      "Ġre p",
      "Ġus ed",
      "Ġin clud",
      "il y",
      "Ġc re",
      "i el",
      "ers on",
      "Ġt y",
      "ĠĠ ĠĠ",
      "al s",
      "Ġst ud",
      "ra ct",
      "n ot",
      "Ġb as",
      "se arch",
      "op le",
      "i x",
      "y le",
      "Ġsu pp",
      "ubl ic",
      "Ġc ent",
      "Ġm ake",
      "in es",
      "olog y",
      "ur ren",
      "Ġt er",
      "Ġin v",
      "Ġm in",
      "Ġj ust",
      "ment s",
      "o od",
      "} ,",
      "Ġkn ow",
      "Ġhel p",
      "Ġr ight",
      "Ġo pt",
      "m ber",
      "b ack",
      "Ġnum ber",
      "f ul",
      "Ġin t",
      "Ġse e",
      "Ġex am",
      "Ġex per",
      "r ough",
      "Ġpro ble",
      "l ist",
      "u es",
      "Ġg ener",
      "f in",
      "2 8",
      "Ġpro duct",
      "7 8",
      "Ġf ol",
      "Ġcomp ut",
      "Ġpe ople",
      "Ġm ark",
      "ri v",
      "Ġl ist",
      "Ġre m",
      "Ġc or",
      "Ġh er",
      "ir t",
      "d ay",
      "ut ion",
      "Ġc ar",
      "Ġs a",
      "Ġdif fer",
      "2 00",
      "iv ers",
      "in s",
      "Ġb ack",
      "Ġm em",
      "in ess",
      "ter n",
      "at ure",
      "Ġw r",
      "3 0",
      "le x",
      "' ,",
      "Ġl ook",
      "Ġ20 23",
      "id er",
      "???? ????",
      "as h",
      "id ent",
      "Ġf l",
      "Ġa fter",
      "Ġe very",
      "em ent",
      "Ġm on",
      "vel op",
      "Ġth rough",
      "Ġte ch",
      "Ġa v",
      "gor ith",
      "Ġus ing",
      "or d",
      "Ġs ci",
      "ce pt",
      "ur ing",
      ". _",
      "2 6",
      "Ġf ind",
      "or der",
      "Ġbe c",
      "Ġwe bs",
      "Ġsh ow",
      "n ing",
      "ad e",
      "t s",
      "n er",
      "Ġ \\",
      "th ing",
      "a h",
      "Ġdis c",
      "re ad",
      "ol d",
      "t op",
      "Ġman y",
      "re turn",
      "f ont",
      "ur al",
      "Ġd et",
      "Ġre al",
      "Ġo per",
      "Ġw ay",
      "Ġv is",
      "Ġat t",
      "e ck",
      "an k",
      "i ent",
      "Ġin s",
      "al th",
      "cri pt",
      "4 0",
      "Ġval ue",
      "e lement",
      "op t",
      "f l",
      "r ic",
      "Ġwh ere",
      "Ġres ult",
      "Ġe l",
      "if e",
      "Ġb est",
      "on d",
      "Ġst r",
      "i er",
      "Ġsh ould",
      "Ġfol low",
      "Ġc ook",
      "Ġw ell",
      "Ġle arn",
      "r ight",
      "Ġp erson",
      "res ent",
      "p re",
      "Ġbus iness",
      "p ar",
      "Ġl oc",
      "Ġb el",
      "Ġen g",
      "Ġpo int",
      "\\ \\",
      "Ġc all",
      "et s",
      "ire ct",
      "if y",
      "Ġex t",
      "( '",
      "Ġ end",
      "d ition",
      "00 00",
      "Ġde velop",
      "f e",
      "Ġre t",
      "a z",
      ": \"",
      "ot t",
      "um ent",
      "Ġal gorith",
      "yb ar",
      "Ġar ch",
      "Ġn ow",
      "ust om",
      "Ġtech n",
      "Ġad v",
      "Ġcomm un",
      "Ġd el",
      "ww w",
      "Ġde c",
      "ht ml",
      "Ġn or",
      "se lect",
      "er n",
      "y n",
      "Ġh ad",
      "el f",
      "Ġj o",
      "Ġf r",
      "Ġo b",
      "Ġf in",
      "g an",
      "w n",
      "2 9",
      ") )",
      "Ġh tt",
      "Ġprog ram",
      "Ġh ere",
      "st r",
      "Ġwebs ite",
      "Ġw ant",
      "Ġex p",
      "ru ct",
      "Ġacc ess",
      "o ther",
      "Ġh ome",
      "Ġl o",
      "2 7",
      "we en",
      "Ġpl an",
      "Ġch ar",
      "Ġp ur",
      "m e",
      "Ġbec ause",
      "Ġre turn",
      "Ġc ount",
      "Ġdo es",
      "s et",
      "Ġwh ile",
      "t ing",
      "lo g",
      "w ard",
      "c ent",
      "he ight",
      "3 6",
      "pl oy",
      "Ġp age",
      "gr ound",
      "Ġor der",
      "Ġcon st",
      "Ġe ff",
      "4 8",
      "as on",
      "â Ģ",
      "âĢ ¢",
      "m ail",
      ".. ..",
      "Ġf ree",
      "th od",
      "3 8",
      "Ġe qu",
      "u ch",
      "Ġs ign",
      "Ġs ur",
      "dis play",
      "Ġe ar",
      "Ġv ery",
      "Ġc r",
      "is m",
      "ical ly",
      "Ġdiffer ent",
      "i qu",
      "ro l",
      ") :",
      "iz ed",
      "n et",
      "Ġ :",
      "ra y",
      "ab el",
      "Ġc ap",
      "Ġst art",
      "od y",
      "Ġ ,",
      "ty pe",
      "Ġbe ing",
      "b y",
      "Ġg reat",
      "Ġp ost",
      "Ġd ist",
      "0 9",
      "irt ual",
      "i um",
      "4 6",
      "Ġo p",
      "b r",
      "Ġbet ween",
      "ri but",
      "Ġc am",
      "Ġexam ple",
      "Ġ1 2",
      "un d",
      "ail able",
      "Ġs k",
      "ur y",
      "Ġan al",
      "bo x",
      "d ata",
      "o ol",
      "Ġd own",
      "Ġl ong",
      "Ġp ay",
      "at or",
      "it le",
      "Ġs ame",
      "le ase",
      "i pp",
      "pro duct",
      "ak ing",
      ": #",
      "ou p",
      "g y",
      "5 7",
      "Ġor ig",
      "ru e",
      "Ġsupp ort",
      "com m",
      "at t",
      "Ġc ould",
      "8 6",
      "in a",
      "Ġd on",
      "it em",
      "e ver",
      "em e",
      "Ġon line",
      "Ġev en",
      "n ame",
      "Ġun ivers",
      "n t",
      "Ġto p",
      "Ġhe alth",
      "en e",
      "e e",
      "Ġd ay",
      "Ġem ploy",
      "port ant",
      "ar s",
      "Ġproble m",
      "eng th",
      "Ġs er",
      "Ġsh e",
      "1 00",
      "a i",
      "u c",
      "Ġm ain",
      "tr ans",
      "arg in",
      "an y",
      "8 0",
      "ire d",
      "Ġm ult",
      "iv ed",
      "Ġprov id",
      "iv es",
      "s w",
      "= \"",
      "Ġgo od",
      "Ġd irect",
      "us s",
      "cl ass",
      "Ġapp ro",
      "5 6",
      "Ġyear s",
      "b ers",
      "Ġh ist",
      "am es",
      "urren t",
      "ne w",
      ". ?",
      "Ġpos s",
      "ath er",
      "iel d",
      "Ġl ink",
      "Ġis s",
      "Ġl og",
      "ind ow",
      "i ence",
      "Ġserv ices",
      "ab ility",
      "' re",
      ", .",
      "Ġserv ice",
      "Ġspe c",
      "( )",
      "Ġc ustom",
      "Ġb ook",
      "s c",
      "m en",
      "ion al",
      "o id",
      "ad d",
      "Ġm ar",
      "it al",
      "Ġke y",
      "le ft",
      "Ġv iew",
      "Ġp ower",
      "7 0",
      "Ġcons ider",
      "o k",
      "Ġ est",
      "if ied",
      "5 9",
      "et y",
      "en ces",
      "Ġc le",
      "Ġpro per",
      "is ter",
      "3 9",
      "? \",\"",
      "Ġpro f",
      "\":\" ?\",\"",
      "4 4",
      "ent ial",
      "Ġh and",
      "c ur",
      "Ġd i",
      "re d",
      "Ġp at",
      "ak es",
      "im es",
      "er r",
      "us h",
      "Ġhtt ps",
      "Ġs l",
      "in ce",
      "Ġit em",
      "Ġp ar",
      "al se",
      "m argin",
      "( --",
      "ht t",
      "Ġl ife",
      "| |",
      "he ad",
      "ig ure",
      "f r",
      "Ġv irtual",
      "w ay",
      "c o",
      "im age",
      "Ġt ake",
      "Ġe as",
      "ac y",
      "Ġm a",
      "x t",
      "Ġst at",
      "re qu",
      "Ġ )",
      "Ġs ize",
      "Ġse arch",
      "Ġf il",
      "Ġde p",
      "Ġn et",
      "Ġg e",
      "Ġ1 3",
      "Ġst ate",
      "r al",
      "ual ly",
      "Ġc are",
      "Ġ1 8",
      "sh op",
      "Ġmod el",
      "f a",
      "v ent",
      "em ber",
      "Ġle t",
      "v is",
      "wor k",
      "Ġf ound",
      "Ġr un",
      "b l",
      "Ġbe fore",
      "Ġc ase",
      "Ġf am",
      "c r",
      "back ground",
      "er ic",
      "d es",
      "Ġw ar",
      "Ġalgorith m",
      "Ġag ain",
      "ic y",
      "m od",
      "g er",
      "of t",
      "7 6",
      "al ity",
      "Ġm ade",
      "w are",
      "Ġper form",
      "Ġm uch",
      "Ġl aw",
      "Ġ1 1",
      "Ġinst ru",
      "s ub",
      "5 8",
      "in ter",
      "Ġman ag",
      "Ġcont ain",
      "7 9",
      "a ut",
      "{ \"",
      "ist s",
      "ou se",
      "un e",
      "ar ge",
      "id d",
      "Ġsm all",
      "Ġc our",
      "Ġo wn",
      "Ġc al",
      "Ġm ust",
      "Ġ201 9",
      "iz ation",
      "Ġh um",
      "Ġf act",
      "Ġbo th",
      "Ġ20 22",
      "s ize",
      "p ad",
      ". \"",
      "Ġ *",
      "Ġunivers ity",
      "ut e",
      "un ch",
      "Ġa u",
      "cont ent",
      "] ,",
      "as ed",
      "Ġvar i",
      ") }",
      "pl ace",
      "en cy",
      "Ġmark et",
      "Ġorig inal",
      "Ġj an",
      "con d",
      "b order",
      "e k",
      "st yle",
      "f o",
      "c le",
      "Ġap plic",
      "p are",
      "Ġs w",
      "Ġp lease",
      "Ġc ost",
      "Ġch ild",
      "c art",
      "t en",
      "ro ss",
      "5 4",
      "ang u",
      "Ġ >",
      "od es",
      "Ġd iv",
      "Ġem ail",
      "pr ice",
      "Ġav ailable",
      "le ction",
      "Ġadd ition",
      "ce mber",
      "Ġa ut",
      "th eme",
      "Ġin cre",
      "Ġres p",
      "n ull",
      "Ġre search",
      "u le",
      "Ġl ight",
      "Ġl im",
      "com e",
      "Ġ{ {",
      "ro p",
      "Ġinter n",
      "ra p",
      "p g",
      "st and",
      "n s",
      "Ġe t",
      "Ġcont ent",
      "Ġall ow",
      "Ġle ad",
      "n ess",
      "Ġp riv",
      "Ġst and",
      "Ġme thod",
      "Ġg raph",
      "in ing",
      "Ġl ine",
      "ic le",
      "c ode",
      "Ġm et",
      "g lo",
      "Ġor gan",
      "Ġspe cial",
      "Ġst e",
      "Ġt em",
      "Ġhow ever",
      "Ġ. ..",
      "em at",
      "Ġty pe",
      "Ġs ite",
      "Ġsci ence",
      "op y",
      "lo ad",
      "Ġre ce",
      "Ġd uring",
      "Ġpro ject",
      "Ġm ov",
      "ant s",
      "ri ev",
      "Ġnew s",
      "Ġadd ress",
      "Ġp ublic",
      "Ġt est",
      "Ġ1 6",
      "p o",
      "Ġst ore",
      "en se",
      "pos ition",
      "d i",
      "Ġf ull",
      "Ġb row",
      "t itle",
      "an n",
      "Ġpart ic",
      "b n",
      "Ġp ress",
      "o ck",
      "pad ding",
      "as es",
      "c d",
      "Ġth ose",
      "Ġ !",
      "ind ex",
      "Ġte am",
      "Ġle vel",
      "Ġex pl",
      "Ġse lect",
      "Ġqu est",
      "Ġs ing",
      "Ġe lement",
      "Ġde cember",
      "Ġg ra",
      "re m",
      "Ġl ast",
      "al k",
      "Ġa ug",
      "i ver",
      "it ch",
      "Ġwith out",
      "riev ed",
      "Ġn at",
      "Ġcont rol",
      "Ġg re",
      "g g",
      "l ess",
      "og raph",
      "it ing",
      "Ġ1 5",
      "Ġexper ience",
      "Ġm ach",
      "b al",
      "or g",
      "Ġis land",
      "ip s",
      "Ġ20 21",
      "Ġsch ool",
      "Ġm ath",
      "Ġ //",
      "Ġp ass",
      "4 9",
      "Ġne xt",
      "iv en",
      "m al",
      "Ġj u",
      "6 0",
      "Ġacc ount",
      "Ġo ct",
      "oc us",
      "Ġsp ace",
      "at ely",
      "Ġn on",
      "Ġe lect",
      "3 7",
      "Ġa ir",
      "Ġeff ect",
      "Ġpl ace",
      "om et",
      "Ġmon th",
      "Ġcook ies",
      "Ġth ink",
      "Ġre f",
      "Ġt ext",
      "Ġwith in",
      "Ġret rieved",
      "y m",
      "Ġv ol",
      "u ary",
      "l ish",
      "v ed",
      "c ount",
      "ple ment",
      "we b",
      "Ġposs ible",
      "4 5",
      "] [",
      "== =",
      "Ġprov ide",
      "Ġp ort",
      "ert ain",
      "c s",
      "Ġpol icy",
      "Ġb ro",
      "Ġ# >",
      "Ġch eck",
      "ur l",
      "it or",
      "Ġty p",
      "Ġp op",
      "Ġs ince",
      "Ġa pr",
      "Ġle g",
      "Ġc ode",
      "Ġrequ est",
      "Ġb re",
      "o ber",
      "s on",
      "ott om",
      "}. _",
      "Ġ ident",
      "Ġus er",
      "Ġfollow ing",
      "Ġ20 20",
      "__ __",
      "Ġ ide",
      "3 5",
      "Ġs ou",
      "Ġwor ds",
      "\\\" \\",
      "Ġw ater",
      "b lock",
      "Ġn ame",
      "m y",
      "Ġde v",
      "Ġop en",
      "men u",
      "Ġgener al",
      "or n",
      "Ġhist ory",
      "Ġbl ack",
      "Ġcomp any",
      "Ġg ame",
      "\" )",
      "Ġre port",
      "Ġperson al",
      "Ġth ree",
      "] .",
      "Ġpro du",
      "Ġ1 99",
      "ap ter",
      "n ect",
      "al ign",
      "Ġter ms",
      "ot s",
      "Ġproduct s",
      "pt ember",
      "ot e",
      "Ġc urrent",
      "j pg",
      "Ġ$ )",
      "Ġcon dition",
      "w ays",
      "on es",
      "Ġg l",
      "Ġcont in",
      "Ġd id",
      "Ġse ction",
      "Ġm arch",
      "Ġgr oup",
      "Ġthe ory",
      "ver t",
      "m a",
      "w atch",
      "Ġinter est",
      "Ġre view",
      "' ll",
      "Ġcont act",
      "im ate",
      "7 7",
      "ol ution",
      "v g",
      "g b",
      "Ġc y",
      "Ġl angu",
      "f lex",
      "Ġin c",
      "Ġl arge",
      "Ġrep resent",
      "Ġoct ober",
      "Ġof fer",
      "v es",
      "Ġinclud ing",
      "Ġchar act",
      "a f",
      "u ro",
      "-- --",
      "Ġp ack",
      "if t",
      "Ġse cond",
      "it er",
      "Ġm ight",
      "Ġg lo",
      "ard s",
      "Ġno ve",
      "Ġ1 4",
      "Ġnove mber",
      "Ġt ry",
      "5 5",
      "Ġst ruct",
      "Ġim plement",
      "Ġapr il",
      "it es",
      "s er",
      "( ){",
      "g in",
      "s u",
      "op h",
      "iv ely",
      "g o",
      "b u",
      "Ġp ath",
      "Ġp ract",
      "3 2",
      "Ġbu il",
      "Ġs um",
      "Ġch ange",
      "Ġau th",
      "t ime",
      "Ġjan uary",
      "ic on",
      "p or",
      "cc ess",
      "Ġinv est",
      "r ist",
      "Ġl at",
      "im um",
      "Ġse ptember",
      "Ġst ill",
      "s m",
      "Ġ %",
      "Ġwe b",
      "Ġaug ust",
      "Ġch ang",
      "b ook",
      "l ength",
      "Ġan other",
      "g es",
      "Ġpr ice",
      "glo bo",
      "Ġnat ural",
      "ys is",
      "p age",
      "Ġph ys",
      "our ce",
      "Ġdet ail",
      "e c",
      ": {",
      "Ġ ??",
      "but ton",
      "Ġh ol",
      "Ġn ode",
      "Ġp res",
      "l ing",
      "Ġm at",
      "htt ps",
      "r on",
      "Ġt ree",
      "8 9",
      "Ġ es",
      "ri end",
      "Ġso cial",
      "m m",
      "is ion",
      "ir on",
      "Ġmath emat",
      "Ġt ri",
      "lo c",
      "Ġde fin",
      "ate g",
      "Ġreg ister",
      "select or",
      "Ġcomput er",
      "Ġs al",
      "t ain",
      "ipp ing",
      "' ve",
      "v en",
      "Ġs oft",
      "ib r",
      "Ġj une",
      "Ġh app",
      "Ġcon f",
      "iss ion",
      "Ġ ve",
      "Ġbas ed",
      "Ġhe ad",
      "oug ht",
      "u se",
      "Ġim portant",
      "err or",
      "Ġplay ers",
      "at ures",
      "Ġ1 7",
      "n ow",
      "Ġt able",
      "3 4",
      "i res",
      "an e",
      "Ġto o",
      "l ight",
      "Ġs un",
      "Ġc ity",
      "Ġju ly",
      "Ġ Â",
      "Ġgo ver",
      "m b",
      "Ġl ove",
      "ater ial",
      "m ing",
      "c ing",
      "Ġto ol",
      "l abel",
      "Ġtra ck",
      "Ġh ard",
      "b ru",
      "Ġg ive",
      "Ġis bn",
      "iv ing",
      "opt ion",
      "Ġarch ived",
      "y ou",
      "( );",
      "Ġd em",
      "Ġsystem s",
      "h ow",
      "Ġsh are",
      "Ġc ir",
      "cont ain",
      "Ġfam ily",
      "z e",
      "Ġl ess",
      "8 8",
      "re l",
      "b ody",
      "n av",
      "d oc",
      "Ġm us",
      "Ġv er",
      "av ing",
      "Ġob ject",
      "Ġa ff",
      "l ink",
      "y theme",
      "f ect",
      "so ci",
      "a fter",
      "&& (",
      "ke y",
      "Ġlearn ing",
      "we ight",
      "Ġan n",
      "ide o",
      "m er",
      "it ive",
      "le y",
      "val ue",
      "pl es",
      "* *",
      "Ġw om",
      "Ġcre ate",
      "Ġd ays",
      "= '",
      "Ġa f",
      "Ġo ld",
      "Ġg iven",
      "Ġs at",
      "Ġw indow",
      "am p",
      "Ġar ound",
      "one y",
      "Ġ q",
      "i od",
      "Ġbet ter",
      "Ġcommun ity",
      "Ġdo c",
      "bru ary",
      "Ġc reat",
      "Ġprof ess",
      "Ġke ep",
      "Ġfe w",
      "Ġed uc",
      "Ġgover n",
      "Ġst yle",
      "n o",
      "6 9",
      "end ing",
      "1 99",
      "i or",
      "Ġs ay",
      "b ar",
      "er ing",
      "Ġl i",
      "Ġhum an",
      "Ġanal ysis",
      "Ġwh e",
      "b ed",
      "cript ion",
      "le te",
      "ach e",
      "h ip",
      "led ge",
      "Ġim p",
      "Ġim pro",
      "Ġam eric",
      "Ġm o",
      "d o",
      "el s",
      ". ;",
      "\" ).",
      "Ġunder stand",
      "s ol",
      "Ġ201 7",
      "Ġwe ek",
      "Ġl a",
      "w ith",
      "7 5",
      "Ġ3 0",
      "Ġh y",
      "Ġm ax",
      "v ers",
      "iqu e",
      "of f",
      "os s",
      "Ġmem ory",
      "ch eck",
      "Ġst or",
      "w rap",
      "ri es",
      "Ġ201 6",
      "Ġf ar",
      "Ġh ar",
      "iv id",
      "Ġresult s",
      "ic les",
      "Ġright s",
      "Ġel se",
      "n one",
      "s k",
      "Ġin te",
      "at ic",
      "Ġkn own",
      "Ġd ig",
      "fer ence",
      "Ġm aterial",
      "con om",
      "Ġval ues",
      "Ġim age",
      "n a",
      "f il",
      "Ġdevelop ment",
      "v ious",
      "Ġintern ational",
      "for d",
      "d own",
      "m on",
      "Ġj e",
      "Ġ201 8",
      "Ġwh y",
      "Ġbe h",
      "ubl ish",
      "Ġas soci",
      "s y",
      "Ġle ft",
      "as ter",
      "ĠĠĠĠ ĠĠĠĠ",
      "Ġc over",
      "ab led",
      "Ġal ways",
      "n g",
      "9 78",
      "Ġin put",
      "um e",
      "Ġsh ort",
      "b ottom",
      "Ġr is",
      "id s",
      "Ġind ust",
      "f ace",
      "Ġloc al",
      "3 1",
      "Ġc a",
      "doc ument",
      "Ġfe bruary",
      "Ġmanag ement",
      "et er",
      "Ġinst all",
      "Ġj our",
      "fa ult",
      "Ġt imes",
      "c ss",
      "Ġth ings",
      "Ġ1 00",
      "qu ery",
      "h a",
      "Ġ< #",
      "0 6",
      "et ic",
      "sp an",
      "Ġan t",
      "Ġl ow",
      "Ġof ten",
      "4 7",
      "8 7",
      "Ġv i",
      "u x",
      "ir d",
      "Ġb lock",
      "r ation",
      "Ġb ig",
      "Ġpro m",
      "ul es",
      "med ia",
      "Ġ? )",
      "Ġcon nect",
      "Ġcent er",
      "Ġt rue",
      "Ġh im",
      "d f",
      "Ġmed ia",
      "Ġeng ine",
      "Ġcol or",
      "d ate",
      "Ġsa id",
      "Ġg row",
      "in o",
      "Ġne ar",
      "Ġse cur",
      "t il",
      "h over",
      "Ġdisc uss",
      "\" );",
      "Ġb ar",
      "m ax",
      "Ġbu y",
      "Ġv ers",
      "Ġph ot",
      "Ġst ates",
      "Ġper iod",
      "m ain",
      "Ġch o",
      "ith er",
      "p ost",
      "Ġd om",
      "Ġ201 5",
      "Ġsu ccess",
      "Ġsing le",
      "c an",
      "Ġtechn ology",
      "Ġo cc",
      "Ġl ot",
      "Ġlangu age",
      "Ġf un",
      "Ġd ra",
      "ific ation",
      "Ġ âĢ¢",
      "Ġrequ ire",
      "ent ly",
      "Ġexp ress",
      "f alse",
      "Ġb ra",
      "ul ation",
      "Ġc ry",
      "Ġst re",
      "Ġc ult",
      "Ġstud y",
      "h er",
      "Ġre d",
      "s a",
      "our s",
      "Ġ201 3",
      "Ġ& &",
      "Ġs ort",
      "Ġde f",
      "Ġpos ition",
      "and s",
      "Ġse ver",
      "ap e",
      "Ġap pe",
      "Ġre du",
      "for t",
      "Ġ ????",
      "ur ther",
      "t rue",
      "Ġsim ple",
      "Ġpr int",
      "re g",
      "Ġo pp",
      "Ġg ames",
      "Ġp m",
      "Ġcomm on",
      "Ġind ivid",
      "m ore",
      "Ġf ield",
      "t ra",
      "Ġb ank",
      "Ġb i",
      "v iron",
      "Ġcall ed",
      "Ġu r",
      "Ġf o",
      "ed it",
      "Ġch rist",
      "op e",
      "in put",
      "Ġm ag",
      "ict ion",
      "itt le",
      "Ġpartic ular",
      "Ġf ile",
      "ell ing",
      "Ġp resent",
      "Ġare a",
      "Ġsch ed",
      "Ġre st",
      "Ġle ast",
      "ib ility",
      "0 4",
      "Ġf igure",
      "il ar",
      "it ical",
      "Ġrequ ired",
      "ou d",
      "Ġf ac",
      "0 8",
      "Ġ2 4",
      "ess age",
      "Ġf riend",
      "wh at",
      "Ġsh op",
      "element or",
      "Ġmach ine",
      "re plic",
      "Ġm ill",
      "Ġto day",
      "Ġme ans",
      "Ġe conom",
      "Ġc opy",
      "Ġw a",
      "g ed",
      "Ġen er",
      "Ġf ut",
      "end ed",
      "Ġre ally",
      "ch ild",
      "Ġto t",
      "Ġnum bers",
      "in ation",
      "Ġm en",
      "Ġre ason",
      "erv ed",
      "Ġb ene",
      "es e",
      "h n",
      "s l",
      "Ġg en",
      "head er",
      "in ed",
      "Ġd r",
      "c ell",
      "or k",
      "Ġp ot",
      "Ġar ray",
      "Ġpriv acy",
      "a im",
      "cr unch",
      "' m",
      "Ġworld s",
      "Ġse ason",
      "Ġf our",
      "Ġcon c",
      "our ces",
      "Ġfe atures",
      "Ġm atch",
      "Ġneed s",
      "Ġl ive",
      "Ġcom b",
      "contain er",
      "Ġev ents",
      "Ġab le",
      "Ġph il",
      "th at",
      "im al",
      "s r",
      "Ġh ouse",
      "as k",
      "ap s",
      "Ġt urn",
      "Ġwh ite",
      "r ing",
      "Ġ201 2",
      "Ġ5 0",
      "t ot",
      "j ust",
      "Ġindivid ual",
      "Ġch ina",
      "Ġnet work",
      "Ġf ore",
      "b it",
      "Ġart icle",
      "Ġproper ty",
      "Ġdo i",
      "Ġt reat",
      "Ġp ublish",
      "Ġp a",
      "Ġvis it",
      "4 2",
      "Ġproble ms",
      "um b",
      "Ġcour se",
      "Ġn ational",
      "Ġb it",
      "Ġmult ip",
      "f rom",
      "an a",
      "Ġev ent",
      "an ces",
      "Ġeas y",
      "de p",
      "Ġsu per",
      "Ġcom e",
      "l s",
      "Ġ201 4",
      "l im",
      "Ġbene f",
      "Ġact iv",
      "[ \"",
      "Ġl ittle",
      "Ġm aking",
      "Ġme an",
      "Ġne ver",
      "c ase",
      "Ġappro ach",
      "ne y",
      "Ġglo bal",
      "Ġinclud e",
      "Ġ2 5",
      "Ġgo ing",
      "Ġpoint s",
      "Ġme as",
      "p a",
      "Ġd ate",
      "Ġsu re",
      "ar ing",
      "g ra",
      "Ġwhe ther",
      "in ary",
      "Ġen s",
      "0 5",
      "4 1",
      "Ġan sw",
      "Ġfe el",
      "Ġsou th",
      "v oid",
      "Ġc ertain",
      "ic ro",
      "re ct",
      "Ġl ic",
      "Ġen viron",
      "Ġauth or",
      "Ġp p",
      "Ġp ri",
      "Ġf ood",
      "Ġpur ch",
      ".... ....",
      "Ġ% }",
      "Ġqu ick",
      "ab ly",
      "Ġcl ick",
      "Ġknow ledge",
      "Ġf low",
      "Ġm or",
      "Ġm oney",
      "Ġm il",
      "Ġinstru ction",
      "um n",
      "Ġbel ie",
      "m it",
      "se ction",
      "ple ase",
      "Ġqu ality",
      "Ġch apter",
      "Ġwork ing",
      "Ġsol ution",
      "Ġp ap",
      "Ġr ange",
      "?? ?",
      "Ġsoft ware",
      "Ġm ove",
      "us d",
      "Ġmod ern",
      "ob ile",
      "read y",
      "an ced",
      "a a",
      "Ġsecur ity",
      "m ost",
      "Ġtra ining",
      "t ab",
      "Ġass ign",
      "Ġf ace",
      "Ġm er",
      "Ġe uro",
      "Ġpro b",
      "Ġn odes",
      "ur s",
      "res p",
      "ut ions",
      "Ġed ge",
      "a ction",
      "Ġdoc ument",
      "Ġv ideo",
      "id es",
      "p ublic",
      "ed ia",
      "' ).",
      "y e",
      "Ġth us",
      "Ġ rom",
      "Ġam ount",
      "Ġrec ord",
      "n al",
      "Ġsome thing",
      "Ġcommun ic",
      "al t",
      "id ge",
      "Ġpro t",
      "Ġcharact er",
      "Ġdes cri",
      "ent al",
      "arg et",
      "oo se",
      "Ġitem s",
      "@ @",
      "i j",
      "Ġf urther",
      "Ġse par",
      "en n",
      "Ġl ibr",
      "is ing",
      "th ers",
      "Ġchild ren",
      "g u",
      "ge ther",
      "ic ient",
      "m ark",
      "Ġser ies",
      "is ed",
      "Ġex pect",
      "Ġspec ific",
      "Ġinstru ctions",
      "ac ity",
      "ro ll",
      "Ġaut om",
      "Ġstruct ure",
      "Ġbo x",
      "Ġsim ilar",
      "lo se",
      "Ġagain st",
      "Ġsu bs",
      "Ġwom en",
      "\" ),",
      "5 3",
      "ent ion",
      "Ġl and",
      "Ġener gy",
      "ab les",
      "d om",
      "Ġse qu",
      "b t",
      "cent er",
      "Ġcl os",
      "Ġy ork",
      "Ġcle ar",
      "Ġp ut",
      "Ġf alse",
      "Ġu l",
      "Ġfut ure",
      "ac es",
      "0 7",
      "f low",
      "an ch",
      "Ġon ce",
      "Ġd am",
      "Ġf lo",
      "idd en",
      "Ġd at",
      "Ġgovern ment",
      "u k",
      "Ġcol l",
      "b ra",
      "Ġsever al",
      "Ġw on",
      "Ġm iss",
      "i ents",
      "Ġp ain",
      "Ġso ci",
      "Ġun ited",
      "Ġperform ance",
      "Ġas k",
      "ro du",
      "Ġa way",
      "\" ]",
      "in st",
      "im portant",
      "Ġear ly",
      "w ik",
      "6 4",
      "i ans",
      "m ar",
      "Ġt re",
      "Ġfin an",
      "s ide",
      "Ġt ax",
      "Ġe ither",
      "l i",
      "p ly",
      "Ġs ale",
      "th ere",
      "d iv",
      "j or",
      "Ġcol le",
      "c m",
      "Ġbo ard",
      "Ġst ar",
      "og n",
      "cre en",
      "Ġcle an",
      "Ġlook ing",
      "wor d",
      "y l",
      "ap an",
      "Ġapp ly",
      "c all",
      "ur ance",
      "Ġad min",
      "Ġf ocus",
      "h ol",
      "g h",
      "Ġlim ited",
      "ct or",
      "Ġne cess",
      "Ġbel ow",
      "Ġ ess",
      "j o",
      "s ite",
      "Ġ201 1",
      "Ġrel ations",
      "Ġd yn",
      "Ġemploy ee",
      "Ġtot al",
      "ic a",
      "pe cial",
      "Ġen c",
      "Ġent er",
      "Ġopt ions",
      "7 3",
      "Ġl ay",
      "Ġk ind",
      "un g",
      "8 3",
      "9 0",
      "Ġoff ice",
      "Ġm ot",
      "t ings",
      "Ġc ut",
      "Ġpat tern",
      "Ġ id",
      "il i",
      "}, {\"",
      "4 3",
      "Ġsh all",
      "w indow",
      "Ġto gether",
      "Ġab ove",
      "Ġm akes",
      "Ġf inal",
      "cl us",
      "Ġac ross",
      "Ġa ust",
      "se e",
      "{ \\",
      "s ch",
      "Ġl arg",
      "med i",
      "Ġcondition s",
      "ad a",
      "Ġper fect",
      "Ġeduc ation",
      "Ġdet er",
      "Ġisland s",
      "s elf",
      "Ġ ill",
      "Ġme et",
      "Ġcol lection",
      "k it",
      "Ġth ird",
      "Ġl abel",
      "Ġim ages",
      "il le",
      "i very",
      "Ġin it",
      "am s",
      "Ġsh ipping",
      "f igure",
      "Ġl ater",
      "Ġ <|",
      "Ġbu ild",
      "act ive",
      "a e",
      "ist ic",
      "Ġplay ed",
      "' );",
      "i ant",
      "ram e",
      "ines e",
      "Ġdetail s",
      "8 5",
      "ill s",
      "or ies",
      "d b",
      "Ġ= =",
      "Ġc as",
      "Ġimpro ve",
      "Ġc e",
      "Ġ} ,",
      "Ġnot e",
      "Ġo bs",
      "em pt",
      "opt ions",
      "og le",
      "Ġaddition al",
      "c ul",
      "ap t",
      "idd le",
      "t ies",
      "er a",
      "Ġb ody",
      "ĠÂ ©",
      "i i",
      "Ġe ver",
      "Ġoff ic",
      "Ġenviron ment",
      "Ġan g",
      "ain s",
      "Ġb ound",
      "im g",
      "Ġcre d",
      "c or",
      "Ġc ard",
      "Ġm ass",
      "Ġcomp lete",
      "99 9",
      "Ġgre en",
      "Ġbe gin",
      "ce ed",
      "Ġs ource",
      "Ġstand ard",
      "g en",
      "Ġd av",
      "c ast",
      "Ġmem bers",
      "Ġb log",
      "Ġg old",
      "Ġcomp let",
      "Ġcomp lex",
      "0 2",
      "ograph y",
      "Ġs ide",
      "Ġelement s",
      "u f",
      "Ġ200 9",
      "Ġd en",
      "Ġe p",
      "Ġtra vel",
      "b ased",
      "Ġresp ons",
      "Ġw in",
      "Ġmus ic",
      "Ġth er",
      "Ġd ue",
      "Ġwr ite",
      "Ġdig ital",
      "s vg",
      "Ġre le",
      "Ġst ep",
      "ateg ory",
      "6 00",
      "c a",
      "f irst",
      "um ents",
      "ver age",
      "Ġc ur",
      "ens ive",
      "Ġbe come",
      "Ġgu ide",
      "Ġdisc over",
      "Ġre comm",
      "Ġus ers",
      "Ġpr in",
      "Ġear th",
      "Ġapplic ation",
      "Ġs il",
      "Ġprovid ed",
      ". )",
      "al f",
      "Ġf at",
      "res h",
      "Ġ ????????",
      "Ġsub ject",
      "0 3",
      "Ġfinan cial",
      "Ġres erved",
      "Ġdown load",
      "ri ve",
      "Ġopt ion",
      "Ġinv ol",
      "Ġma jor",
      "v ing",
      "n d",
      "Ġpro te",
      "Ġres pect",
      "it ation",
      "Ġlo ad",
      "Ġc ra",
      "Ġre ach",
      "Ġpart y",
      "con st",
      "b all",
      "um p",
      "8 4",
      "Ġcon cept",
      "wrap per",
      "Ġcount ry",
      "Ġchang es",
      "m o",
      "Ġm icro",
      "rem ove",
      "com p",
      "Ġjour nal",
      "Ġwor d",
      "at s",
      "Ġmed ic",
      "u ck",
      "Ġquest ion",
      "{ {",
      "Ġb ase",
      "Ġcol lect",
      "w an",
      "6 5",
      "Ġs an",
      "ch ange",
      "be fore",
      "Ġmult i",
      "wid get",
      "n or",
      "p art",
      "Ġro om",
      "Ġquest ions",
      "Ġl ab",
      "pare nt",
      "Ġris k",
      "Ġh aving",
      "Ġ201 0",
      "Ġnor th",
      "Ġmonth s",
      "0 1",
      "Ġrece ive",
      "Ġs am",
      "Ġpl at",
      "Ġac cept",
      "iel ds",
      "Ġfr ont",
      "n um",
      "Ġins urance",
      "Ġs ent",
      "Ġst ack",
      "ir m",
      "Ġin fl",
      "Ġa ction",
      "Ġanal y",
      "on se",
      "is on",
      "Ġex ec",
      "cl ick",
      "Ġa ud",
      "Ġal ong",
      "replic a",
      "Ġs elf",
      "Ġp ark",
      "Ġwe ight",
      "6 7",
      "em ail",
      "ribut e",
      "Ġbas ic",
      "c er",
      "Ġun til",
      "Ġs ave",
      "Ġeuro pe",
      "olog ical",
      "Ġshow s",
      "trans form",
      "web kit",
      "' )",
      "dep end",
      "l er",
      "Ġpre vious",
      "Ġcontain s",
      "iz es",
      "Ġoff ers",
      "Ġ{ %",
      "ward s",
      "e ad",
      "Ġcir c",
      "Ġrel ated",
      "h ome",
      "Ġd one",
      "Ġo thers",
      "Ġap pl",
      "Ġre v",
      "Ġiss ues",
      "ig ation",
      "ag s",
      "ro om",
      "Ġt ru",
      "Ġs end",
      "ate gor",
      "Ġc oun",
      "Ġalgorith ms",
      "er o",
      "Ġind ex",
      "b on",
      "ore d",
      "Ġdel ivery",
      "Ġbuil ding",
      "ru ction",
      "Ġbl ue",
      "Ġint rodu",
      "\": {\"",
      "Ġstud ents",
      ": -",
      "de fault",
      "b re",
      "Ġch oose",
      "Ġrun ning",
      "Ġp an",
      "iz ing",
      "3 00",
      "b a",
      "ra ms",
      "Ġsol id",
      "c p",
      "Ġre fer",
      "Ġ _",
      "Ġtyp es",
      "Ġal ready",
      "and om",
      "Ġrec or",
      "Ġsim ply",
      "Ġnor mal",
      "b an",
      "Ġprot ect",
      "Ġse em",
      "Ġg ir",
      "Ġd an",
      "Ġex ist",
      "p ol",
      "p ose",
      "Ġa ch",
      "', '",
      "c ar",
      "as ing",
      "Ġtool s",
      "Ġth ought",
      "Ġf ill",
      "Ġus es",
      "Ġameric an",
      "i en",
      "e ach",
      "Ġg od",
      "Ġem p",
      "pro g",
      "Ġwork s",
      "Ġl ength",
      "Ġp ast",
      "Ġst ock",
      "Ġch inese",
      "Ġsci ent",
      "Ġbr and",
      "itt en",
      "\" ;",
      "Ġw ww",
      "Ġbe aut",
      "9 8",
      "Ġup d",
      "Ġt akes",
      "os oph",
      "Ġv ia",
      "Ġch all",
      "Ġprofess ional",
      "w ise",
      "Ġun it",
      "Ġc ore",
      "Ġl ower",
      "Ġvar ious",
      "Ġadmin ist",
      "Ġw id",
      "Ġf all",
      "Ġbrow ser",
      "w ell",
      "Ġtra dition",
      "pl an",
      "air s",
      "Ġ ir",
      "Ġu k",
      "Ġsa f",
      "Ġp are",
      "Ġch e",
      "Ġmultip le",
      "w ar",
      "Ġreg ular",
      "Ġdif f",
      "Ġf a",
      "ite ct",
      "n ov",
      "Ġlat est",
      "Ġth ough",
      "po int",
      "f ill",
      "Ġh ot",
      "Ġte ach",
      "Ġinst it",
      "Ġf ire",
      "Ġjo hn",
      "y pe",
      "e ur",
      "Ġcount y",
      "sh ow",
      "Ġoper ations",
      "] ;",
      "fr ont",
      "Ġleg al",
      "Ġimp act",
      "Ġlibr ary",
      "Ġfe ature",
      "il ities",
      "are d",
      "Ġcan not",
      "f ind",
      "6 8",
      "Ġj apan",
      "4 14",
      "Ġ2 3",
      "Ġen ough",
      "Ġmed ical",
      "Ġpot ential",
      "? \":\"",
      "Ġent ire",
      "Ġrep ublic",
      "Ġbre ak",
      "p ing",
      "Ġp ie",
      "Ġb ill",
      "5 2",
      "Ġl ik",
      "ist ics",
      "Ġcor rect",
      "____ ____",
      "Ġh om",
      "Ġf it",
      "Ġcomp et",
      "\",\" ?\":\"",
      "Ġj ob",
      "Ġsp ort",
      "Ġm ind",
      "im a",
      "se qu",
      "5 00",
      "Ġsu gg",
      "ure d",
      "a ff",
      "id ence",
      "Ġde al",
      "Ġloc ation",
      "Ġp ages",
      "is es",
      "Ġc ell",
      "Ġcent ury",
      "Ġcry st",
      "Ġn av",
      "Ġstr ong",
      "Ġprovid es",
      "Ġsugg est",
      "Ġw ays",
      "Ġb al",
      "Ġ2 1",
      "wh en",
      "Ġt im",
      "Ġg er",
      "Ġde ep",
      "Ġind ic",
      "Ġtem per",
      "Ġs it",
      "Ġb ad",
      "Ġcomp an",
      "g l",
      "re f",
      "Ġapplic ations",
      "le g",
      "Ġp ick",
      "u a",
      "us er",
      "Ġ2 2",
      "Ġse c",
      "Ġe ast",
      "Ġr ate",
      "pr int",
      "Ġmarket ing",
      "Ġwa it",
      "u ed",
      "Ġpri or",
      "at ors",
      "ix ed",
      "f ocus",
      "j oy",
      "Ġm ich",
      "ens ion",
      "f ield",
      "ar ies",
      "Ġj av",
      "Ġindust ry",
      "Ġdoes n",
      "pl it",
      "Ġmethod s",
      "ci p",
      "c al",
      "Ġro le",
      "ou ps",
      "Ġsol utions",
      "b b",
      "td b",
      "ar i",
      "Ġm al",
      "ch an",
      "Ġar g",
      "wh ere",
      "Ġcom es",
      "Ġcent ral",
      "iv al",
      "Ġsk in",
      "( (",
      "6 3",
      "me thod",
      "product s",
      "Ġeng lish",
      "Ġst ory",
      "op en",
      "port s",
      "wor ks",
      "Ġprog rams",
      "n ers",
      "Ġin depend",
      "con f",
      "Ġreg ist",
      "ou ch",
      "ak en",
      "Ġmathemat ics",
      "Ġv ert",
      "Ġcustom er",
      "Ġess ential",
      "Ġw atch",
      "Ġch em",
      "Ġdesign ed",
      "Ġf und",
      "pro per",
      "Ġsign ific",
      "Ġrel ig",
      "Ġnecess ary",
      "Ġr ather",
      "art ment",
      "sh ip",
      "Ġcl aim",
      "Ġneed ed",
      "Ġ200 8",
      "f am",
      "m et",
      "Ġp ers",
      "Ġd ou",
      "Ġle ave",
      "Ġpr im",
      "ab lish",
      "Ġhe av",
      "Ġh ours",
      "Ġvers ion",
      "6 2",
      "Ġa ge",
      "Ġreg ard",
      "Ġansw er",
      "( ),",
      "Ġcho ice",
      "Ġens ure",
      "\\/ \\/",
      "Ġach ie",
      "con s",
      "so cial",
      "Ġqu e",
      "Ġaf ric",
      ") ),",
      "a j",
      "u ation",
      "b or",
      "Ġcont ract",
      "Ġval id",
      "Ġsol ar",
      "ber t",
      "pl ate",
      "ĠĠ Ġ",
      "h am",
      "n ext",
      "Ġ200 7",
      "0000 0000",
      "Ġ error",
      "m t",
      "col umn",
      "el ine",
      "Ġsh own",
      "Ġag ree",
      "Ġ} );",
      "Ġpract ice",
      "d ers",
      "Ġch at",
      "ins ert",
      "Ġare as",
      "Ġpop ular",
      "Ġplat form",
      "% ;",
      "Ġ er",
      "id ay",
      "Ġro b",
      "Ġs creen",
      "Ġprocess ing",
      "h el",
      "Ġ} }",
      "(\" .",
      "o x",
      "w r",
      "Ġplay er",
      "cd n",
      "Ġra d",
      "Ġ4 0",
      "Ġinst ead",
      "Ġind ia",
      "Ã Ĺ",
      "as ons",
      "un ity",
      "h idden",
      "i am",
      "Ġb ir",
      "a ur",
      "in ner",
      "p ri",
      "Ġt alk",
      "Ġact ually",
      "er cial",
      "Ġarch itect",
      "Ġaust ral",
      "Ġch arg",
      "Ġem er",
      "9 5",
      "t em",
      "Ġg am",
      "us ed",
      "Ġsoci ety",
      "Ġo x",
      "20 23",
      "Ġbook s",
      "Ġf ail",
      "Ġmin imum",
      "item s",
      "Ġrecor ds",
      "Ġs ar",
      "ic ult",
      "Ġh ost",
      "ut es",
      "p ress",
      "Ġge omet",
      "end er",
      "Ġcl imate",
      "Ġread ing",
      "Ġlink s",
      "ot er",
      "Ġgo ogle",
      "Ġinter net",
      "ag ed",
      "urren cy",
      "wor ld",
      "ai wan",
      "g ing",
      "Ġy et",
      "ac ed",
      "Ġrem ov",
      "Ġsal es",
      "Ġpap er",
      "Ġengine ering",
      "Ġb on",
      "in fo",
      "n ode",
      "o res",
      "Ġdo ing",
      "htt p",
      "Ġen joy",
      "Ġstud ies",
      "f ree",
      "Ġd og",
      "Ġphil osoph",
      "9 6",
      "ci ent",
      "7 4",
      "us es",
      "Ġpart s",
      "query selector",
      "---- ----",
      "j e",
      "u ff",
      "Ġinte gr",
      "d d",
      "Ġ2 8",
      "Ġst op",
      "Ġk ing",
      "ff f",
      "Ġbeh av",
      "m ission",
      "Ġw est",
      "a ctions",
      "Ġequ al",
      "Ġiss ue",
      "Ġproper ties",
      "Ġdav id",
      "Ġc ross",
      "th ough",
      "Ġcom ment",
      "Ġwr iting",
      "' ;",
      "Ġf re",
      "Ġf ast",
      "Ġmaterial s",
      "ag ing",
      "ph one",
      "de fin",
      "Ġm ount",
      "el ves",
      "Ġcred it",
      "Ġc ov",
      "Ġext ra",
      "! ==",
      "Ġn ature",
      "th es",
      "Ġro ad",
      "Ġout put",
      "ren ch",
      "Ġp al",
      "Ġf av",
      "ad em",
      "! !",
      "Ġw all",
      "id ed",
      "Ġcomp on",
      "Ġest ablish",
      "sr c",
      "Ġun ique",
      "Ġdis play",
      "Ġam ong",
      "g re",
      "im ages",
      "j s",
      "Ġex act",
      "Ġth ing",
      "am ic",
      "Ġpre m",
      "on y",
      "Ġs em",
      "end s",
      "Ġtr ust",
      "di us",
      "Ġcopy right",
      "Ġb its",
      "ed s",
      "Ġus ually",
      "v i",
      "st art",
      "Ġest ate",
      "se c",
      "Ġse x",
      "Ġwr itten",
      "ain t",
      "7 2",
      "= {",
      "Ġ200 6",
      "Ġcre ated",
      "Ġmain tain",
      "l a",
      "Ġres ources",
      "im ation",
      "Ġam az",
      "uf act",
      "b i",
      "b est",
      "l ike",
      "ac ing",
      "Ġrec ogn",
      "Ġf ive",
      "Ġm iddle",
      "Ġcustom ers",
      "Ġst ra",
      "Ġt ur",
      "al y",
      "Ġed ges",
      "Ġopp ort",
      "lim ited",
      "Ġcryst al",
      "y es",
      "9 4",
      "m p",
      "Ġter m",
      "m as",
      "u i",
      "val id",
      "j i",
      "y our",
      "Ġim m",
      "l ast",
      "Ġw ik",
      "Ġl oss",
      "Ġcl oud",
      "Ġrem ain",
      "c urrent",
      "Ġresp onse",
      "is f",
      "Ġa verage",
      "er c",
      "Ġr ich",
      "p op",
      "Ġbenef its",
      "ad ow",
      "Ġwho le",
      "Ġ| |",
      "Ġincre ase",
      "Ġb ab",
      "Ġh am",
      "Ġhist or",
      "f ile",
      "Ġh s",
      "st er",
      "Ġcons ent",
      "Ġ2 6",
      "d ict",
      "ribut ion",
      "Ġet c",
      "ell ig",
      "Ġset s",
      "ther n",
      "Ġw ood",
      "' d",
      "Ġf requ",
      "Ġpur pose",
      "Ġpurch ase",
      ": [",
      "Ġs av",
      "app end",
      "Ġm om",
      "itt ing",
      "f s",
      "Ġm essage",
      "Ġne g",
      "t w",
      "cre ate",
      "f fer",
      "c at",
      "Ġn ull",
      "Ġcompan ies",
      "th en",
      "Ġcal cul",
      "g a",
      "Ġim db",
      "Ġinclud es",
      "Ġdel iver",
      "tot ype",
      "Ġf air",
      "Ġn ight",
      "fam ily",
      "Ġhe art",
      "av ailable",
      "Ġt itle",
      "Ġde ath",
      "Ġins ert",
      "Ġex cept",
      "Ġdiff icult",
      "Ġc ases",
      "Ġget ting",
      "in it",
      "ux ury",
      "i ers",
      "st at",
      "os ph",
      "Ġacc or",
      "Ġass ist",
      "Ġmeas ure",
      "Ġoper ation",
      "e th",
      "Ġeff icient",
      "Ġw ish",
      "Ġg ot",
      "Ġinit ial",
      "Ġadd ed",
      "Ġs qu",
      "itt ed",
      "Ġphys ical",
      "Ġsignific ant",
      "( {",
      "Ġal tern",
      "ire ction",
      "Ġsaf ety",
      "un t",
      "pos es",
      "i ra",
      "Ġd er",
      "5 1",
      "Ġ @",
      "Ġr gb",
      "com ple",
      "cont rol",
      "4 00",
      "Ġman ufact",
      "Ġaccor ding",
      "aut o",
      "Ġt our",
      "Ġm ap",
      "op er",
      "Ġdev ice",
      "m at",
      "Ġpriv ate",
      "ver se",
      "Ġevery thing",
      "Ġide a",
      "Ġse en",
      "\":\" \",\"",
      "or ing",
      "Ġun limited",
      "Ġr out",
      "h ar",
      "Ġmill ion",
      "Ġcons um",
      "it ter",
      "h igh",
      "p df",
      "Ġme chan",
      "Ġed ition",
      "d r",
      "Ġ3 2",
      "bo ard",
      "Ġje w",
      "Ġpre fer",
      "}} ,",
      "Ġf rame",
      "ce an",
      "Ġhe ight",
      "Ġph one",
      "Ġl iving",
      "Ġbe com",
      "Ġh or",
      "Ġb ib",
      "ch ar",
      "pro totype",
      "pecial ly",
      "Ġfe ed",
      "Ġag re",
      "fe ature",
      "Ġdefin ition",
      "c opy",
      "n y",
      "Ġr andom",
      "Ġs ell",
      "Ġ ;",
      "Ġcor resp",
      "Ġplan et",
      "g s",
      "Ġdat ab",
      "Ġd est",
      "Ġhtt p",
      "Ġw alk",
      "Ġsome one",
      "man y",
      "Ġbro ad",
      "iv ity",
      "Ġthere fore",
      "Ġallow s",
      "Ġconc ern",
      "Ġstart ed",
      "Ġstor age",
      "Ġt ell",
      "Ġc lose",
      "Ġs ound",
      "el ess",
      "ol l",
      "Ġtrans l",
      "ail y",
      "Ġconst ant",
      "ri al",
      "r is",
      "ress ive",
      "Ġobject s",
      "Ġr ules",
      "20 13",
      "Ġt ips",
      "re st",
      "Ġgr oups",
      "Ġopt im",
      "ful ly",
      "omet imes",
      "h i",
      "m iss",
      "ish ed",
      "wor ds",
      "Ġbr anch",
      "Ġdec ision",
      "Ġhapp en",
      "g ener",
      "Ġp sy",
      "Ġe f",
      "Ġs ens",
      "Ġv ac",
      "Ġcult ure",
      "# #",
      "Ġc ou",
      "Ġdirect ly",
      "1 10",
      "Ġfunction s",
      "Ġs ong",
      "Ġim medi",
      "Ġal though",
      "Ġcons ist",
      "Ġ2 7",
      "Ġpay ment",
      "Ġcook ie",
      "Ġmax imum",
      "g i",
      "Ġas se",
      "Ġass ess",
      "Ġhigh er",
      "Ġwas h",
      "9 7",
      "d em",
      "Ġcr is",
      "$ {",
      "em ents",
      "let ter",
      "Ġrem ove",
      "k en",
      "s ome",
      "an c",
      "Ġide as",
      "bu il",
      "c are",
      "d rop",
      "e f",
      "Ġcomm ercial",
      "Ġp ict",
      "Ġconsider ed",
      "Ġsequ ence",
      "Ġpsy ch",
      "Ġ2 000",
      "Ġpro of",
      "h and",
      "ant ity",
      "Ġ= ==",
      "Ġcy cle",
      "Ġimplement ation",
      "a el",
      "Ġm is",
      "com put",
      "Ġinfl u",
      "Ġad vert",
      "Ġcomp ar",
      "Ġprodu ction",
      "ag ram",
      "str ing",
      "Ġt aken",
      "Ġs ays",
      "var iant",
      "Ġart icles",
      "v ille",
      "Ġint ellig",
      "Ġfor ward",
      "on om",
      "Ġf ra",
      "Ġac adem",
      "Ġpublish ed",
      "g est",
      "d ark",
      "Ġs we",
      "es tern",
      "cl os",
      "Ġmat ter",
      "m ult",
      "Ġm obile",
      "Ġl iter",
      "- .",
      "Ġf ul",
      "t able",
      "Ġrequ ires",
      "= /",
      "Ġcour t",
      "Ġmem ber",
      "Ġcommunic ation",
      "Ġtemper ature",
      ") }.",
      "Ġorgan ization",
      "m ath",
      "at ter",
      "Ġver ified",
      "proper ty",
      "Ġl ed",
      "Ġcor por",
      "c ustom",
      "Ġro ck",
      "re am",
      "en c",
      "for ce",
      "Ġaff ect",
      "s pe",
      "Ġa i",
      "Ġe th",
      "st e",
      "Ġw ide",
      "il s",
      "display style",
      "Ġ \\/",
      "er al",
      "Ġm ac",
      "Ġn am",
      "Ġpol itical",
      "t est",
      "Ġg ree",
      "Ġcolle ge",
      "f ol",
      "un der",
      "Ġr ound",
      "Ġnot ice",
      "v ant",
      "z z",
      "Ġfriend s",
      "am a",
      "Ġass ume",
      "ob ject",
      "Ġve h",
      "r ant",
      "des cription",
      "Ġrecomm end",
      "g ment",
      "Ġc ert",
      "Ġspe ed",
      "Ġs le",
      "l in",
      "Ġcon ne",
      "h r",
      "Ġt ren",
      "Ġw ed",
      "y ear",
      "er ve",
      "Ġpartic ip",
      "k n",
      "Ġb ur",
      "el se",
      "Ġbr ing",
      "Ġprogram ming",
      "Ġpur poses",
      "ist ry",
      "Ġav oid",
      "Ġmodel s",
      "as y",
      "ess ion",
      "ar ily",
      "c el",
      "m i",
      "Ġt aking",
      "Ġc at",
      "Ġf ields",
      "select ed",
      "ra dius",
      "8 2",
      "c id",
      "Ġus d",
      "trans l",
      "Ġappe ar",
      "Ġt arget",
      "at ory",
      "Ġstr ateg",
      "e es",
      "Ġs ense",
      "Ġf ant",
      "b d",
      "d ra",
      "Ġh alf",
      "art icles",
      "Ġst ay",
      ", [",
      "c ache",
      "sh are",
      "Ġd aily",
      "Ġ2 9",
      "og g",
      "Ġes pecially",
      "ol s",
      "ri x",
      "Ġtrans fer",
      "e qu",
      "h as",
      "Ġt aiwan",
      "ar ray",
      "ond on",
      "? \"",
      "Ġc ache",
      "loc ation",
      "Ġoffic ial",
      "h ist",
      "ud e",
      "Ġso on",
      "Ġass um",
      "Ġstore d",
      "Ġp cs",
      "wh ite",
      "+ +",
      "Ġs ans",
      "Ġ$ {",
      "Ġthe ore",
      "Ġm ist",
      "Ġg ard",
      "Ġdra w",
      "i able",
      "Ġg ar",
      "Ġbr it",
      "ist an",
      "sol ute",
      "Ġv ir",
      "Ġfo ot",
      "Ġlic ense",
      "Ġtradition al",
      "; -",
      "Ġcom pl",
      "Ġrep air",
      "Ġmathemat ical",
      "pos ed",
      "Ġrom an",
      "< /",
      "p m",
      "Ġsport s",
      "Ġj ack",
      "os p",
      "Ġlik ely",
      "r ict",
      "ar ant",
      "Ġg as",
      "not e",
      "???????? ????????",
      "t ers",
      "â Ĩ",
      "Ġs n",
      "Ġb oo",
      "Ġtyp ically",
      "âĨ Ĵ",
      "Ġline ar",
      "ub e",
      "Ġsa fe",
      "Ġob tain",
      "Ġcurrent ly",
      "\" ===",
      "w ood",
      "en abled",
      "Ġb ed",
      "Ġh old",
      "Ġsy mb",
      "Ġdev ices",
      "u el",
      "Ġlong er",
      "[ '",
      "Ġt v",
      "Ġro ot",
      "Ġsat isf",
      "Ġmedic ine",
      "ell ow",
      "Ġcas ino",
      "Ġpre vent",
      "Ġla unch",
      "Ġindepend ent",
      "Ġcharact ers",
      "ategor ies",
      "Ġstat ement",
      "Ġexam ples",
      "} ,\"",
      "Ġprocess or",
      "Ġevery one",
      "i ance",
      "se y",
      "ly ing",
      "Ġcontin ue",
      "p n",
      "Ġc ategory",
      "19 09",
      "Ġprom ot",
      "e ks",
      "Ġfil ter",
      "a o",
      "Ġev al",
      "ar m",
      "Ġse lection",
      "Ġdirect or",
      "b ur",
      "s ign",
      "Ġp en",
      "Ġb en",
      "Ġre place",
      "r at",
      "tern al",
      "Ġface book",
      ": !",
      "g ar",
      "ex am",
      "Ġtra de",
      "(' .",
      "h an",
      "al ing",
      "Ġd ed",
      "Ġinst ance",
      "iqu es",
      "Ġprovid ing",
      "h ere",
      "} ;",
      "Ġc ru",
      "it able",
      "Ġcris is",
      "s im",
      "ri ed",
      "Ġtreat ment",
      "res ult",
      "cl es",
      "ast ic",
      "6 1",
      "p ay",
      "ial og",
      "Ġgeomet ry",
      "ur ch",
      "t im",
      "Ġc ause",
      "Ġf ish",
      "as cript",
      "Ġst age",
      "Ġsu p",
      "Ġits elf",
      "Ġs ometimes",
      "Ġlo ck",
      "Ġbuil t",
      "Ġappro x",
      "Ġcost s",
      "Ġprote ction",
      "' :",
      "re place",
      "el es",
      "Ġdep artment",
      "if ul",
      "Ġal most",
      "Ġex change",
      "w p",
      "Ġb ud",
      "Ġsp ring",
      "qu e",
      "Ġpar am",
      "Ġelect ric",
      "b c",
      "cre t",
      "g ree",
      "m essage",
      "ri a",
      "Ġaut o",
      "Ġdis e",
      "Ġsh o",
      "ak er",
      "m ap",
      "Ġp et",
      "ol f",
      "Ġv en",
      "ip edia",
      "Ġsw itch",
      "Ġexper t",
      "Ġc op",
      "op acity",
      "Ġany thing",
      "it ary",
      "Ġro t",
      "Ġvi ol",
      "Ġcons ult",
      "Ġrev olution",
      "Ġd riv",
      "Ġr ule",
      "os ing",
      "Ġcomm it",
      "s at",
      "Ġf ed",
      "ou th",
      "Ġacc ur",
      "Ġinclud ed",
      "as a",
      "Ġcap t",
      "Ġqu ite",
      "h y",
      "s elling",
      "ur ation",
      "ab or",
      "Ġex erc",
      "Ġ6 0",
      "Ġre lease",
      "Ġpl us",
      "au th",
      "Ġuse ful",
      "Ġbelie ve",
      "Ġdeter min",
      "cri be",
      "fo oter",
      "Ġassoci ated",
      "Ġfor um",
      "ev ent",
      "Ġthrough out",
      "8 00",
      "ch o",
      "Ġlink ed",
      "Ġprob ably",
      "Ġbib code",
      "] :",
      "i us",
      "Ġb inary",
      "ush ima",
      "b ury",
      "im ens",
      "Ġchall eng",
      "Ġdesign ers",
      "des ign",
      "Ġde cl",
      "Ġdescri bed",
      "k y",
      "p ath",
      "om ial",
      "ĠÂ ·",
      "29 3",
      "c ook",
      "Ġc iv",
      "ip ment",
      "Ġproject s",
      "Ġrequire ments",
      "h u",
      "Ġe arn",
      "Ġl ondon",
      "Ġunderstand ing",
      "h ouse",
      "Ġ ]",
      "Ġd ie",
      "ve y",
      "Ġdist rict",
      "Ġconnect ed",
      "Ġdatab ase",
      "h ib",
      "Ġcon ference",
      "Ġother wise",
      "n am",
      "Ġm ess",
      "){ .",
      "Ġpos itive",
      "mod el",
      "s or",
      "Ġc art",
      "num ber",
      "Ġwe eks",
      "Ġde als",
      "Ġnet works",
      "w a",
      "x x",
      "Ġo cean",
      "if ts",
      "Ġref lect",
      "9 3",
      "] =",
      "Ġ ice",
      "Ġg ift",
      "un ic",
      "count ry",
      "Ġgrow th",
      "........ ........",
      "( .",
      "br idge",
      "sm all",
      "Ġprin ci",
      "Ġgir ls",
      "p al",
      "Ġm id",
      "ic i",
      "if orn",
      "Ġeffect ive",
      "Ġp ip",
      "le vel",
      "Ġdefin ed",
      "8 1",
      "com pare",
      "gy pt",
      "ap i",
      "Ġab ility",
      "Ġmov ing",
      "s oft",
      "tab ushima",
      "1909 25",
      "t ogg",
      "Ġor ders",
      "Ġ6 7",
      "trans ition",
      "Â ©",
      "Ġm aster",
      "Ġdisc ount",
      "Ġcam era",
      "Ġpro ceed",
      "Ġcan ada",
      "Ġter r",
      "Ġcreat ive",
      "Ġlevel s",
      "@@ @@",
      "wik i",
      "wh ile",
      "Ġb all",
      "Ġin nov",
      "Ġdo or",
      "mod ule",
      "fil ter",
      "Ġis n",
      "Ġwr ong",
      "Ġadv ant",
      "y er",
      "\": [",
      "feature d",
      "Ġs ix",
      "Ġl ate",
      "Ġcon duct",
      "Ġregister ed",
      "c ard",
      "Ġne igh",
      "Ġpol yn",
      "Ġhigh ly",
      "Ġdevelop ed",
      "Ġdid n",
      "y a",
      "plic ation",
      "Ġp air",
      "Ġst aff",
      "Ġj er",
      "Ġsci ences",
      "Ġinstall ation",
      "y ond",
      "Ġqu al",
      "sy stem",
      "m ine",
      "Ġlo op",
      "Ġappl ied",
      "Ġfav or",
      "z er",
      "Ġb order",
      "Ġv s",
      "Ġsk ills",
      "Ġselect ed",
      "mb ly",
      "Ġre nt",
      "Ġy es",
      "Ġfil es",
      "Ġlead ers",
      "ane ous",
      "or ig",
      "Ġaustral ia",
      "Ġdes cription",
      "Ġpart ners",
      "Ġsur face",
      "Ġelect ron",
      "Ġann oun",
      ", ._",
      "Ġu t",
      "Ġemploy er",
      "Ġsched ule",
      "ge bra",
      "Ġcont ext",
      "Ġup on",
      "le br",
      "ic o",
      "ag ement",
      "Ġwho se",
      "Ġgreat er",
      "Ġquick ly",
      "clus ive",
      "Ġsub section",
      "Ġur l",
      "Ġ Î",
      "Ġ( )",
      "ag o",
      "Ġgu arant",
      "Ġw ent",
      "Ġyour self",
      "list ing",
      "Ġdi am",
      "in os",
      "st ar",
      "Ġle an",
      "pt ion",
      "Ġinter view",
      "Ġpre c",
      "Ġreg ion",
      ") },",
      "p an",
      "Ġi i",
      "Ġbut ton",
      "Ġread y",
      "Ġinvest ment",
      "Ġh t",
      "Ġrec ent",
      "att ribute",
      "Ġeas ily"
    ]
  }
}