{"<|endoftext|>":0,"!":1,"\"":2,"#":3,"$":4,"%":5,"&":6,"'":7,"(":8,")":9,"*":10,"+":11,",":12,"-":13,".":14,"/":15,"0":16,"1":17,"2":18,"3":19,"4":20,"5":21,"6":22,"7":23,"8":24,"9":25,":":26,";":27,"<":28,"=":29,">":30,"?":31,"@":32,"A":33,"B":34,"C":35,"D":36,"E":37,"F":38,"G":39,"H":40,"I":41,"J":42,"K":43,"L":44,"M":45,"N":46,"O":47,"P":48,"Q":49,"R":50,"S":51,"T":52,"U":53,"V":54,"W":55,"X":56,"Y":57,"Z":58,"[":59,"\\":60,"]":61,"^":62,"_":63,"`":64,"a":65,"b":66,"c":67,"d":68,"e":69,"f":70,"g":71,"h":72,"i":73,"j":74,"k":75,"l":76,"m":77,"n":78,"o":79,"p":80,"q":81,"r":82,"s":83,"t":84,"u":85,"v":86,"w":87,"x":88,"y":89,"z":90,"{":91,"|":92,"}":93,"~":94,"¡":95,"¢":96,"£":97,"¤":98,"¥":99,"¦":100,"§":101,"¨":102,"©":103,"ª":104,"«":105,"¬":106,"®":107,"¯":108,"°":109,"±":110,"²":111,"³":112,"´":113,"µ":114,"¶":115,"·":116,"¸":117,"¹":118,"º":119,"»":120,"¼":121,"½":122,"¾":123,"¿":124,"À":125,"Á":126,"Â":127,"Ã":128,"Ä":129,"Å":130,"Æ":131,"Ç":132,"È":133,"É":134,"Ê":135,"Ë":136,"Ì":137,"Í":138,"Î":139,"Ï":140,"Ð":141,"Ñ":142,"Ò":143,"Ó":144,"Ô":145,"Õ":146,"Ö":147,"×":148,"Ø":149,"Ù":150,"Ú":151,"Û":152,"Ü":153,"Ý":154,"Þ":155,"ß":156,"à":157,"á":158,"â":159,"ã":160,"ä":161,"å":162,"æ":163,"ç":164,"è":165,"é":166,"ê":167,"ë":168,"ì":169,"í":170,"î":171,"ï":172,"ð":173,"ñ":174,"ò":175,"ó":176,"ô":177,"õ":178,"ö":179,"÷":180,"ø":181,"ù":182,"ú":183,"û":184,"ü":185,"ý":186,"þ":187,"ÿ":188,"Ā":189,"ā":190,"Ă":191,"ă":192,"Ą":193,"ą":194,"Ć":195,"ć":196,"Ĉ":197,"ĉ":198,"Ċ":199,"ċ":200,"Č":201,"č":202,"Ď":203,"ď":204,"Đ":205,"đ":206,"Ē":207,"ē":208,"Ĕ":209,"ĕ":210,"Ė":211,"ė":212,"Ę":213,"ę":214,"Ě":215,"ě":216,"Ĝ":217,"ĝ":218,"Ğ":219,"ğ":220,"Ġ":221,"ġ":222,"Ģ":223,"ģ":224,"Ĥ":225,"ĥ":226,"Ħ":227,"ħ":228,"Ĩ":229,"ĩ":230,"Ī":231,"ī":232,"Ĭ":233,"ĭ":234,"Į":235,"į":236,"İ":237,"ı":238,"Ĳ":239,"ĳ":240,"Ĵ":241,"ĵ":242,"Ķ":243,"ķ":244,"ĸ":245,"Ĺ":246,"ĺ":247,"Ļ":248,"ļ":249,"Ľ":250,"ľ":251,"Ŀ":252,"ŀ":253,"Ł":254,"ł":255,"Ń":256,"Ġt":257,"Ġa":258,"in":259,"er":260,"on":261,"Ġth":262,"re":263,"Ġs":264,"Ġc":265,"at":266,"or":267,"en":268,"Ġthe":269,"es":270,"it":271,"Ġp":272,"is":273,"an":274,"Ġw":275,"al":276,"Ġo":277,"Ġf":278,"Ġb":279,"ar":280,"Ġm":281,"ed":282,"ing":283,"ou":284,"le":285,"Ġan":286,"Ġd":287,"ion":288,"ic":289,"Ġin":290,"Ġh":291,"Ġto":292,"Ġof":293,"ro":294,"Ġand":295,"as":296,"Ġn":297,"ct":298,"ent":299,"Ġe":300,"Ġl":301,"th":302,"om":303,"Ġre":304,"st":305,"il":306,"ch":307,"Ġg":308,"el":309,"Ġ(":310,"et":311,"ol":312,"id":313,"im":314,"Ġy":315,"Ġu":316,"ig":317,"00":318,"Ġis":319,"ur":320,"ve":321,"ra":322,"ation":323,"se":324,"ce":325,"ut":326,"Ġfor":327,"ow":328,"Ġyou":329,"Ġ2":330,"ot":331,"ay":332,"am":333,"Ġst":334,"Ġon":335,"Ġ1":336,"ly":337,"Ġv":338,"if":339,"ad":340,"ers":341,"Ġbe":342,"em":343,"ith":344,"ag":345,"Ġpro":346,"ul":347,"ir":348,"un":349,"ter":350,"od":351,"Ġcon":352,"ab":353,"Ġwh":354,"Ġal":355,"Ġthat":356,"Ġit":357,"??":358,"Ġ.":359,"op":360,"um":361,"ver":362,"Ġwith":363,"Ġas":364,"ck":365,"Ġr":366,"qu":367,"us":368,"Ġor":369,"ht":370,"ist":371,"est":372,"Ġj":373,"ess":374,"Ġwe":375,"ri":376,"Ġcom":377,"pl":378,"Ġch":379,"ction":380,"ate":381,"Ġse":382,",\"":383,"Ġk":384,"res":385,"Ġne":386,"Ġ-":387,"ment":388,"and":389,"Ġex":390,"Ġare":391,"Ġ20":392,"ill":393,"ap":394,"Ġde":395,"iv":396,"os":397,"ore":398,"Ġthis":399,"ity":400,"Ġsh":401,"end":402,"pe":403,"oun":404,"ight":405,"Ġsu":406,"ex":407,"..":408,"Ġi":409,"for":410,"'s":411,"ere":412,"\":":413,"ant":414,"rom":415,"ain":416,"art":417,"Ġ\"":418,"ies":419,"Ġby":420,"ak":421,"ive":422,"lo":423,"com":424,"Ġyour":425,"Ġle":426,"Ġun":427,"Ġcan":428,"ort":429,"Ġat":430,"ld":431,"all":432,"ci":433,"age":434,"ine":435,"Ġus":436,"pt":437,"per":438,"ge":439,"ust":440,"ure":441,"ave":442,"Ġfrom":443,"Ġnot":444,"\",\"":445,"og":446,"ber":447,"Ġwor":448,").":449,"Ġar":450,"iz":451,"ie":452,"Ġpl":453,"Ġad":454,"pp":455,"20":456,"der":457,"oo":458,"ac":459,"ack":460,"ard":461,"ther":462,"ru":463,"ia":464,"Ġcomp":465,"ach":466,"con":467,"are":468,"cl":469,"yb":470,"ical":471,"able":472,"ost":473,"ud":474,"form":475,"ail":476,"of":477,"ice":478,"Ġhave":479,"ans":480,"Ġall":481,"out":482,"ign":483,"ite":484,"ind":485,"our":486,"Ġ3":487,"Ġhe":488,"ass":489,"Ġdo":490,"Ġcl":491,"Ġif":492,"Ġcont":493,"ell":494,"ary":495,"Ġ201":496,"Ġim":497,"the":498,"003":499,"ext":500,"ide":501,"Ġen":502,"ition":503,"av":504,"ect":505,"du":506,"ult":507,"),":508,"ire":509,"Ġ=":510,"ast":511,"Ġ0":512,"ome":513,"ip":514,"ase":515,"????":516,"ib":517,"Ġwill":518,"cc":519,"ry":520,"ence":521,"Ġab":522,");":523,"ook":524,"ub":525,"one":526,"10":527,"act":528,"Ġres":529,"ue":530,"we":531,"ph":532,"Ġ?":533,"Ġ4":534,"pro":535,"ated":536,"Ġme":537,"ich":538,"ial":539,"ations":540,"ound":541,"ik":542,"ame":543,"Ġnew":544,"Ġso":545,"to":546,"fer":547,"Ġwas":548,"px":549,"ould":550,"Ġ{":551,"ance":552,"ime":553,"so":554,"int":555,"Ġ5":556,"ath":557,"ata":558,"ĠĠ":559,"unction":560,"ff":561,"99":562,"sh":563,"ple":564,"ace":565,"Ġ6":566,"ree":567,"\":\"":568,"ual":569,"ory":570,"ress":571,"Ġdis":572,"ions":573,"ps":574,"oc":575,"ang":576,"Ġsp":577,"Ġ&":578,"Ġmore":579,"ong":580,"ount":581,"\\\"":582,"text":583,"Ġour":584,"ous":585,"Ġro":586,"23":587,"Ġgo":588,"Ġbut":589,"ish":590,"Ġem":591,"lect":592,"Ġhas":593,"Ġqu":594,"de":595,"ms":596,"Ġthey":597,"arch":598,"Ġman":599,"urn":600,"erv":601,"oug":602,"ile":603,"Ġout":604,"Ġno":605,"Ġfe":606,"Ġinter":607,"col":608,"Ġper":609,"11":610,"Ġdes":611,"Ġ$":612,"ren":613,"Ġone":614,"\\/":615,"--":616,"Ġup":617,"ark":618,"ake":619,"te":620,"ne":621,"Ġte":622,"Ġany":623,"Ġtra":624,"ens":625,"\",":626,"ents":627,"ick":628,"own":629,"Ġ|":630,"Ġ}":631,"vel":632,"}.":633,"ink":634,"cial":635,"port":636,"ds":637,"au":638,"Ġmay":639,"Ġwhich":640,"Ġtheir":641,"bs":642,"Ġpre":643,"ors":644,"ty":645,"this":646,"Ġpart":647,"Ġsome":648,"pr":649,"Ġcol":650,"//":651,"Ġev":652,"12":653,"19":654,"Ġtime":655,"ode":656,"Ġtr":657,"Ġwork":658,"Ġcomm":659,"Ġam":660,"Ġhow":661,"Ġpr":662,"ics":663,"ww":664,"he":665,"duct":666,"Ġacc":667,"Ġother":668,"ough":669,"Ġinst":670,"){":671,"Ġsy":672,"ov":673,"Ġadd":674,"Ġthere":675,"ely":676,"ings":677,"ys":678,"22":679,"ram":680,"low":681,"Ġuse":682,"cess":683,"Ġph":684,"16":685,"iew":686,"ian":687,"ont":688,"'t":689,"arg":690,"Ġdata":691,"==":692,"Ġind":693,"cre":694,"15":695,"Ġval":696,"bo":697,"Ġag":698,"ize":699,"Ġspe":700,"turn":701,"Ġreg":702,"ces":703,"Ġabout":704,"ear":705,"ery":706,"Ġalso":707,"Ġ7":708,"Ġset":709,"row":710,"000":711,"14":712,"Ġ'":713,"Ġbo":714,"lement":715,"...":716,"reat":717,"ert":718,"(\"":719,"igh":720,"Ġapp":721,"irst":722,"25":723,"ays":724,"var":725,"ble":726,"ding":727,"Ġcons":728,"13":729,"ull":730,"__":731,"Ġkn":732,"over":733,"ax":734,"Ġwhen":735,"Ġneed":736,"atch":737,"ike":738,"Ġed":739,"line":740,"Ġtw":741,"olog":742,"Ġra":743,"ove":744,"ft":745,"ates":746,"gr":747,"Ġserv":748,"wor":749,"Ġthan":750,"Ġits":751,"ject":752,"ubl":753,"function":754,"wh":755,"Ġx":756,"color":757,"stem":758,"Ġget":759,"Ġnum":760,"Ġmod":761,"aw":762,"ater":763,"Ġthese":764,"cont":765,"Ġwhat":766,"Ġpol":767,"Ġmy":768,"Ġprov":769,"18":770,"Ġap":771,"be":772,"cri":773,"Ġke":774,"Ġwho":775,"Ġhel":776,"ices":777,"but":778,"ally":779,"arn":780,"Ġpo":781,"Ġworld":782,"Ġ10":783,"Ġbr":784,"Ġsol":785,"ict":786,"Ġover":787,"les":788,"iss":789,"Ġrec":790,"formation":791,"Ġpe":792,"wid":793,"Ġ8":794,"ific":795,"Ġ19":796,"<|":797,"endof":798,"|>":799,"endoftext":800,"ener":801,"Ġfirst":802,"fter":803,"plic":804,"ages":805,"Ġ200":806,"Ġoff":807,"ild":808,"eng":809,"Ġplay":810,"Ġvar":811,"Ġrequ":812,"Ġonly":813,"very":814,"cy":815,"Ġrel":816,"Ġbu":817,"}}":818,"ons":819,"clud":820,"ible":821,"Ġsub":822,"Ġgr":823,".[":824,"Ġunder":825,"Ġdesign":826,"Ġsystem":827,"ep":828,"ility":829,"play":830,"ational":831,"pos":832,"66":833,"dis":834,"Ġbet":835,"Ġ+":836,"tr":837,"50":838,"://":839,"17":840,"Ġinformation":841,"get":842,"man":843,"Ġ#":844,"its":845,"put":846,"Ġ/":847,"Ġthem":848,"ss":849,"land":850,"ug":851,"up":852,"Ġinto":853,"33":854,"ating":855,"raph":856,"app":857,"led":858,"Ġyear":859,"ml":860,"Ġclass":861,"ise":862,"Ġgu":863,"Ġtwo":864,"ange":865,"Ġmost":866,"oy":867,"Ġpos":868,"Ġass":869,"ob":870,"ied":871,"Ġsch":872,"val":873,"Ġ[":874,"Ġthen":875,"Ġbl":876,"Ġsim":877,"Ġtrans":878,"Ġsm":879,"Ġart":880,"Ġac":881,"ton":882,"Ġdif":883,"Ġlike":884,"Ġeach":885,"24":886,"Ġhigh":887,"ative":888,"gor":889,"=\\\"":890,"min":891,"Ġco":892,"Ġ._":893,"let":894,"ose":895,"fore":896,"Ġsuch":897,"ited":898,"Ġfunction":899,"air":900,"view":901,"sp":902,"ale":903,"ular":904,"Ġhis":905,"&&":906,"Ġ9":907,"Ġprog":908,"Ġz":909,"med":910,".,":911,"Ġwere":912,"Ġbeen":913,"width":914,"\".":915,"Ġwould":916,"Ġprocess":917,"ev":918,"io":919,"itt":920,"ower":921,"ced":922,"Ġsc":923,"tt":924,"inal":925,"Ġmed":926,"ctions":927,"Ġent":928,"td":929,"ks":930,"ause":931,"Ġact":932,"Ġread":933,"Ġ<":934,"ures":935,"21":936,"Ġbus":937,"pect":938,"ll":939,"lock":940,"ities":941,"ious":942,"ke":943,"Ġform":944,"Ġrep":945,"Ġused":946,"Ġinclud":947,"ily":948,"Ġcre":949,"iel":950,"erson":951,"Ġty":952,"ĠĠĠĠ":953,"als":954,"Ġstud":955,"ract":956,"not":957,"Ġbas":958,"search":959,"ople":960,"ix":961,"yle":962,"Ġsupp":963,"ublic":964,"Ġcent":965,"Ġmake":966,"ines":967,"ology":968,"urren":969,"Ġter":970,"Ġinv":971,"Ġmin":972,"Ġjust":973,"ments":974,"ood":975,"},":976,"Ġknow":977,"Ġhelp":978,"Ġright":979,"Ġopt":980,"mber":981,"back":982,"Ġnumber":983,"ful":984,"Ġint":985,"Ġsee":986,"Ġexam":987,"Ġexper":988,"rough":989,"Ġproble":990,"list":991,"ues":992,"Ġgener":993,"fin":994,"28":995,"Ġproduct":996,"78":997,"Ġfol":998,"Ġcomput":999,"Ġpeople":1000,"Ġmark":1001,"riv":1002,"Ġlist":1003,"Ġrem":1004,"Ġcor":1005,"Ġher":1006,"irt":1007,"day":1008,"ution":1009,"Ġcar":1010,"Ġsa":1011,"Ġdiffer":1012,"200":1013,"ivers":1014,"ins":1015,"Ġback":1016,"Ġmem":1017,"iness":1018,"tern":1019,"ature":1020,"Ġwr":1021,"30":1022,"lex":1023,"',":1024,"Ġlook":1025,"Ġ2023":1026,"ider":1027,"????????":1028,"ash":1029,"ident":1030,"Ġfl":1031,"Ġafter":1032,"Ġevery":1033,"ement":1034,"Ġmon":1035,"velop":1036,"Ġthrough":1037,"Ġtech":1038,"Ġav":1039,"gorith":1040,"Ġusing":1041,"ord":1042,"Ġsci":1043,"cept":1044,"uring":1045,"._":1046,"26":1047,"Ġfind":1048,"order":1049,"Ġbec":1050,"Ġwebs":1051,"Ġshow":1052,"ning":1053,"ade":1054,"ts":1055,"ner":1056,"Ġ\\":1057,"thing":1058,"ah":1059,"Ġdisc":1060,"read":1061,"old":1062,"top":1063,"Ġmany":1064,"return":1065,"font":1066,"ural":1067,"Ġdet":1068,"Ġreal":1069,"Ġoper":1070,"Ġway":1071,"Ġvis":1072,"Ġatt":1073,"eck":1074,"ank":1075,"ient":1076,"Ġins":1077,"alth":1078,"cript":1079,"40":1080,"Ġvalue":1081,"element":1082,"opt":1083,"fl":1084,"ric":1085,"Ġwhere":1086,"Ġresult":1087,"Ġel":1088,"ife":1089,"Ġbest":1090,"ond":1091,"Ġstr":1092,"ier":1093,"Ġshould":1094,"Ġfollow":1095,"Ġcook":1096,"Ġwell":1097,"Ġlearn":1098,"right":1099,"Ġperson":1100,"resent":1101,"pre":1102,"Ġbusiness":1103,"par":1104,"Ġloc":1105,"Ġbel":1106,"Ġeng":1107,"Ġpoint":1108,"\\\\":1109,"Ġcall":1110,"ets":1111,"irect":1112,"ify":1113,"Ġext":1114,"('":1115,"Ġend":1116,"dition":1117,"0000":1118,"Ġdevelop":1119,"fe":1120,"Ġret":1121,"az":1122,":\"":1123,"ott":1124,"ument":1125,"Ġalgorith":1126,"ybar":1127,"Ġarch":1128,"Ġnow":1129,"ustom":1130,"Ġtechn":1131,"Ġadv":1132,"Ġcommun":1133,"Ġdel":1134,"www":1135,"Ġdec":1136,"html":1137,"Ġnor":1138,"select":1139,"ern":1140,"yn":1141,"Ġhad":1142,"elf":1143,"Ġjo":1144,"Ġfr":1145,"Ġob":1146,"Ġfin":1147,"gan":1148,"wn":1149,"29":1150,"))":1151,"Ġhtt":1152,"Ġprogram":1153,"Ġhere":1154,"str":1155,"Ġwebsite":1156,"Ġwant":1157,"Ġexp":1158,"ruct":1159,"Ġaccess":1160,"other":1161,"Ġhome":1162,"Ġlo":1163,"27":1164,"ween":1165,"Ġplan":1166,"Ġchar":1167,"Ġpur":1168,"me":1169,"Ġbecause":1170,"Ġreturn":1171,"Ġcount":1172,"Ġdoes":1173,"set":1174,"Ġwhile":1175,"ting":1176,"log":1177,"ward":1178,"cent":1179,"height":1180,"36":1181,"ploy":1182,"Ġpage":1183,"ground":1184,"Ġorder":1185,"Ġconst":1186,"Ġeff":1187,"48":1188,"ason":1189,"âĢ":1190,"âĢ¢":1191,"mail":1192,"....":1193,"Ġfree":1194,"thod":1195,"38":1196,"Ġequ":1197,"uch":1198,"Ġsign":1199,"Ġsur":1200,"display":1201,"Ġear":1202,"Ġvery":1203,"Ġcr":1204,"ism":1205,"ically":1206,"Ġdifferent":1207,"iqu":1208,"rol":1209,"):":1210,"ized":1211,"net":1212,"Ġ:":1213,"ray":1214,"abel":1215,"Ġcap":1216,"Ġstart":1217,"ody":1218,"Ġ,":1219,"type":1220,"Ġbeing":1221,"by":1222,"Ġgreat":1223,"Ġpost":1224,"Ġdist":1225,"09":1226,"irtual":1227,"ium":1228,"46":1229,"Ġop":1230,"br":1231,"Ġbetween":1232,"ribut":1233,"Ġcam":1234,"Ġexample":1235,"Ġ12":1236,"und":1237,"ailable":1238,"Ġsk":1239,"ury":1240,"Ġanal":1241,"box":1242,"data":1243,"ool":1244,"Ġdown":1245,"Ġlong":1246,"Ġpay":1247,"ator":1248,"itle":1249,"Ġsame":1250,"lease":1251,"ipp":1252,"product":1253,"aking":1254,":#":1255,"oup":1256,"gy":1257,"57":1258,"Ġorig":1259,"rue":1260,"Ġsupport":1261,"comm":1262,"att":1263,"Ġcould":1264,"86":1265,"ina":1266,"Ġdon":1267,"item":1268,"ever":1269,"eme":1270,"Ġonline":1271,"Ġeven":1272,"name":1273,"Ġunivers":1274,"nt":1275,"Ġtop":1276,"Ġhealth":1277,"ene":1278,"ee":1279,"Ġday":1280,"Ġemploy":1281,"portant":1282,"ars":1283,"Ġproblem":1284,"ength":1285,"Ġser":1286,"Ġshe":1287,"100":1288,"ai":1289,"uc":1290,"Ġmain":1291,"trans":1292,"argin":1293,"any":1294,"80":1295,"ired":1296,"Ġmult":1297,"ived":1298,"Ġprovid":1299,"ives":1300,"sw":1301,"=\"":1302,"Ġgood":1303,"Ġdirect":1304,"uss":1305,"class":1306,"Ġappro":1307,"56":1308,"Ġyears":1309,"bers":1310,"Ġhist":1311,"ames":1312,"urrent":1313,"new":1314,".?":1315,"Ġposs":1316,"ather":1317,"ield":1318,"Ġlink":1319,"Ġiss":1320,"Ġlog":1321,"indow":1322,"ience":1323,"Ġservices":1324,"ability":1325,"'re":1326,",.":1327,"Ġservice":1328,"Ġspec":1329,"()":1330,"Ġcustom":1331,"Ġbook":1332,"sc":1333,"men":1334,"ional":1335,"oid":1336,"add":1337,"Ġmar":1338,"ital":1339,"Ġkey":1340,"left":1341,"Ġview":1342,"Ġpower":1343,"70":1344,"Ġconsider":1345,"ok":1346,"Ġest":1347,"ified":1348,"59":1349,"ety":1350,"ences":1351,"Ġcle":1352,"Ġproper":1353,"ister":1354,"39":1355,"?\",\"":1356,"Ġprof":1357,"\":\"?\",\"":1358,"44":1359,"ential":1360,"Ġhand":1361,"cur":1362,"Ġdi":1363,"red":1364,"Ġpat":1365,"akes":1366,"imes":1367,"err":1368,"ush":1369,"Ġhttps":1370,"Ġsl":1371,"ince":1372,"Ġitem":1373,"Ġpar":1374,"alse":1375,"margin":1376,"(--":1377,"htt":1378,"Ġlife":1379,"||":1380,"head":1381,"igure":1382,"fr":1383,"Ġvirtual":1384,"way":1385,"co":1386,"image":1387,"Ġtake":1388,"Ġeas":1389,"acy":1390,"Ġma":1391,"xt":1392,"Ġstat":1393,"requ":1394,"Ġ)":1395,"Ġsize":1396,"Ġsearch":1397,"Ġfil":1398,"Ġdep":1399,"Ġnet":1400,"Ġge":1401,"Ġ13":1402,"Ġstate":1403,"ral":1404,"ually":1405,"Ġcare":1406,"Ġ18":1407,"shop":1408,"Ġmodel":1409,"fa":1410,"vent":1411,"ember":1412,"Ġlet":1413,"vis":1414,"work":1415,"Ġfound":1416,"Ġrun":1417,"bl":1418,"Ġbefore":1419,"Ġcase":1420,"Ġfam":1421,"cr":1422,"background":1423,"eric":1424,"des":1425,"Ġwar":1426,"Ġalgorithm":1427,"Ġagain":1428,"icy":1429,"mod":1430,"ger":1431,"oft":1432,"76":1433,"ality":1434,"Ġmade":1435,"ware":1436,"Ġperform":1437,"Ġmuch":1438,"Ġlaw":1439,"Ġ11":1440,"Ġinstru":1441,"sub":1442,"58":1443,"inter":1444,"Ġmanag":1445,"Ġcontain":1446,"79":1447,"aut":1448,"{\"":1449,"ists":1450,"ouse":1451,"une":1452,"arge":1453,"idd":1454,"Ġsmall":1455,"Ġcour":1456,"Ġown":1457,"Ġcal":1458,"Ġmust":1459,"Ġ2019":1460,"ization":1461,"Ġhum":1462,"Ġfact":1463,"Ġboth":1464,"Ġ2022":1465,"size":1466,"pad":1467,".\"":1468,"Ġ*":1469,"Ġuniversity":1470,"ute":1471,"unch":1472,"Ġau":1473,"content":1474,"],":1475,"ased":1476,"Ġvari":1477,")}":1478,"place":1479,"ency":1480,"Ġmarket":1481,"Ġoriginal":1482,"Ġjan":1483,"cond":1484,"border":1485,"ek":1486,"style":1487,"fo":1488,"cle":1489,"Ġapplic":1490,"pare":1491,"Ġsw":1492,"Ġplease":1493,"Ġcost":1494,"Ġchild":1495,"cart":1496,"ten":1497,"ross":1498,"54":1499,"angu":1500,"Ġ>":1501,"odes":1502,"Ġdiv":1503,"Ġemail":1504,"price":1505,"Ġavailable":1506,"lection":1507,"Ġaddition":1508,"cember":1509,"Ġaut":1510,"theme":1511,"Ġincre":1512,"Ġresp":1513,"null":1514,"Ġresearch":1515,"ule":1516,"Ġlight":1517,"Ġlim":1518,"come":1519,"Ġ{{":1520,"rop":1521,"Ġintern":1522,"rap":1523,"pg":1524,"stand":1525,"ns":1526,"Ġet":1527,"Ġcontent":1528,"Ġallow":1529,"Ġlead":1530,"ness":1531,"Ġpriv":1532,"Ġstand":1533,"Ġmethod":1534,"Ġgraph":1535,"ining":1536,"Ġline":1537,"icle":1538,"code":1539,"Ġmet":1540,"glo":1541,"Ġorgan":1542,"Ġspecial":1543,"Ġste":1544,"Ġtem":1545,"Ġhowever":1546,"Ġ...":1547,"emat":1548,"Ġtype":1549,"Ġsite":1550,"Ġscience":1551,"opy":1552,"load":1553,"Ġrece":1554,"Ġduring":1555,"Ġproject":1556,"Ġmov":1557,"ants":1558,"riev":1559,"Ġnews":1560,"Ġaddress":1561,"Ġpublic":1562,"Ġtest":1563,"Ġ16":1564,"po":1565,"Ġstore":1566,"ense":1567,"position":1568,"di":1569,"Ġfull":1570,"Ġbrow":1571,"title":1572,"ann":1573,"Ġpartic":1574,"bn":1575,"Ġpress":1576,"ock":1577,"padding":1578,"ases":1579,"cd":1580,"Ġthose":1581,"Ġ!":1582,"index":1583,"Ġteam":1584,"Ġlevel":1585,"Ġexpl":1586,"Ġselect":1587,"Ġquest":1588,"Ġsing":1589,"Ġelement":1590,"Ġdecember":1591,"Ġgra":1592,"rem":1593,"Ġlast":1594,"alk":1595,"Ġaug":1596,"iver":1597,"itch":1598,"Ġwithout":1599,"rieved":1600,"Ġnat":1601,"Ġcontrol":1602,"Ġgre":1603,"gg":1604,"less":1605,"ograph":1606,"iting":1607,"Ġ15":1608,"Ġexperience":1609,"Ġmach":1610,"bal":1611,"org":1612,"Ġisland":1613,"ips":1614,"Ġ2021":1615,"Ġschool":1616,"Ġmath":1617,"Ġ//":1618,"Ġpass":1619,"49":1620,"Ġnext":1621,"iven":1622,"mal":1623,"Ġju":1624,"60":1625,"Ġaccount":1626,"Ġoct":1627,"ocus":1628,"Ġspace":1629,"ately":1630,"Ġnon":1631,"Ġelect":1632,"37":1633,"Ġair":1634,"Ġeffect":1635,"Ġplace":1636,"omet":1637,"Ġmonth":1638,"Ġcookies":1639,"Ġthink":1640,"Ġref":1641,"Ġtext":1642,"Ġwithin":1643,"Ġretrieved":1644,"ym":1645,"Ġvol":1646,"uary":1647,"lish":1648,"ved":1649,"count":1650,"plement":1651,"web":1652,"Ġpossible":1653,"45":1654,"][":1655,"===":1656,"Ġprovide":1657,"Ġport":1658,"ertain":1659,"cs":1660,"Ġpolicy":1661,"Ġbro":1662,"Ġ#>":1663,"Ġcheck":1664,"url":1665,"itor":1666,"Ġtyp":1667,"Ġpop":1668,"Ġsince":1669,"Ġapr":1670,"Ġleg":1671,"Ġcode":1672,"Ġrequest":1673,"Ġbre":1674,"ober":1675,"son":1676,"ottom":1677,"}._":1678,"Ġident":1679,"Ġuser":1680,"Ġfollowing":1681,"Ġ2020":1682,"____":1683,"Ġide":1684,"35":1685,"Ġsou":1686,"Ġwords":1687,"\\\"\\":1688,"Ġwater":1689,"block":1690,"Ġname":1691,"my":1692,"Ġdev":1693,"Ġopen":1694,"menu":1695,"Ġgeneral":1696,"orn":1697,"Ġhistory":1698,"Ġblack":1699,"Ġcompany":1700,"Ġgame":1701,"\")":1702,"Ġreport":1703,"Ġpersonal":1704,"Ġthree":1705,"].":1706,"Ġprodu":1707,"Ġ199":1708,"apter":1709,"nect":1710,"align":1711,"Ġterms":1712,"ots":1713,"Ġproducts":1714,"ptember":1715,"ote":1716,"Ġcurrent":1717,"jpg":1718,"Ġ$)":1719,"Ġcondition":1720,"ways":1721,"ones":1722,"Ġgl":1723,"Ġcontin":1724,"Ġdid":1725,"Ġsection":1726,"Ġmarch":1727,"Ġgroup":1728,"Ġtheory":1729,"vert":1730,"ma":1731,"watch":1732,"Ġinterest":1733,"Ġreview":1734,"'ll":1735,"Ġcontact":1736,"imate":1737,"77":1738,"olution":1739,"vg":1740,"gb":1741,"Ġcy":1742,"Ġlangu":1743,"flex":1744,"Ġinc":1745,"Ġlarge":1746,"Ġrepresent":1747,"Ġoctober":1748,"Ġoffer":1749,"ves":1750,"Ġincluding":1751,"Ġcharact":1752,"af":1753,"uro":1754,"----":1755,"Ġpack":1756,"ift":1757,"Ġsecond":1758,"iter":1759,"Ġmight":1760,"Ġglo":1761,"ards":1762,"Ġnove":1763,"Ġ14":1764,"Ġnovember":1765,"Ġtry":1766,"55":1767,"Ġstruct":1768,"Ġimplement":1769,"Ġapril":1770,"ites":1771,"ser":1772,"(){":1773,"gin":1774,"su":1775,"oph":1776,"ively":1777,"go":1778,"bu":1779,"Ġpath":1780,"Ġpract":1781,"32":1782,"Ġbuil":1783,"Ġsum":1784,"Ġchange":1785,"Ġauth":1786,"time":1787,"Ġjanuary":1788,"icon":1789,"por":1790,"ccess":1791,"Ġinvest":1792,"rist":1793,"Ġlat":1794,"imum":1795,"Ġseptember":1796,"Ġstill":1797,"sm":1798,"Ġ%":1799,"Ġweb":1800,"Ġaugust":1801,"Ġchang":1802,"book":1803,"length":1804,"Ġanother":1805,"ges":1806,"Ġprice":1807,"globo":1808,"Ġnatural":1809,"ysis":1810,"page":1811,"Ġphys":1812,"ource":1813,"Ġdetail":1814,"ec":1815,":{":1816,"Ġ??":1817,"button":1818,"Ġhol":1819,"Ġnode":1820,"Ġpres":1821,"ling":1822,"Ġmat":1823,"https":1824,"ron":1825,"Ġtree":1826,"89":1827,"Ġes":1828,"riend":1829,"Ġsocial":1830,"mm":1831,"ision":1832,"iron":1833,"Ġmathemat":1834,"Ġtri":1835,"loc":1836,"Ġdefin":1837,"ateg":1838,"Ġregister":1839,"selector":1840,"Ġcomputer":1841,"Ġsal":1842,"tain":1843,"ipping":1844,"'ve":1845,"ven":1846,"Ġsoft":1847,"ibr":1848,"Ġjune":1849,"Ġhapp":1850,"Ġconf":1851,"ission":1852,"Ġve":1853,"Ġbased":1854,"Ġhead":1855,"ought":1856,"use":1857,"Ġimportant":1858,"error":1859,"Ġplayers":1860,"atures":1861,"Ġ17":1862,"now":1863,"Ġtable":1864,"34":1865,"ires":1866,"ane":1867,"Ġtoo":1868,"light":1869,"Ġsun":1870,"Ġcity":1871,"Ġjuly":1872,"ĠÂ":1873,"Ġgover":1874,"mb":1875,"Ġlove":1876,"aterial":1877,"ming":1878,"cing":1879,"Ġtool":1880,"label":1881,"Ġtrack":1882,"Ġhard":1883,"bru":1884,"Ġgive":1885,"Ġisbn":1886,"iving":1887,"option":1888,"Ġarchived":1889,"you":1890,"();":1891,"Ġdem":1892,"Ġsystems":1893,"how":1894,"Ġshare":1895,"Ġcir":1896,"contain":1897,"Ġfamily":1898,"ze":1899,"Ġless":1900,"88":1901,"rel":1902,"body":1903,"nav":1904,"doc":1905,"Ġmus":1906,"Ġver":1907,"aving":1908,"Ġobject":1909,"Ġaff":1910,"link":1911,"ytheme":1912,"fect":1913,"soci":1914,"after":1915,"&&(":1916,"key":1917,"Ġlearning":1918,"weight":1919,"Ġann":1920,"ideo":1921,"mer":1922,"itive":1923,"ley":1924,"value":1925,"ples":1926,"**":1927,"Ġwom":1928,"Ġcreate":1929,"Ġdays":1930,"='":1931,"Ġaf":1932,"Ġold":1933,"Ġgiven":1934,"Ġsat":1935,"Ġwindow":1936,"amp":1937,"Ġaround":1938,"oney":1939,"Ġq":1940,"iod":1941,"Ġbetter":1942,"Ġcommunity":1943,"Ġdoc":1944,"bruary":1945,"Ġcreat":1946,"Ġprofess":1947,"Ġkeep":1948,"Ġfew":1949,"Ġeduc":1950,"Ġgovern":1951,"Ġstyle":1952,"no":1953,"69":1954,"ending":1955,"199":1956,"ior":1957,"Ġsay":1958,"bar":1959,"ering":1960,"Ġli":1961,"Ġhuman":1962,"Ġanalysis":1963,"Ġwhe":1964,"bed":1965,"cription":1966,"lete":1967,"ache":1968,"hip":1969,"ledge":1970,"Ġimp":1971,"Ġimpro":1972,"Ġameric":1973,"Ġmo":1974,"do":1975,"els":1976,".;":1977,"\").":1978,"Ġunderstand":1979,"sol":1980,"Ġ2017":1981,"Ġweek":1982,"Ġla":1983,"with":1984,"75":1985,"Ġ30":1986,"Ġhy":1987,"Ġmax":1988,"vers":1989,"ique":1990,"off":1991,"oss":1992,"Ġmemory":1993,"check":1994,"Ġstor":1995,"wrap":1996,"ries":1997,"Ġ2016":1998,"Ġfar":1999,"Ġhar":2000,"ivid":2001,"Ġresults":2002,"icles":2003,"Ġrights":2004,"Ġelse":2005,"none":2006,"sk":2007,"Ġinte":2008,"atic":2009,"Ġknown":2010,"Ġdig":2011,"ference":2012,"Ġmaterial":2013,"conom":2014,"Ġvalues":2015,"Ġimage":2016,"na":2017,"fil":2018,"Ġdevelopment":2019,"vious":2020,"Ġinternational":2021,"ford":2022,"down":2023,"mon":2024,"Ġje":2025,"Ġ2018":2026,"Ġwhy":2027,"Ġbeh":2028,"ublish":2029,"Ġassoci":2030,"sy":2031,"Ġleft":2032,"aster":2033,"ĠĠĠĠĠĠĠĠ":2034,"Ġcover":2035,"abled":2036,"Ġalways":2037,"ng":2038,"978":2039,"Ġinput":2040,"ume":2041,"Ġshort":2042,"bottom":2043,"Ġris":2044,"ids":2045,"Ġindust":2046,"face":2047,"Ġlocal":2048,"31":2049,"Ġca":2050,"document":2051,"Ġfebruary":2052,"Ġmanagement":2053,"eter":2054,"Ġinstall":2055,"Ġjour":2056,"fault":2057,"Ġtimes":2058,"css":2059,"Ġthings":2060,"Ġ100":2061,"query":2062,"ha":2063,"Ġ<#":2064,"06":2065,"etic":2066,"span":2067,"Ġant":2068,"Ġlow":2069,"Ġoften":2070,"47":2071,"87":2072,"Ġvi":2073,"ux":2074,"ird":2075,"Ġblock":2076,"ration":2077,"Ġbig":2078,"Ġprom":2079,"ules":2080,"media":2081,"Ġ?)":2082,"Ġconnect":2083,"Ġcenter":2084,"Ġtrue":2085,"Ġhim":2086,"df":2087,"Ġmedia":2088,"Ġengine":2089,"Ġcolor":2090,"date":2091,"Ġsaid":2092,"Ġgrow":2093,"ino":2094,"Ġnear":2095,"Ġsecur":2096,"til":2097,"hover":2098,"Ġdiscuss":2099,"\");":2100,"Ġbar":2101,"max":2102,"Ġbuy":2103,"Ġvers":2104,"Ġphot":2105,"Ġstates":2106,"Ġperiod":2107,"main":2108,"Ġcho":2109,"ither":2110,"post":2111,"Ġdom":2112,"Ġ2015":2113,"Ġsuccess":2114,"Ġsingle":2115,"can":2116,"Ġtechnology":2117,"Ġocc":2118,"Ġlot":2119,"Ġlanguage":2120,"Ġfun":2121,"Ġdra":2122,"ification":2123,"ĠâĢ¢":2124,"Ġrequire":2125,"ently":2126,"Ġexpress":2127,"false":2128,"Ġbra":2129,"ulation":2130,"Ġcry":2131,"Ġstre":2132,"Ġcult":2133,"Ġstudy":2134,"her":2135,"Ġred":2136,"sa":2137,"ours":2138,"Ġ2013":2139,"Ġ&&":2140,"Ġsort":2141,"Ġdef":2142,"Ġposition":2143,"ands":2144,"Ġsever":2145,"ape":2146,"Ġappe":2147,"Ġredu":2148,"fort":2149,"Ġ????":2150,"urther":2151,"true":2152,"Ġsimple":2153,"Ġprint":2154,"reg":2155,"Ġopp":2156,"Ġgames":2157,"Ġpm":2158,"Ġcommon":2159,"Ġindivid":2160,"more":2161,"Ġfield":2162,"tra":2163,"Ġbank":2164,"Ġbi":2165,"viron":2166,"Ġcalled":2167,"Ġur":2168,"Ġfo":2169,"edit":2170,"Ġchrist":2171,"ope":2172,"input":2173,"Ġmag":2174,"iction":2175,"ittle":2176,"Ġparticular":2177,"Ġfile":2178,"elling":2179,"Ġpresent":2180,"Ġarea":2181,"Ġsched":2182,"Ġrest":2183,"Ġleast":2184,"ibility":2185,"04":2186,"Ġfigure":2187,"ilar":2188,"itical":2189,"Ġrequired":2190,"oud":2191,"Ġfac":2192,"08":2193,"Ġ24":2194,"essage":2195,"Ġfriend":2196,"what":2197,"Ġshop":2198,"elementor":2199,"Ġmachine":2200,"replic":2201,"Ġmill":2202,"Ġtoday":2203,"Ġmeans":2204,"Ġeconom":2205,"Ġcopy":2206,"Ġwa":2207,"ged":2208,"Ġener":2209,"Ġfut":2210,"ended":2211,"Ġreally":2212,"child":2213,"Ġtot":2214,"Ġnumbers":2215,"ination":2216,"Ġmen":2217,"Ġreason":2218,"erved":2219,"Ġbene":2220,"ese":2221,"hn":2222,"sl":2223,"Ġgen":2224,"header":2225,"ined":2226,"Ġdr":2227,"cell":2228,"ork":2229,"Ġpot":2230,"Ġarray":2231,"Ġprivacy":2232,"aim":2233,"crunch":2234,"'m":2235,"Ġworlds":2236,"Ġseason":2237,"Ġfour":2238,"Ġconc":2239,"ources":2240,"Ġfeatures":2241,"Ġmatch":2242,"Ġneeds":2243,"Ġlive":2244,"Ġcomb":2245,"container":2246,"Ġevents":2247,"Ġable":2248,"Ġphil":2249,"that":2250,"imal":2251,"sr":2252,"Ġhouse":2253,"ask":2254,"aps":2255,"Ġturn":2256,"Ġwhite":2257,"ring":2258,"Ġ2012":2259,"Ġ50":2260,"tot":2261,"just":2262,"Ġindividual":2263,"Ġchina":2264,"Ġnetwork":2265,"Ġfore":2266,"bit":2267,"Ġarticle":2268,"Ġproperty":2269,"Ġdoi":2270,"Ġtreat":2271,"Ġpublish":2272,"Ġpa":2273,"Ġvisit":2274,"42":2275,"Ġproblems":2276,"umb":2277,"Ġcourse":2278,"Ġnational":2279,"Ġbit":2280,"Ġmultip":2281,"from":2282,"ana":2283,"Ġevent":2284,"ances":2285,"Ġeasy":2286,"dep":2287,"Ġsuper":2288,"Ġcome":2289,"ls":2290,"Ġ2014":2291,"lim":2292,"Ġbenef":2293,"Ġactiv":2294,"[\"":2295,"Ġlittle":2296,"Ġmaking":2297,"Ġmean":2298,"Ġnever":2299,"case":2300,"Ġapproach":2301,"ney":2302,"Ġglobal":2303,"Ġinclude":2304,"Ġ25":2305,"Ġgoing":2306,"Ġpoints":2307,"Ġmeas":2308,"pa":2309,"Ġdate":2310,"Ġsure":2311,"aring":2312,"gra":2313,"Ġwhether":2314,"inary":2315,"Ġens":2316,"05":2317,"41":2318,"Ġansw":2319,"Ġfeel":2320,"Ġsouth":2321,"void":2322,"Ġcertain":2323,"icro":2324,"rect":2325,"Ġlic":2326,"Ġenviron":2327,"Ġauthor":2328,"Ġpp":2329,"Ġpri":2330,"Ġfood":2331,"Ġpurch":2332,"........":2333,"Ġ%}":2334,"Ġquick":2335,"ably":2336,"Ġclick":2337,"Ġknowledge":2338,"Ġflow":2339,"Ġmor":2340,"Ġmoney":2341,"Ġmil":2342,"Ġinstruction":2343,"umn":2344,"Ġbelie":2345,"mit":2346,"section":2347,"please":2348,"Ġquality":2349,"Ġchapter":2350,"Ġworking":2351,"Ġsolution":2352,"Ġpap":2353,"Ġrange":2354,"???":2355,"Ġsoftware":2356,"Ġmove":2357,"usd":2358,"Ġmodern":2359,"obile":2360,"ready":2361,"anced":2362,"aa":2363,"Ġsecurity":2364,"most":2365,"Ġtraining":2366,"tab":2367,"Ġassign":2368,"Ġface":2369,"Ġmer":2370,"Ġeuro":2371,"Ġprob":2372,"Ġnodes":2373,"urs":2374,"resp":2375,"utions":2376,"Ġedge":2377,"action":2378,"Ġdocument":2379,"Ġvideo":2380,"ides":2381,"public":2382,"edia":2383,"').":2384,"ye":2385,"Ġthus":2386,"Ġrom":2387,"Ġamount":2388,"Ġrecord":2389,"nal":2390,"Ġsomething":2391,"Ġcommunic":2392,"alt":2393,"idge":2394,"Ġprot":2395,"Ġcharacter":2396,"Ġdescri":2397,"ental":2398,"arget":2399,"oose":2400,"Ġitems":2401,"@@":2402,"ij":2403,"Ġfurther":2404,"Ġsepar":2405,"enn":2406,"Ġlibr":2407,"ising":2408,"thers":2409,"Ġchildren":2410,"gu":2411,"gether":2412,"icient":2413,"mark":2414,"Ġseries":2415,"ised":2416,"Ġexpect":2417,"Ġspecific":2418,"Ġinstructions":2419,"acity":2420,"roll":2421,"Ġautom":2422,"Ġstructure":2423,"Ġbox":2424,"Ġsimilar":2425,"lose":2426,"Ġagainst":2427,"Ġsubs":2428,"Ġwomen":2429,"\"),":2430,"53":2431,"ention":2432,"Ġland":2433,"Ġenergy":2434,"ables":2435,"dom":2436,"Ġsequ":2437,"bt":2438,"center":2439,"Ġclos":2440,"Ġyork":2441,"Ġclear":2442,"Ġput":2443,"Ġfalse":2444,"Ġul":2445,"Ġfuture":2446,"aces":2447,"07":2448,"flow":2449,"anch":2450,"Ġonce":2451,"Ġdam":2452,"Ġflo":2453,"idden":2454,"Ġdat":2455,"Ġgovernment":2456,"uk":2457,"Ġcoll":2458,"bra":2459,"Ġseveral":2460,"Ġwon":2461,"Ġmiss":2462,"ients":2463,"Ġpain":2464,"Ġsoci":2465,"Ġunited":2466,"Ġperformance":2467,"Ġask":2468,"rodu":2469,"Ġaway":2470,"\"]":2471,"inst":2472,"important":2473,"Ġearly":2474,"wik":2475,"64":2476,"ians":2477,"mar":2478,"Ġtre":2479,"Ġfinan":2480,"side":2481,"Ġtax":2482,"Ġeither":2483,"li":2484,"ply":2485,"Ġsale":2486,"there":2487,"div":2488,"jor":2489,"Ġcolle":2490,"cm":2491,"Ġboard":2492,"Ġstar":2493,"ogn":2494,"creen":2495,"Ġclean":2496,"Ġlooking":2497,"word":2498,"yl":2499,"apan":2500,"Ġapply":2501,"call":2502,"urance":2503,"Ġadmin":2504,"Ġfocus":2505,"hol":2506,"gh":2507,"Ġlimited":2508,"ctor":2509,"Ġnecess":2510,"Ġbelow":2511,"Ġess":2512,"jo":2513,"site":2514,"Ġ2011":2515,"Ġrelations":2516,"Ġdyn":2517,"Ġemployee":2518,"Ġtotal":2519,"ica":2520,"pecial":2521,"Ġenc":2522,"Ġenter":2523,"Ġoptions":2524,"73":2525,"Ġlay":2526,"Ġkind":2527,"ung":2528,"83":2529,"90":2530,"Ġoffice":2531,"Ġmot":2532,"tings":2533,"Ġcut":2534,"Ġpattern":2535,"Ġid":2536,"ili":2537,"},{\"":2538,"43":2539,"Ġshall":2540,"window":2541,"Ġtogether":2542,"Ġabove":2543,"Ġmakes":2544,"Ġfinal":2545,"clus":2546,"Ġacross":2547,"Ġaust":2548,"see":2549,"{\\":2550,"sch":2551,"Ġlarg":2552,"medi":2553,"Ġconditions":2554,"ada":2555,"Ġperfect":2556,"Ġeducation":2557,"Ġdeter":2558,"Ġislands":2559,"self":2560,"Ġill":2561,"Ġmeet":2562,"Ġcollection":2563,"kit":2564,"Ġthird":2565,"Ġlabel":2566,"Ġimages":2567,"ille":2568,"ivery":2569,"Ġinit":2570,"ams":2571,"Ġshipping":2572,"figure":2573,"Ġlater":2574,"Ġ<|":2575,"Ġbuild":2576,"active":2577,"ae":2578,"istic":2579,"Ġplayed":2580,"');":2581,"iant":2582,"rame":2583,"inese":2584,"Ġdetails":2585,"85":2586,"ills":2587,"ories":2588,"db":2589,"Ġ==":2590,"Ġcas":2591,"Ġimprove":2592,"Ġce":2593,"Ġ},":2594,"Ġnote":2595,"Ġobs":2596,"empt":2597,"options":2598,"ogle":2599,"Ġadditional":2600,"cul":2601,"apt":2602,"iddle":2603,"ties":2604,"era":2605,"Ġbody":2606,"ĠÂ©":2607,"ii":2608,"Ġever":2609,"Ġoffic":2610,"Ġenvironment":2611,"Ġang":2612,"ains":2613,"Ġbound":2614,"img":2615,"Ġcred":2616,"cor":2617,"Ġcard":2618,"Ġmass":2619,"Ġcomplete":2620,"999":2621,"Ġgreen":2622,"Ġbegin":2623,"ceed":2624,"Ġsource":2625,"Ġstandard":2626,"gen":2627,"Ġdav":2628,"cast":2629,"Ġmembers":2630,"Ġblog":2631,"Ġgold":2632,"Ġcomplet":2633,"Ġcomplex":2634,"02":2635,"ography":2636,"Ġside":2637,"Ġelements":2638,"uf":2639,"Ġ2009":2640,"Ġden":2641,"Ġep":2642,"Ġtravel":2643,"based":2644,"Ġrespons":2645,"Ġwin":2646,"Ġmusic":2647,"Ġther":2648,"Ġdue":2649,"Ġwrite":2650,"Ġdigital":2651,"svg":2652,"Ġrele":2653,"Ġstep":2654,"ategory":2655,"600":2656,"ca":2657,"first":2658,"uments":2659,"verage":2660,"Ġcur":2661,"ensive":2662,"Ġbecome":2663,"Ġguide":2664,"Ġdiscover":2665,"Ġrecomm":2666,"Ġusers":2667,"Ġprin":2668,"Ġearth":2669,"Ġapplication":2670,"Ġsil":2671,"Ġprovided":2672,".)":2673,"alf":2674,"Ġfat":2675,"resh":2676,"Ġ????????":2677,"Ġsubject":2678,"03":2679,"Ġfinancial":2680,"Ġreserved":2681,"Ġdownload":2682,"rive":2683,"Ġoption":2684,"Ġinvol":2685,"Ġmajor":2686,"ving":2687,"nd":2688,"Ġprote":2689,"Ġrespect":2690,"itation":2691,"Ġload":2692,"Ġcra":2693,"Ġreach":2694,"Ġparty":2695,"const":2696,"ball":2697,"ump":2698,"84":2699,"Ġconcept":2700,"wrapper":2701,"Ġcountry":2702,"Ġchanges":2703,"mo":2704,"Ġmicro":2705,"remove":2706,"comp":2707,"Ġjournal":2708,"Ġword":2709,"ats":2710,"Ġmedic":2711,"uck":2712,"Ġquestion":2713,"{{":2714,"Ġbase":2715,"Ġcollect":2716,"wan":2717,"65":2718,"Ġsan":2719,"change":2720,"before":2721,"Ġmulti":2722,"widget":2723,"nor":2724,"part":2725,"Ġroom":2726,"Ġquestions":2727,"Ġlab":2728,"parent":2729,"Ġrisk":2730,"Ġhaving":2731,"Ġ2010":2732,"Ġnorth":2733,"Ġmonths":2734,"01":2735,"Ġreceive":2736,"Ġsam":2737,"Ġplat":2738,"Ġaccept":2739,"ields":2740,"Ġfront":2741,"num":2742,"Ġinsurance":2743,"Ġsent":2744,"Ġstack":2745,"irm":2746,"Ġinfl":2747,"Ġaction":2748,"Ġanaly":2749,"onse":2750,"ison":2751,"Ġexec":2752,"click":2753,"Ġaud":2754,"Ġalong":2755,"replica":2756,"Ġself":2757,"Ġpark":2758,"Ġweight":2759,"67":2760,"email":2761,"ribute":2762,"Ġbasic":2763,"cer":2764,"Ġuntil":2765,"Ġsave":2766,"Ġeurope":2767,"ological":2768,"Ġshows":2769,"transform":2770,"webkit":2771,"')":2772,"depend":2773,"ler":2774,"Ġprevious":2775,"Ġcontains":2776,"izes":2777,"Ġoffers":2778,"Ġ{%":2779,"wards":2780,"ead":2781,"Ġcirc":2782,"Ġrelated":2783,"home":2784,"Ġdone":2785,"Ġothers":2786,"Ġappl":2787,"Ġrev":2788,"Ġissues":2789,"igation":2790,"ags":2791,"room":2792,"Ġtru":2793,"Ġsend":2794,"ategor":2795,"Ġcoun":2796,"Ġalgorithms":2797,"ero":2798,"Ġindex":2799,"bon":2800,"ored":2801,"Ġdelivery":2802,"Ġbuilding":2803,"ruction":2804,"Ġblue":2805,"Ġintrodu":2806,"\":{\"":2807,"Ġstudents":2808,":-":2809,"default":2810,"bre":2811,"Ġchoose":2812,"Ġrunning":2813,"Ġpan":2814,"izing":2815,"300":2816,"ba":2817,"rams":2818,"Ġsolid":2819,"cp":2820,"Ġrefer":2821,"Ġ_":2822,"Ġtypes":2823,"Ġalready":2824,"andom":2825,"Ġrecor":2826,"Ġsimply":2827,"Ġnormal":2828,"ban":2829,"Ġprotect":2830,"Ġseem":2831,"Ġgir":2832,"Ġdan":2833,"Ġexist":2834,"pol":2835,"pose":2836,"Ġach":2837,"','":2838,"car":2839,"asing":2840,"Ġtools":2841,"Ġthought":2842,"Ġfill":2843,"Ġuses":2844,"Ġamerican":2845,"ien":2846,"each":2847,"Ġgod":2848,"Ġemp":2849,"prog":2850,"Ġworks":2851,"Ġlength":2852,"Ġpast":2853,"Ġstock":2854,"Ġchinese":2855,"Ġscient":2856,"Ġbrand":2857,"itten":2858,"\";":2859,"Ġwww":2860,"Ġbeaut":2861,"98":2862,"Ġupd":2863,"Ġtakes":2864,"osoph":2865,"Ġvia":2866,"Ġchall":2867,"Ġprofessional":2868,"wise":2869,"Ġunit":2870,"Ġcore":2871,"Ġlower":2872,"Ġvarious":2873,"Ġadminist":2874,"Ġwid":2875,"Ġfall":2876,"Ġbrowser":2877,"well":2878,"Ġtradition":2879,"plan":2880,"airs":2881,"Ġir":2882,"Ġuk":2883,"Ġsaf":2884,"Ġpare":2885,"Ġche":2886,"Ġmultiple":2887,"war":2888,"Ġregular":2889,"Ġdiff":2890,"Ġfa":2891,"itect":2892,"nov":2893,"Ġlatest":2894,"Ġthough":2895,"point":2896,"fill":2897,"Ġhot":2898,"Ġteach":2899,"Ġinstit":2900,"Ġfire":2901,"Ġjohn":2902,"ype":2903,"eur":2904,"Ġcounty":2905,"show":2906,"Ġoperations":2907,"];":2908,"front":2909,"Ġlegal":2910,"Ġimpact":2911,"Ġlibrary":2912,"Ġfeature":2913,"ilities":2914,"ared":2915,"Ġcannot":2916,"find":2917,"68":2918,"Ġjapan":2919,"414":2920,"Ġ23":2921,"Ġenough":2922,"Ġmedical":2923,"Ġpotential":2924,"?\":\"":2925,"Ġentire":2926,"Ġrepublic":2927,"Ġbreak":2928,"ping":2929,"Ġpie":2930,"Ġbill":2931,"52":2932,"Ġlik":2933,"istics":2934,"Ġcorrect":2935,"________":2936,"Ġhom":2937,"Ġfit":2938,"Ġcompet":2939,"\",\"?\":\"":2940,"Ġjob":2941,"Ġsport":2942,"Ġmind":2943,"ima":2944,"sequ":2945,"500":2946,"Ġsugg":2947,"ured":2948,"aff":2949,"idence":2950,"Ġdeal":2951,"Ġlocation":2952,"Ġpages":2953,"ises":2954,"Ġcell":2955,"Ġcentury":2956,"Ġcryst":2957,"Ġnav":2958,"Ġstrong":2959,"Ġprovides":2960,"Ġsuggest":2961,"Ġways":2962,"Ġbal":2963,"Ġ21":2964,"when":2965,"Ġtim":2966,"Ġger":2967,"Ġdeep":2968,"Ġindic":2969,"Ġtemper":2970,"Ġsit":2971,"Ġbad":2972,"Ġcompan":2973,"gl":2974,"ref":2975,"Ġapplications":2976,"leg":2977,"Ġpick":2978,"ua":2979,"user":2980,"Ġ22":2981,"Ġsec":2982,"Ġeast":2983,"Ġrate":2984,"print":2985,"Ġmarketing":2986,"Ġwait":2987,"ued":2988,"Ġprior":2989,"ators":2990,"ixed":2991,"focus":2992,"joy":2993,"Ġmich":2994,"ension":2995,"field":2996,"aries":2997,"Ġjav":2998,"Ġindustry":2999,"Ġdoesn":3000,"plit":3001,"Ġmethods":3002,"cip":3003,"cal":3004,"Ġrole":3005,"oups":3006,"Ġsolutions":3007,"bb":3008,"tdb":3009,"ari":3010,"Ġmal":3011,"chan":3012,"Ġarg":3013,"where":3014,"Ġcomes":3015,"Ġcentral":3016,"ival":3017,"Ġskin":3018,"((":3019,"63":3020,"method":3021,"products":3022,"Ġenglish":3023,"Ġstory":3024,"open":3025,"ports":3026,"works":3027,"Ġprograms":3028,"ners":3029,"Ġindepend":3030,"conf":3031,"Ġregist":3032,"ouch":3033,"aken":3034,"Ġmathematics":3035,"Ġvert":3036,"Ġcustomer":3037,"Ġessential":3038,"Ġwatch":3039,"Ġchem":3040,"Ġdesigned":3041,"Ġfund":3042,"proper":3043,"Ġsignific":3044,"Ġrelig":3045,"Ġnecessary":3046,"Ġrather":3047,"artment":3048,"ship":3049,"Ġclaim":3050,"Ġneeded":3051,"Ġ2008":3052,"fam":3053,"met":3054,"Ġpers":3055,"Ġdou":3056,"Ġleave":3057,"Ġprim":3058,"ablish":3059,"Ġheav":3060,"Ġhours":3061,"Ġversion":3062,"62":3063,"Ġage":3064,"Ġregard":3065,"Ġanswer":3066,"(),":3067,"Ġchoice":3068,"Ġensure":3069,"\\/\\/":3070,"Ġachie":3071,"cons":3072,"social":3073,"Ġque":3074,"Ġafric":3075,")),":3076,"aj":3077,"uation":3078,"bor":3079,"Ġcontract":3080,"Ġvalid":3081,"Ġsolar":3082,"bert":3083,"plate":3084,"ĠĠĠ":3085,"ham":3086,"next":3087,"Ġ2007":3088,"00000000":3089,"Ġerror":3090,"mt":3091,"column":3092,"eline":3093,"Ġshown":3094,"Ġagree":3095,"Ġ});":3096,"Ġpractice":3097,"ders":3098,"Ġchat":3099,"insert":3100,"Ġareas":3101,"Ġpopular":3102,"Ġplatform":3103,"%;":3104,"Ġer":3105,"iday":3106,"Ġrob":3107,"Ġscreen":3108,"Ġprocessing":3109,"hel":3110,"Ġ}}":3111,"(\".":3112,"ox":3113,"wr":3114,"Ġplayer":3115,"cdn":3116,"Ġrad":3117,"Ġ40":3118,"Ġinstead":3119,"Ġindia":3120,"ÃĹ":3121,"asons":3122,"unity":3123,"hidden":3124,"iam":3125,"Ġbir":3126,"aur":3127,"inner":3128,"pri":3129,"Ġtalk":3130,"Ġactually":3131,"ercial":3132,"Ġarchitect":3133,"Ġaustral":3134,"Ġcharg":3135,"Ġemer":3136,"95":3137,"tem":3138,"Ġgam":3139,"used":3140,"Ġsociety":3141,"Ġox":3142,"2023":3143,"Ġbooks":3144,"Ġfail":3145,"Ġminimum":3146,"items":3147,"Ġrecords":3148,"Ġsar":3149,"icult":3150,"Ġhost":3151,"utes":3152,"press":3153,"Ġgeomet":3154,"ender":3155,"Ġclimate":3156,"Ġreading":3157,"Ġlinks":3158,"oter":3159,"Ġgoogle":3160,"Ġinternet":3161,"aged":3162,"urrency":3163,"world":3164,"aiwan":3165,"ging":3166,"Ġyet":3167,"aced":3168,"Ġremov":3169,"Ġsales":3170,"Ġpaper":3171,"Ġengineering":3172,"Ġbon":3173,"info":3174,"node":3175,"ores":3176,"Ġdoing":3177,"http":3178,"Ġenjoy":3179,"Ġstudies":3180,"free":3181,"Ġdog":3182,"Ġphilosoph":3183,"96":3184,"cient":3185,"74":3186,"uses":3187,"Ġparts":3188,"queryselector":3189,"--------":3190,"je":3191,"uff":3192,"Ġintegr":3193,"dd":3194,"Ġ28":3195,"Ġstop":3196,"Ġking":3197,"fff":3198,"Ġbehav":3199,"mission":3200,"Ġwest":3201,"actions":3202,"Ġequal":3203,"Ġissue":3204,"Ġproperties":3205,"Ġdavid":3206,"Ġcross":3207,"though":3208,"Ġcomment":3209,"Ġwriting":3210,"';":3211,"Ġfre":3212,"Ġfast":3213,"Ġmaterials":3214,"aging":3215,"phone":3216,"defin":3217,"Ġmount":3218,"elves":3219,"Ġcredit":3220,"Ġcov":3221,"Ġextra":3222,"!==":3223,"Ġnature":3224,"thes":3225,"Ġroad":3226,"Ġoutput":3227,"rench":3228,"Ġpal":3229,"Ġfav":3230,"adem":3231,"!!":3232,"Ġwall":3233,"ided":3234,"Ġcompon":3235,"Ġestablish":3236,"src":3237,"Ġunique":3238,"Ġdisplay":3239,"Ġamong":3240,"gre":3241,"images":3242,"js":3243,"Ġexact":3244,"Ġthing":3245,"amic":3246,"Ġprem":3247,"ony":3248,"Ġsem":3249,"ends":3250,"Ġtrust":3251,"dius":3252,"Ġcopyright":3253,"Ġbits":3254,"eds":3255,"Ġusually":3256,"vi":3257,"start":3258,"Ġestate":3259,"sec":3260,"Ġsex":3261,"Ġwritten":3262,"aint":3263,"72":3264,"={":3265,"Ġ2006":3266,"Ġcreated":3267,"Ġmaintain":3268,"la":3269,"Ġresources":3270,"imation":3271,"Ġamaz":3272,"ufact":3273,"bi":3274,"best":3275,"like":3276,"acing":3277,"Ġrecogn":3278,"Ġfive":3279,"Ġmiddle":3280,"Ġcustomers":3281,"Ġstra":3282,"Ġtur":3283,"aly":3284,"Ġedges":3285,"Ġopport":3286,"limited":3287,"Ġcrystal":3288,"yes":3289,"94":3290,"mp":3291,"Ġterm":3292,"mas":3293,"ui":3294,"valid":3295,"ji":3296,"your":3297,"Ġimm":3298,"last":3299,"Ġwik":3300,"Ġloss":3301,"Ġcloud":3302,"Ġremain":3303,"current":3304,"Ġresponse":3305,"isf":3306,"Ġaverage":3307,"erc":3308,"Ġrich":3309,"pop":3310,"Ġbenefits":3311,"adow":3312,"Ġwhole":3313,"Ġ||":3314,"Ġincrease":3315,"Ġbab":3316,"Ġham":3317,"Ġhistor":3318,"file":3319,"Ġhs":3320,"ster":3321,"Ġconsent":3322,"Ġ26":3323,"dict":3324,"ribution":3325,"Ġetc":3326,"ellig":3327,"Ġsets":3328,"thern":3329,"Ġwood":3330,"'d":3331,"Ġfrequ":3332,"Ġpurpose":3333,"Ġpurchase":3334,":[":3335,"Ġsav":3336,"append":3337,"Ġmom":3338,"itting":3339,"fs":3340,"Ġmessage":3341,"Ġneg":3342,"tw":3343,"create":3344,"ffer":3345,"cat":3346,"Ġnull":3347,"Ġcompanies":3348,"then":3349,"Ġcalcul":3350,"ga":3351,"Ġimdb":3352,"Ġincludes":3353,"Ġdeliver":3354,"totype":3355,"Ġfair":3356,"Ġnight":3357,"family":3358,"Ġheart":3359,"available":3360,"Ġtitle":3361,"Ġdeath":3362,"Ġinsert":3363,"Ġexcept":3364,"Ġdifficult":3365,"Ġcases":3366,"Ġgetting":3367,"init":3368,"uxury":3369,"iers":3370,"stat":3371,"osph":3372,"Ġaccor":3373,"Ġassist":3374,"Ġmeasure":3375,"Ġoperation":3376,"eth":3377,"Ġefficient":3378,"Ġwish":3379,"Ġgot":3380,"Ġinitial":3381,"Ġadded":3382,"Ġsqu":3383,"itted":3384,"Ġphysical":3385,"Ġsignificant":3386,"({":3387,"Ġaltern":3388,"irection":3389,"Ġsafety":3390,"unt":3391,"poses":3392,"ira":3393,"Ġder":3394,"51":3395,"Ġ@":3396,"Ġrgb":3397,"comple":3398,"control":3399,"400":3400,"Ġmanufact":3401,"Ġaccording":3402,"auto":3403,"Ġtour":3404,"Ġmap":3405,"oper":3406,"Ġdevice":3407,"mat":3408,"Ġprivate":3409,"verse":3410,"Ġeverything":3411,"Ġidea":3412,"Ġseen":3413,"\":\"\",\"":3414,"oring":3415,"Ġunlimited":3416,"Ġrout":3417,"har":3418,"Ġmillion":3419,"Ġconsum":3420,"itter":3421,"high":3422,"pdf":3423,"Ġmechan":3424,"Ġedition":3425,"dr":3426,"Ġ32":3427,"board":3428,"Ġjew":3429,"Ġprefer":3430,"}},":3431,"Ġframe":3432,"cean":3433,"Ġheight":3434,"Ġphone":3435,"Ġliving":3436,"Ġbecom":3437,"Ġhor":3438,"Ġbib":3439,"char":3440,"prototype":3441,"pecially":3442,"Ġfeed":3443,"Ġagre":3444,"feature":3445,"Ġdefinition":3446,"copy":3447,"ny":3448,"Ġrandom":3449,"Ġsell":3450,"Ġ;":3451,"Ġcorresp":3452,"Ġplanet":3453,"gs":3454,"Ġdatab":3455,"Ġdest":3456,"Ġhttp":3457,"Ġwalk":3458,"Ġsomeone":3459,"many":3460,"Ġbroad":3461,"ivity":3462,"Ġtherefore":3463,"Ġallows":3464,"Ġconcern":3465,"Ġstarted":3466,"Ġstorage":3467,"Ġtell":3468,"Ġclose":3469,"Ġsound":3470,"eless":3471,"oll":3472,"Ġtransl":3473,"aily":3474,"Ġconstant":3475,"rial":3476,"ris":3477,"ressive":3478,"Ġobjects":3479,"Ġrules":3480,"2013":3481,"Ġtips":3482,"rest":3483,"Ġgroups":3484,"Ġoptim":3485,"fully":3486,"ometimes":3487,"hi":3488,"miss":3489,"ished":3490,"words":3491,"Ġbranch":3492,"Ġdecision":3493,"Ġhappen":3494,"gener":3495,"Ġpsy":3496,"Ġef":3497,"Ġsens":3498,"Ġvac":3499,"Ġculture":3500,"##":3501,"Ġcou":3502,"Ġdirectly":3503,"110":3504,"Ġfunctions":3505,"Ġsong":3506,"Ġimmedi":3507,"Ġalthough":3508,"Ġconsist":3509,"Ġ27":3510,"Ġpayment":3511,"Ġcookie":3512,"Ġmaximum":3513,"gi":3514,"Ġasse":3515,"Ġassess":3516,"Ġhigher":3517,"Ġwash":3518,"97":3519,"dem":3520,"Ġcris":3521,"${":3522,"ements":3523,"letter":3524,"Ġremove":3525,"ken":3526,"some":3527,"anc":3528,"Ġideas":3529,"buil":3530,"care":3531,"drop":3532,"ef":3533,"Ġcommercial":3534,"Ġpict":3535,"Ġconsidered":3536,"Ġsequence":3537,"Ġpsych":3538,"Ġ2000":3539,"Ġproof":3540,"hand":3541,"antity":3542,"Ġ===":3543,"Ġcycle":3544,"Ġimplementation":3545,"ael":3546,"Ġmis":3547,"comput":3548,"Ġinflu":3549,"Ġadvert":3550,"Ġcompar":3551,"Ġproduction":3552,"agram":3553,"string":3554,"Ġtaken":3555,"Ġsays":3556,"variant":3557,"Ġarticles":3558,"ville":3559,"Ġintellig":3560,"Ġforward":3561,"onom":3562,"Ġfra":3563,"Ġacadem":3564,"Ġpublished":3565,"gest":3566,"dark":3567,"Ġswe":3568,"estern":3569,"clos":3570,"Ġmatter":3571,"mult":3572,"Ġmobile":3573,"Ġliter":3574,"-.":3575,"Ġful":3576,"table":3577,"Ġrequires":3578,"=/":3579,"Ġcourt":3580,"Ġmember":3581,"Ġcommunication":3582,"Ġtemperature":3583,")}.":3584,"Ġorganization":3585,"math":3586,"atter":3587,"Ġverified":3588,"property":3589,"Ġled":3590,"Ġcorpor":3591,"custom":3592,"Ġrock":3593,"ream":3594,"enc":3595,"force":3596,"Ġaffect":3597,"spe":3598,"Ġai":3599,"Ġeth":3600,"ste":3601,"Ġwide":3602,"ils":3603,"displaystyle":3604,"Ġ\\/":3605,"eral":3606,"Ġmac":3607,"Ġnam":3608,"Ġpolitical":3609,"test":3610,"Ġgree":3611,"Ġcollege":3612,"fol":3613,"under":3614,"Ġround":3615,"Ġnotice":3616,"vant":3617,"zz":3618,"Ġfriends":3619,"ama":3620,"Ġassume":3621,"object":3622,"Ġveh":3623,"rant":3624,"description":3625,"Ġrecommend":3626,"gment":3627,"Ġcert":3628,"Ġspeed":3629,"Ġsle":3630,"lin":3631,"Ġconne":3632,"hr":3633,"Ġtren":3634,"Ġwed":3635,"year":3636,"erve":3637,"Ġparticip":3638,"kn":3639,"Ġbur":3640,"else":3641,"Ġbring":3642,"Ġprogramming":3643,"Ġpurposes":3644,"istry":3645,"Ġavoid":3646,"Ġmodels":3647,"asy":3648,"ession":3649,"arily":3650,"cel":3651,"mi":3652,"Ġtaking":3653,"Ġcat":3654,"Ġfields":3655,"selected":3656,"radius":3657,"82":3658,"cid":3659,"Ġusd":3660,"transl":3661,"Ġappear":3662,"Ġtarget":3663,"atory":3664,"Ġstrateg":3665,"ees":3666,"Ġsense":3667,"Ġfant":3668,"bd":3669,"dra":3670,"Ġhalf":3671,"articles":3672,"Ġstay":3673,",[":3674,"cache":3675,"share":3676,"Ġdaily":3677,"Ġ29":3678,"ogg":3679,"Ġespecially":3680,"ols":3681,"rix":3682,"Ġtransfer":3683,"equ":3684,"has":3685,"Ġtaiwan":3686,"array":3687,"ondon":3688,"?\"":3689,"Ġcache":3690,"location":3691,"Ġofficial":3692,"hist":3693,"ude":3694,"Ġsoon":3695,"Ġassum":3696,"Ġstored":3697,"Ġpcs":3698,"white":3699,"++":3700,"Ġsans":3701,"Ġ${":3702,"Ġtheore":3703,"Ġmist":3704,"Ġgard":3705,"Ġdraw":3706,"iable":3707,"Ġgar":3708,"Ġbrit":3709,"istan":3710,"solute":3711,"Ġvir":3712,"Ġfoot":3713,"Ġlicense":3714,"Ġtraditional":3715,";-":3716,"Ġcompl":3717,"Ġrepair":3718,"Ġmathematical":3719,"posed":3720,"Ġroman":3721,"</":3722,"pm":3723,"Ġsports":3724,"Ġjack":3725,"osp":3726,"Ġlikely":3727,"rict":3728,"arant":3729,"Ġgas":3730,"note":3731,"????????????????":3732,"ters":3733,"âĨ":3734,"Ġsn":3735,"Ġboo":3736,"Ġtypically":3737,"âĨĴ":3738,"Ġlinear":3739,"ube":3740,"Ġsafe":3741,"Ġobtain":3742,"Ġcurrently":3743,"\"===":3744,"wood":3745,"enabled":3746,"Ġbed":3747,"Ġhold":3748,"Ġsymb":3749,"Ġdevices":3750,"uel":3751,"Ġlonger":3752,"['":3753,"Ġtv":3754,"Ġroot":3755,"Ġsatisf":3756,"Ġmedicine":3757,"ellow":3758,"Ġcasino":3759,"Ġprevent":3760,"Ġlaunch":3761,"Ġindependent":3762,"Ġcharacters":3763,"ategories":3764,"Ġstatement":3765,"Ġexamples":3766,"},\"":3767,"Ġprocessor":3768,"Ġeveryone":3769,"iance":3770,"sey":3771,"lying":3772,"Ġcontinue":3773,"pn":3774,"Ġcategory":3775,"1909":3776,"Ġpromot":3777,"eks":3778,"Ġfilter":3779,"ao":3780,"Ġeval":3781,"arm":3782,"Ġselection":3783,"Ġdirector":3784,"bur":3785,"sign":3786,"Ġpen":3787,"Ġben":3788,"Ġreplace":3789,"rat":3790,"ternal":3791,"Ġfacebook":3792,":!":3793,"gar":3794,"exam":3795,"Ġtrade":3796,"('.":3797,"han":3798,"aling":3799,"Ġded":3800,"Ġinstance":3801,"iques":3802,"Ġproviding":3803,"here":3804,"};":3805,"Ġcru":3806,"itable":3807,"Ġcrisis":3808,"sim":3809,"ried":3810,"Ġtreatment":3811,"result":3812,"cles":3813,"astic":3814,"61":3815,"pay":3816,"ialog":3817,"Ġgeometry":3818,"urch":3819,"tim":3820,"Ġcause":3821,"Ġfish":3822,"ascript":3823,"Ġstage":3824,"Ġsup":3825,"Ġitself":3826,"Ġsometimes":3827,"Ġlock":3828,"Ġbuilt":3829,"Ġapprox":3830,"Ġcosts":3831,"Ġprotection":3832,"':":3833,"replace":3834,"eles":3835,"Ġdepartment":3836,"iful":3837,"Ġalmost":3838,"Ġexchange":3839,"wp":3840,"Ġbud":3841,"Ġspring":3842,"que":3843,"Ġparam":3844,"Ġelectric":3845,"bc":3846,"cret":3847,"gree":3848,"message":3849,"ria":3850,"Ġauto":3851,"Ġdise":3852,"Ġsho":3853,"aker":3854,"map":3855,"Ġpet":3856,"olf":3857,"Ġven":3858,"ipedia":3859,"Ġswitch":3860,"Ġexpert":3861,"Ġcop":3862,"opacity":3863,"Ġanything":3864,"itary":3865,"Ġrot":3866,"Ġviol":3867,"Ġconsult":3868,"Ġrevolution":3869,"Ġdriv":3870,"Ġrule":3871,"osing":3872,"Ġcommit":3873,"sat":3874,"Ġfed":3875,"outh":3876,"Ġaccur":3877,"Ġincluded":3878,"asa":3879,"Ġcapt":3880,"Ġquite":3881,"hy":3882,"selling":3883,"uration":3884,"abor":3885,"Ġexerc":3886,"Ġ60":3887,"Ġrelease":3888,"Ġplus":3889,"auth":3890,"Ġuseful":3891,"Ġbelieve":3892,"Ġdetermin":3893,"cribe":3894,"footer":3895,"Ġassociated":3896,"Ġforum":3897,"event":3898,"Ġthroughout":3899,"800":3900,"cho":3901,"Ġlinked":3902,"Ġprobably":3903,"Ġbibcode":3904,"]:":3905,"ius":3906,"Ġbinary":3907,"ushima":3908,"bury":3909,"imens":3910,"Ġchalleng":3911,"Ġdesigners":3912,"design":3913,"Ġdecl":3914,"Ġdescribed":3915,"ky":3916,"path":3917,"omial":3918,"ĠÂ·":3919,"293":3920,"cook":3921,"Ġciv":3922,"ipment":3923,"Ġprojects":3924,"Ġrequirements":3925,"hu":3926,"Ġearn":3927,"Ġlondon":3928,"Ġunderstanding":3929,"house":3930,"Ġ]":3931,"Ġdie":3932,"vey":3933,"Ġdistrict":3934,"Ġconnected":3935,"Ġdatabase":3936,"hib":3937,"Ġconference":3938,"Ġotherwise":3939,"nam":3940,"Ġmess":3941,"){.":3942,"Ġpositive":3943,"model":3944,"sor":3945,"Ġcart":3946,"number":3947,"Ġweeks":3948,"Ġdeals":3949,"Ġnetworks":3950,"wa":3951,"xx":3952,"Ġocean":3953,"ifts":3954,"Ġreflect":3955,"93":3956,"]=":3957,"Ġice":3958,"Ġgift":3959,"unic":3960,"country":3961,"Ġgrowth":3962,"................":3963,"(.":3964,"bridge":3965,"small":3966,"Ġprinci":3967,"Ġgirls":3968,"pal":3969,"Ġmid":3970,"ici":3971,"iforn":3972,"Ġeffective":3973,"Ġpip":3974,"level":3975,"Ġdefined":3976,"81":3977,"compare":3978,"gypt":3979,"api":3980,"Ġability":3981,"Ġmoving":3982,"soft":3983,"tabushima":3984,"190925":3985,"togg":3986,"Ġorders":3987,"Ġ67":3988,"transition":3989,"Â©":3990,"Ġmaster":3991,"Ġdiscount":3992,"Ġcamera":3993,"Ġproceed":3994,"Ġcanada":3995,"Ġterr":3996,"Ġcreative":3997,"Ġlevels":3998,"@@@@":3999,"wiki":4000,"while":4001,"Ġball":4002,"Ġinnov":4003,"Ġdoor":4004,"module":4005,"filter":4006,"Ġisn":4007,"Ġwrong":4008,"Ġadvant":4009,"yer":4010,"\":[":4011,"featured":4012,"Ġsix":4013,"Ġlate":4014,"Ġconduct":4015,"Ġregistered":4016,"card":4017,"Ġneigh":4018,"Ġpolyn":4019,"Ġhighly":4020,"Ġdeveloped":4021,"Ġdidn":4022,"ya":4023,"plication":4024,"Ġpair":4025,"Ġstaff":4026,"Ġjer":4027,"Ġsciences":4028,"Ġinstallation":4029,"yond":4030,"Ġqual":4031,"system":4032,"mine":4033,"Ġloop":4034,"Ġapplied":4035,"Ġfavor":4036,"zer":4037,"Ġborder":4038,"Ġvs":4039,"Ġskills":4040,"Ġselected":4041,"mbly":4042,"Ġrent":4043,"Ġyes":4044,"Ġfiles":4045,"Ġleaders":4046,"aneous":4047,"orig":4048,"Ġaustralia":4049,"Ġdescription":4050,"Ġpartners":4051,"Ġsurface":4052,"Ġelectron":4053,"Ġannoun":4054,",._":4055,"Ġut":4056,"Ġemployer":4057,"Ġschedule":4058,"gebra":4059,"Ġcontext":4060,"Ġupon":4061,"lebr":4062,"ico":4063,"agement":4064,"Ġwhose":4065,"Ġgreater":4066,"Ġquickly":4067,"clusive":4068,"Ġsubsection":4069,"Ġurl":4070,"ĠÎ":4071,"Ġ()":4072,"ago":4073,"Ġguarant":4074,"Ġwent":4075,"Ġyourself":4076,"listing":4077,"Ġdiam":4078,"inos":4079,"star":4080,"Ġlean":4081,"ption":4082,"Ġinterview":4083,"Ġprec":4084,"Ġregion":4085,")},":4086,"pan":4087,"Ġii":4088,"Ġbutton":4089,"Ġready":4090,"Ġinvestment":4091,"Ġht":4092,"Ġrecent":4093,"attribute":4094,"Ġeasily":4095}