#version: 0.2
Ġ t
Ġt h
Ġ a
i n
Ġth e
Ġ w
r e
Ġ s
Ġ i
Ġ o
a t
o u
e r
n d
Ġ b
Ġ c
in g
Ġ y
o n
Ġ h
Ġ m
Ġt o
Ġ p
Ġ l
Ġ d
Ġy ou
Ġa nd
e n
l l
Ġ f
a n
e s
o r
Ġth at
Ġo f
Ġ g
i s
Ġi t
Ġ in
i t
Ġ n
' s
Ġ I
u s
o w
e d
Ġs o
Ġi s
Ġw h
a r
v e
l e
a s
u t
i c
Ġw e
e t
Ġ e
k e
a y
Ġb e
o t
Ġ u
č Ċ
a l
i on
o m
Ġth is
Ġo n
Ġ re
Ġl i
c t
i g
a ll
Ġh a
Ġ k
v er
Ġ Ġ
m e
Ġli ke
l y
Ġ r
en t
l d
s t
s e
Ġg o
Ġd o
Ġs t
Ġf or
Ġh e
h t
all y
i d
c h
Ġ j
r o
us t
' t
ig ht
Ġha ve
Ġb ut
Ġk n
Ġa n
it h
Ġkn ow
Ġwh at
c e
Ġc an
Ġj ust
o d
t h
e a
r a
Ġn ot
o p
' re
Ġw ith
Ġm e
Ġthe re
u r
Ġs e
Ġthe y
Ġa s
e re
us e
Ġw as
ou ld
c k
Ġa re
Ġi f
Ġc om
Ġa b
Ġu h
Ġa ll
Ġm o
i r
Ġp ro
Ġo r
Ġa t
ou t
Ġe x
an t
at ion
i m
t er
in k
Ġn e
o o
c a
i ll
ver y
q u
Ġm a
Ġa l
Ġr ight
Ġth ink
Ġon e
in d
Ġc on
Ġd e
u l
p p
es s
ĠĠ ĠĠ
g e
Ġab out
Ġ A
Ġw or
u n
Ġth ing
Ġthe n
Ġc h
Ġs h
u m
at e
Ġd on
Ġg et
ca use
Ġ v
i f
i l
a m
Ġgo ing
er s
Â ł
a d
a b
Ġbe cause
' m
es t
Ġ T
Ġp l
Ġyou r
Ġso me
Ġf r
Ġin t
p e
i ve
Ġ -
oo k
ar t
u re
Ġm y
Ġn ow
ea h
o l
Ġ S
Ġu m
Ġo ut
ic h
Ġt r
o s
is t
et h
n t
a ck
e l
Ġu p
or t
Ġs ay
Ġhe re
Ġwh ich
Ġcom p
Ġ C
Ġh ow
Ġp e
Ġfr om
op le
a me
Ġ us
Ġa ct
Ġy eah
Ġre ally
Ġpe ople
ou g
a nd
Ġse e
a in
Ġw ant
Ġ 1
u ally
in e
Ġw ould
ar d
it y
Ġw ay
i me
Ġwh en
Ġs u
e ct
i e
Ġme an
Ġmo re
Ġ very
Ġthe se
Ġ B
Ġb y
p t
v en
Ġt a
Ġk ind
id e
Ġ qu
ĠT h
r i
Ġl e
Ġso m
' ve
b le
Ġn o
re s
Ġact ually
m ent
Ġt ime
Ġan y
Ġl ook
Ġw ill
ou r
Ġi m
p er
it e
Ġ W
a ct
k ay
s o
k ing
oug h
Ġh as
as t
ou s
c i
Ġthing s
Ġthe m
e m
o se
0 0
eth ing
Ġwe ll
Ġ en
Ġsom ething
p le
Ġa r
Ġwh o
Ġl et
i z
f f
u e
o re
on e
in t
Ġwh ere
a re
a ge
p l
Ġe very
Ġo kay
Ġo ur
ou nd
th er
if f
Ġg ot
Ġd id
Ġdo es
Ġc ould
Ġf e
Ġpl ay
d e
Ġint o
Ġal so
Ġt w
ion s
Ġ M
Ġ G
Ġd iff
Ġ 2
Ġ P
a g
Ġl o
Ġne ed
i es
Ġgo od
Ġp o
Ġo ther
Ġc l
Ġm an
b e
it t
Ġl ot
Ġs p
Ġa g
Ġs a
Ġth an
Ġt e
Ġ H
' ll
Ġ R
ot h
Ġwor k
Ġma ke
on g
re e
Ġ D
Ġb ack
Ġe ven
re at
Ġp re
Ġ use
Ġa d
Ġtw o
n a
i v
b er
nd er
ic e
Ġha d
Ġ Y
Ġdiff ere
Ġo ver
Ġu n
l f
w ay
Ġc o
ab le
Ġb u
Ġwe re
an g
ĠA nd
e p
Ġ L
Ġ F
ct ion
u ch
Ġst art
a ce
Ġ čĊ
ir st
ul t
i re
ow n
Ġp art
Ġt al
Ġm uch
or y
is h
m s
Ġm ay
Ġb et
Ġcon t
en ce
Ġta ke
Ġf irst
as s
Ġg u
Ġp er
as e
Ġ O
od e
Ġtr y
Ġ E
Ġthe ir
e ar
Ġb l
Ġp r
c o
ic k
en s
n ing
f or
ve l
Ġth ose
Ġha pp
a ch
Ġc all
Ġdiffere nt
at h
ic al
c ess
w n
Ġ N
th ing
Ġb it
itt le
Âł čĊ
i p
ic ally
Ġst u
on na
Ġp os
an s
ĠĠĠĠ ĠĠĠĠ
Ġl ittle
Ġwh y
Ġf un
Ġbe en
Ġs y
ĠS o
c om
Ġa pp
Ġg onna
it ion
x t
Âł Âł
Ġw r
k es
Ġwor ld
r u
Ġth r
i le
res s
Ġpo int
Ġu nder
Ġ K
r y
Ġsh ould
o g
v ing
Ġd own
Ġre s
Ġon ly
t ing
Ġs ame
at ed
Ġdo ing
Ġa c
Ġb as
Ġn um
Ġag ain
ver s
Ġs pe
Ġo h
Ġp ut
Ġ (
a p
Ġim p
Ġof f
an ce
Ġt ra
y s
Ġd is
ation s
i ous
Ġ ke
se lf
Ġa m
ig n
Ġmo st
Ġmay be
Ġne w
Ġbe ing
Ġr un
ĠTh e
Ġh is
t e
f e
Ġo b
Ġs c
t y
i ld
Ġd at
Ġre al
j ect
Ġs im
Ġd es
u al
Ġ J
Ġpro ble
Ġi d
ow er
ĠĠ Ġ
c es
Ġe nd
Ġst ill
Ġin st
ar y
ea d
Ġy ear
Ġin ter
Ġs ort
for m
s i
Ġthr ough
i al
Ġt y
st em
Ġto o
ra m
Ġs et
Ġg ame
Ġ 3
Ġtal k
Ġm ight
Ġ .
od y
oth er
at ch
ab ly
Ġb ig
Ġsa id
Ġb r
Ġg en
Ġ [
Ġr o
ou nt
Ġdoes n
Ġmo ve
Ġman y
Ġc ode
ur n
Ġpro b
Ġv ide
Ġsy stem
Ġv al
Ġfe el
Ġp ers
d u
Ġg reat
ĠI t
Ġad d
Ġle ar
ere st
v es
iz e
at ing
w e
f t
e ver
u ll
or d
Ġf o
im es
re d
Ġdat a
Ġex am
Ġh um
f ul
ig h
f ore
p h
Ġint erest
or s
oo l
e ll
Ġpro g
Ġp h
Ġm od
way s
k s
Ġqu est
m o
Ġde f
Ġunder st
Ġhapp en
a v
Ġcom m
Ġf ind
ic s
Ġstu ff
Ġprob ably
Ġnum ber
Ġin c
co nd
en se
Ġl ong
Ġp a
Ġdid n
Ġbet ter
Ġunderst and
re ad
Ġd ay
Ġus ing
an ge
Ġth ree
Ġproble m
oug ht
eth er
Ġf l
Ġar ound
Ġh ard
er t
Ġexam ple
o ck
Ġid ea
ut e
Ġe m
ĠY ou
t ty
on s
Ġc our
Ġs l
i x
Ġvide o
b ody
pe ct
Ġo p
Ġbe fore
Ġg r
Ġh im
Ġpre tty
Ġh igh
Ġb o
Ġpers on
a c
Ġcon s
Ġa f
Ġli fe
ar i
Ġg ive
ĠW h
Ġgen er
Ġe v
Ġab le
Ġcom e
Ġse cond
Ġal ways
Ġj o
Ġcomp le
Ġfun ction
Ġp ower
a il
Ġt er
Ġch e
Ġevery thing
at ter
Ġsh ow
Ġre ad
Ġan other
at er
Ġs ure
Ġyear s
Ġbu ild
Ġtry ing
Ġs er
Ġte ll
c ri
Ġcomp ut
ĠC h
ent s
l ic
is e
Ġbe l
Ġst r
Ġy es
Ġ U
Ġne xt
Ġ =
ol og
Ġe ach
Ġprog ram
u d
Ġcour se
ul ar
Ġre l
Ġin s
Ġg ra
l es
Ġf act
Ġm in
u g
Ġ 4
Ġre as
Ġex per
w ard
Ġat t
Ġaf ter
Ġ2 0
Ġinterest ing
ru ct
w h
. .
Ġsu pp
Ġe as
if ic
Ġs m
Ġbas ically
n ight
ish op
il ity
Ġde c
Ġcall ed
Ġ 5
ic t
Ġdon e
at es
Ġimp ort
Ġhe l
Ġo wn
ĠK night
Ġne ver
ĠW e
Ġsh e
Ġl ist
we en
Ġen g
Ġpos si
ar k
Ġc ar
Ġe qu
u b
v ed
ce pt
' d
Ġre c
Ġe l
Ġlo ve
Ġ1 0
Ġquest ion
Ġso l
Ġc ase
ie w
Ġus ed
th e
Ġ ent
v ious
ang u
Ġhel p
Ġma de
Ġsu b
Ġop en
Ġbet ween
Ġche ck
Ġhum an
at ure
Ġex act
Ġte ch
at ive
Ġs ense
Ġl angu
Ġth ought
Ġget ting
d ay
Ġit s
Ġe ff
l i
Ġany thing
Ġsay ing
ĠY eah
Ġ z
vel op
Ġpro cess
Ġc re
Ġt est
Ġmean s
Ġb oth
Ġha nd
Ġtr ans
Ġle vel
Ġwho le
Ġke ep
ow s
Ġty pe
Ġto p
Ġwhat ever
Ġb est
w or
Ġh o
Ġme m
Ġc ool
Ġc ur
Ġf in
i a
Ġf our
h ing
n ess
Ġe le
Ġreas on
Ġbl ack
t o
a k
Ġc or
Ġ "
g er
Ġlear n
Ġval ue
c y
Ġde velop
ut ion
p ut
ĠB ut
i ed
u nd
Ġl a
ment s
ert ain
om e
Ġpl us
Ġlook ing
Ġs ide
Ġb ad
Ġex t
ĠR ook
Ġin v
ent ion
Ġpos ition
ci al
read y
Ġ vers
w are
Ġe ar
Ġta kes
Ġpro du
Ġimport ant
op e
Ġma kes
Ġtal king
Ġc reat
Ġal ready
Ġl ast
n ce
Ġ V
Ġc le
Ġ Q
Ġre g
Ġw in
Ġbe com
ĠĠĠĠ ĠĠĠ
Ġdef in
Ġex p
ar ch
Ġre p
one y
Ġex pl
Ġm on
al s
Ġgo es
Ġfe w
ar s
i an
Ġexact ly
Ġth ough
n ect
Ġcre ate
ra ct
it s
Ġt imes
Ġtech n
is s
is m
Ġas k
Ġgu ys
Ġen ough
Ġcl ass
Ġ 6
ag es
Ġm oney
Ġqu ite
Ġp ass
ĠTh at
on t
Ġbel ie
Ġl ine
Ġre t
Ġlangu age
Ġc ertain
Ġw a
Ġo pt
Ġeng ine
Ġc a
Ġcomple te
ĠO h
it ing
c us
Ġ ed
in es
Ġt urn
Ġfor m
u es
Ġel se
Ġs ur
Ġl ess
u p
Ġwh ile
Ġexper i
Ġha ving
Ġas s
Ġst and
Ġpart ic
ate ly
Ġpossi ble
Ġto day
Ġc are
Ġe ver
Ġon ce
00 0
Ġin d
Ġmod el
Ġke y
un ch
b o
ig ure
i ent
Ġn ice
d er
ĠTh is
Ġob vious
Ġsm all
Ġcont ro
Ġm ult
Ġse lf
Ġwor d
Ġc r
am es
Ġcon f
Ġch ar
Ġsp ace
nd s
Ġb ra
Ġo pp
n e
Ġch ange
Ġcomp an
o y
Ġwor king
Ġty p
Ġpl ace
Ġt ea
Ġcomput er
Ġcon nect
ro s
Ġw atch
Ġob ject
Ġto g
it er
iz ed
Ġa way
Ġre f
Ġc ou
ir d
Ġsu per
ĠB ishop
Ġn ame
Ġb ook
o c
Ġjo b
# #
Ġsu ch
Ġwh ite
Ġf ive
ot e
c ed
Ġtog ether
Ġo per
Ġma king
g or
mo st
Ġf ar
ĠI n
Ġd ire
Ġf ull
a ke
t en
me m
Ġcom es
Ġac c
o f
er o
Ġcon st
i ally
Ġs ign
it ies
Ġdes ign
Ġwr ite
Ġs ing
as h
b ers
g et
Ġle ast
Ġgu ess
Ġst ory
Ġspe c
cri pt
Ġp ie
Ġpro ject
Ġa ut
Ġsay s
l o
h ip
Ġsome one
ĠQ ue
ĠS t
Ġpa wn
Ġs ci
us ic
er n
Ġma ch
Ġwork s
Ġst ate
i ble
Ġstart ed
Ġre qu
Ġlook s
olog y
s w
er ing
it ed
Ġd et
Ġlear ning
i er
Ġ 0
Ġab s
e x
ing s
Ġm om
Ġqu ick
Ġtr ue
ere d
Ġc ra
Ġw ent
i b
Ġl ar
form ation
m ing
as ter
Ġor der
Ġl ea
Ġd ra
Ġmem ory
or m
Ġget s
Ġre mem
c on
Ġc ent
Ġh ope
a z
gor ith
Ġm ind
Ġar t
Ġan sw
Ġsim ple
a ir
Ġin f
Ġal most
Ġhe ad
i ly
Ġwant ed
Ġway s
Ġthink ing
Ġco ll
Ġwith out
Ġg iv
Ġd ist
ĠQue en
res ent
p r
Ġex ist
Ġun i
Ġcomm un
ath er
Ġad v
Ġli g
Ġsing le
g in
Ġp ar
Ġcom ing
l ed
Ġbelie ve
Ġper form
et imes
Ġm ill
Ġ es
Ġremem ber
Ġo ld
Ġn et
Ġf ound
Ġlig ht
Ġsc re
Ġis n
g n
Ġfo ll
um p
Ġf ree
Ġinst ead
Ġ 9
Ġexperi ence
Ġcomplete ly
at or
Ġle ft
c l
e w
Ġbe h
Ġc ol
Ġf ile
Ġb re
Ġi de
Ġmult i
Ġst op
ol ute
Ġret urn
Ġpl an
in ce
Ġres ult
ow ing
Ġeas y
ith er
Ġs k
if y
Ġnot hing
Ġwr ong
Ġhapp ens
Ġ 7
wor k
Ġch ang
Ġf il
n er
Ġsom etimes
ĠWh at
Ġobvious ly
Ġstu d
Ġph ys
Ġl iter
Ġgu y
l ess
nd ing
al ity
Ġc ount
an k
os ed
wh ere
Ġh our
Ġ 8
Ġpartic ular
Ġplay s
ĉ ĉ
Ġabs olute
re nt
o od
Ġv ari
Ġst ep
Ġter ms
a ve
Ġar g
Ġin formation
Ġsee ms
us h
Ġv iew
ruct ure
is ion
y th
Ġs qu
Ġal gorith
Ġm atter
Ġcle ar
Ġrun ning
u ck
Ġd r
iz ation
Ġs w
ros s
ite ly
Ġ x
re n
ic es
Ġc ame
u de
g y
Ġins ide
Ġcontro l
Ġwh ether
g r
Ġwe b
Ġsupp ort
Ġyour self
Ġp ress
Ġsp ea
Ġse en
et s
Ġeff ect
p o
Ġl ead
ĠG od
l ine
h e
Ġs ch
Ġs it
Ġd ri
Ġh er
Ġm ath
Ġz ero
Ġm et
m ed
Ġf igure
Ġm ess
ent ially
ci ally
ur al
r ist
k en
um ent
Ġapp ro
b r
Ġqu e
Ġfr ie
Ġto ol
ag n
ir t
re am
Ġnum bers
yth on
Ġg i
Ġevery one
n ot
Ġm ed
c le
Ġp ol
it ive
Ġansw er
ple ment
Ġe ither
a ut
Ġagain st
Ġ ve
Ġc ap
Ġh ist
ĠĠĠĠĠĠĠĠ ĠĠĠ
ur ing
Ġc am
Ġso ft
Ġlo g
ĠP a
i o
ic ult
Ġdire ct
ĠH e
Ġmach ine
Ġf ast
Ġim ag
Ġ er
l ing
Ġinter n
Ġit self
P U
Ġbl ock
Ġto t
Ġplay ed
p s
Ġmom ent
re ct
l er
Ġam ount
d d
Ġl ink
Ġwas n
Ġac cess
Ġplay ing
c ur
it ch
Ġg ames
m an
Ġis s
Ġdefin itely
Ġw on
Ġf ra
Ġho ld
Ġbecom e
m b
Ġcur rent
Ġf am
Ġy et
ĠI f
Ġent ire
al f
Ġdiff icult
m er
Ġint ell
Ġ1 9
Ġw ar
il ar
Ġde v
Ġm ention
ĠA I
pe cially
Ġof ten
v iew
th at
Ġl ater
Ġbe gin
Ġthan k
eth od
Ġh u
Ġrec ord
Ġte xt
Ġb unch
ut ure
Ġfr ont
f ect
Ġs ound
t s
Ġbe aut
Ġtra in
Ġs ince
Ġst ructure
Ġhappen ed
) .
Ġch ess
Ġabsolute ly
Ġbr ing
ward s
Ġproble ms
Ġde ep
Ġes pecially
) ,
Ġu nt
am ent
Ġatt ack
se l
Ġh it
ĠTh ere
il t
Ġcl ose
z y
Ġta king
Ġf ine
ver se
in ess
Ġt em
Ġde pe
qu e
Ġim plement
Ġa v
Ġb us
an n
Ġ ess
Ġhe y
bo ard
Ġf uture
ation al
r ay
Ġcon vers
Ġs ix
ie ld
ot t
Ġequ al
Ġm ethod
Ġinc l
Ġfe ature
Ġp ay
Ġcont in
Ġliter ally
en g
ut es
Ġk id
Ġc op
Ġwa it
et y
Ġev ent
Ġon es
Ġevery body
Ġ1 2
at ic
Ġdo ll
e c
in s
ĠM agn
are d
Ġcompan y
ĠPa wn
Ġh alf
Ġbas ed
Ġint e
Ġprodu ct
ĠO kay
Ġwith in
Ġp op
Ġpr int
Ġque en
ĠMagn us
c ent
Ġlar ge
Ġp ri
ou se
Ġsoft ware
atter n
Ġde al
Ġs ca
ist s
ot s
Ġsome body
Ġchar act
el s
Ġcou ple
as es
Ġre m
p ar
Ġm ark
Ġtoo k
Ġgener al
a x
Ġre st
re t
en cy
Ġma in
g g
Ġmon th
sel ves
Ġvers ion
Ġdra w
Ġprogram ming
Ġquest ions
Ġli ve
Ġf und
ri b
Ġcons id
pl ay
Ġper fect
Ġa ir
Ġday s
iv id
ab ility
en e
Ġsystem s
on ent
i k
ĠThe y
Ġex c
Ġp ub
Ġp attern
Ġpro per
Ġperform ance
Ġunt il
r ic
Ġp ath
ort un
Ġstand ard
Ġlo c
Ġhu ge
Ġim age
Ġcor rect
ĠN o
s ide
Ġpro v
Ġ1 00
our ce
Ġall ow
Ġco st
Ġex pect
Ġide as
ous and
Ġw o
Ġs ize
r on
Ġspe ed
Ġl ow
Ġintell ig
a ces
Ġbre ak
Ġbuild ing
Ġpr ot
Ġmean ing
and om
n g
Ġlist en
Ġsim ilar
M usic
Ġth ousand
r or
Ġgi ven
Ġin de
g an
ĠK ing
Ġsh ort
Ġbu y
Ġwe e
Ġdiffere nce
ull y
Ġsu c
c ul
ter s
Ġf ight
ire d
c ing
y n
Ġb ro
l t
le ct
Ġhappen ing
e e
p ro
Ġn orm
Ġag o
Ġha ven
Ġp ick
i ke
Ġm iss
Ġ3 0
u le
ci ous
Ġwe ird
Ġp ur
Ġf re
Ġopt im
Ġh on
p ly
Ġgra ph
Ġtyp es
id d
m in
id es
Ġbo ard
Ġl ay
s h
Ġinc re
Ġto r
a h
Ġk ing
ol ution
Ġmill ion
Ġwould n
Ġres p
Ġimag ine
Ġ '
Ġw al
a pp
Ġpoint s
Ġp ast
Ġli m
Ġpro f
Ġb ishop
Ġear ly
re me
Ġsa w
Ġcra zy
Ġr andom
Ġro b
Ġfo cus
Ġr ather
Ġbeaut if
Ġa h
Ġhist ory
Ġam az
ter n
Ġc al
n y
ion al
Ġstr ing
Ġan al
Ġh y
Ġsci ence
ĠU n
Ġv is
itt ing
Ġ X
u be
1 0
Ġtea m
Ġmy self
Ġin put
Ġst or
Ġcomple x
ĠI s
Ġneed s
Ġquick ly
ĠB e
f ully
are nt
Ġrep resent
Ġalgorith m
Ġbu ilt
Ġ $
Ġl os
Ġhum ans
Ġact ual
Ġgiv es
u me
b it
Ġpo st
ent ly
Ġapp lic
Ġp ack
Ġsim ply
ig in
le ase
or ry
Ġgr ou
ct ions
Ġhe ar
pl es
Ġmin utes
av a
Ġen c
ĠW ell
Ġword s
Ġw ater
irt ual
Ġst ore
ĠA ll
ĠĠĠĠĠĠĠĠ ĠĠĠĠĠĠĠĠ
Ġm ust
c r
Ġpr om
an e
at t
Ġne cess
Ġf air
und red
( )
Ġscre en
Ġbra in
ive ly
## ##
Ġbeautif ul
Ġcom b
Ġval ues
Ġtra d
Ġm atch
Ġess entially
Ġinc red
lo ad
ent ial
Ġg l
ver t
Ġc ard
Ġch all
ĠN ow
Ġcan not
s y
Ġfor ward
Ġh undred
it ions
Ġele ct
Ġamaz ing
Ġn on
Ġ1 5
Ġp ot
t a
Ġal ong
ap s
Ġexpl ain
Ġspec ific
Ġp ush
Ġp ull
Ġor igin
ere nce
Ġc ir
Ġtalk ed
Ġus er
Ġhour s
Ġwo nder
Ġa w
Ġch ild
h ow
j oy
Ġvers us
Ġwr iting
t ime
f ace
s et
l ish
Ġfra me
ure s
i or
Ġhigh er
ic ient
Ġlea ve
Ġlo ad
Ġgo d
Ġappro ach
Ġsit u
Ġmo ves
Ġd i
Ġhe ll
Ġimp ro
Ġpie ce
Ġs orry
Ġbus iness
Ġpie ces
Ġen joy
Ġresp on
Ġmulti ple
Ġhon est
ist ic
Ġus ually
l a
Ġ #
ari ly
Ġro om
g le
Ġsuc cess
Ġmention ed
t on
Ġa p
Ġl ose
Ġcomm on
Ġpre d
.. .
Ġreal ity
it al
Ġcent er
Ġh ome
Ġex cept
Ġf ix
Ġc y
Ġuse ful
i res
Ġtechn ology
Ġu lt
Ġcont ain
c ast
Ġp ython
Ġcam er
Ġe ight
Ġso cial
Ġse arch
Ġwatch ing
Ġconvers ation
Ġsecond s
Ġen er
Ġre mo
Ġind ivid
Ġstart ing
Ġkind s
li ke
Ġp ract
Ġstr ong
Ġdoll ars
. "
Ġde g
Ġar ray
Ġfund ament
Ġst ra
Ġcomp et
Ġf ail
Ġf all
Ġbeh ind
ra d
Ġm ass
o nd
ĠL et
Ġcomp il
in ed
Ġf aster
e xt
o ld
cus s
Ġag ree
Ġle g
ug ht
Ġmo ving
Ġk ill
id ent
med i
Ġrel ations
Ġid ent
Ġn ode
Ġ +
Ġin it
ra ph
Ġout side
Ġco nd
Ġnet work
Ġspe cial
Ġac ross
Ġinter act
Ġd ou
Ġne g
it or
Ġbas ic
as ed
y ou
Ġb i
Ġen v
Ġ5 0
Ġtra ck
Ġcreat ed
Ġb ott
Ġfrie nds
Ġto ld
Ġdo c
ab les
Ġd ig
ĠH ow
Ġspea k
Ġp res
ir on
Ġm ot
Ġfoll ow
Ġper cent
Ġvide os
se arch
ch an
ru ction
Ġext reme
ou d
ĠJ ava
Ġpub lic
Ġh or
Ġcon cept
Ġsk ill
Ġs ource
com e
Ġadd ress
Ġener gy
iz ing
Ġlo st
Ġdis cuss
Ġcop y
Ġfeel s
Ġbel ow
Ġmath em
Ġc od
le x
e ch
ll ing
Ġcompan ies
Ġdes cri
Ġunderstand ing
Ġdet ail
Ġindivid ual
pl ic
Ġw ind
Ġl ab
Ġre d
ic ro
Ġsl ow
Ġdr ive
m ore
Ġd ot
Ġf ace
ĠA l
ar r
ĠF or
Ġthe ory
Ġlong er
Ġup d
Ġrelations hip
o ice
et er
Ġv irtual
Ġb ody
Ġany way
Ġcon c
Ġc ut
ul es
f l
Ġ1 1
m m
Ġf ield
ress ion
ĠP ro
Ġ ?
Ġpr in
Ġthan ks
Ġpossi b
Ġser ver
Ġsur pr
Ġbo x
Ġext ra
id ed
en ces
Ġenv iron
Ġex ec
Ġde p
b ed
r om
Ġme chan
Ġn ight
Ġse nd
Ġr a
Ġwor th
i pp
n ter
Ġconst ant
ry pt
Ġsol ution
Ġre act
x im
ĠD e
Ġintellig ence
Ġp od
Ġor gan
Ġsh o
Ġb ase
Ġcharact er
us si
Ġn at
a ult
ut h
Ġeas ier
Ġsch ool
ĠC om
Ġ20 1
ust om
Ġaut om
Ġincl ud
ĠL ike
Ġde m
Ġre search
idd le
Ġd est
oo se
Ġtra de
Ġst ay
ro p
Ġsw itch
Ġpa per
e nd
Ġf ore
er y
Ġm il
p ort
Ġr ange
Ġhapp y
Ġp ort
Ġsci ent
g ing
Ġpower ful
Ġfun ctions
Ġpol it
Ġkn ew
at s
Ġb ill
Ġcons cious
Ġtea ch
Ġplay ers
Ġg re
u z
Ġinv est
Ġult im
ver n
g ed
Ġas pect
ĠC PU
ct or
Ġwant s
Ġp ain
ict ion
Ġc ult
Ġs um
if ied
Ġinst all
Ġ2 00
b y
v ice
Ġla w
th ers
c in
itt en
Ġa ud
Ġto wards
Ġst ream
Ġt able
Ġ Z
Ġcommun ity
al th
Ġ1 6
Ġsupp osed
Ġinv ol
m y
Ġw all
Ġsub s
Ġbecom es
if t
Ġli br
Ġthem selves
Ġc ustom
Ġknow n
sy ch
Ġo thers
led ge
ic le
Ġse par
Ġiss ue
Ġm ar
Ġsee ing
ver age
or ing
Ġwork ed
Ġsol ve
Ġs ent
00 00
Ġsa ve
Ġr id
Ġpress ure
Ġcomp lic
Ġtot ally
Ġconsid er
Ġcal cul
a king
Ġme et
cript ion
Ġg am
Ġm usic
Ġr ust
Ġpod cast
j or
ul ation
Ġlo op
Ġgiv ing
Ġse ven
Ġfin ally
as k
Ġre ach
Ġout put
Ġcoll ect
Ġplay er
Ġgo vern
Ġgrou p
Ġacc ount
Ġe y
g est
Ġcould n
Ġer ror
Ġw ow
av or
Ġj ump
Ġtool s
o id
Ġl ines
Ġpo in
Ġmonth s
as ure
Ġse qu
Ġcol or
ĠR e
h ere
pect ive
Ġg one
ater ial
Ġre du
Ġch ann
ĠCh rist
Ġm ist
Ġl ower
ition al
Ġbig ger
Ġcamer a
Ġare n
Ġcont ent
Ġstra ight
Ġde fe
Ġlot s
w ise
o ve
Ġknow s
is ed
ro du
Ġnorm al
s er
Ġse c
mb ol
Ġopp onent
y ing
Ġn ature
Ġp sych
Ġtr ied
im ens
Ġsl ight
Ġpre vious
Ġth ird
Ġma jor
o v
Ġt ree
o b
Ġdevelop ment
Ġuni verse
Ġenviron ment
r is
Ġwe ight
Ġd iv
ens ive
p os
Ġcl ick
Ġwal k
Ġst ack
Ġpl at
Ġre co
Ġsitu ation
Ġsee m
Ġintern et
Ġinterest ed
v al
Ġbegin ning
Ġc ell
an na
Ġcertain ly
Ġprin ci
Ġmod ern
Ġlearn ed
Ġany one
op h
2 0
Ġm iddle
Ġfun ny
Ġkid s
ab y
Ġah ead
Ġst e
Ġpawn s
is ing
Ġsca le
Ġd uring
Ġa ff
Ġsome how
Ġ4 0
Ġall ows
g es
ip s
Ġwr itten
iv es
Ġm aterial
5 0
i ans
Ġneed ed
Ġarg ument
i um
Ġsy mbol
ail able
Ġman ag
1 1
Ġm or
Ġw om
Ġweb s
Ġput ting
Ġcreat ing
Ġc ases
Ġl and
Ġdis co
Ġcomplic ated
Ġab ility
iv ity
Ġreal ize
Ġf as
Ġmark et
Ġnot ice
Ġhow ever
Ġdat ab
Ġim medi
u c
Ġb ene
Ġo c
g s
Ġpart s
ou ch
Ġd ark
Ġread y
re es
Ġcommun ic
f er
Ġt ur
Ġcl os
Ġfoll owing
ar ing
et ic
Ġde b
um b
ant s
Ġhe ard
g o
Ġcont ext
Ġun f
Ġfin ish
Ġv ol
Ġp ict
Ġso on
ant age
h aps
Ġsh a
Ġmathem at
ci es
Ġf an
t es
Ġh ouse
ar get
Ġfeature s
Ġp lease
Ġstart s
Ġcr it
Ġc ore
Ġser ious
Ġask ed
am p
pl ace
Ġfl o
) :
Ġf avor
Ġpl ug
Ġsp ons
Ġpers pective
Ġsound s
an ces
ck s
Ġgot ta
ly ing
Ġg ave
Ġsu ff
con om
Ġtr ick
Ġf u
olog ical
ĠS h
Ġta ken
Ġr ad
Ġbott om
Ġmess age
Ġon line
Ġf ur
Ġwee k
Ġchang es
T he
dd en
Ġfas cin
in ary
ĠD o
Ġso ci
th ough
Ġele ments
Ġsu dden
Ġit em
Ġincred ible
Ġsome where
it ter
Ġch at
Ġb ar
Ġd om
Ġav ailable
is ter
Ġ {
Ġphys ical
w ord
Ġare a
Ġreas ons
Ġw anna
Ġfin al
Ġfam ily
el t
Ġdis play
Ġknow ledge
Ġatt ention
Ġextreme ly
b ack
Ġset ting
il ities
Ġpri v
Ġcl a
Ġd ang
Ġyou ng
Ġch ance
Ġper haps
Ġp resent
Ġtr ust
Ġsc ri
Ġmin ute
Ġsm art
Ġinter view
Ġbene f
Ġtrain ing
Ġtot al
p ose
ut ions
Ġch rist
Ġr is
Ġscri pt
Ġvari able
Ġele ment
Ġany more
Ġdes cription
on es
eng th
Ġsh are
ĠP C
Ġbit s
Ġcontin ue
ri es
Ġcle an
Ġne ar
Ġde ath
Ġre com
Ġph one
Ġphys ics
Ġdoc ument
Ġan t
Ġtr uth
Ġear li
pl oy
Ġd am
Ġno body
es e
Ġe conom
Ġwin ning
r al
ĠB l
l ay
Ġturn s
Ġse lect
Ġed ge
Ġch oose
et ers
ve red
Ġp age
Ġprot ect
Ġpar am
od es
ri ble
Ġneg ative
ik ar
v ent
Ġwr ote
Ġsa fe
si ble
Ġslight ly
im ent
Ġgo al
Ġt ouch
Ġfrie nd
Ġresult s
or n
Ġma g
Ġopen ing
_ _
Ġth read
Ġfeel ing
Ġnecess arily
o h
S cript
Ġf ire
Ġe p
Ġan im
Ġlook ed
Ġgr ound
Ġinde x
n ow
Ġh ate
r ow
Ġs ens
Ġrequ est
Ġm ode
yn am
Ġca pt
Ġread ing
Ġequ als
Ġf elt
Ġar ch
at ors
Ġth reat
Ġrob ot
Ġcount ry
us ion
ĠE x
Ġus es
Ġiss ues
Ġimpro ve
Ġmed ia
ĠT r
Ġlike ly
m od
wor ks
Ġobject s
1 2
Ġu nd
Ġg ig
Ġr ules
ĠU S
Ġeff icient
ĠYou T
Ġevent ually
nd ed
Ġind ust
ĠJava Script
Ġgr ow
Ġlangu ages
.. ..
mer ic
Ġperson al
Ġdirect ly
Ġve h
l s
Ġwor se
z e
Ġspe nd
es ome
Ġultim ately
ĠC on
Ġfur ther
Ġorigin al
Ġwor ry
Ġchann el
Ġopp ortun
Ġaut h
Ġdatab ase
Ġinst ance
Ġr ot
og raph
Ġd ude
Ġter m
Ġrecom me
at a
Ġfor ce
ĠA s
Ġpos itive
y le
Ġ2 5
Ġbut ton
av ior
cur ity
Ġfascin ating
our n
Ġcod ing
Ġre le
Ġsqu are
Ġspea king
Ġbe at
Ġapplic ation
. ,
d o
Ġan n
Ġcir c
Ġtor ch
Ġwebs ite
Ġcon v
Ġmin im
Ġr out
Ġfo ot
Ġgovern ment
Ġs le
Ġchang ed
Ġman age
Ġpr ice
Ġph il
j ust
Ġ6 0
Ġac cept
Ġearli er
Ġapp ear
ck et
if e
ress ive
ĠG PU
Ġmodel s
Ġnat ural
b al
Ġab ove
Ġsa cr
b ook
Ġli ving
in ation
Ġ1 3
Ġfor get
ast ic
Ġdire ction
Ġ est
Ġqu ality
p id
â Ģ
en ge
Ġaw esome
ĠA meric
Ġh ot
Ġfundament al
Ġhonest ly
Ġpl aces
Ġh ang
Ġtell ing
Ġsubs cri
gr ound
Ġengine ering
ra in
th is
Ġnew s
Ġmo v
ĠA n
Ġfu el
Ġsho ot
Ġse ver
Ġeas ily
s es
Ġp i
Ġinit ial
Ġm other
Ġit er
Ġreco gn
Ġinst ruct
Ġclear ly
Ġa verage
Ġint rodu
pp ed
ĠT w
Ġinte gr
Ġsign ific
ĠC an
id ence
ĠW or
Ġimmedi ately
o st
ch ie
ill i
ĠY es
al se
Ġcare er
Ġear th
Ġqu ant
Ġser ies
Ġconc ern
Ġro le
Ġi ll
ĠĠĠĠĠĠĠĠ ĠĠĠĠĠĠĠ
ĠA r
Ġco ver
Ġdis c
Ġsp ent
Ġrequ ire
Ġst ick
Ġ1 4
Ġinf l
st r
Ġshow s
Ġloc al
Ġal though
Ġthr ow
r ight
Ġinst ruction
Ġ ver
Ġuni vers
Ġcla im
Ġg e
se mb
Ġcomm and
Ġsever al
ĠYouT ube
Ġlibr ary
Ġcurrent ly
w ith
Ġm icro
Ġs itting
Ġme asure
Ġprof ess
Ġother wise
Ġstr ate
ar ies
L ex
ra ms
Ġfl ow
Ġsmall er
Ġres pect
Ġpred ict
Ġst ock
k y
Ġb al
os oph
Ġbig gest
Ġcompil er
Ġc ross
Ġr ate
h a
Ġg ear
Ġa chie
Ġl ength
ur ch
Ġrel ig
Ġrel ative
p or
Ġfe ed
ur y
iv il
Ġalgorith ms
Ġma p
Ġv i
Ġexc ited
Ġma xim
Ġ20 2
Ġass um
Ġas king
Ġdepe nd
Ġf ill
i od
Ġs at
ĠA d
Ġtest ing
Ġwor st
Ġd ead
Ġpoin ter
l ight
Ġhe art
Ġim ages
is on
m iss
Ġstu pid
Ġpop ular
Ġrec ently
y ond
g en
Ġre ce
Ġdef ault
ĠG oo
Ġhope fully
Ġinvol ved
Ġst age
Ġde le
Ġcou nter
Ġpict ure
Ġb atter
ĠP ython
Ġdet er
p ing
Ġst at
Ġphil osoph
Ġf it
Ġproject s
Ġdou ble
Ġm en
Ġte nd
Ġwh e
Ġsha pe
it es
Ġfull y
Ġd ie
an ch
ap ter
ĠI nt
Ġsim pl
um ents
Ġchall enge
Ġab st
Ġconnect ed
Ġop in
Ġc ast
us ed
8 0
Ġremo ve
er v
ru pt
Ġper iod
Ġstate ment
f ort
ar ious
Ġma int
Ġc rypt
ortun ately
Ġse curity
Ġexam ples
Ġuni que
wh at
Ġsignific ant
Ġhe alth
Ġrun s
Ġadv antage
, "
Ġ eth
) )
op s
ri ed
Ġstor ies
Ġc ivil
in y
Ġr ook
Ġgener ally
i ence
Ġdec ision
Ġwe ak
Ġconnect ion
Ġob ser
Ġany ways
p re
our ces
Ġlo ck
Ġla ug
Ġfavor ite
Ġser vice
Ġpr im
Ġimplement ation
Ġsoci ety
Ġreg ular
po int
Ġcult ure
ĠGoo gle
Ġl uck
ca d
co in
er ic
res h
Ġhand le
Ġscre w
u it
re ci
Ġshould n
Ġdist ance
Ġem ail
Ġsequ ence
f act
on y
Ġdang er
Ġ 000
it ect
as ing
Ġb ound
Ġm ent
Ġconscious ness
an ced
Ġ et
Ġdri ving
c ise
Ġsepar ate
Ġconst ruct
se qu
Ġdev ice
Ġn u
Ġcomput ers
Ġallow ed
Ġlisten ing
#### ####
k ed
ca me
on ents
ĠJ ust
Ġr ule
em pt
iv al
Ġdist rib
s c
Ġrespon se
Ġa ge
ikar u
Ġapp ly
ĠT ech
Ġcom ment
Ġt en
pe nd
Ġgam ing
Ġon to
Ġchild ren
Ġfil es
ne y
e v
illi ant
ous ly
Ġtr i
Ġne ural
Ġpur pose
Ġfo od
Ġm is
Ġd a
Ġcl ock
Ġp an
Ġmin us
Ġst ar
Ġbook s
Ġdeg ree
Ġimp act
ĠO r
Ġmass ive
ul ate
Ġprov ide
or ies
Ġsp ir
Ġun it
Ġp at
Ġdec ided
u ly
Ġhim self
Ġsle ep
a res
Ġr ound
Ġrecomme nd
Ġdevelop er
id th
re w
n ces
Ġdesign ed
Ġch urch
in us
Ġv arious
Ġm at
ĠS e
Ġinf in
Ġinter face
Ġadd ing
Ġvis ual
Ġs pl
re st
ain s
Ġchall eng
ra cy
Ġbr ought
ens ion
Ġc red
Ġtra vel
Ġmost ly
Ġlim it
Ġt it
Ġapp reci
Ġbeh avior
Ġn one
h er
Ġplat form
Ġoper ation
u x
Ġem ot
Ġass ume
Ġindust ry
t ed
Ġinstruct ions
Ġ ut
Ġref erence
Ġupd ate
Ġend s
Ġb all
ĠO ne
Ġem er
Ġst ru
Ġre v
P T
Ġcom ments
Ġve ctor
m a
Ġn arr
Ġus ers
Ġh ur
Ġn ine
ir ing
Ġch oice
os s
Ġsu gg
Ġph ot
Ġgra nd
Ġsugg est
so ci
Ġt arget
Ġ2 4
Ġskill s
Ġbe came
Ġav oid
Ġm ount
Ġla unch
Ġc ach
Ġcar s
Ġdest ro
Ġinclud ing
Ġun less
Ġst yle
o ff
am ple
if ically
Ġtechn ical
Ġhe av
Ġadd ed
r ing
Ġj ud
Ġt reat
at ically
Ġsh ot
Ġprog ress
Ġt ask
Ġgener ate
Ġc e
Ġpattern s
Ġd ream
um n
Ġset up
Ġtem pl
Ġopp os
Ġpot ential
ra nd
Ġv ision
Ġact ion
Ġexp ress
im in
il i
im ate
Ġap art
Ġkey board
Ġro ad
Ġp arent
in a
Ġ1 8
Ġcap ac
l and
ain ing
Ġexper iment
Ġst ates
Ġany body
P I
ĠT o
Ġlay er
Ġbl ue
Ġreg ard
Ġint u
Ġn odes
Ġrel ated
Ġd imens
Ġro ll
C h
Ġdef ine
Ġtyp ically
Ġlar ger
ic king
Ġbill ion
Ġstud y
Ġhand s
Ġc uz
i et
st er
ad d
ĠH ere
o x
Ġ1 7
Ġpract ice
Ġexc iting
Ġpa ir
Ġlevel s
Ġwom en
b s
Ġopt ions
ut ed
Ġi gn
Ġcharact ers
ore d
Ġ9 0
Ġse ll
Ġeff ort
u ff
ol es
Ġsc en
p ed
Ġd ynam
Ġbe yond
Ġim m
Ġv ir
ific ation
Ġas semb
Ġre view
Ġris k
Ġg lo
Ġdetail s
Ġnot e
Ġarch itect
ce ler
Ġed uc
Ġsp ot
Ġdet ect
am ed
Ġhard ware
ĠWor ld
Ġro ot
Ġp ix
Ġs al
Ġdo or
Ġkn ight
Ġgra d
Ġc at
ĠN ew
id ing
ac y
ĠC ar
Ġrep ort
Ġli ves
Ġstor age
Ġw ish
Ġgo ld
ĠH ikaru
Ġbr illiant
pp ing
Ġval id
Ġopportun ity
is ions
Ġpolit ical
Ġme ant
Ġla pt
Ġincre ase
Ġreal ized
Ġm er
Ġanal y
Ġshow ing
Ġpro p
Ġexp ensive
Ġsur face
Ġjob s
Ġhe at
Ġoper ations
Ġdes k
Ġback ground
p y
Ġch ea
+ +
Ġtest s
Ġcontin u
Ġwe l
Ġopt ion
Ġp ea
Ġparticular ly
Ġthere fore
Ġe at
Ġre place
Ġt ough
Ġmist ake
a w
Ġadv ice
ys is
un k
us ing
ind ows
Ġapp arent
Ġp in
am b
Ġtem per
a le
Ġfo ld
Ġev al
ĠA pp
ĠBe cause
Ġour selves
Ġcons ist
ĠE ng
Ġworld s
Ġunf ortunately
Ġb inary
Ġtechn i
Ġ /
ce ed
Ġse x
Ġplan et
Ġend ed
f rom
Ġmach ines
ify ing
" )
Ġhard er
Ġent er
r ary
u ro
T h
Ġa ware
Ġtr uly
Ġbatter y
u nder
Ġbl ah
in ing
Ġreg ister
Ġwill ing
Ġ ,
Ġsign al
Ġstep s
Ġdefin ition
ra el
Ġtrans l
Ġturn ed
Ġprog rams
Ġsh ift
Ġcontro ll
ic ul
ĠS p
Ġoper ating
Ġmil es
Ġexist s
Ġre pe
Ġ3 2
Ġca use
o int
Ġs us
Ġprodu ction
Ġma gn
Ġdec ide
Ġp ure
Ġdepe nding
Ġf ol
Ġf ant
ĠW indows
ĠR ussi
m ar
ur s
Ġgre en
Ġsur v
Ġhell o
Ġfor th
Ġter rible
Ġd ro
Ġopin ion
Ġw ild
ĠA PI
Ġoc cur
Ġr ich
Ġelect ric
Ġsub ject
ib ly
p ath
Ġd rop
Ġr ow
Ġgood ness
Ġ8 0
Ġc and
Ġbro ad
Ġveh icle
Ġwind ow
Ġinfl u
Ġc able
Ġcall ing
id er
Ġhelp s
Ġthe ore
Ġdown load
Ġprodu ce
Ġc atch
Ġcall s
Ġapplic ations
Ġt on
Ġwel come
et ry
Ġgreat er
and ler
Ġimp os
Ġfact or
Ġins p
] ,
s on
Ġmon itor
âĢ ¢
Ġs il
Ġprocess ing
Ġspec ifically
ar m
Ġcomplex ity
c an
Ġse m
Ġst ri
Ġsub t
Ġcons um
Ġsuccess ful
Ġvi ol
Ġchang ing
Ġdo g
Ġsy n
Ġev olution
ĠHe y
n n
Ġnet works
ĠC l
Ġwee ks
n ers
Ġt im
Ġh op
Ġey es
Ġdescri be
Ġs mo
Ġperson ally
Ġli f
Ġdevelop ers
Ġfind ing
ari o
Ġthousand s
Ġr ough
Ġstru gg
Ġf ac
Ġc ate
ed om
Ġsol id
Ġl at
Ġac celer
is es
Ġem pt
Ġany where
Ġbit coin
Ġspir it
Ġl ate
iv ed
in st
Ġengine er
Ġlos ing
Ġdev ices
I n
Ġspons or
Ġtemper ature
Ġwhen ever
Ġag g
Ġy ep
Ġpot entially
Ġam eric
Ġnot ic
Ġde li
Ġev ents
Ġm aster
Ġall oc
Ġcomp onents
ĠN et
Ġconf ig
Ġpriv ate
Ġt iny
b b
us es
g ot
Ġgot ten
Ġa i
Ġcapt ure
Ġbe e
Ġmo ved
Ġeffect ively
Ġv ac
an ks
Ġauth or
m it
Ġlim ited
ĠG en
Ġcomp ar
cle ar
Ġaff ect
Ġdig ital
Ġtell s
c er
e g
Ġmethod s
Ġal i
w r
ie f
Ġcomp ared
Ġb ur
Ġatt empt
Ġwere n
Ġgener ation
e ff
ci ent
Ġset s
Ġwhere as
Ġas soci
Ġapparent ly
Ġm ine
Ġr at
Ġass ign
Ġrequ ired
Ġincl ude
Ġc ity
Ġ *
Ġm ix
Ġmag ic
Ġcapac ity
Ġref er
Ġpr ime
Ġquant um
Ġf alse
Ġsudden ly
ĠTw itter
Ġenc ou
e ck
Ġg as
6 0
Ġstr ange
Ġempt y
g ment
ĠWh en
Ġeval u
Ġho st
Ġvari ables
Ġclass es
Ġanal ysis
ust r
p u
Ġar m
Ġrequ ires
Ġpro of
so ft
Ġdepe nds
Ġfol ks
un g
Ġmot iv
Ġcl ient
Ġinte ger
Ġsa f
Ġn ames
Ġcap ital
Ġbu ll
t t
a kes
Ġse ction
Ġrid icul
Ġmiss ing
l ock
Ġpa id
Ġdou b
ic les
ic i
Ġr ussi
im my
Ġcom fort
Ġthrough out
ro ll
Ġtr ou
Ġcl oud
h ave
iz es
Ġoff er
Ġappreci ate
ĠN ot
Ġintern al
te nd
Ġoppos ite
Ġstu ck
ord ing
Ġcar ry
Ġtop ic
Ġmov ie
Ġup on
Ġem ploy
Ġimpos sible
re g
ch ar
Ġb oo
ĠI nd
Ġform at
pp er
Ġperfect ly
ri x
g ame
t ies
ĠIs rael
Ġtrans form
Ġover all
Ġbo y
av id
Ġpack age
our ney
ress ed
ad e
Ġbu ff
Ġpol ic
Ġmove ment
Ġdestro y
b el
Ġnot ion
Ġem b
Ġcent ury
Ġcomp are
Ġnecess ary
Ġcol umn
Ġpossib ly
Ġg ar
er man
Ġno ise
Ġcur ious
ĠR ight
rad y
Ġb ought
if ice
ĠWh ite
Ġexp and
Ġarg uments
Ġbeing s
Ġqu ote
Ġcontain s
ili ar
Ġtalk s
Ġclos er
ĠB r
Ġr an
Ġpass word
Ġdeg rees
Ġcon sequ
Ġpartic ip
e ge
on om
Ġsupp ly
Ġc ash
mod el
Ġev ol
Ġstud ents
c ore
s ize
Ġmult ip
e y
Ġsh ut
Ġart icle
Ġincred ibly
Ġs ad
Ġfre edom
Ġcard s
Ġstrate gy
ĠCh ris
d own
Ġcomp ile
Ġpart y
Ġaud io
Ġ â
Ġsc al
o ll
Ġp ound
Ġachie ve
le t
Ġdiscuss ion
Ġlog ic
com p
as ks
Ġres po
Ġpri or
fl ow
Ġep is
ca pe
ĠM ay
Ġb aby
a it
Ġs n
Ġw ra
us hing
ĠSt ates
all el
Ġcare ful
d a
Ġins ane
h s
p ower
or k
Ġpro ve
Ġha ck
Ġbr anch
Ġhist or
1 9
Ġ <
ang le
Ġrelative ly
ind er
Ġ19 9
Ġfair ly
Ġconstant ly
Ġey e
ĠP r
Ġdefin ed
Ġbal ance
Ġassemb ly
t or
Ġal tern
Ġpo or
Ġgreat est
Ġdec isions
Ġdoll ar
t op
Ġch em
ar ant
Ġbr ings
Ġknow ing
ĠWh y
ific ial
Ġsaf ety
Ġcon vert
Ġfil m
miss ion
Ġprob ability
Ġsubscri be
ra me
Ġtor que
Ġsec ret
le ction
de f
ib ility
Ġev il
Ġup g
Ġshow ed
Ġfre qu
Ġpub lish
Ġmod ule
op t
Ġde mo
Ġal one
Ġsqu ares
Ġd ru
en ch
Ġpi pe
Ġ6 4
Ġdeep ly
v ant
Ġproper ty
Ġmaxim um
Ġdevelop ed
Ġres ources
Ġproper ly
Ġbecom ing
Ġenjoy ed
Ġident ity
Ġnorm ally
Ġmathemat ics
en ing
Ġf ather
Ġcy cle
Ġexp ression
Ġmaint ain
Ġsp o
Ġgra b
Ġind ic
Ġdri ver
Ġlos s
Ġd en
Ġso ld
om s
ĠH T
Ġaspect s
E R
ag ing
Ġprocess or
ĠF r
ĠI m
Ġa x
Ġlead ers
Ġloc ation
Ġter r
Ġbenef it
Ġabst ract
Ġspl it
ier arch
Ġsp ort
si b
Ġlab el
Ġframe work
Ġs we
Ġk ick
oc ol
i us
Ġed ges
Ġex ch
a pt
Ġcir cle
c ut
ab or
itt ed
Ġacc ording
Ġlapt op
Ġl ed
Ġsacr ifice
Ġcomp ute
ha ust
Ġd er
Ġke ys
ord an
Ġwhe el
Ġw ire
Ġchar ge
Ġw ide
Ġn amed
Ġmechan ism
Ġmanage ment
on al
Ġpre p
Ġev idence
Ġfant astic
Ġfam iliar
Ġwin s
Ġscient ific
Ġprinci ple
ea m
Ġcand id
g ers
Ġblock s
Ġthought s
Ġhas h
es is
Ġexpect ed
Ġwa iting
an y
un e
Ġfe ar
Ġsp read
Ġexper t
pr int
Ġcomp onent
Ġevery where
Ġridicul ous
b ing
Ġch ip
Ġhigh est
Ġb ank
Ġman if
Ġpre vent
Ġdanger ous
r ast
i ents
Ġp le
Ġcach e
b all
i vers
ĠInt el
ant ic
Ġmill ions
Ġsurpr ising
Ġcred it
Ġm ouse
ur ation
Ġdra g
ic it
Ġc ru
Ġp en
Ġmother board
u fact
cl ass
Ġv oice
Ġcam p
Ġke pt
o om
Ġf a
d ing
Ġex haust
Ġan g
Ġdem on
Ġdisco vered
it ude
Ġdem and
re l
ĠI D
ĠTh en
Ġcreat es
tor ch
Ġo il
Ġpo ly
Ġins ert
Ġautom atically
Ġcont act
the y
m p
le y
Ġeffect s
Ġhor se
Ġk il
Ġor d
im port
Ġter min
Ġstructure s
Ġh ierarch
ĠTh ese
Ġfore ver
Ġoff ic
Ġinter p
Ġproduct s
Ġact iv
Ġadd itional
Ġdri ves
Ġsupp ose
Ġcond ition
Ġeffect ive
for ms
Ġoff ice
el ess
Ġpar allel
ar th
Ġre nder
Ġr ig
Ġhe ight
ĠA t
Ġsort s
Ġhy p
Ġtit le
ĠUS B
res po
Ġn or
Ġbr ows
Ġglo bal
es la
Ġg ir
Ġsc ore
Ġcomput ation
r ors
ke y
Ġgu arant
Ġsy nt
Ġj ourney
Ġpre cise
Ġho le
Ġb and
ra id
bo x
ou th
Ġm ate
ĠUn ited
Ġpossib ility
Ġ7 0
em ic
Ġant i
ay s
Ġdis ag
Ġs un
Ġco ld
Ġnu clear
ici ency
Ġ vert
Ġthink s
ĠA m
Ġtrad itional
ĠE l
Ġam ong
Ġrob ots
Ġdefe nd
e per
T X
Ġold er
ra ction
l ist
iz ations
Ġhigh ly
Ġchrist ian
Ġjo in
Ġhundred s
Ġch ain
Ġinv ent
Ġacc ur
Ġspe ech
ĠT V
ar ter
as on
ught er
Ġnear ly
Ġdele te
Ġarchitect ure
1 00
olog ies
Ġman ufact
th ere
Ġcont rib
Ġfl at
Ġinde pend
Ġparam eters
Ġdef ense
c ont
Ġd ue
ĠL o
Ġin n
Ġsetting s
ac ed
Ġ5 00
ipp ing
Ġm id
Ġt ourn
Ġdeb ug
g ue
al y
Ġsh ared
Ġminim um
Ġdes p
Ġto ken
ent y
ĠM y
Ġcrit ic
Ġintellig ent
Ġcrypt o
en cies
Ġr ace
W e
Ġb ot
" :
es h
ĠL u
Ġare as
for ce
Ġb le
Ġhas n
Ġco in
Ġexpl icit
uz z
Ġart ificial
M D
m un
Ġtw ice
Ġaud ience
Ġexcept ion
Ġdam n
Ġw ife
Ġfe et
Ġrec ent
Ġfix ed
Ġheav y
Ġbro ken
Ġbo ot
Ġmor ning
Ġs ides
ing er
c ons
Ġro ck
ĠA re
b ut
Ġo dd
ter m
Ġdis app
ce ll
Ġsqu ared
ĠBl ack
Ġtempl ate
Ġmo b
Ġ q
ord in
Ġbo om
ĠF ab
uro pe
ab lish
Ġsp in
r ation
Ġfor got
Ġexpl ore
ens or
Ġcor ner
ab out
Ġact ive
ĠS u
Ġed itor
d om
Ġcivil ization
Ġres ist
Ġem bed
Ġarg ue
Ġtrad ition
Ġst re
Ġrepresent ation
Ġtrou ble
Ġcrit ical
Ġre lease
h ead
Ġwonder ful
Ġgrou ps
Ġwe ap
Ġgra v
ren g
Ġcell s
Ġun s
reng th
Ġitem s
ab ilities
e al
Ġd umb
Ġar r
Ġkeep s
Ġr are
3 0
Ġconsid ered
ograph y
1 6
Ġaf raid
Ġview s
Ġcollect ion
id ge
ĠM icro
m ers
Ġen s
Ġhang ing
Ġput s
Ġcommunic ation
Ġann oy
Ġrat io
o ver
Ġdep th
Ġconst ra
Ġsc ene
Ġcent ral
Ġfocus ed
Ġreturn s
Ġf ans
or row
ou n
Ġin ject
it ary
.... ....
S P
Ġfight ing
Ġm ic
Ġline ar
Ġcon cl
Ġtw e
ren cy
o ices
ct ors
y stem
Ġcond itions
Ġproper ties
Ġs na
Ġyou t
iz er
Ġmathemat ical
in ux
Ġredu ce
i est
Ġcor respo
ĉĉ ĉ
pt ion
igh b
Ġsh own
Ġconf lic
ag ram
Ġsuff ering
Ġcompet ition
Ġwind ows
Ġgr owing
v id
ut or
Ġatt ach
Ġfil ter
ĠDe f
Ġg ain
Ġbring ing
oh n
Ġeff iciency
le br
ĠW ar
Ġcorrect ly
ur ally
Ġcount ries
ĠG o
ĠE arth
Ġstore d
Ġrespon sib
Ġdisco ver
Ġsynt ax
Ġst atic
Ġbr ight
Ġsat is
r un
Ġb att
Ġpos itions
Ġepis ode
Ļ ª
Ġli e
Ġequ ival
Ġt ick
Ġtr uck
Ġtrans fer
Ġhelp ful
od ing
ĠCh andler
it ors
Ġprinci ples
ĠL ook
Ġserious ly
ĠWh o
is ms
le m
Ġfam ous
Ġr ap
Ġst rength
ist ics
Ġlead s
Ġanal og
h ood
ram es
Ġval u
Ġt asks
Ġl ack
Ġdisag ree
Ġâ Ļª
Ġdec ent
Ġexperi ences
Ġgi ant
Ġrelig ious
ir m
Ġd ad
ĠWh ich
Ġdec l
Ġreason able
Ġs ong
Ġhold ing
s p
ord er
Ġtechn ically
2 5
Ġkeep ing
Ġdom in
ain t
Ġsurpr ised
Ġco ff
Ġsch ed
Ġoc c
Ġtheore t
Ġpre fer
ig ning
ĠP l
ag ed
Ġpay ing
ĠP h
Ġslow ly
for ward
ĠJ ohn
Ġst ars
ĠCh eck
Ġmess ages
tern al
Ġthe r
ra de
Ġmanag er
Ġnotic ed
ble m
Ġaut onom
Ġce lebr
W h
in ct
Ġh om
Ġde eper
Ġatt rib
M L
Ġp ushing
Ġrecogn ize
p ri
Ġmeet ing
b ased
m ate
Ġfunction al
Ġch a
Ġcap able
Ġfundament ally
Ġund ers
) ;
Ġex cl
Ġ2 3
cept ion
Ġtr ies
ĠAmeric an
Ġcl osed
Ġma x
c ol
Ġc os
Ġf uck
Ġeng ines
k er
Ġimp ressive
om en
Ġun like
Ġest ablish
? "
ĠG PT
Ġchea p
Ġparam eter
Ġmo le
Ġrem ote
Ġinfin ite
ĠĠĠĠĠĠĠĠ ĠĠĠĠ
Ġbuff er
ĠChrist ian
Ġmem ber
Ġcoll ege
Ġd ram
c ra
n ame
Ġinst it
Ġinterp ret
Ġma c
ĠO n
Ġm us
Ġcomp l
ĠTh ank
b i
Ġp ow
an a
ra ge
Ġne ur
Ġne ighb
Ġoper ator
Ġs on
qu es
Ġbra nd
/ /
p m
ipp ed
Ġequ ation
Ġre ve
Ġby tes
Ġb orn
et ch
Ġpolic y
Ġprogram mer
ĠApp le
n et
ĠA lex
Ġtrans act
i ver
Ġc ook
Ġal ign
ub lic
ĠIn st
Ġsc r
Ġmanif est
F igure
i os
ĠSt ate
Ġmatter s
Ġfeed back
ĠĠĠĠĠĠĠĠ ĠĠĠĠĠĠĠĠĠĠĠ
Ġincre asing
Ġman ip
Ġcomput ing
Ġwal king
la ug
et ime
Ġsh ock
ĠN e
Ġdesp ite
Ġd u
ra ine
un t
Ġpres ident
A T
Ġtur bo
c os
Ġwor ried
Ġdeter m
n ed
Ġm ut
Ġcr ash
7 0
Ġres olution
Ġvers ions
ĠM r
Ġcost s
Ġkn ock
Ġgu ard
Ġhur t
Ġplan e
Ġadd ition
Ġcont ract
Ġfin an
Ġcour ses
Ġacc ident
k raine
Ġcon ver
e in
Ġchalleng es
Ġparent s
Ġd ate
Ġfor ms
Ġbeaut y
ourn al
Ġco gn
Ġgraph ics
r ough
Ġcool ing
Ġopp osed
Ġlay ers
[ '
Ġad just
en ced
Ġse nding
Ġac com
Ġr om
Ġlink ed
at ives
int s
ĠL e
P S
Ġf ake
Ġdom ain
Ġan gle
Ġpass ed
Ġmil itary
Ġf lex
ĠF igure
Ġbelie f
Ġre pl
Ġco vered
Ġwom an
Ġscient ists
1 5
Ġeduc ation
Ġmem bers
d ata
Ġdescri bed
Ġcoff ee
Ġexec ute
p i
Ġwho a
Ġlaw s
Ġconcern ed
Ġph ase
Ġfl ip
Ġfigure d
A M
er al
Ġy ell
s pe
Ġd ed
Ġst o
Ġins ight
3 2
um ber
Ġmanag ed
a f
Ġsh ad
ĠE very
Ġmist akes
Ġjo ke
Ġfinish ed
Ġyout ube
Ġi r
Ġcol ors
Ġhy d
Ġdevelop ing
" ,
am ing
Ġbu d
s ing
Ġbu g
Ġnarr ative
u ine
ph a
Ġexist ing
idd en
ĠAd v
Ġb ed
ed ia
ĠA MD
Ġleg al
t r
Ġt re
ut s
ĠC ent
Ġprofess ional
Ġentire ly
Ġch amp
Ġsl ash
Ġref lect
i ation
ĠMay be
Ġcomfort able
Ġboo st
m ark
Ġfore ign
Ġaccur ate
Ġph en
Ġhelp ing
Ġt ires
Ġther m
Ġre ar
ac ing
Ġbre aking
Ġa st
or g
Ġar bit
Ġ2 1
Ġmultip ly
Ġprot ocol
Ġg ent
Ġmet a
Ġd ing
Ġ= =
Ġintu ition
Ġcalcul ate
Ġtourn ament
Ġinst ant
ĠM ac
Ġsol ving
li ed
Ġdr ink
c ase
Ġcreat ive
ĠC ast
Ġexch ange
Ġd ivid
il ot
Ġs ite
om b
Ġmom ents
Ġser v
Ġer rors
Ġt utor
Ġdeal ing
Ġl ad
Ġst able
ĠM ax
ĠD on
Ġgen uine
Ġapp le
Ġpract ical
m on
Ġin ch
ere nces
Ġto m
ill y
Ġhelp ed
ĠJ ordan
Ġbuy ing
b on
u ild
ph one
Ġcra p
Ġf ly
Ġcommunic ate
Ġthread s
v able
Ġsim ulation
Ġdynam ic
Ġrough ly
] .
Ġlead er
Ġ >
Ġsol utions
Ġhyp oth
Ġb ag
il ing
Ġcur ve
Ġinteract ion
c les
ul ated
Ġexist ence
ar p
Ġsacr ific
Ġcompar ison
Ġp ump
fl ix
Ġfe ll
Ġconvers ations
p ers
Ġteach ing
Ġsh op
Ġcomp at
Ġequival ent
Ġs ick
at ory
Ġansw ers
4 0
Ġman ual
Ġide al
Ġcheck ing
Ġdeter min
p art
Ġl ens
Ġorgan ization
c al
Ġhy per
Ġprom ise
Ġment al
Ġresponsib ility
l ies
Ġtypes cript
r ie
Ġlo ved
Ġelect ron
B rady
Ġr ating
Ġb urn
Ġsu ck
ĠE d
Ġfl ag
Ġadv anced
Ġimplement ed
Ġspe nding
Ġphen omen
Ġ :
Ġ2 7
te xt
Ġtutor ial
Ġrecord s
e es
Ġhigh light
Ġclass ic
Ġwonder ing
Ġb an
Ġas yn
ari an
Ġrele ased
l in
Ġs am
ĠH D
ĠS qu
Ġinter f
Ġmy st
Ġbrows er
Ġlink s
9 0
at ts
Ġme g
Ġeconom y
Ġspe cies
Ġrel i
Ġunderst ood
ĠTr ump
Ġunders core
Ġassoci ated
w as
ch ron
Ġcy l
o e
y ear
Ġpea ce
g ory
Ġlibr aries
l im
Ġp c
Ġexpl an
ĠMicro soft
Ġsatis f
p us
Ġa cad
ea k
Ġcomm it
Ġi con
Ġstand ing
ish ed
Ġmajor ity
Ġannoy ing
Ġre in
ul ations
Ġpre f
Ġun its
Ġsmo oth
m os
Ġrele vant
Ġh ook
Ġlet ter
Ġ )
Ġin her
ĠH ans
E x
ro om
Ġmat rix
E D
i ra
Ġfor ces
l og
ĠCast le
Ġappro xim
Ġattack ing
Ġhierarch y
Ġbenef its
y m
Ġp unch
Ġvalu able
Ġenc rypt
st and
Ġdiv ide
Ġp ool
ad a
ĠS im
ĠM ark
er ve
Ġst ress
Ġcre ation
Ġaltern ative
Ġd iction
Ġcheck s
Ġw rest
Ġsome what
ĠW ow
Ġda ily
Ġrap id
Ġscr atch
Ġta x
Ġqu al
Ġcoll abor
d ed
i ven
ul a
iv ing
ĠF l
d imens
Ġp ages
Ġde ploy
ire ct
Ġgo og
ert z
Ġstr ings
Ġsitu ations
Ġbud get
Ġp uzz
al est
ĠC ons
ĠM an
ĠL inus
up s
1 3
j o
t rain
Ġlight s
Ġprom pt
ĠAmeric a
Ġwh ose
Ġli ber
ck ets
Ġflo or
Ġlaug hing
ect ion
Ġstud ent
Ġsignificant ly
E A
Ġp and
ap h
ĠCom mun
Ġanim als
Ġgo sh
Ġho ly
Ġbo ys
Ġgl ass
ian o
Ġinput s
Ġdam age
Ġex er
Ġact ions
( "
r s
con nect
Ġnat urally
amb da
Ġbu cks
Ġtur ning
Ġpix els
s hip
Ġbi ology
Ġrelig ion
w idth
Ġspe ct
Ġsurpr ise
Ġfold er
Ġa im
Ġn av
ĠS m
Ġmor al
Ġta ught
Ġdis k
Ġprov ides
is ters
Ġtrans ition
######## ########
Ġm al
ĠD is
Ġbr ief
Th is
Ġtwe et
Ġv ict
Ġdiffere nces
Ġsy mm
Ġpass ing
n o
ar n
Ġrec urs
Ġfa ith
ĠS am
Ġad apt
f in
f ish
Ġs ou
Ġca ught
ren ch
r ound
it able
ca p
ess ion
Ġmet al
Ġ3 00
Ġprocess es
Ġoptim al
ĠHow ever
Ġdemon str
s ome
st ruct
Ġcomb ination
Ġrev olution
Ġfor t
b ra
Ġli ked
Ġen em
Ġpass ion
Ġtop ics
b age
Ġh oles
il es
Ġpoin ters
th rough
Ġapp s
ĠW ith
Ġpre m
ap ers
Ġmiss ed
Ġt ire
? )
l ook
Ġ2 2
wor ld
Ġtrain ed
ar l
Ġex cell
ern el
id s
il s
re te
Ġli kes
Ġbas is
Ġmot ion
Ġattack s
Ġexec ut
0000 0000
k n
k ens
Ġv ia
Ġtyp ing
Ġtechni que
g ram
Ġprogram mers
Ġupg rade
Ġbatt le
Ġsh it
ĠQ u
ĠUn ivers
Ġhor rible
S S
Ġgrow th
ath an
ut ch
Ġan cient
Ġvol ume
Ġmob ile
Ġinc or
Ġrelationship s
Ġcate gory
Ġb are
ĠW ait
Ġdifferent ly
te x
Ġsl ide
Ġintell ect
od ox
Ġfail ure
Ġrespo nd
Ġim plic
Ġcustom er
ĠR ed
Ġdistrib ution
er ate
Ġwatch ed
Ġg ri
Ġback wards
Ġfour th
vid ia
Ġp ed
Ġdri ven
Ġad m
Ġext ent
Ġluck y
Ġmanufact ure
Ġh itting
S t
d ri
Ġb ench
Ġse lling
wh ich
Ġc ry
Ġex ternal
Ġconsist ent
Ġl ic
Ġaccom pl
a ks
l en
Ġfunction ality
s u
ve y
Ġsol ved
Ġg un
Ġlea ving
Ġsh aring
Ġsc ary
Ġsh ip
Ġsa ving
ĠL ib
Ġtw itter
ĠF irst
Ġdraw ing
Ġinde ed
Ġexec ution
ĠEng lish
Ġre verse
ĠL inux
Ġfail ed
de vice
Ġgener ated
Ġra w
ĠAm az
r ant
Ġm esh
Ġpound s
Ġpro pos
Ġappro pri
Ġt ight
in o
th odox
Ġpl enty
Ġ2 6
ĠM o
Ġapp lied
Ġsub st
Ġconflic t
Ġu r
Ġgo als
ĠJ ew
Ġmulti plic
Ġpix el
Ġch ips
Ġd ied
Ġdes ire
Ġphilosoph y
ĠWh ere
Ġappear s
Ġtechni ques
r ome
Ġpolit ics
re al
Ġindepend ent
Ġpop ulation
Ġindividual s
Ġwe ar
ĠS ome
Ġstop ped
S T
Ġh ero
Ġco ordin
Ġfil mm
Ġor ient
. )
l ad
ic ated
Ġsc an
Ġjo y
Ġdeterm ine
Ġi ron
an cing
Ġbut t
Ġleg it
Ġal ive
Ġpick ed
Ġinstall ed
cad es
it ory
ĠN or
Ġfinan cial
in ter
Ġsee med
z en
un ction
aby tes
Ġflo at
Ġet c
Ġcontroll er
Ġall owing
Ġsh ap
Ġtyp ical
Ġsp aces
Ġcustom ers
le vel
Ġent ry
Ġrem ind
ĠLo op
Ġserv ices
Ġtea ms
Ġco res
Ġsl ot
Ġt un
Ġreg ion
Ġt rees
Ġh idden
ĠRook s
go ing
Ġcandid ates
es ign
ot es
ĠA f
we ight
Ġassum ing
dimens ional
b re
k a
v iet
Ġu pper
Ġman ner
Ġgener ator
9 9
B e
ell o
Ġme as
Ġas ide
Ġeng age
Ġgoog le
c all
Ġstraight forward
Ġdimens ions
Ġs ample
Ġsl ower
Ġma d
Ġcl ust
] )
res ents
Ġunivers ity
Ġrun time
Ġaff ord
Ġp ad
Ġconf erence
Ġf rames
Ġstand s
ot ic
Ġde lay
pe ople
ĠP lay
Ġbr other
ed y
Ġreve al
Ġli ved
id en
Ġse es
ca de
Ġmy th
Ġte le
Ġultim ate
Ġprop ag
are n
Ġs and
Ġtr ig
so le
Ġqu ery
Ġj ournal
ĠCom put
h and
ĠS he
um an
Ġstrate g
Ġt ab
Ġpan el
Ġsh all
Ġint ention
ist ry
ab el
Ġhuman ity
Ġlead ing
Ġcool er
Ġfre aking
ĠNet flix
Ġkill ed
a i
h n
m as
mo ve
Ġcons erv
Ġdesk top
Ġqu it
Ġtrans mission
cra ft
ic on
ch e
Ġcirc um
ro gen
Ġinit ially
ĠHT ML
ill ing
Ġflo ating
Ġveh icles
- -
B atch
Ġprim ary
Ġconv in
Ġspirit ual
a el
o le
ĠAmaz on
i ate
t le
Ġright s
Ġtr ip
Ġrep resents
Ġfollow ed
Ġscen ario
Ġstrugg le
ĠW es
Ġshoot ing
Ġc ables
Ġl it
Ġf if
ur d
Ġcomm er
ir th
Ġbl og
Ġinn ov
S D
Ġthe ra
Ġnot es
Ġ4 00
Ġagg ressive
ĠY ork
Ġviol ence
Ġgar bage
1 4
Ġt our
Ġp y
og an
bel ie
Ġhe ld
ty pe
Ġstre et
u ct
ce nd
Ġmarket ing
Ġoper ate
Ġf ish
Ġatt ract
Ġinclud ed
Ġemot ion
Ġgrav ity
Ġdiction ary
e qu
Ġscient ist
z a
Ġact ivity
Ġmod ules
Ġconf used
Ġsymbol ic
Ġsa ved
Ġun ited
ĠLib rary
Ġfr ustr
ĠH ard
Ġwa ve
Ġcomput ational
Ġvol t
Ġ4 5
Ġge om
Ġb oring
Ġat om
Ġhorse power
Ġexcell ent
Ġst ruct
Ġw is
Ġcar bon
ou nce
Ġdocument ation
wr ite
8 6
Ġcle ver
Ġr ank
Ġsp here
Ġcor rupt
Ġeconom ic
T r
h am
k now
Ġmo on
ĠDef ine
Ġta ct
Ġemer g
Ġf i
ĠCh ess
Ġsec ure
Ġens ure
Ġf em
Ġde cades
Ġfield s
ĠP alest
Ġcomb ust
Ġconcept s
Ġbl ood
Ġex te
a ven
ĠG ood
Ġdocument ary
Ġali en
Ġch air
Ġh ar
as hing
ĠT arget
wh ile
C on
Ġ vel
Ġsu cks
gorith m
Ġabst raction
Ġconnect ions
Ġsk in
Ġrequest s
Ġli qu
Ġbro ke
Ġign ore
Ġconfig uration
' ,
Ġh ide
Ġha ir
Ġse lection
Ġint ake
ĠB y
Ġfoll ows
Ġth umb
Ġvir us
Ġhop ing
Ġarbit rary
Ġto kens
Ġvac c
Ġh arm
Ġkey word
Ġsuc ceed
Ġcirc uit
Ġf ault
Ġre ward
ich ael
Ġh i
Ġz oom
Ġtem por
Ġremo ved
ĠG erman
it z
Ġle x
ĠRussi a
m l
Ġwas te
' )
Ġb reat
a use
im ents
Ġal t
G B
Ġi ce
Ġcon ven
ĠCh ina
Ġlog ical
Ġlif etime
k i
Ġis ol
lem en
ĠM ar
ĠM aster
Ġunder lying
Ġrepe at
Ġsurv ive
Ġinvest ig
on athan
Ġwhe els
r um
ens ity
Ġser vers
Ġpar ad
ot ing
ph ere
Ġm ir
or ge
o ad
Ġf resh
Ġchalleng ing
Ġno vel
Ġpr ote
Ġgr id
Ġinte gers
Ġrepresent ed
Ġra ise
en c
Ġde l
ne ath
Ġb ind
Ġoptim ization
Ġmathem atic
Ġstat us
Ġp un
Ġv irt
Ġstud ying
Ġp ars
Ġrespon sible
Ġfall ing
Ġinflu ence
es us
Ġpr ay
Ġpath s
Ġunivers al
I t
Ġs illy
st ep
Ġcomp ression
Ġpr oud
Ġpossib ilities
h an
y our
ĠA li
Ġtri angle
S o
Ġelect r
Ġoptim ize
us ive
Ġhe ck
be cause
Ġsca m
wh en
Ġintrodu ce
Ġn ational
Ġcra ck
Ġtrick y
ĠD avid
Ġdistrib uted
Ġcha os
Ġv ul
Ġext ension
ret urn
Ġcamer as
p ace
Ġth us
Ġph r
Ġdeb ate
Ġfoot age
f rame
ĠJ immy
Ġwa ke
Ġlim its
Ġgre w
Ġtom orrow
L inus
m ax
Ġw est
om ething
Ġcl ip
Ġplan ning
Ġrem ain
Ġstream ing
ter day
ĠT y
com ple
r ate
ĠD id
Ġbl ind
Ġid i
Ġr ing
ch ain
Ġsc ope
Ġinc ent
con f
Ġrece ive
Ġs in
ĠE urope
Ġdoub t
Ġunder neath
Ġorigin ally
Ġgent lemen
ĠJ ake
Ġe ating
ĠS ar
Ġtherm al
o ber
ci ence
Ġpartic les
Ġreach ed
Ġstock fish
ce l
Ġtr ial
Ġres ol
Ġarg u
er os
Ġb irth
ul f
en ed
ĠU kraine
Ġpull ing
kn own
Ġd ual
Ġdis e
Ġed it
app end
b l
p ack
v ation
ĉĉ ĉĉ
here nt
I T
Ġres ource
Ġspec ify
2 4
Ġhe aven
Ġyes terday
er ation
se e
th ink
Ġen able
ang es
ines e
Ġsuff icient
Ġr ated
Ġreg isters
ash ion
Ġlet ters
Ġ20 20
Ġdec re
Ġch oices
Ġag ent
Ġl as
ĠG rand
ĠR es
ĠCh apter
Ġass ist
Ġdru g
Ġa th
Ġsh arp
Ġregard less
p ress
Ġh un
Ġ2 000
s s
en n
Ġtrans p
Ġconsequ ences
Ġexplan ation
6 4
st ream
Ġfact ors
Ġlos es
Ġper ce
Ġstate ments
Ġcombust ion
Ġs ke
be at
Ġaw ful
Ġembed ded
Ġr ise
r ict
Ġem p
Ġcate gor
Ġlat est
Ġrussi an
Ġjo hn
Ġp apers
Ġgener ic
Ġsent ence
Ġsimpl er
Ġf ig
ot ed
Ġgl ad
Ġliqu id
Ġbre aks
laug hs
Ġc pu
Ġoff ers
Ġ3 5
Ġhead s
Ġmatch ing
Ġmot or
Ġport s
Ġpipe line
Ġt ip
Ġf at
ic ing
Ġal right
Ġmulti pl
Ġnav ig
Ġj ack
Ġsk ip
Ġspeed s
Ġincre ment
Ġn ull
Ġlist s
ik ip
Ġident ify
Ġste al
Ġvul ner
Ġn erv
ĠS w
Ġconsid ering
Ġmov ies
1 7
Ġfl u
Ġmar gin
ĠFab iano
wor king
Ġshort cut
Ġval ve
Ġpublish ed
' ]
L U
Ġn a
com ing
Ġconf using
ĠCar ls
Ġexpl o
e me
x y
it ation
Ġpl ot
Ġintrodu ced
Ġappropri ate
ĠS te
Ġb atch
Ġr ub
Ġres ume
Ġexperi enced
s cape
Ġobject ive
Ġsign als
Ġhor iz
I N
or ter
Ġso ph
ea ble
ĠB ob
ĠH ar
Ġthr ott
Ġam b
h old
Ġgu ide
Ġdeli ver
o ca
ri an
Ġconf idence
Ġinclud es
Ġta pe
Ġphys ic
Ġprov ided
n om
Ġch oo
Ġhad n
ĠTr ans
ro id
Ġsol ar
pr ise
Ġdis ci
Ġfact s
Ġphys ically
Ġameric an
a ff
Ġfind s
Ġmount ain
ikip edia
ot y
Ġd ies
Ġe cos
Ġadv ance
Ġmechan ical
Ġweap ons
Ġcommer cial
Ġfor ced
Ġcyl inder
Ġm ort
ĠS ch
ĠO f
Ġup load
Ġpull ed
Ġspons ors
Ġout come
Ġtra ff
Ġwis dom
J immy
Ġ2 8
Ġk it
b et
Ġw idth
Ġf ed
Ġyour s
pos es
Ġecos ystem
m ber
z ing
Ġper ception
pro cess
Ġplat forms
opt im
Ġto w
Ġpure ly
EA K
Ġnerv ous
Ġun ity
j s
ur ning
g u
Ġcomp os
Ġfl aw
Ġprof ile
rast ructure
Ġanim al
d is
Ġv ast
ĠBe ast
Ġta g
Ġemot ional
Ġintu itive
Ġmiss ion
Ġh its
ne w
Ġcy ber
Ġweak ness
Ġut il
d on
i ers
ul ating
Ġfl ash
ĠU I
Ġpast e
Ġel imin
Ġreact ion
Ġinher it
Ġr ide
ol ic
Ġbl ow
ĠV im
ĠRussi an
Ġvel oc
L et
o ly
Ġd ial
Ġar ri
Ġes cape
Ġrem aining
Ġprevious ly
Ġpush ed
ĠCheck mate
ĠJ an
Ġdi ag
A pp
d r
ere nt
ĠG et
Ġopen ed
Ġinf rastructure
Ġw ood
Ġg ap
Ġse gment
Ġstart up
Ġvari ety
Ġr pm
Ġbi ological
Ġc ute
Ġm it
Ġch apter
art ment
ĠP er
Ġprocess ors
Ġtechn ologies
Ġaut o
Ġlar gest
Ġthe ories
Ġf lying
Ġsur round
Ġexpect ing
ill ion
Ġinter rupt
Ġclass ical
ĠIn tern
Ġmed ium
Ġmeaning ful
Ġintegr ated
inst ein
r an
Ġl oud
il er
e very
o ke
Ġcl imate
Ġinterview s
ĠSqu are
Ġform ula
d iff
Ġun belie
Ġtermin al
SP EAK
SPEAK ER
Ġli ft
Ġse ed
Ġstud ies
Ġsport s
Ġbe gan
Ġsus p
ĠUnivers ity
P ro
Ġs ources
ig u
Ġk ernel
Ġopportun ities
Ġill ustr
Ġrook ie
Ġameric a
: //
Ġb es
Ġbu gs
Ġcomb ined
Ġmechan ics
force ment
ĠCent er
ĠPro blem
Ġpict ures
Ġd ive
Ġ9 9
Ġsymbol ism
ĠP ut
Ġcr is
i xt
Ġt esla
ra g
Ġcon sole
v is
ĠF e
Ġexper iments
Ġrecord ing
u racy
ĠT om
Ġmind s
Ġphilosoph ical
t c
le an
Ġgra de
Ġlay out
Ġprodu ced
Ġsch eme
Ġdig its
Ġswe et
Ġmyst ery
2 00
re en
ith m
Ġv s
Ġlea ves
Ġmed ical
Ġdivid ed
ro ph
ĠG am
Ġexer cise
r ont
Ġconsequ ence
Ġsoph istic
ĠA h
Ġlet ting
Ġcircum st
Ġc ert
et ric
Ġengine ers
J ake
Ġre plic
Ġext ract
Ġsca red
Ġgenuine ly
as ion
Ġconstra ints
Ġr am
os h
Ġdru gs
ic ious
ions hip
Ġhand ling
os en
Ġrobot ics
A R
re ally
ĠTh anks
Ġhead er
ĠCommun ity
L O
a ur
Ġpur poses
Ġmatch es
Ġlock ed
Ġdimens ion
h ouse
od ies
Ġdirect ory
Ġgri p
Ġh at
ic o
st ate
Ġrussi a
Ġexplicit ly
ĠCarls on
Ġc art
th an
Ġne ither
Ġel on
Ġ12 0
Ġvis it
s ess
re ate
Ġb oss
ri al
Ġmet aph
Ġanaly ze
Ġacceler ation
ĠHard ware
nom ial
I D
Ġb on
Ġneg ot
ĠG it
Ġload s
Ġspeak ers
Ġtim ing
Ġautonom ous
Ġqu iet
Ġcl ar
Ġgrad ient
Ġtrad ing
Ġcompet itive
Ġinvest ment
Ġpain t
Ġtraff ic
( '
Ġpoint ing
Ġveloc ity
ol t
ĠD an
Ġpa use
cul es
Ġg ate
Ġen orm
Ġapp lying
i u
Ġstop s
Ġcod es
Ġupd ated
Ġs en
os es
ĠPa ul
Ġst ood
Ġconf ident
ant ed
Ġres ign
Ġdesign ers
ĠTech n
Ġin form
Ġmin or
its u
ing u
Ġwant ing
ĠEng ine
Ġneur ons
" ,"
c ode
w w
ra b
Ġbu dd
Ġless on
Ġhold s
Ġphot o
Ġguarant ee
L a
in it
* *
Ġbel ong
Ġfrequ ency
Ġpand emic
od ed
Ġinter medi
Ġf inger
Ġaccompl ish
Ġad vert
Ġun c
Ġsupport ed
Ġcontin ues
H ub
w in
cond s
Ġstandard s
Ġpur ch
Ġrequire ments
S A
o ch
F or
Ġo s
Ġc ub
ir ty
Ġpre par
Ġsk y
or ation
Ġre ct
Ġupd ates
Ġmaterial s
Ġlaug h
Ġto wn
Ġup set
Ġcl ients
Ġcor por
Ġkid ding
Ġhealth y
Ġt ens
Ġle an
we ll
ph as
Q L
d s
Ġt ension
Ġpl ate
Ġint ense
Ġwra p
Ġdisapp oint
Ġre ject
Ġqu ad
Ġtest ed
Ġchann els
Ġpriv acy
A N
Ġwe aring
Ġser ial
ond on
a wn
Ġbe ar
Ġpea k
Ġcogn itive
Ġn ic
Ġess ential
Ġsubt ract
Ġt ang
Ġg al
ak ed
st ore
Ġcl utch
ĠE n
Ġbare ly
ĠD ynam
ĠĠĠĠĠĠĠĠĠĠĠĠĠĠĠĠ ĠĠĠĠĠĠĠĠĠĠĠĠĠĠĠĠ
t ra
ĠP ar
Ġt ons
Ġsupport s
Ġintellect ual
A nd
Ġh ire
Ġwe alth
Ġ202 3
w ill
ĠF in
Ġthr owing
Ġmill im
Ġrout e
Ġchem ical
Ġd in
ĠT esla
ĠE tc
ĠDe v
Ġded icated
Y ou
Ġgen ius
Ġfill ed
ĠGit Hub
m ake
Ġd ump
as ant
Ġinst r
O S
u ber
ĠA ny
air s
Ġad ult
ĠL ondon
co res
Ġhyd rogen
Ġs me
Ġp ill
Ġf etch
Ġin ner
Ġcoll ea
ĠZ ig
Ġdiv ision
pre ne
ĠS ee
Ġpoint ed
aby te
Ġr ows
ĠP re
Ġres et
Ġhear ing
Ġvict im
st art
ist ically
Ġdiscuss ed
Ġprep ared
Ġan x
Ġta il
Ġho od
Ġdig it
Ġm art
Ġin ev
re prene
Ġlat ency
Ġal pha
olog ically
Ġfan cy
Ġrot ate
Ġevolution ary
Ġs ession
Ġgener ating
ĠN vidia
f n
w ould
Ġspe ll
Ġfra ction
Ġhistor ical
Ġinstit utions
Ġpuzz le
k ind
oc r
Ġcol on
ane ously
Ġt ie
Ġa in
Ġblock chain
Ġconc rete
Ġvert ices
Ġyell ow
Ġcontrol s
Ġchea per
Ġre ly
Ġde cade
Ġdefe nding
if ier
Ġtrack ing
ony m
Ġh ung
ly mp
ĠP oint
ĠR TX
Ġcont rast
ĠUn ion
Ġdro pped
call ed
as y
Ġop ens
Ġclaim s
Ġn ative
Ġfr uit
ol utions
ag er
Ġprecise ly
ĠM at
Ġform al
Ġrest rict
Ġencou nter
Ġwrest ling
Ġmir ror
Ġl ect
Ġma le
Ġun com
Ġbra ins
Ġl ying
Ġchar ging
Ġkill ing
Ġ ing
Ġro lling
Ġang ry
Ġthrott le
Ġpre tend
Ġed iting
Ġag ency
Ġmod ify
Ġrout ine
Ġver tex
or ph
ol f
ĠF ace
Ġpr ison
ud a
Ġent reprene
ĠBishop s
Ġdepend ency
Ġf ashion
Ġn uts
Ġst ages
Ġlet s
ĠG e
Ġfl ight
Ġproduct ive
Ġpsych ology
Ġsymbol s
Ġparticip ate
Ġb ird
Ġdepend encies
Ġdra wn
Ġliter ature
eff icient
R L
ca le
Ġser ve
Ġsh if
Ġsched ule
S ize
p ad
Ġn ation
ĠJ son
Tr ue
Ġwhere ver
Ġac qu
Ġche ating
Ġcontro vers
Ġimpro ved
Ġchem istry
l ines
Ġh tt
Ġpred iction
Ġcontroll ed
1 8
m ic
Ġd ance
Ġali ens
Ġmotiv ation
Ġfr ank
ĠC ol
ĠM e
Ġsp an
Ġcor rel
Ġcap abilities
Ġsl ides
Ġfast est
Ġbi as
if ies
ĠS SD
Ġus ual
Ġadd s
Ġprodu cing
Ġsubt le
Ġp icking
it arian
Ġr u
Ġan ge
ĠTh us
ĠJ oe
Ġca uses
Ġmed ic
Ġfocus ing
Ġdisci pl
n ger
ab led
ol ine
ĠH ea
ĠE ven
Ġmole cules
Ġfilmm ak
ĠM us
Ġexper ts
Ġpol ice
Ġtheoret ical
Ġt ast
Ġt ied
Ġcon cur
Ġwho ever
Ġpercent age
Ġneighb or
ill a
av as
wh el
Ġcut ting
Ġmechan isms
E E
m at
w ind
Ġh all
Ġe gg
ure d
Ġqu arter
so red
Ġsp ark
ĠO b
Ġoff ering
Ġmill ise
ret ch
Be ast
a pe
Ġsh el
ĠD r
La ughter
e ed
re ed
Ġpro ced
Ġman ually
ĠPalest in
Ġphr ase
Ġsophistic ated
C ause
} ")
Ġad min
Ġtrans formation
( ),
Ġs now
Ġf irm
Ġex it
ĠĠĠĠ ĠĠ
ph ones
Ġem phas
Ġexp onent
Ġyou nger
ve re
th etic
Ġsh ell
Ġselect ed
Ġresist ance
Ġco ach
Ġless ons
Ġremo ving
Ġoffic ial
in ction
ĠW i
ĠL ambda
Ġth ick
Ġm ile
act er
ĠR GB
ĠĠĠĠĠĠĠĠ čĊ
Ġref resh
Ġ15 0
Ġimmedi ate
Ġlaug hs
= "
Ġy ield
Ġf its
im al
Ġpart ner
Ġcr ow
cl ock
Ġprofess or
ĠEl on
Ġinvent ed
Ġprem ium
c ord
Ġcl oth
Ġgraph s
ĠSu per
ro g
Ġpl astic
ĠS er
and er
Ġequ ations
Ġcr imin
Ġprint ing
Ġtrick s
Ġconcl usion
Ġconven ient
Ġch ose
Ġc ube
Ġbill ions
Ġat mos
ang i
ĠF rame
ap an
Ġprof ound
la use
Ġsal es
t w
Ġwe igh
ish ing
Ġdri vers
Ġprov iding
Ġth in
ĠC or
Ġcommun ities
Ġiter ation
l oss
Ġt ill
Ġr ates
Ġevol ved
Ġb ang
th em
ick s
Ġfin ite
Ġenc oding
Ġweight s
Ġconcern s
Ġdise ase
ard s
Ġsu it
Ġun ion
ĠJ S
Ġsum mer
Ġconsum er
u ra
Ġa ck
Ġf aces
th ese
Ġcom pe
Ġsh out
Ġcompat ible
Ġbutt ons
ip her
Ġasyn c
O N
t ain
Ġw ise
Ġbas ics
Ġlaw y
Ġh t
it ers
Ġcomp ress
Ġown ers
Ġrec on
Ġret urning
Ġexc use
Ġcomb ine
Ġattach ed
Ġw i
at o
Ġg erman
Ġ4 2
Ġstud io
Ġleg s
Ġconv ince
id el
ir ation
Ġem path
Ġplan ets
Ġbegin s
on ic
ĠR ep
Ġscen es
Ġ/ /
Ġca us
Ġca res
Ġtransl ation
s im
Ġact ing
ri er
ĠO ur
Ġbr idge
Ġaccident ally
Ġf ab
ĠY our
Ġbl ank
Ġtri ang
Ġevalu ate
........ ........
avas cript
b its
as p
Ġent ertain
Ġimprove ment
Ġdestroy ed
Ġs ea
Ġg ram
Ġre ci
ĠS QL
Ġer a
Ġpain ful
Ġen um
ĠR AM
Ġperson ality
Ġo ce
Ġn ft
Ġex tend
itt y
Ġsim ult
Ġnor th
I f
Ġu g
ra w
Ġpr ices
Ġ7 5
Ġapproach es
Ġident ical
reme nd
p ass
Ġh ikar
Ġm ars
Ġm outh
Ġp atch
Ġst eam
Ġequ ip
Ġauth ent
Ġsex ual
c op
Ġbr ut
Ġhard est
Ġintern ational
Ġple asure
Ġanalog y
Ġacad emic
s omething
Ġr ain
ĠP e
cious ness
Ġsil icon
ĠO ver
Ġsw ap
Ġshap es
f ile
Ġst ation
Ġsl ots
Ġsm arter
Ġany time
Ġnice ly
Ġfuck ing
Ġc ities
Ġreason ing
Ġca used
Ġpresent ed
Ġrece ived
Ġchristian ity
Ġr h
ol id
Ġart ist
Ġdescri bing
ĠNet work
oun ced
r ut
Ġw atts
th en
Ġimpro ving
Ġpoly nomial
Ġf ool
ĠY ep
Ġpair s
Ġenem y
Ġa lex
Ġs aint
Ġexp ans
Ġdo ctor
Ġhum or
Ġbuild s
Ġband width
Ġfig uring
Ġack now
Ġt ired
Ġs ust
en cing
Ġin du
Ġne ut
Ġch ances
Ġch unk
Ġrecogn ition
E O
an c
Ġg ift
Ġr oles
Ġstud ied
Ġh ilar
Ġque ue
Ġjud ge
Ġgir l
Ġsto res
v ard
ke nd
ĠĠĠĠ Ġ
os p
Ġad s
Ġr ational
Ġv ote
Ġle ge
Ġgra du
Ġeas iest
Ġfort un
Ġwe ather
Ġfor k
ĠH am
Ġro cket
Ġsupport ing
Ġleaders hip
ĠSar angi
Ġb other
Ġem iss
rut i
A n
Ġt ips
Ġt remend
am s
Ġtr iv
Ġsp on
Ġincre ases
Ġstrong er
Ġnow here
Ġover whel
Ġjo e
ĠQue ens
Ġtext ure
Ġinte nded
ĠSm ruti
S I
Ġh ous
Ġj un
ea red
ad ays
Ġpl ans
con v
Ġpred ic
Ġspons oring
b es
Ġstr ict
Ġfriend ly
( ).
Ġi P
Ġne at
Ġsh ots
Ġmin i
Ġcheck ed
Ġlight ing
Ġthreat ening
Ġ202 2
Ch ris
Ġspect rum
ĠFace book
R e
c or
g ain
Ġp ip
Ġafter wards
Ġsign ature
Ġarray s
Ġaccount s
Ġmix ed
ĠM od
ĠL ink
Ġcommand s
Ġhypoth esis
Ġtempl ates
Ġchamp ion
comple te
Ġenorm ous
2 3
p en
Ġso cket
Ġar ms
Ġfra ud
Ġpur s
ĠCPU s
Ġcolumn s
as et
ĠC o
Ġhapp iness
Ġ+ =
arr ass
Ġra ised
T o
ĠA ct
ĠG u
ĠE ach
Ġoptim ized
Ġhilar ious
Ġint ent
Ġta p
ber g
Ġover l
Ġbl ame
T T
a u
Ġd ying
Ġz one
ĠV al
Ġamount s
ĠCan ada
2 8
E S
Ġ |
Ġlea p
Ġinteract ing
Ġsens itive
Ġstrateg ies
Ġf ract
Ġsy m
Ġwall et
Ġcompl ain
ann el
Ġpow ers
Ġconvin ced
Ġm ur
ar c
Ġbl ur
Ġrep os
Ġcorrespo nding
Ġcircumst ances
Ġa ug
Ġsh r
com put
Ġscre ens
Ġrandom ly
Ġnarr ow
Ġlic ense
Ġs an
Ġcomp re
ĠU RL
Ġabs urd
Ġstop ping
Ġface book
Ġcast les
Ġupg rad
? ?
f o
s l
Ġch osen
Ġus age
ĠCh inese
Ġsuccess fully
Ġemb arrass
Ġlas er
Ġintermedi ate
r ics
Ġn er
ed el
thing s
Ġopt ional
Ġexist ed
gy pt
app ing
Ġscrew s
Ġs ir
Ġd ict
Ġkind a
Ġpri ze
resh old
Ġacc uracy
Ġcomb in
Ġest im
f lo
Ġt ables
ĠD ude
Ġlarge ly
Ġbox es
F alse
P C
a way
g rad
Ġlo ves
Ġad opt
Ġacc um
f ield
Ġ Î
Ġst retch
Ġcan cer
ap se
Ġfound ation
Ġdirect ions
b uild
Ġc as
Ġ3 3
Ġfac ing
Ġapp lies
ĠWes ley
Ġm ask
Ġde ck
ĠM art
ire ction
Ġcur rency
Ġaccess ible
Ġfall s
Ġstrugg ling
Ġbelie ved
Ġ* /
u its
Ġvert ical
Ġsme ll
Ġl en
ĠC ome
Ġspeak er
Ġcategor ies
ra ce
Ġcl ub
Ġsou l
Ġequip ment
= '
um in
Ġpsych edel
Ġassign ment
Ġ2 9
na ke
Ġ4 8
Ġz eros
Ġsign ed
ex per
Ġloc ations
Ġste ering
M I
c red
g ues
Ġd ust
Ġnow adays
Ġbra ke
Ġadv ant
Ġcop ies
Ġswitch es
Ġsum m
Ġsyn chron
f unction
Ġto ward
ent ure
ur ance
Ġpro s
ab il
Ġim pl
ĠBe h
ĠAd am
Ġord ers
Ġg pus
Ġr ac
ĠLu cy
ĠGam bit
5 00
n umber
est s
ĠL ex
Ġfact ory
Ġmem ories
Ġcompet ing
ĠNor th
Ġgeom etry
u ros
Ġr ab
Ġar c
Ġag ents
Ġprodu ces
Ġresp ons
Ġap olog
Ġmag ical
al k
ĠB as
ĠB rady
Ġform er
Ġ201 6
ithm etic
Ġauthent ic
Ġ. ..
Ġsuff er
ĠAdv antage
n am
Ġte nds
Ġcare fully
Ġ9 5
Ġprim arily
Ġtransact ion
Ġcris is
I A
Ġb odies
ĠB en
pl ed
Ġ3 6
Ġimportant ly
Ġ6 00
Ġrepe ated
Ġencou rage
Ġha m
ul ator
ĠC oll
Ġhu h
Ġhon or
Ġpack ages
Ġcompet e
Ġefficient ly
Ġ202 1
Ġemploy ees
Ġspon sored
Ġadvant ages
for d
Ġcons pi
ific ations
Ġdisc ount
Ġassum ption
Ġweap on
Ġis land
Ġrep rodu
Ġbull et
O h
Ġ19 8
Ġwar m
Ġwar ning
Ġattrib ute
Ġinterf aces
b ar
Ġme at
Ġconnect ing
Ġterr ifying
Ġd ry
Ġv ary
ĠR ust
Ġsub set
Ġdefin ing
Ġath le
u ary
Ġ `
Ġh iring
Ġp itch
Ġf ing
ic ip
Ġtravel ing
App lause
ĠA ut
ect or
Ġexplain ed
val ue
Ġinject ion
ĠG ame
Ġmen u
Ġax is
Ġincor rect
Ġse at
Ġpl ant
Ġcont ents
Ġmer ge
Ġinsp ired
b ble
re ction
com es
Ġart icles
Ġmath s
Ġdest ruct
Ġpolit ic
z z
art s
Ġsort ed
Ġcour t
up beat
Ġfigure s
Ġconv ention
Ġreli able
Ġchoo sing
Ġc it
Ġc ort
Ġhe x
ĠC ont
ĠSo viet
Ġdis connect
Ġexpl os
l am
og ue
wh o
Ġautom atic
Ġspo ke
F i
pt ions
ĠL ear
Ġimplic it
Ġexpans ion
Ġt ank
Ġst ro
Ġj avascript
int o
Ġsearch ing
Ġevol ve
Ġvacc ine
Ġhikar o
b atch
f irst
ant ics
Ġsur vey
Ġbus y
Ġrein forcement
u ed
Ġb un
Ġl oose
Ġd ensity
est ed
Ġpart ly
Ġpres ence
ĠChrist mas
Ġwalk ed
Ġattempt s
e el
Ġwall s
Ġsimpl est
Ġgas oline
Ġmole c
Con v
Ġ %
Ġbe ast
al in
Ġconserv ative
Ġm ig
ail s
Ġvari ation
Ġauthor ity
N A
h ost
Ġe go
ro l
Ġse ason
Ġper m
Ġgig s
ill ed
Ġcl im
Ġsch em
Ġwebs ites
Ġrad i
ĠDo es
Ġsust ain
n ode
ea ch
ĠD em
Ġph ones
Ġpsych ological
Ġrot ation
Ġintegr ation
Ġd ice
it ual
Ġsh orter
ĠM in
Ġcult ural
f i
Ġch am
Ġtrad es
ĠEngine ers
Ġbudd y
Ġt all
Ġy ork
ĠT ime
Ġsc roll
Ġmem or
Ġvis ible
Ġdynam ics
Ġw att
Ġb omb
ĠS c
Ġinter se
Ġequ ally
Ġdist inct
point s
v ision
Ġexpl oration
ĠPawn s
Ġexcept ions
Ġinvol ves
Ġn ons
ree k
te ch
Ġsus pect
N orm
Ġdist inction
Ġincre ased
Ġexplain ing
Ġap i
Ġprotect ion
Ġeth ical
Ġtransl ate
char ger
h as
op er
act ually
ĠL ord
Ġgr ay
Ġstand point
Ġfrequ ently
ĠFr ank
Ġrepl aced
c racy
ĠĠĠĠ čĊ
Ġwor ship
Ġcontain er
Ġgold en
Ġtemperature s
M r
c ision
Ġattrib utes
h app
Ġma ps
Ġint r
Ġill eg
Ġanaly t
Ġocc up
i ety
k et
p n
Ġp ins
ut y
Ġcomp rom
Ġrom antic
Ġunc ertain
Ġf ulf
ĠS ure
Ġcomm itted
Ġla id
Ġreturn ed
book s
Ġcover ing
Ġprior ity
Ġdemo cracy
Ġvolt age
Ġcompe lling
Ġthe me
Ġp et
ĠR ock
Ġinteract ions
Ġsens or
Ġobser ve
Ġbur ning
Ġevalu ation
Ġcru cial
g a
Ġh osp
Ġv oid
ĠK e
Ġsort ing
Ġdi agram
Ġmultiplic ation
p al
le ar
Ġme me
il ian
ĠB iden
Ġult ra
Ġlab or
D R
an es
Ġin herent
Ġref erences
Ġstor ing
Ġclos est
Ġprotect ed
onal d
Ġth reshold
Ġwin ner
Ġdi vers
Ġill usion
Ġopin ions
Ġinherit ance
s ub
Ġt v
us s
et ary
ĠR ich
ĠJ onathan
set ting
Ġpro ceed
ĠJ ames
Ġdoc uments
ĠCon cept
Ġlaunch ed
Ġmultipl ied
Ġmillise conds
Ġsh irt
Ġco verage
Ġexp os
Ġve ctors
pos ition
Ġcritic ism
Wh at
ic ial
ur g
ne xt
Ġlea k
Ġproduct ivity
Ġprint ed
Ġrepresent ing
Ġcontro lling
Ġlow est
Ġexec uted
Ġclust er
diff erent
Ġunbelie vable
Ġfrank ly
d en
Ġc up
Ġg ym
it ute
Ġor thodox
ĠP i
oc ur
pro du
sh ape
fort able
Ġtrig ger
Ġr iver
Ġreal istic
Ġsimult aneously
w ood
re qu
Ġd ash
st ra
ĠO S
Ġfeel ings
ent ed
ĠA R
ĠE v
ĠĠĠĠĠĠĠĠ ĠĠ
Ġoff ered
Ġbegin ner
Ġrad ical
Ġrad io
Ch apter
Ġsched ul
p et
Ġext ens
Ġredu ction
Ġstat istics
Ġtriv ial
Ġtr ump
Ġinf ect
Ġcalcul ation
T here
re m
Ġg it
Ġdec ides
Ġmon ster
br id
Ġen h
ud io
Ġmain ly
Ġmar ried
ĠPC I
Ġcrypt ocur
Ġtransact ions
Ġprote in
Ġhoriz ont
Ġrec ur
Ġdepend ent
P M
c c
Ġ }
Ġst y
im p
Ġv an
Ġag reed
Ġdifferent ial
Ġ[ ]
Ġnet working
Ġdifficult y
Ġcy cles
Ġt ensor
Ġp ist
es tern
Ġnot ation
pt ic
olog ists
Ġ6 5
Ġlea f
Ġcount ing
Ġrem ark
Ġloop s
Ġoce an
d es
our se
uck les
Ġclose ly
e ven
ag on
Ġconst ruction
Ġteach er
Ġtheore m
Ġdrag on
Ġshock ing
C ol
b ling
Ġ __
Ġh ub
Ġdo gs
Ġt ub
Ġar ithmetic
Ġ2 50
ĠR un
Ġend ing
Ġconnect or
Ġenviron ments
Ġsna ke
a ign
is ible
Ġre put
ort ed
Ġtra ject
Ġ12 8
Ġf iction
it ish
Ġun known
Ġbl o
Ġdes igning
Ġpass es
Ġdi am
Ġjump ing
Ġb ow
ĠT im
ĠS ub
ĠD ata
Ġper man
Ġpr imes
Ġcr ime
Ġmind set
Ġbott le
Ġsho es
Ġb order
Ġre nd
ĠM ars
Ġad mit
Ġtrans ist
Ġsum mar
Ġse nds
Ġat oms
ill s
Ġplug ged
Ġeconom ics
Ġtr ash
Ġimp ressed
Ġder iv
Ġconspi racy
Ġli es
ro ot
ĠE nter
Ġfew er
Ġpack et
Ġdep os
Ġbatter ies
Ġsen ior
Ġst ability
Ġse al
Ġdis s
ĠThe ory
Ġarr ive
Ġtheoret ically
Ġfif th
Ġbon us
Ġbrut al
4 5
E N
Ġs ink
Ġpo ll
Ġref lection
ĠTw o
sc ore
Ġhtt p
Ġatmos phere
Ġcomp aring
Ġdes cript
ĠJ esus
ari os
Ġass ets
Ġrem ains
Ġpres um
Ġprep are
- >
w ar
Ġg all
Ġbas ket
Ġbeh ave
Ġminim al
ĠPut in
N N
g ress
Ġd avid
Ġe urope
ĠC al
Ġexpl oring
Ġaccept ed
Ġconsum ption
Ġdu plic
Ġanx iety
it ate
ĠB ig
Ġtra um
Ġinter pre
Ġprom ote
rie nd
iven ess
m ind
Ġa es
Ġb ump
ĠW ikipedia
ĠP ra
Ġco ins
ann els
ah ertz
p red
od er
Ġv id
ĠM IT
ĠH igh
Ġread er
ĠCh amp
Ġpartic le
Ġredu ced
Ġintegr ate
Ġcapital ism
ĠS ection
Ġim per
Ġun lock
Ġwr ites
Ġstr ang
ne cess
Ġperform ing
ĠCons ciousness
4 8
l ife
Ġo k
Ġr itual
ĠC SS
ard en
Ġcomm a
Ġwa ves
h uman
p a
Ġbe ating
ĠA B
Ġtra pped
Ġcompil ers
add ing
ĠSu pp
Ġflex ible
Ġthr own
Ġnum er
Ġquick er
Ġvari ant
Ġrecurs ive
Ġflu id
R A
Ġw ars
ab it
Ġrad ius
Ġcit iz
G PT
Ġad op
ĠF rench
Ġt ro
Ġb ul
Ġex cess
ĠC EO
Ġby te
Ġpublic ly
Ġant icip
Ġcirc les
Ġda ughter
Ġcamp aign
s um
u h
al ty
Ġan not
ĠP H
Ġreal m
Ġcoll apse
12 8
d ict
Ġb ite
ĠW est
int erest
Ġdi agn
Ġimprove ments
ĠBeh avior
] [
p es
Ġt u
Ġachie ved
Ġemot ions
g ames
Ġl ap
Ġn an
Ġover load
Ġjo ined
Ġcomb at
Ġload ed
Ġcollea gues
Ġb in
Ġr ack
th eless
oth ers
ĠAnd roid
Ġconf igure
Ġinf o
Ġunivers ities
Ġ202 4
Ġdisapp ear
s nake
et ics
ĠB ra
ens es
Ġdep artment
Ġscen arios
ĠWho a
w ik
Ġch ina
Ġintrodu ction
Ġrequire ment
Ġoffic ially
2 2
om in
me an
Ġover head
Ġnum py
Ġsmall est
Ġmeet ings
Ġassum ptions
" .
g onna
pl it
Ġlapt ops
Ġdebug ging
k in
er r
Ġc ine
it ness
Ġre nt
ct ober
ĠM ichael
Ġwr iter
olog ist
Ġimplement ations
Ġload ing
Ġemail s
ĠIm plement
Ġspin ning
ĠAf ter
Ġidi ot
at ivity
Ġor bit
ĠA C
less ly
Ġrender ing
ĠA b
Ġche at
Ġdisplay s
ĠCon struct
tr ans
ĠGerman y
Ġuncom fortable
flo at
ust in
so ever
ĠF PS
Ġbo at
ios ity
Ġmet ers
Ġheav ily
Ġbroad ly
e f
Ġb ab
ed ge
Ġj u
ĠM oses
Ġtra p
Ġpain ting
ĠBl itz
Ġsens ors
Ġin j
Ġout er
Ġoutput s
off s
Ġcandid ate
Ġlege nd
h ib
ers on
ĠV ector
Ġimplement ing
Ġinfin ity
Ġrefer ring
Ġgram mar
Ġug ly
er ies
ro c
Ġwhat soever
Ġcomp ass
Ġ1 000
Ġread s
Ġintern ally
ĠAl so
Ġsem i
ĠB ible
ĠL ev
Ġreg ret
Ġart ists
ĠJew ish
er m
en er
Ġfr iction
ĠS ource
Ġinst ances
Ġrel ax
Ġshe et
Ġeng lish
Ġla zy
Ġpow ered
b and
st op
Ġwin ter
Ġdi et
Ġcontinu ous
Ġperce ive
n um
r ated
ĠL TT
ĠE gypt
te lling
ud es
Ġrec all
Ġfund ing
ro ad
Ġcont rad
Ġ5 5
Ġinvol ve
Ġestablish ed
v ised
Ġs izes
er ved
Ġj ava
el si
pl ane
Ġent ity
Ġca using
Ġscal ing
Ġfor cing
ex p
Ġinvest ing
Ġest imate
Ġut ility
ĠInd ian
oty pe
Ġemiss ions
m aster
Ġu na
pp y
ĠA G
wh eel
Ġcond uct
Ġep ic
Ġthreat s
Ġdetermin ed
elsi us
t ion
Ġpl aced
Ġform ed
Ġbra ckets
Ġdisco very
ograph ic
stand ing
ĠPH P
Ġw estern
Ġb read
Ġn n
Ġj iu
ber t
Ġreal izing
av i
Ġca ve
Ġoper and
Ġpost ed
Ġdatab ases
Ġguarant eed
H ow
Ġl l
ĠCh at
ne ed
Ġdeli ber
bi as
Ġinnov ation
Ġfing ers
S ec
b by
n el
Ġg ath
Ġv ib
Ġexp osed
Ġview ers
ann y
Ġexte nded
Ġnons ense
Ġb at
op ath
im g
ĠC S
Ġsa ke
ĠE LO
ric a
plic ity
âĢ Ļ
Ġge nder
a ves
h ol
l ig
ĠI I
be ing
Ġgr ows
Ġimport ance
ann ed
Ġswitch ing
Ġfem ale
Ġint el
ĠN one
ĠCom p
Ġmetaph or
L ist
l ass
Ġn ut
pl ing
Ġdes per
Ġcre w
Ġcontain ing
Ġscript ure
Ġeffort s
Ġoccur s
Ġinsp iration
Ġtremend ous
T P
am a
Ġtw itch
Ġcount s
Ġenc ode
Ġphot os
Ġreplace ment
p ublic
Ġt el
in put
Ġh ired
ĠCl oud
Ġgal ax
m itted
Ġsur f
Ġrest aur
ĠGen eral
Ġocc asion
ĠConcept s
Ġrel ation
Ġart s
Ġfail s
rop y
Ġport ion
Ġcast le
Ġpat ient
Ġdetect ion
Ġadmin ist
Ġj ail
ven ue
Ġpre v
Ġbel t
Ġz ip
Ġdesign s
Ġstrong ly
Ġschool s
Ġlimit ations
ĠPe ople
Ġmur der
c ope
g raph
Ġg pu
Ġha bit
Ġme re
ĠC y
Ġsure ly
Ġconvers ion
Ġorgan ized
Ġprofess ion
Ġjud o
Ġma pping
ĠT uring
ĠM on
Ġblock ing
Ġcal m
Ġcontinu ing
Ġsacrific es
U D
de c
Ġmagn etic
Ġm r
Ġre write
ĠA gain
Ġgen etic
ex pect
Ġcontrovers ial
Ã Ĺ
Ġas p
ĠT ur
Ġliter al
Ġrecord ed
Ġord ered
Ġmanip ulate
Ġorient ed
a ving
z es
ph ile
Ġobser vation
Ġagg reg
Ġodd s
Ġtriang les
Ġcham ber
al es
oo f
ĠAnd rew
Ġcomm itt
Ġconnect s
Ġdesign er
Ġorgan izations
Ġemer ge
Ġsyn c
Ġexcl usive
Ġtempor ary
ut ing
Ġch est
Ġsp ring
Ġte en
ĠR et
the ir
Ġterr itory
Ġphenomen a
e k
Ġpa ul
Ġopen ings
Ġcapture d
cons cious
ĠMart in
Ġbr own
Ġele ction
Ġ8 00
Ġhy brid
ĠEx press
Ġexpress ions
ĠS il
Ġcomp ound
Ġmodel ing
Ġrob ust
Ġ201 9
Ġstri ke
Ġinsight s
tw o
en ger
ab s
Ġunderstand s
Ġunlike ly
ĠPra gue
C C
Ġt ent
Ġf ont
ch o
Ġmy ster
ich e
ĠL ea
Ġcreat or
Ġris ks
Ġbrief ly
Ġsymm etry
3 3
b ase
re p
on ly
is co
Ġbe ll
ch annels
if orm
Ġob sess
ĠCh annel
Ġlab els
Ġhistor ically
h ot
l abel
Ġh iding
ite m
be ll
ĠIn s
Ġdev il
Ġbusiness es
Ġver ify
Ġsem antics
act ly
Ġwork ers
ĠK arl
Ġrep et
Ġcompil ed
Ġdetail ed
Ġjud gment
Ġdecl ar
ĠI ran
Ġr anges
Ġdist ingu
ate ful
if orn
ick y
Ġinterest s
Ġsub mit
Ġmain stream
Ġwal ks
ĠAl gorithm
Ġclos ing
Ġsoci et
Ġmicro soft
Ġdream s
Ġlad ies
Ġmeas uring
b u
Ġd irty
ch eck
Ġsh ipping
ĠS ince
ĠO ut
Ġgr ind
Ġspo ken
Ġautonom y
Ġliber al
t ake
Ġm ira
Ġact ively
Ġmin ing
Ġresearch ers
Ġreach ing
ĠRe ally
Ġmanag ing
Ġanim ation
Ġindust rial
Ġacad em
dri ver
Ġp ark
Ġpro port
Ġpl ants
Ġen abled
Ġtw ist
Ġob tain
Ġsqu eal
Ġhit ler
Ġ201 4
Ġinsp iring
Ġtick et
Ġcompat ibility
Ġrapid ly
i el
Ġo w
Ġo lymp
Ġin come
Ġst aff
Ġch un
Ġass ert
Ġdist ract
Ġshort est
Ġredu cing
Ġelectric ity
Ġrig or
Ġapolog ize
ot ion
all ey
Ġan onym
th es
Ġmo ck
kes h
Ġent ries
v as
Ġwh om
Ġtyp ed
Ġthera py
Ġcrow d
A lex
d it
p ilot
re nce
ic ilian
Ġhe ap
ĠS ystem
ĠR y
Ġ3 7
Ġrec ru
Ġrout er
Ġcelebr ate
ĠDynam ic
in i
ou p
Ġm ario
ĠCh ar
ĠV ision
Ġ201 7
Ġindic ate
ĠChristian ity
Ġencrypt ion
f ree
re on
Ġd ots
us i
ea king
Ġpl ain
ĠS et
Ġun us
Ġoper ators
Ġ9 8
Ġpress ing
() )
end ed
Ġrefer red
Ġmotiv ated
a fe
i op
Ġapp eal
ĠJ ack
Ġset tle
Ġprof it
Ġstream s
Ġeth ere
Ġcontinu ed
Ġelectr ical
Ġcompre h
s m
Ġo xy
Ġto ler
Ġbes ides
iforn ia
en ess
ĠM ore
Ġover come
Ġtrans port
Ġdirect or
Ġap is
Ġdest ination
Ġdiag onal
b ul
Ġcur iosity
Ġmon itors
Ġcou n
Ġsw ord
Ġwo ke
Ġdimens ional
Ġgir ls
i ated
Ġ- >
pt ical
ĠWh ile
Ġfil ming
Ġatom ic
t ensor
u a
le ep
ur ies
Ġact s
and a
ys on
Ġperform ed
Ġsurprising ly
Ġkil ow
Ġl tt
ag ue
Ġorder ing
Ġalign ed
k rain
t ure
Ġy o
Ġne ov
ge bra
ĠT ra
Ġsa ves
Ġbu bble
Ġter ror
Ġdescri bes
Ġast ron
Ġelectron ic
Ġdemonstr ate
Ġmillim eter
j a
st ers
Ġac cus
Ġdis aster
Ġref act
Ġsign s
Ġminim ize
Ġtarget s
Ġdram a
Ġmathematic ians
Ġmedic ine
ĠI P
ri age
Ġco vers
ak en
Ġstay s
Ġpresent ation
Ġbroad er
Ġstri p
Ġassign ed
Ġfi ber
Ġowners hip
Ġh al
es ter
ĠI O
per form
ach ine
ĠTr ue
Ġmart ial
l oc
Ġe ast
ĠS cient
ĠG oth
Ġoff set
Ġdirect ed
Ġsimilar ly
Ġ201 5
Ġmaxim ize
af ka
Ġilleg al
b lock
d at
u k
Ġn ope
eth eless
Ġpo cket
Ġdec imal
Ġconst it
Ġalloc ate
ĠEd ge
Ġf ired
ĠN ote
Ġexist ential
pro gram
Ġdep ression
Ġautom ated
Ġtouch ing
Ġscrew ed
Ġscal es
Ġwire less
Ġc ab
Ġj ew
ĠCh rome
Ġstay ing
Ġtre nd
Ġmanufacture rs
Ġexponent ial
r out
Ġf le
Ġan ch
Ġtr ib
Ġide ally
Ġsit es
Ġpract ices
Ġgear s
Ġreview s
Ġdeli very
Ġj er
ast roph
Ġgr ateful
Ġtreat ed
ĠSp ace
Ġshad ow
Ġmort ality
Ġpurch ase
b ably
w ere
ic ed
Ġr ush
ĠB uild
ĠM c
Ġag es
ors hip
Ġgener ations
ative ly
Ġtechn ological
Ġca ke
Ġpar se
Ġcap ability
Ġstructure d
Ġ201 8
Ġ25 6
Ġinfin itely
Ġvir al
Ġmagn itude
Ġtast e
g ive
h ello
le ment
ĠB o
ble ms
Ġconstruct ed
or gan
Ġus b
ang ed
Ġimag ination
Ġcollect ive
Ġver b
b t
b oth
f erence
Ġb ath
ĠB it
' :
c ould
t ree
ig m
Ġpro ven
ĠW idth
Ġfl ood
N ow
u um
Ġc ow
Ġm ixt
ag an
ĠO pen
vel ation
Ġpers ist
Ġmess y
Ġmark ets
eters on
Ġinfl ation
B M
E C
el se
ĠD esign
ach e
Ġjo ining
Ġlos ses
Ġball s
Ġb one
Ġb orrow
Ġal co
Ġsee k
em pl
iz za
ang ing
Ġpart ial
Ġbl ess
Ġsc ra
Ġcat astroph
ĠInd ia
pers on
ult i
Ġconcept ual
Ġdiscuss ions
Ġsequ ences
ĠDem ocr
c ises
Ġf iring
ĠP R
ĠF rom
ĠO oh
Ġ10 80
Ġenjoy ing
Ġpredict ions
Ġdin ner
Ġacknow ledge
Ġar row
ĠM ost
Ġdec or
Ġoptim istic
Ġann ounced
miss ions
Ġinterpret ation
Ġtransp arent
Ġoxy gen
Ġp ig
an cy
st ein
Ġde ar
Ġen ables
Ġar rest
pl ot
Ġhum ility
Ġrel ate
Ġbra cket
Ġfight s
Ġinitial ize
Ġimm ers
i able
om eters
Ġby e
Ġbl under
ĠSt ar
Ġpress ed
Ġpost s
ĠOr thodox
Ġisol ated
Ġethere um
v ol
Ġp ul
ĠM er
Ġbra kes
Ġste el
Ġinstit ution
Ġincor por
Ġcryptocur rency
i h
Ġ ether
Ġne uros
ĠA dd
os is
Ġwar rant
Ġble nder
Ġdecent ral
Ġasyn chron
Ġdivers ity
ĠChat GPT
s ay
il ies
ud o
Ġcorrespo nd
Ġalign ment
] :
Ġd an
Ġcalcul ated
Ġmus k
lad ies
Ġcrimin al
f old
id ers
Ġne ck
ĠG reat
Ġcame l
do es
Ġbound s
Ġvir uses
Ġmer ch
ĠHD MI
Ġlegit imate
Ġresol ve
ĠGoth am
om an
om etimes
Ġal ert
ĠTh ree
Ġpart ies
ĠO nce
ac c
Ġnon etheless
Ġcoordin ates
Ġna ive
Ġuncertain ty
3 5
r ange
Ġp ace
Ġn in
Ġde als
ĠC D
ag ger
ear ch
Ġcra ft
Ġpassword s
Ġfrustr ating
bet ween
C om
v irtual
or ient
Ġresult ing
Ġtem pt
ĠUn ity
Ġeth iop
Ġnavig ate
Ġsumm ary
L ED
v y
ve t
im um
ad ian
Ġsim ulate
Ġsuggest ions
2 6
b les
ar a
Ġsh ame
ĠS pe
Ġback up
ens us
ĠN ext
Ġmod ular
Ġlove ly
Ġinvest ors
Ġgovern ments
Ġbal anced
mar ks
Ġexpand ing
Ġmanufact uring
################ ################
ĠRep ublic
Ġe c
im age
ud d
gr id
Ġiter ator
Ġsal ary
ĠPr ime
Ġinstr ument
Ġhorizont al
Ġ 00000000
Ġc yn
et o
Ġelse where
ĠBe yond
col umn
Ġsacrific ing
Ġnic er
ig er
Ġr ul
im er
Ġal gebra
il ed
ĠU h
Ġland scape
Ġcoordin ate
7 5
A s
f ound
ar g
Ġas ks
ag o
Ġpart ition
Ġsing ular
Ġorgan ize
Ġsimpl ify
Ġrare ly
k ers
Ġst ake
ie val
ĠP D
Ġco h
Ġ3 8
Ġcreat ors
Ġreg ions
Ġdeb t
lay er
Ġdele ted
Ġtri ple
train ing
Ġsubst ant
A S
Ġm ute
ch ild
qu ote
Ġch ick
Ġact or
ĠG raph
Ġcl in
Ġpass ive
Ġdiscuss ing
Ġiter ate
Ġsurv ival
Ġdro ps
Ġforgot ten
Ġbelief s
j ac
Ġpo ker
Ġuse less
ĠY an
ĠN umber
ĠK afka
Ġsw im
Ġcontain ed
Ġmar ks
Ġann ounce
Ġmac ro
Ġreput ation
Ġw ires
Ġl unch
ve mber
se m
ĠP ower
Ġbu cket
Ġcons ult
Ġ201 3
W ell
is ons
all ow
Ġlo ving
Ġ3 1
Ġdef ensive
Ġspec ified
Ġtouch ed
Ġmonitor ing
b ot
ol it
ret t
ĠComput ing
Ġtang ent
Ġrepos itory
Ġpist on
ĠEnter prise
Ġp aren
Ġour s
Ġsa cred
ĠR PM
Ġmet ric
Ġmet rics
Ġreport s
Ġenem ies
Ġpassion ate
Ġm arch
Ġf ought
ca ps
ĠS icilian
Ġcomp ens
Ġun necess
Ġel abor
Ġprop osed
Ġstro ke
9 00
= (
b ered
l r
Ġa the
se y
Ġan th
ist an
Ġcomp act
ĠU lt
ĠHar vard
ĠAG I
n s
o on
Ġt ier
Ġl ag
Ġr ay
Ġj et
Ġout s
Ġam d
ody nam
ud ed
Ġsch ol
Ġhur ts
Ġbranch es
ĠMat rix
" "
( [
et r
Ġcon cent
ĠH ave
Ġsubs cription
Ġweakness es
Ġne uro
Ġgener ates
ĠIn ter
ĠAmeric ans
laug hing
g ments
ar on
Ġst em
id ents
Ġqu otes
Ġpr on
Ġent ities
Ġbeh avi
Ġdest ruction
by e
Ġcontrib ute
Ġneighb ors
Ġexecut ing
Ġfilmmak er
om as
ĠTh under
ĠL i
co st
Ġsl ip
Ġspeed run
Ġgod s
Ġmeasure d
Ġmathematic ian
Ġh int
Ġin verse
Ġcan cel
Ġnever theless
Ġcra z
Ġbound ary
ĠConstruct or
l ong
l ene
Ġh ence
ol an
Ġcl icking
Ġbl und
ming ly
Ġorgan isms
Ġvac uum
Ġexpert ise
s he
ant e
im ir
ul s
Ġgu kesh
ĠSo ci
Ġnew er
Ġent ering
Ġreason ably
Ġbreak through
Ġfundament als
Ġdomin ant
Ġcommitt ee
Ġmixt ure
f all
us ions
al ing
ĠD B
ber ry
Ġinf er
Ġlog ging
Ġprot est
pro ve
sy stem
ĠiP h
Ġneov im
O R
Ġpro ved
ath olic
lo bal
Ġcharacter istics
Ġsmo ke
ĠAct ually
Ġr y
ĠT or
ĠB er
ĠH oly
ĠJ apan
Ġattack ed
c uda
ist ical
Ġtra ce
Ġpsychedel ics
Ġf usion
Ġg ates
Ġso viet
ĠS at
ĠH uman
Ġmed ieval
Ġpan els
Ġround s
Ġacceler ate
Ġaffect ed
Ġflex ibility
Ġcorpor ate
ĠFrame works
8 00
le ad
Ġinter v
Ġequ ality
gg ed
Ġdro pping
Ġfactor ial
Ġpolic ies
Ġkick ed
Ġchamp ionship
lad imir
D e
g ood
i que
et ically
Ġjust ify
Ġme al
Ġbelie ves
pro blem
Ġaddress es
ale m
ĠSp an
Ġmic ros
Ġexplo it
Ġd im
Ġse ctions
Ġcon ce
ĠF ound
Ġcreat ivity
Ġfriends hip
ĠAut o
s cale
Ġw itness
Ġb acter
Ġdo ck
Ġint im
Ġpart ially
Ġcomple ted
ict ed
Ġconnect ors
Ġdom ains
Ġluck ily
Ġcompass ion
Ġ &
at ers
Ġpo em
ĠH it
Ġset t
ex pl
Ġfam ilies
Ġtreat ment
19 9
ĠGrand master
ĠSoci ety
p arent
t est
Ġs ight
out put
Ġmod ified
Ġspea ks
Ġreco ver
Ġincreasing ly
ĠMo jo
Ġcom edy
Ġtr illion
Ġbo ld
ĠCh ad
Ġent h
ĠV irtual
Ġdefin es
Ġcentral ized
ĠIntern ational
ĠG r
ag raph
Ġun iform
Ġpart ners
og en
Ġnight m
Ġ201 2
Ġpriv ile
Ġmaint aining
ĠPl us
ĠJew s
Ġf ro
ar ound
Ġor ange
ĠA D
Ġob st
ib l
Ġpat reon
Ġencou ra
re et
Ġs outh
ca re
Ġde lic
Ġup side
ĠC ity
Ġsa le
Ġoff line
Ġeng aged
Ġfail ing
Ġkill s
Ġconsist ency
Ġsam ples
Ġtow er
Ġempath y
Ġaug ment
expect ed
al gorithm
Ġex ceed
ĠAl pha
Ġir re
Ġshr ink
m atic
le ft
em ber
Ġtw enty
ĠD es
Ġdes erve
Ġele v
Ġexp ort
ĠAl right
Ġsubscri bers
Ġsong s
h mm
Ġg ang
Ġan ger
ĠM ario
Ġfra gment
Ġcop ied
cr imin
Ġcalcul ations
Ġexperiment al
Ġang les
ĠĠĠĠĠĠĠĠĠĠĠĠ čĊ
Ġinev itable
M A
se c
Ġan c
Ġsp ots
Ġhand ful
Ġcut s
Ġstay ed
Ġmar x
Ġcalcul us
rand om
Ġdram atic
Ġcontract s
O T
h en
s a
Ġ ;
Ġo ops
Ġj ordan
ĠS orry
ĠC reat
Ġhum ble
Ġjo kes
Ġagree ment
Ġcopy ing
ĠAn other
l ers
Ġthe ater
ĠA rab
Ġrep air
Ġsw ear
Ġexpect ations
Ġcogn ition
M an
Ġd ish
ĠA c
ack s
mo ves
Ġfil ters
Ġsubject ive
b est
in formation
Ġg arden
Ġdo ors
Ġal ph
ĠG ive
Ġprob abilities
ĠKnight s
Ġcor ners
Ġaw k
Ġcommon ly
port s
Ġpodcast s
Ġmanag ers
ĠMark et
Ġmeas ures
Ġsufficient ly
g ar
Ġwe t
ther n
ĠL eg
Ġcarry ing
o cus
Ġr ip
ĠB oo
Ġ20 10
Ġ7 00
Ġcommunic ating
ĠAs s
ĠIntern et
v i
Ġdis like
Ġexperi encing
Ġlog o
Ġupd ating
Ġcult ures
ĠSh ad
Ġlabel ed
Ġcos mic
Ġdrink ing
Ġorient ation
c ool
w ing
ot al
Ġsu ic
vers ion
ord on
Ġexc ite
Ġexplain s
Ġenvironment al
Ġdram atically
k ins
n ov
Ġsh uff
Ġsecond ary
Ġsupp lies
ĠSt ep
Ġfund s
Ġsepar ated
ĠCar l
Ġrig id
Ġlect ure
6 6
re ts
ĠTh ose
Ġover r
Ġgr anted
Ġeng aging
Ġentire ty
ax is
Ġorgan ism
Ġcapt ures
Ġbright ness
Ġped al
Ġphysic ists
Ġalco hol
M od
a us
d raw
f ortunately
Ġto y
Ġp se
Ġg pt
is y
Ġn ail
Ġst one
Ġsh itty
Ġv ill
ĠM ex
Ġdis p
av ed
ĠU K
ĠV R
Ġspecial ized
Ġjump s
ĠIsrael i
Ġder ived
Ġinstant ly
Ġrect angle
Ġremark able
Ġenth usi
p ie
Ġpro ph
Ġsh ield
be en
ors che
Ġlight ning
Ġmathemat ically
Ġbound aries
Ġphenomen on
ĠJan uary
Ġextens ions
O V
f en
t p
Ġ ĉĉ
Ġn it
al ian
ĠC r
ĠB ar
Ġpr icing
Ġgr own
Ġatt itude
Ġcreat ures
ortun ate
ĠFor ce
Ġvisual ize
Ġtarget ing
ĠHT TP
Ġwide ly
Ġelimin ate
s ung
nd a
ca m
Ġpo etry
angu age
mem ber
Ġsequ ential
Ġscript s
Ġhosp ital
Ġt one
Ġp al
Ġre cap
Ġv oices
ĠP S
Ġdefin itions
Ġret rie
Ġpack ets
Ġste ve
ĠPalestin ian
Ġrestaur ant
d ir
e gr
v pn
Ġt ack
Ġo ct
Ġb ored
Ġg ut
Ġre use
ast y
ĠJ er
Ġass ess
Ġloc ally
Ġgig abytes
Ġtim er
Ġcaus al
Ġtel es
qu est
ĠC am
Ġact ors
ore a
ĠR ob
Ġbu nd
ĠE ast
Ġcur s
Ġ9 00
Ġswitch ed
Ġscrew driver
Ġfab ric
" \
Q u
z ed
if act
Ġqu eries
Ġar my
ĠF re
ĠO ctober
ĠN P
Ġent ropy
Ġed itors
oc ate
Ġhead phones
Ġmess ed
Ġdraw s
Ġapproxim ation
igu ous
Ġgradu ate
ĠLink ed
g b
p op
ur b
ĠS un
ĠP art
Ġun able
Ġ3 4
ell ig
Ġtrad ed
ĠWor ks
Ġconvert ed
Ġpurs ue
I S
l ink
Ġout comes
Ġsp awn
ĠL ED
Ġput in
Ġdis rupt
Ġdes ert
Ġter rain
Ġ19 7
Ġbeautif ully
Ġmar riage
Ġdecre ase
Ġdiscipl ine
Ġoverl ap
Ġtraject ory
Ġanc est
m et
Ġth or
in c
Ġm att
Ġn ations
pt ember
ĠM ike
Ġvalid ation
Ġsatisf ied
n is
Ġs cores
Ġh us
Ġl in
Ġthr ows
Ġsl ice
Ġhand y
Ġide ology
Ġpol ar
Ġpush es
ĠRed dit
Ġsp at
ĠD iv
Ġun re
ĠF ire
Ġres on
Ġele g
Ġinv al
rib ly
Ġsubscri bed
Ġinch es
Ġassist ant
Ġblo ody
2 7
Ġt une
Ġm as
id get
em por
ĠM m
ĠĠĠĠĠĠĠĠ Ġ
Ġdes cend
Ġmoment um
Ġbar rier
Ġsuggest ed
Ġemploy ee
Ġpun ish
d ate
l as
in cent
ate ll
Ġpl t
Ġback ward
Ġconf usion
oc aly
Ġpar agraph
25 6
Ġneut ral
Ġrab bit
Ġmolec ule
p on
Ġt ies
Ġn aming
um s
ĠE ric
Ġass et
pr il
Ġess ence
eter a
ĠRe v
ĠAr t
Ġstick s
lim ited
Ġcollabor ation
Re LU
Ġrespons es
Ġelabor ate
B I
B ook
D E
Â ·
Ġu kraine
Ġjust ice
res ult
act ive
ĠH as
Ġcont est
Ġdis miss
Ġconf irm
Ġfoot ball
Ġaccept able
Ġarri ved
Ġexplos ion
h ed
j i
l or
w ide
Ġevery day
ĠG ot
Ġover flow
Ġinst inct
Ġopp onents
sh ould
Ġphot ograph
Ġasynchron ous
3 6
b ru
m en
en ance
Ġbut ter
ce mber
ĠS olutions
Ġtem ple
Ġconstruct or
Ġoccur red
ĠDis cord
[ :
Ġ ÃĹ
ĠR am
Ġover clock
Ġgen es
Ġlong est
Ġcop per
Ġhalf way
par am
Ġinteract ive
Ġcivil izations
Ġalloc ated
ĠTy ler
Ġdies el
Ġbasket ball
d id
v m
Ġ ĉ
ot a
Ġv ice
te nding
Ġcons ume
ud ing
Ġadv enture
Ġsec ular
mod ern
ĠiPh one
Ġobst ac
f it
u ce
in ity
Ġb ac
Ġre vers
ĠT est
Ġad jac
Ġbl ink
Ġdis cl
Ġins urance
Ġtool ing
Ġoptim izing
Ġtrack s
Ġunf ortunate
Ġhung ry
Ġchun ks
Ġb anks
ri a
ap ters
Ġmod es
Ġfin ance
Ġref ere
Batch Norm
Ġdestruct ive
B lock
M S
Ġth rew
Ġd uration
Ġab and
Ġch art
Ġown er
Ġart ifact
Ġfre el
ĠĠĠĠĠĠĠĠĠĠĠĠĠĠĠĠ ĠĠĠĠĠĠĠ
Ġgre edy
Th at
oun cing
Ġprepar ation
Ġoccasion ally
m uch
w ant
Ġbra king
Ġdist ances
Ġregular ly
Ġtit les
Ġrub ber
re y
Ġm ichael
ĠS L
ĠM att
Ġdis g
ord ers
ool s
Ġbad ly
Ġchar ged
Ġansw ering
Ġblock ed
Ġrepresent ations
Ġprim itive
ĠInst agram
Ġange ls
A l
Ġs ister
ĠS outh
Ġown ed
Ġunus ual
( (
Ġw ider
Ġp iv
ate ver
Ġtw in
Ġhand les
Ġele ph
Ġsur ve
az i
Ġlad der
bru ary
m ay
u pp
v in
ĠS y
ĠB ill
ĠH old
Ġbuild ings
Ġ5 12
Ġbegin ners
Ġbott lene
Ġge orge
ĠPh il
Ġpars er
2 9
f rames
at ulations
Ġh es
iz able
Ġun expected
ĠO LED
Ġgra pp
Ġlist ed
Ġhand led
Ġposition al
Ġautom ation
Ġcalcul ating
Ġce iling
Ġmultip lying
Ġvirt ue
v ari
Ġt ube
ust ing
Ġout ta
ain ts
ĠHD R
Ġclar ify
Ġentreprene urs
Ġshif ting
2 1
c ount
d im
s plit
el p
ĠN ice
cr atic
Ġgl ue
Ġrecogn ized
Ġassum ed
Ġemb od
ĠMus lim
Ġgerman y
) ]
g ic
l ittle
Ĩ Ĵ
Ġa ward
ĠB ots
Ġno se
Ġcl ips
ĠL ife
ĠE instein
Ġjo int
iss ion
Ġchild hood
__ (
Ġcast ling
ĠLu ke
Ġpropos al
Ġlawy er
ĠSpan ish
6 00
e u
l ow
t ry
Ġp izza
Ġl amb
Ġse ctor
Ġse vent
Ġspe nds
Ġdis ad
Ġreg ime
Ġperm ut
Ġdistingu ish
Ġltt store
1 10
d ist
Ġo x
Ġh ated
Ġp rag
Ġg ee
ch uckles
ĠT ake
ĠS T
Ġus able
Ġle verage
Ġsp r
Ġinst agram
Ġcons ists
gorith ms
Ġexpect ation
Ġwee kend
Ġinvest ed
Ġsleep ing
Ġord inary
ĠMr Beast
Ġemp ir
Ġpresum ably
de p
ĠJ une
Ġty r
Ġfore st
Ġteach ers
Ġrece iver
Ġdial ogue
Ġs its
Ġb io
Ġn ested
od ay
ĠB ro
Ġlo gin
Ġread able
Ġcr iter
Ġhot el
ĠAr m
ĠTechn ologies
Ġexpos ure
ĠBit coin
Ġawk ward
r ices
t ent
w all
Ġs atell
Ġp ose
ĠC H
ĠD el
Ġpr ide
Ġcur ves
ĠV is
Ġprom ised
Ġsil ver
Ġactiv ation
Ġcombin ations
Ġham mer
Ġ 00
it ar
Ġe ll
am ine
our s
ĠR ead
ath ers
Ġboard s
sh ow
Ġpract ically
A ll
D avid
f ront
Ġb om
Ġb ure
Ġh ars
Ġj esus
ĠP I
ĠR uss
Ġca le
Ġscre aming
Ġdestro ying
Ġentreprene ur
Ġvid it
Ġaband on
N o
re nd
an ford
ĠI BM
ĠAnd y
atch ing
Ġsl a
Ġsl ope
Ġgr ass
Ġcons ensus
Ġequ il
ues day
Ġbreak down
Ġunf air
Ġrecomme nded
Ġexpress vpn
Ġgrav it
ĠEvery thing
n on
Ġto x
Ġp ile
ht ml
ĠA ir
ad es
Ġgood s
ĠR ay
ĠO pt
Ġinc ident
Ġfound er
Ġdark ness
Ġreport ed
Ġbroad cast
Ġrecurs ion
Ġbreat h
Ġargu ing
tra ck
Ġhous es
c il
Ġfr ied
ĠC L
ature s
Ġcompil ation
Ġ200 8
Ġdefe nded
Ġprotect ing
Ġmeasure ment
ĠSe cond
cont rol
Ġrepl acing
ef ined
b olt
i ences
u ous
nd ar
ant ly
ĠG lobal
Ġad apter
Ġover view
Ġsub sequ
Ġstory telling
Ġabs or
ott ed
play ing
ĠAr c
Ġarr ange
Ġvulner able
Ġflaw s
us alem
Ġj onathan
Ġint ro
el ine
ĠF act
ĠF TX
Ġcr ush
Ġcontain ers
Ġcollect ed
Ġsha ft
Ġstat istical
Ġgalax y
Ġunnecess ary
Ġe cho
ur gy
ĠHe ight
Ġprinci pal
Ġperiod s
Ġregard ing
Ġinn oc
Ġelectron ics
Ġproced ure
Ġcort ex
3 7
3 8
I m
h igh
l an
Ġb ush
Ġh mm
ar ks
ĠC ong
Ġun w
Ġvari ants
Ġprot otype
Ġfix ing
Ġeth ics
Ġsuggest s
spe c
Ġbench marks
Ġcry ing
Ġthera p
Ġathle tes
Ġradi ator
b a
b as
i ating
ath em
Ġgen e
Ġjo king
Ġcent uries
Ġpay ment
gg ing
Ġpull s
Ġprin ter
Ġviol ent
Ġattract ive
Ġprepar ing
Ġobsess ed
bu ilt
6 8
A I
s ort
Ġi cons
er ror
Ġst im
ĠM arch
cri be
Ġmem es
Ġbenef icial
Ġquant ity
Ġsem ic
ĠWes tern
Ġvacc ines
Ġpray er
ĠHea p
ĠLear ning
Ġmyster ious
g ling
n orm
Ġb anned
Ġg ather
st on
od us
Ġcom ed
ĠL ogan
ĠO ther
ign ed
Ġval ves
Ġproblem atic
li hood
Ġund efined
Ġenter prise
Ġmac ros
Ġneur on
Ġrom an
Ġsaving s
Ġht ml
Ġhus band
j itsu
m x
s is
er able
Ġl on
Ġcan ce
est yle
ĠB ea
ĠE m
ĠN V
com m
mem ory
Ġcommun ism
Ġple asant
bre ak
ĠComput er
ww w
a co
Ġh ill
ĠH ello
oth ing
Ġ199 0
ĠRes a
g ra
v est
Ġb ars
Ġl ambda
Ġg aps
Ġst icking
ĠH oll
Ġwork flow
ĠL ist
Ġfil ms
Ġrot ating
Ġappear ance
Ġmaint enance
part y
Ġtutorial s
th esis
ĠP eter
og ether
Ġmove ments
ord s
man n
Ġste pping
Ġiter ations
Ġut ter
Ġaffect s
Ġindepend ently
Ġprote ins
Ġfortun ately
[ "
Ġs s
Ġi p
Ġl atch
ch ess
ĠD onald
Ġrel ativity
Ġlog s
Ġinstall ing
Ġmicro phone
Ġshock ed
Ġtraum a
ĠChamp ionship
9 5
Ġc etera
Ġn aked
Ġan arch
iz ers
ĠD C
Ġext rem
wik i
f ind
Ġma nd
Ġlight er
() ;
Ġgig ahertz
Ġstru ck
Ġphysic ist
ĠHam as
dep th
4 7
Ġw ired
at ural
Ġc ree
Ġl inux
Ġr ug
th read
ad ata
ĠU N
vert ed
ĠCl ass
Ġing red
Ġkilow att
Ġinval id
m is
ĠS ec
ĠL og
Ġve nd
Ġclean ing
Ġconcur rent
Ġconcur rency
ĠRich ard
Ġbacter ia
9 6
d esign
h ard
Ġd rew
od s
ol a
ast s
ĠR en
ile y
Ġguess ing
Ġsk etch
Ġ8 5
Ġfair y
ĠAl though
ĠPr ot
Ġembarrass ing
Ġderiv ative
Ġinterpre ter
Ġnightm are
v on
Ġa er
ab et
Ġinv oke
ex ist
Ġpop s
Ġrem a
Ġprom ising
ĠAdv anced
ĠSte ve
Ġdisappoint ed
Mr Beast
Ġwarrant y
P l
p an
p ot
Ġlike lihood
ust ral
out s
Ġinteresting ly
Ġair craft
Ġprior it
Ġcritic ize
Ġpad s
ĠScient ology
sem ble
S et
Y eah
e val
on to
Ġp ink
Ġp iss
ĠM et
Ġcl one
ĠK ar
Ġgr at
Ġinv isible
Ġmiss es
Ġoptim izations
0000 00
Ġâ ĨĴ
Ġconstra int
Ġinev it
Ġaes thetic
I nt
Ġb ones
ic ular
Ġal umin
Ġv oca
Ġlook up
ĠL L
Ġcoll aps
Ġfight er
Ġlab s
ĠPro gram
Ġsepar ation
Ġsent ences
Ġalloc ation
Ġpars ing
Ġske ptical
ĠSw ift
Ġinherent ly
Ġbab ies
y wood
re f
ĠA S
ĠW ill
are q
Ġco efficient
ass is
Ġfl our
Ġmet adata
Ġgraph ical
Ġpost ing
Ġevol ving
Ġflag s
ĠMex ico
Ġs ack
ĠP ort
Ġent ered
Ġobser v
Ġmagn us
Ġcompar isons
Ġkil ometers
Ġtick ets
ĠĠĠĠĠĠĠĠĠĠĠĠ ĠĠ
ira ble
Ġfilmm aking
Ġlegit im
orient ed
Ġexcite ment
b ow
g han
o ot
Ġt ense
Ġm ush
Ġg t
ke ep
th ose
Ġse vere
ount ered
Ġreach es
ĠInst ead
Ġlens es
Ġtele vision
Ġemerg ent
produ ct
pred ict
Ġsociet ies
Ġhars h
Ġp s
se cut
ch em
Ġse gue
ind ers
Ġlog os
Ġment ally
Ġeduc ational
ĠNe ural
af ter
Ġincent ive
' .
L L
an o
ut able
al so
ur ther
ĠC ool
ĠM iddle
Ġear n
ĠV ery
ne g
Ġinf ilt
Ġhy pe
Ġroom s
ĠEx pl
Ġfill ing
Ġhom es
Ġcorrupt ion
Ġsusp ension
Ġcitiz ens
Ġbehavi ors
6 5
h ad
om y
ĠB ack
Ġres il
vious ly
ĠMaster s
Ġincent ives
a ul
b orn
c pu
f ess
Ġr oof
Ġneed ing
Ġgu est
ĠU p
ane ous
() :
Ġgig antic
Ġconv olution
Ġdisc ourse
Ġpredict ed
Ġdro ve
Ġton ight
Ġnotic ing
ĠBr itish
Ġapproxim ately
Ġfem in
Ġconvention al
Ġperman ent
3 4
A C
r ich
ar ray
Ġcon ject
ĠO ld
Ġshould er
Ġdoc s
arr is
Ġtrust ed
Ġwra pped
Ġmic row
Ġconvin cing
Ġemp ire
ĠÎ ĺ
Ġtu ple
p ent
om eter
id ay
am ents
Ġfe e
ĠAnd re
ep och
Ġprogram med
Ġproject ion
Ġaccess ing
Ġair flow
Ġap ocaly
Ġclean er
Ġign or
Ġcat aly
wr iting
Ġsn eak
Ġdecl are
dri ving
Ġvirt ually
Ġcloth es
E T
Ġw olf
Ġg ro
Ġg host
th ony
ort ion
Ġpre ced
Ġper forms
Ġgra in
load s
Ġgl ory
Ġdefe at
Ġdiv ine
mod els
Ġexpress ed
Ġaware ness
Ġauthor itarian
Ġdecentral ized
c ar
i at
ut ter
Ġgo spe
Ġcl ue
ĠH ence
wor th
gen er
Ġcorrespo nds
Ġfell ow
Ġcommit ment
Ġemerg ence
1 000
v ide
Ġd na
Ġd uck
Ġf rench
al o
Ġus ern
Ġback ed
ĠJ eff
Ġhead set
Ġcol ored
Ġbi os
Ġaddress ing
ĠEx actly
asp berry
Ġanalyt ics
f ast
Ġs ixt
Ġand rew
ĠB el
Ġdown s
Ġcalcul ator
Ġcollect ing
rand on
Ġneighbor hood
tech n
Ġsuic ide
Ġc ere
on est
Ġl ux
Ġn ea
ig en
if iers
ĠT J
res pect
Ġpre cision
Ġopt ical
Ġ19 80
Ġtem p
Ġpri est
ĠIs lam
Ġenc ountered
Ġclaim ing
Ġconsist ently
Ġcloud s
Ġmus cle
Ġencrypt ed
ĠTom my
Ġpolitic ians
ing ing
Ġkn ife
Ġab use
Ġat tend
Ġup s
ri um
per or
Ġmon sters
Ġsqu ee
Ġmention ing
ĠX box
ĠDe ep
val ues
conf ig
IN G
O kay
d el
o k
in ch
Ġk ar
qu er
ple asant
ĠD i
Ġun limited
Ġgen ome
Ġhigh way
Ġansw ered
Ġtext s
Ġpur su
ĠĠĠĠĠĠĠĠĠĠĠĠĠĠĠĠ ĠĠĠĠĠĠĠĠĠĠĠĠĠĠĠ
ĠCon v
Ġclaim ed
Ġrece iving
Ġmat rices
Ġanch or
Ġspat ial
Ġr ation
Ġst ats
Ġ1 80
ĠW atts
ĠG ar
Ġman eu
ang o
Ġper ipher
Ġdes ired
Ġmark ed
Ġ15 00
Ġland ing
Ġbur den
Ġkil og
Ġpuzz les
Ġmanufacture r
aren cy
Ġelectr ons
Ġargu ably
Ġbirth day
Ġindu ction
Ġch assis
Ġcomp ressed
Ġapp end
Ġcar ried
min ute
Ġindivid ually
Ġinit i
Ġrad iation
Ġmount ing
Ġcos m
Ġmanip ulation
spe ed
Ġtun nel
Ġtransist ors
d y
Ġp ent
it ives
ow ers
ith ub
ĠA bra
ol en
ĠM ount
Ġper mission
Ġear s
Ġconf ront
po st
Ġrout ines
sp ace
Ġalumin um
O C
W S
er ves
Ġn vidia
Ġdo om
ri v
uck er
Ġamaz on
Ġident ified
Ġpres ents
erv ices
Ġcontinu ously
Ġsem antic
Ġexception ally
Ġgain ed
Ġpredic ting
Ġi i
ic ation
ra cle
Ġ- -
Ġgu idel
ĠWe b
Ġsol ves
Ġspecific ation
Ġra ising
Ġparad ox
ĠPalestin ians
setting s
e en
r as
u eto
Ġp ilot
or ious
Ġbe ats
ĠS ort
Ġmean while
ac ci
Ġcou rage
Ġmet er
Ġmed itation
itch en
Ġlisten ed
Ġpres erve
Ġrot or
Ġintention ally
ĠSupp ose
Ġether net
Ġcale ndar
d am
o ir
s ame
Ġsee mingly
ĠR ub
Ġbl owing
Ġser ving
Ġdec rypt
Ġdec iding
Ġprocess ed
Ġexp ose
Ġ6 9
ĠNo vember
Ġsafe ly
ĠCan adian
Ġnu ke
Ġimm une
Ġshift ed
Ġactiv ate
Ġcook ing
Ġshop ping
Ġemotion ally
ueto oth
a ire
ke ys
ĠP at
Ġres ent
Ġsim plicity
ĠJ ose
Ġ3 60
Ġlay ing
Ġintrodu cing
ocol ate
ĠLu a
Ġir r
su pp
Ġfed eral
Ġsusp icious
Ġshel f
Ġenum erate
Ġintr ins
Ġb ike
Ġab ilities
Ġal ter
ĠF air
ĠF BI
Ġend less
Ġcent ers
Ġsix th
Ġking dom
Ġport able
ĠSh op
Ġgrad ually
Ġpoly m
ĠTrans form
ĠDr ive
Ġlawy ers
Ġsummar ize
ĠAbra ham
C P
M s
g l
m ade
ur ations
Ġv en
ĠC ur
Ġco al
Ġgu itar
ick ed
ord inary
Ġcell ular
ost er
Ġamong st
Ġadult s
Ġmute x
N et
N ode
p se
s ample
z er
on acci
ic y
Ġj eff
el f
ĠR ec
ĠD irection
Ġed ition
Ġref ers
Ġdr ill
Ġleg acy
Ġreport ing
Ġabstract ions
Ġtwe ets
Ġbench mark
Ġremind s
Ġpropag anda
Ġnft s
H ere
k ill
Ġd ick
is p
ic a
se ll
Ġv ague
pl ug
ĠM ag
Ġcr ank
Ġpar as
Ġrest art
Ġund o
Ġconver ting
Ġshortcut s
Ġoverwhel ming
/ **
f ol
r ating
Ġg reek
st ation
Ġma il
Ġde com
Ġch op
Ġco vid
ump y
line ar
ĠBe fore
comp et
Ġimplic ations
Ġadm ire
Ġcomprom ise
X iv
h y
ant um
ĠT uesday
ĠS ony
Ġsee king
Ġun pleasant
ress ing
Ġcal ib
Ġknight s
Ġterr ified
enn is
Ġtransp arency
ĠHea ven
Ġreci pe
Ġchick en
Ġanth rop
I ON
ar re
Ġbe er
Ġr acing
Ġsh ake
int on
Ġreal istically
Ġfl ame
Ġins ist
Ġthank fully
Ġmass ively
do ing
ĠAr ch
Ġswe at
Ġcoin c
Ġsna p
Ġtun ed
Ġentertain ment
A r
s ave
Ġb ounce
Ġl inger
Ġdo d
Ġbu bb
Ġbet a
com mun
Ġapp eared
urn s
Ġfl ows
Ġhard ly
Ġadv is
ĠUn fortunately
Ġvis ually
Ġsepar ately
ĠChrist ians
Ġtend ency
Ġapart ment
Ġfac ed
char ged
Ġtransform ed
Ġparticip ating
Ġactiv ities
Ġconstra ined
Ġur l
ibl ical
U n
l ot
} \
Ġp it
Ġof tent
Ġdo zen
Ġj son
ind ex
Ġtime line
Ġbr others
Ġbelie ving
ĠSt eam
Ġlight weight
Ġjump ed
Ġrepe ating
Ġarr ows
ĠĠĠĠĠĠĠĠĠĠĠĠ Ġ
comput er
Ġenh ance
Ġmere ly
Ġoftent imes
6 7
z ens
Ġt read
ld er
ch a
Ġas leep
ĠW r
Ġrad ar
Ġgig abit
Ġet ern
Ġmis under
Ġgun s
Ġjournal ists
F S
m ap
s qu
w ater
Ġ Â·
ig ma
Ġcon gr
ĠT yson
ound s
Ġfo am
Ġter abyte
Ġgl itch
rom agn
Ġameric ans
Ġmanif old
Ex ample
Ġcry st
Ġinform ed
ĠMus k
Ġrema inder
er ry
Ġdo ctors
ĠS an
ĠC ir
Ġqu iz
ag s
Ġeven ing
ĠF all
Ġ4 4
Ġz ig
Ġinv ited
lay ers
Ġoccur ring
Ġpc ie
irect ed
P ie
u ke
Ġc ats
Ġm asks
ro ach
Ġen caps
ĠG iven
ĠL a
Ġtal ent
Ġimp ression
Ġ4 7
Ġdevelop s
ib onacci
Ġrepresent ative
Ġenc oded
Ġobser ved
ench mark
Ġmut able
Ġprotocol s
m i
r id
z ard
it ating
ĠI N
Ġme l
ect ive
Ġsa fer
ĠN ational
ĠJ un
con st
Ġintern ship
Ġban ana
look ing
Ġemerg ency
conf igure
Ġfract al
g al
Ġl un
Ġst olen
il ty
Ġpre view
Ġreal ization
Ġ4 9
Ġremember ing
Ġque ens
Ġchurch es
Ġsal t
Ġmultiplic ity
Ġjun gle
rep resent
prove ment
m ain
Ġthe sis
Ġn arc
am in
am ps
ĠT imes
ĠC ore
int end
Ġlo cks
ĠD a
co gn
te en
Ġins pect
ren cies
play er
Ch andler
Ġanaly zing
ĠRussi ans
Ġsad ly
ober t
Ġcorrel ation
Ġfortun ate
Ġsym pt
Ġinterse ction
Ġprev ents
Ġcriter ia
h or
i as
re c
Ġr amp
ine ar
Ġim ple
ĠP ew
iv ation
Ġper cept
Ġoper ates
az a
Ġmed al
Ġimag ery
Ġfre ak
Ġpan ic
Ġemer ging
Ġpoor ly
Ġcha otic
ĠEurope an
Ġvulner ability
Ġaggreg ate
Ġc ents
ing e
ke ll
Ġdo zens
Ġwas ting
ĠM ake
ĠP lease
ĠL en
Ġcomput ed
ruct ions
Ġaccess ed
Ġauth ors
Ġcontroll ers
Ġepis odes
Ġindic ates
Ġreveal ed
Ġtact ics
ĠPar ad
................ ................
Ġimpl ies
bul ary
Ġgravit ational
D P
m aking
u el
at en
is c
Ġn pm
ic ism
ant a
ĠC elsius
ĠL ee
ĠE r
ĠE ve
ĠN orm
ĠIt alian
Ġgam ers
Ġsoon er
Ġemer ges
ĠGen esis
Ġhost ing
Ġaccur ately
Ġtradition ally
Ġstrict ly
B ut
t ic
Ġl one
Ġl ord
op en
ĠA WS
Ġpl aus
ĠS AT
ĠW ay
ĠM ain
ĠH ope
ĠD ennis
Ġam pl
Ġro ots
Ġins ult
Ġclass ification
Ġvol unt
Ġbeat en
Ġalloc ator
Ġder ive
Ġexecut able
krain ian
h op
u ation
Ġb iz
Ġst aring
Ġtra ction
Ġinter val
ĠSt udio
Ġplan ned
Ġpack aging
Ġprom ises
Ġra ises
Ġconsider ation
Ġfascin ated
semb ly
Ġphilosoph er
Ġsubject s
Ġpref erence
pa per
q l
Ġh d
Ġh olid
Ġwr iters
Ġend point
Ġcor on
Ġ6 8
Ġhope ful
Ġ201 1
Ġinterview ed
ĠAs us
Ġprevent ing
Ġrigor ous
Ġequil ib
Ġpolym orph
I M
i ance
u ction
v ity
Ġw ing
Ġto ile
Ġst alin
age ment
ĠD DR
Ġsy nd
Ġtrans cend
olute ly
Ġfail ures
Ġextra ordinary
Ġaccept ing
Ġsurv ived
enc ers
Ġresign ed
Col or
Ġrend ered
Ġgall on
ĠCal ifornia
Ġadop ted
Ġarrest ed
Ġparen thes
ĠBoo lean
f il
Ġt ed
re du
Ġf itting
ĠC R
Ġcomple ment
ex ample
man y
Ġclick ed
Ġparticip ation
Ġtourn aments
Ġmeg abytes
lear ning
Ġdisg usting
l ab
Ġd irt
Ġn ur
Ġk itchen
Ġpro be
ĠW al
ĠG al
ĠG ary
Ġad vers
Ġfunction ing
Ġreg ul
Ġview er
Ġconstant s
Ġground ed
Ġobser ver
Ġimm ig
Ġdownload ed
Ġsatisf ying
Ġaccompl ished
etr ical
I s
v oid
Ġin efficient
ĠW ould
ĠM a
ĠR andom
az e
Ġbi ased
Ġ200 9
Ġredu nd
Ġdark er
Ġrevolution ary
process or
Ġquad r
intend o
D ie
s uch
Ġo ught
Ġb en
Ġm c
Ġf athers
et ris
Ġr ogan
Ġse nder
ad ed
ĠC IA
be fore
ĠSt reet
Ġcirc uits
Ġest ate
Ġhack er
Ġfrustr ated
Ġtact ical
rag on
R AM
ĠA bs
Ġqu ot
Ġte ar
ĠF ive
Ġres ur
Ġrun ner
Ġem peror
Ġbo nd
Ġcomple tion
Ġche ese
ĠV er
pro blems
Ġemb race
Ġreli ability
Ġafford able
Ġnarc iss
2 000
n es
z ero
Ġm ated
Ġd ense
Ġf ram
Ġg p
ic ate
Ġst abil
ive red
Ġbas es
ĠSh ould
inst all
bb ing
ĠID E
ĠCons ider
Ġfilmmak ers
Ġbath room
ĠHit ler
ĠLinked In
Ġr ings
ĠC at
Ġgu ilty
Ġgr asp
Ġvari ations
att le
ob s
Ġphilosoph ers
Ġregard s
Ġcyl inders
Ġdeploy ment
Ġeleg ant
ĠRev olution
Ġtox ic
Ġmaneu ver
K ey
w atch
Ġh ol
it als
um es
ĠG old
ĠF usion
Ġbl ast
Ġres id
Ġz omb
Ġfar ther
pro of
Ġbox ing
ĠAd vent
Ġdynam ically
Ġvac ation
Ġwra pper
Ġble w
Ġremote ly
jo in
ĠAR M
mind ed
Ġusern ame
7 00
G A
g un
g age
Ġd un
Ġdo p
ĠC P
ĠR oad
Ġbet ray
ĠN olan
Ġtra ged
Ġtrans m
iss ors
Ġalgorithm ic
ĠĠĠĠĠĠĠĠĠĠĠĠĠĠĠĠ ĠĠĠĠĠĠĠĠĠĠĠ
Ġdefe ated
Ġsyn thetic
Ġden ote
Ġsold iers
Ġturbo charger
Ġdetermin istic
Ġfif ty
ĠFound ation
ellig ence
I C
or a
Ġgo lf
id a
Ġint ensity
ĠS ometimes
Ġar ise
ors es
ĠSt alin
Ġcapt uring
Ġprofess ors
Ġinflu encers
Ġgar age
ĠSam sung
pie ce
[ -
Ġl y
Ġg ross
et t
Ġli b
am ples
ĠThe ir
Ġexp ense
Ġautom ate
Ġlaunch ing
def ined
Ġhun ting
Ġw ine
Ġst orm
Ġdon ate
ĠL ast
Ġfl ipping
ĠV i
Ġfall en
Ġkill er
Ġgam er
Ġexcl us
Ġexecut ive
Ġtour ing
Ġbird s
Ġanonym ous
Die Pie
K arl
Ġc ens
Ġn asty
Ġ1 10
Ġen light
Ġpo ison
ĠH er
ĠR oman
ĠO d
Ġimp ress
Ġsl ack
ĠV ladimir
ĠV incent
Ġcra ppy
Ġclos ure
Ġarchitect ures
Ġfac il
Ġdiscover ing
Ġcompos ition
Ġrepeated ly
A L
H ey
M P
p in
Ġh ug
Ġp ants
ĠH P
ang er
Ġdes cent
Ġter abytes
Ġbra ve
Ġcompet itors
Ġport fol
Ġpsych ologically
Ġobser ving
Ġrecommend ation
Ġhighlight s
oad er
Ġreject ed
h ole
v an
Ġw idget
at on
as ible
Ġst ead
ro lling
th ree
Ġch ill
Ġch ron
Ġch ocolate
if ting
Ġle ver
cess ing
Ġdec ode
Ġ5 1
the w
Ġind ices
Ġview ed
Ġprint s
app ed
Ġalong side
uth or
Ġutil ize
Ġadvert ise
Ġadvert ising
Ġmillim eters
Ġange l
Ġdelic ious
Ġthor ough
R es
at ics
Ġf x
Ġso c
Ġli ed
Ġj itsu
ill e
de velop
Ġsp ray
Ġdown side
Ġob lig
Ġsuper charger
eng ine
Ġprom otion
Ġdem ons
Ġmor ality
Ġfac ult
Ġrat ios
Ġcompl aining
Ġsatisf y
Ġparad igm
Ġdel ivered
Ġemphas ize
ĠOver flow
Ġbac kend
3 9
E r
e lect
l ength
Ġthe or
Ġi b
Ġd ancing
ill ions
ad s
ĠT ree
Ġsu gar
ĠB enchmark
ĠF our
Ġinv ite
Ġemer ged
Ġweigh s
Ġasp ir
b in
l on
r ons
Ġb iblical
Ġm all
Ġl ately
Ġj am
ea v
Ġun pack
Ġco op
Ġcomput ations
Ġinv ari
Ġsuper ior
Ġloc ated
Ġ30 80
Ġident ities
Ġinvestig ate
N S
h m
u y
al d
Ġre lying
Ġst all
ĠT ex
ĠS D
ĠS aint
co ver
Ġtra cing
Ġfl avor
ash ed
Ġremem bered
Ġdr unk
ĠEx odus
Ġkeyboard s
aged don
col or
ghan istan
Ġbiz arre
s ky
Ġs our
Ġpro xy
ĠG ra
Ġwork er
ĠD ep
Ġun quote
Ġstart ups
Ġgu ides
ap or
ĠJ en
Ġsm ile
ĠV iew
Ġdiv or
Ġfinish ing
ĠGPU s
Ġtun ing
Ġbelong s
Ġdepos it
Ġdesper ate
Ġconject ure
4 00
U I
i kes
Ġb ol
Ġb rian
Ġp d
Ġp our
Ġd dr
Ġin line
Ġk ings
ĠS how
Ġhas hing
Ġtrans mit
Ġinv o
Ġind irect
ĠSt art
Ġhead ing
Ġfree ze
Ġpur ple
Ġelect romagn
Ġaccount ing
Ġmount ed
Ġrich ard
Ġax i
Ġguarant ees
ĠGe orge
d ig
m ight
in ci
Ġe ase
Ġme ets
Ġma pped
ol ved
Ġun st
Ġ3 9
Ġconf ir
Ġhead ers
cur rent
Ġfair ness
Ġcustom ize
Ġjun ior
Ġtub es
Ġparenthes es
O O
b an
Ġh ip
Ġm m
Ġg ithub
Ġbe am
Ġam bit
Ġem ac
Ġcor rection
br idge
Ġelect ro
Ġpresent ing
Wh en
Ġlic ens
Ġegg s
Ġduplic ate
Ġinevit ably
) /
m art
Ġt roll
Ġh oney
Ġst ere
th ur
ĠG ordon
ĠL SP
ĠE V
Ġsl iding
ĠU s
wh y
Ġcar ries
Ġel ite
Ġcreat ure
Ġinf erence
Ġreact ions
Ġland ed
Ġfeed ing
Ġnarr atives
Ġuns afe
interest ing
b led
st airs
Ġse min
Ġpro ving
ĠA nt
Ġpe er
ĠE aster
Ġbl own
ows er
Ġform ation
Ġmess ing
Ġpath way
Ġpick s
Ġprom oting
ĠRe al
Ġvir gin
Ġble ed
Ġmanifest ation
Ġgent le
Ġresign s
Ġadopt ion
Ġadjac ent
Ġfried man
" {
it ution
im plement
um ble
os ses
Ġbu ck
Ġbr ush
Ġro cks
Ġboth ered
Ġho bby
ros pect
Ġcra w
Ġair plane
Ġmatch ed
Ġvol ts
Ġrespect ively
Ġpredict able
Ġsimpl ified
Ġassoci ate
Ġexpand ed
Ġtweet ed
St ation
Ġhoriz on
hold ers
Ġintuitive ly
Ġcontrad ict
Ġneuros cience
empor ary
Ġimple ments
Ġg bt
is er
Ġn ap
Ġre venue
ĠA ug
ĠB ST
ger y
Ġaut op
Ġsens es
Ġroll ed
Ġgrad ients
Ġlif ting
Ġcook ie
bre aking
Ġpropag ate
Ġbottlene ck
Ġsynd rome
D ata
p ol
Ġp orn
Ġr ail
Ġwhich ever
ĠP ark
Ġsp are
Ġdis able
Ġsim ulations
Ġreg ulation
Ġfar m
Ġher self
Ġvis ited
Ġfollow ers
Ġchat bot
Ġtransl ated
Ġdebug ger
Ġdeterm ines
ĠEvery one
Ġspaces hip
Ġtab s
wind ow
Ġschem a
ĠRy an
Ġlux ury
Ġportfol io
i ar
Ġa ustin
Ġb ent
Ġk icking
Ġhe ur
un te
Ġgood bye
ĠF alse
Ġcare ers
ĠAl gorithms
Ġchrist ians
ĠSe ptember
Ġ24 0
Ġboo lean
Ġble nd
ĠCent ral
ĠSim ple
Ġsteal ing
Ġnea rest
: /
f riend
in cl
Ġs igning
Ġre velation
ess ions
am an
ĠM em
ĠG reen
Ġpo ke
Ġad am
ĠL ou
Ġsub mitted
Ġcre am
Ġwar p
Ġdefe nds
Ġment ality
Ġprop ri
Ġconsum ing
wr itten
import ant
Ġconver ter
Ġbreat hing
Ġethiop ia
9 8
g reat
Ġ _
in ent
Ġh ertz
en ame
Ġbe ach
st ack
Ġch uck
ĠH or
Ġbr ick
Ġfl op
to ken
11 11
place ment
ĠSe an
Ġassemb ler
Ġglo b
ĠOn ly
Ġlad y
Ġspect ac
Ġstruct ural
step s
Ġsurround ed
Ġlect ures
anc isco
ĠPew DiePie
4 2
a ud
b or
in al
is l
le vant
am ation
pe l
ĠC V
ĠC all
Ġpe e
Ġun real
Ġnew ton
Ġunderstand able
Ġser ves
Ġser pent
play ers
Ġlim iting
sc reen
Ġmagn et
eal ous
su per
Ġlit urgy
Ġaccum ulate
child ren
ĠThunder bolt
l ast
z illa
Ġw ed
en ment
om orph
um my
Ġv oting
ad o
ĠL uc
ĠK en
Ġob sc
ĠCh ap
Ġcool ant
Ġdev ast
Ġ200 1
Ġsha res
back s
ĠBr illiant
Ġdeliber ately
Ġteles cope
ĠArm ageddon
Ġtoile t
7 7
u itive
on z
Ġre form
ĠM om
ĠP res
Ġpers pect
Ġchar ity
Ġchar ger
Ġspec s
ĠSt op
Ġwo nd
Ġfant asy
Ġpref ix
Ġaim ing
Ġfirm ware
% .
U S
a uc
u ge
Ġe b
Ġgo of
Ġex agger
ul ates
ĠA si
ĠT I
Ġar Xiv
Ġend game
Ġdiv is
Ġste pped
Ġsle e
ĠEng land
Ġreve als
ĠQu antum
ĠUnivers al
Ġadm itted
ĠBra z
ĠVis ual
Ġguidel ines
g ent
j ango
Ġt ile
Ġp bb
Ġd y
Ġon going
Ġwith draw
Ġex hib
ĠS ur
Ġta gs
Ġcar go
Ġvers a
Ġ9 7
Ġpract icing
Ġland s
Ġcach es
Ġconfig urations
Ġang ular
Ġinsert ed
ĠMac Book
Ġvictim s
EE E
NN s
dat aset
T ensor
c reate
l ar
s ight
Ġs aints
Ġc make
et ra
ch ange
ul ative
ĠB ell
Ġtal ented
ĠO ff
Ġfl owing
ĠIn nov
Ġ7 9
Ġcompet itor
Ġpolit ically
Ġredu ces
): .
Ġearli est
Ġselect ing
Ġrout ing
Ġinsp ire
Ġembed ding
Ġmal icious
Ġjournal ist
Ġsym path
Ġcyn ical
Ġpse udo
f s
v antage
Ġm ature
Ġl atter
Ġfree ly
Ġprov oc
sh irt
Ġpot ato
Ġvol unte
Ġdisc rete
Ġlock ing
Ġpat ients
Ġtarget ed
Ġimm ense
Ġsna ps
Ġprefer red
Ġqual ified
Ġengage ment
ashing ton
Ġillustr ate
Ġreplic ate
Ġshif ts
Ġrac ist
Ġathle te
Ġadminist r
ĠSystem s
ĠLeg acy
d et
Ġd imin
Ġg a
al ysis
Ġre play
Ġk iss
Ġch ief
Ġv alley
ĠS cience
and s
ĠTh omas
Ġno bel
Ġim bal
ĠW as
ĠM or
Ġper t
Ġbas h
Ġgreat ly
Ġter ribly
Ġshort ly
Ġtrad itions
eter min
Ġworry ing
Ġsil ence
Ġcos mos
Ġcrash es
Ġhook s
ym pt
Ġstress ful
ĠPalest ine
Ġsustain able
Ġstrang er
6 9
h ab
t k
re ck
Ġs ar
Ġm use
Ġf av
ve ctors
Ġ10 1
Ġ30 90
Ġpack ed
ost ic
Ġbull sh
Ġconcl ude
Ġpref erences
Ġtax es
Ġexte nds
Ġinvestig ation
osh i
Ġhous ing
ĠUlt ra
3 1
E L
a ware
f ire
Ġl inus
Ġe instein
ro oms
Ġdiff er
ag en
Ġtra vers
te ll
Ġchar ges
Ġaccess es
cur s
Ġtur tle
Ġintegr ity
Ġdele ting
Ġstre ets
Ġsatis fact
Ġgeom etric
Ġdeclar ation
does n
ĠBer lin
Ġcurs or
Ġdop amine
Ġl ith
Ġwas ted
ul um
ĠS ing
ĠW all
ĠG reek
ĠP o
ĠH ertz
ĠR A
Ġco herent
ĠJ on
Ġche ater
Ġgra bs
li er
Ġdig ging
Ġmot ors
ĠDe cember
Ġmis erable
Ġvalid ate
Ġsil ent
Ġlif estyle
Ġattempt ing
Ġtact ic
Ġacqu ire
Ġoverr ide
Ġplaus ible
A dd
E M
o res
Ġd arn
Ġg if
it ative
ot o
Ġj apan
ĠT rad
el a
Ġfe ast
Ġsp am
ĠL ove
Ġbl ows
Ġcall er
Ġsc issors
Ġprodu cer
Ġmon key
Ġcou ch
Ġbill s
Ġris ky
Ġvi able
Ġsuggest ing
Ġtreat ing
Ġdetect ed
run ning
e pend
r ot
v ably
Ġb ass
Ġre build
Ġcan ada
ĠM ine
ĠH ead
ĠF ibonacci
ĠCh urch
Ġz ones
Ġexpl ored
Ġfra g
ĠRe member
Ġann ual
Ġvisual ization
Ġindic ation
Ġgir lf
c reat
Ġo sc
Ġbe nd
Ġcon vey
Ġsh ower
ab ling
ĠM achine
Ġman ages
ĠH is
Ġback pack
Ġdat aset
Ġdes ires
Ġbo b
Ġser ved
Ġgra ce
Ġlog ged
Ġinstall ation
Ġhook ed
Ġmargin al
ĠFe bruary
Ġclim b
Ġvoca bulary
Ġd are
ea ks
ĠS um
Ġar rog
ĠM S
ĠG ap
ĠE scape
Ġapproach ing
Ġ200 6
Ġcross ing
Ġavoid ing
Ġimm utable
Ġcru el
Ġsurround ing
Ġcert ific
Ġdash board
Ġmira cle
Ġeleph ant
Ġequilib rium
f ather
n umpy
Ġb id
Ġfor give
Ġsh ips
ĠC U
ĠF ore
Ġcou pled
cl ip
Ġ12 00
Ġmonth ly
Ġaw ait
Ġhor r
Ġinitial ized
Ġcounter play
Ġheav ier
Ġroll s
Ġbrows ers
ĠSqu ares
Ġbind ing
Ġemphas is
Ġpurs uit
happ y
Ġextrem es
Ġperspect ives
= {
g i
Ġc age
Ġg im
it ain
Ġn as
st one
oo re
ca nd
ĠM SI
ĠP ress
ĠR ogan
ĠF ree
Ġcool ed
Ġhead ed
Ġteach es
Ġclick s
Ġdoub led
Ġsacrific ed
Ġqual ities
Ġpropos ition
Ġrestrict ed
ĠTex as
b ound
f igure
f ood
m id
u an
Ġs eam
it a
om ic
Ġmo ld
ĠA i
ĠT it
ĠS ky
em s
ĠP ath
be ep
ĠE xt
Ġsim ulated
Ġdr one
pro b
ĠPro bably
Ġmil k
Ġage nda
Ġhack ed
Ġknock ed
Ġlegend ary
Ġpul se
Ġclin ical
ĠTor onto
Ġrefere n
Ġingred ients
0 1
S equ
g ence
er cises
Ġd ub
se cond
Ġch inese
ĠT re
Ġpl as
ĠB ank
ĠB oom
ff e
ĠD om
Ġun plug
co ll
ath on
Ġdat ing
ĠJ e
Ġbr id
Ġes ca
Ġtext ures
Ġpres id
ussi an
Ġresearch er
Ġtur b
Ġdead line
Ġpopular ity
ĠPh D
mark et
Ġdivid ing
Ġpy ram
ĠDan iel
p ick
Ġh ints
an ium
Ġin coming
ce nding
ra q
ri ers
ĠW ashington
ĠP eterson
Ġpo op
Ġ5 6
Ġconf erences
Ġvari ance
Ġimag ining
ric an
Ġorgan ic
Ġgam bling
Ġmag az
Ġign ition
Ġstri kes
Ġrespo nded
Ġvict ory
Ġflaw ed
Er ror
Ġpropri etary
B C
g ate
l iter
p adding
t urn
Ġm ike
it ic
ar se
om atic
Ġst iff
Ġse ats
Ġwas hing
ain ed
ĠP ol
ĠF urther
Ġcool est
Ġself ish
Ġ9 6
Ġfam ously
ĠRe g
inst ruction
Ġinfect ed
Ġcab in
Ġblund ers
ĠTest ament
Ġbubb les
d as
Ġw aters
Ġb or
it ical
ĠC our
ĠB ost
Ġpos sess
ys ical
Ġadd iction
Ġ19 70
Ġsca nd
Ġinitial ization
Ġachie ving
Ġinflu enced
Ġagg ress
Ġhack ing
Ġpen n
Ġinterpret ed
ĠMo on
Ġelimin ated
Ġfulf ill
uls ion
param eters
Ġbure auc
Ġpbb b
d type
e le
h ist
k ernel
t xt
Ġc ipher
Ġd uty
Ġst ir
im an
ĠB oth
ĠF ort
Ġgener ative
Ġext ensive
Ġcap s
att ered
Ġhang s
Ġspot ify
Ġacceler ating
Ġden y
Ġexch anges
rel ated
Ġdomin ate
Ġambit ious
B ay
} ,
Ġw ip
Ġc ul
Ġp ra
Ġn ih
op olit
Ġmo od
ĠA w
pe ll
ri or
Ġpo le
Ġsa v
Ġun ified
ĠO lymp
ĠE X
Ġform ing
Ġarg s
Ġpop ping
Ġdeal t
Ġnecess ity
Ġforward ing
ĠDe velop
Ġbase ball
Ġsens ory
do or
ĠAn ish
Ġten nis
Ġrespo nding
Ġpen alty
Ġtruck s
Ġbreat he
Ġauthentic ation
Ġlegitim ately
Ġlone ly
3 00
Ġr t
Ġhe ating
ere r
Ġor g
ol ve
ĠC ra
Ġlo y
Ġback ing
Ġco vet
ĠE mp
Ġ7 2
Ġess ay
Ġdep art
Ġ200 4
Ġreco very
Ġign ored
Ġchoo ses
ĠPer fect
E X
f ers
f ake
h is
Ġh unt
an as
ag ain
Ġrep o
Ġcoll ision
Ġconc aten
Ġroll er
cont roll
Ġconflic ts
ĠPlay Station
Ġperce ived
Ġunbelie vably
Ġry zen
Ġsla very
Ġtraged y
P R
b ig
o es
r ust
t imes
Ġt uring
Ġs essions
Ġe ax
al t
Ġr na
Ġst ated
ht tp
Ġpro pose
ol as
Ġfe asible
ĠD ell
ĠSo cial
ĠU nder
ĠV P
Ġcomb ining
Ġ200 7
Ġcatch ing
ĠFab by
Ġshap ed
Ġincent iv
Ġdin os
Ġgrapp ling
h our
h elp
Ġth irty
er ting
ig ins
Ġfor wards
ch all
Ġse gments
ĠT R
ĠG reg
Ġte eth
ĠN ever
Ġfl ask
li b
ĠSt ore
ĠSt ars
Ġdi verse
Ġcond itional
Ġworth y
pos sible
Ġconcl usions
Ġmal es
Ġsymm etric
world s
Ġcombin ator
Ġannot ations
Ġmicrow ave
Ġfacult y
Ġb ust
Ġm l
Ġl ion
Ġin k
ow ered
Ġsh ed
Ġsu itable
Ġun conscious
Ġtra its
Ġthought ful
Ġref use
Ġdr ift
Ġdev iation
Ġdownload ing
Ġbee f
Ġcapital ist
ĠIm provement
Ġoffic er
Ġclust ers
Ġna ught
ĠOb viously
Ġintent ions
ĠAss ume
Ġaer odynam
] ))
s cores
Ġ 0000
in ery
Ġs ins
ve ctor
ot ive
Ġj ealous
ca mer
ĠA pril
ĠM ouse
Ġover night
Ġinter ior
ĠU m
Ġrel ates
Ġcompil ing
Ġ200 5
Ġsec rets
Ġplug ging
Ġmaintain ed
ĠLo ops
lem etry
Ġshad er
Ġmal ware
Ġcub es
N ote
f oll
s ession
v ar
Ġa ver
Ġd b
en cer
ĠI EEE
Ġre n
ĠS l
Ġup coming
Ġsu pers
Ġsom etime
Ġag ile
ĠN ope
Ġche ering
Ġind ent
Ġpar ity
Ġair port
la w
uc cess
ĠTw itch
Ġconsum ers
Ġstrugg led
Ġexplan ations
ĠPlay ers
Ġirre levant
ĠHas kell
ĠHoll ywood
c ue
Ġy a
Ġm im
Ġg ay
Ġg ains
is a
ill ance
Ġv ent
ĠS now
ĠS earch
ple x
ĠP sych
ĠH i
ĠR a
ĠD own
ĠF a
Ġph d
Ġline up
Ġrest ore
Ġoptim ism
Ġnight s
Ġbase ment
ĠAn ge
Ġrecogn izing
Ġcamp us
Ġtransist or
crimin ator
ĠSquares pace
4 4
5 12
k o
y mm
Ġp orsche
Ġd ress
Ġch ains
ĠC atholic
int uitive
ĠH un
Ġcomm od
ac ity
Ġname ly
Ġtor ture
Ġsupposed ly
Ġthreat en
Ġrele asing
Ġcross ed
ĠSp ot
Ġsphere s
Ġnovel ty
ĠSch ool
ĠKe ep
Ġcine mat
Ġrepet ition
Ġsett led
T S
n ote
Ġso le
et ical
st atic
Ġnot ed
ĠB ay
act ion
Ġtw eak
ag ine
Ġbit ter
Ġworld wide
Ġro y
ĠU sing
ak er
Ġfound ed
Ġremo ves
Ġcompil es
Ġsho e
ĠCom m
Ġunf old
Ġinterview ing
ĠSe curity
Ġlimit ation
Ġcontrib uting
ĠTy pe
Ġru in
ura ble
Ġsurf aces
ĠPD F
Ġempir ical
r arily
Ġf ence
Ġe u
Ġre wards
Ġas ympt
ĠD ock
cess or
ĠSt and
ern els
Ġdist ant
ec d
Ġnu cle
Ġspir al
Ġimm ort
Ġhierarch ical
Ġreflect ed
Ġshall ow
Ġattract ed
Ġclar ity
Ġht mx
ĠSil icon
Ġschol ars
Ġinnoc ent
fess or
O M
h i
at ile
Ġp agan
Ġf en
ion e
me nd
Ġkn ee
Ġma ker
ĠT eam
ĠP an
ys ics
oc ation
Ġintegr al
Ġmeant ime
Ġsus pend
ĠBr anch
Ġple ased
Ġtermin ology
ĠAf rica
Ġstrateg ic
Ġpredic ate
Ġkilog rams
ĠAug ust
h ill
s ign
Ġd ia
Ġin ert
Ġbe ep
ĠS k
act ivation
de v
ĠD NA
Ġpre cious
ĠF orm
Ġgame play
Ġconnect ivity
ield s
Ġgraph ic
Ġgl ow
Ġhome work
Ġlower case
Ġdiv ing
Ġconstruct ing
ĠNew ton
ĠSp ir
Ġtrou bles
Ġburn ed
Ġsuck ed
optim izer
every thing
Ġrespons ive
Ġincorpor ate
ustral ia
Ġiniti ative
5 5
S h
Ġt ether
Ġf ires
an other
is k
Ġon board
me ans
th ought
am i
ĠB rian
ĠG aza
Ġag encies
Ġgu id
ĠU se
Ġgra bbing
Ġcheck m
Ġret ro
Ġwa ited
Ġsur gery
Ġplan es
Ġ19 60
Ġcir cul
Ġsubscri ber
Ġhur ting
Ġcach ing
Ġoppos ition
ĠFr iday
Ġkick s
class es
Ġmyst ical
Ġproport ion
Ġcraz iest
ĠCreat or
Ġcongr atulations
ĠAbs olutely
Ġbullsh it
Sequ ential
d one
l ined
at us
Ġc d
ing ly
Ġm eth
ll a
Ġu k
Ġsh y
Ġfr uits
Ġgener ous
Ġ4 3
iss ue
Ġcommun ion
Ġfound ers
Ġleg isl
Ġplug ins
Ġnear by
Ġroad s
ĠGen er
Ġbag s
Ġconserv atives
Pro of
Ġsty les
Ġgirlf riend
d iv
Ġ verse
Ġs ed
Ġe Bay
ot lin
Ġab und
Ġall e
if iable
pl ate
ĠR obert
ĠF ind
Ġcare d
Ġproject or
Ġfound ing
io x
cr ates
Ġrid ing
Ġcrypt ography
Ġbank rupt
Ġmotherboard s
Ġparallel ism
Ġcook ies
ĠDynam ics
Ġupgrad ed
Ġreprodu ce
Ġsubstant ial
Ġdescend ants
Ġexclus ively
F A
b ench
d em
o kay
Ġt an
Ġi phone
Ġc v
ur day
im eter
ĠS S
pl us
ĠE s
Ġrep ly
ĠIn fin
Ġadv ances
Ġpress ures
Ġappro val
Ġcam ps
Ġstrong est
Ġpsych opath
ĠCon an
fact or
Ġnotic eable
Ġspell ed
ĠBas ically
Ġanticip ate
Ġinj ury
Ġverb ose
Ġalph abet
E nd
a im
f und
Ġb ible
Ġm s
Ġr ome
ent ry
Ġst om
ĠW oo
Ġen rich
ĠG UI
ĠH y
ject s
Ġgr ant
Ġpop ped
Ġcompet ent
Ġstick er
Ġdemand s
Ġbatt les
Ġdeploy ed
Ġtempor al
Ġdiam ond
Ġdiagn osis
Ġintim id
Ġgospe l
e ger
f are
j oint
n atural
Ġr um
st ro
st ick
Ġwhat not
Ġsh ipped
Ġv oted
ĠB et
ĠM ary
ĠF ocus
ĠE li
Ġid le
Ġgener ators
Ġ6 7
Ġchar ism
Ġsuper vised
Ġ16 0
Ġsmart phone
Ġgig abyte
Ġcast led
Ġce o
Ġsymm etrical
Ġisol ation
Ġfresh books
Ġnegot iation
Ġrac ism
Ġrecur rence
Ġtherap ist
E d
j ah
m n
at is
Ġh ikaru
Ġto oth
Ġd ar
as m
Ġan ecd
Ġsh ine
ĠTh ink
Ġim g
act ic
ors air
Ġ5 2
Ġcar ing
Ġcor n
ĠCon st
Ġdisagree ment
Ġhom eless
connect ed
Ġpropag ation
Ġlit urg
Ġrect ang
Ġrh yth
Ġadminist ration
Ġteen ager
Ġsubsequ ent
aco b
8 5
d est
g iving
n ic
s che
Ġc pus
en na
ut ils
Ġst ations
Ġcon secut
Ġv r
Ġte x
Ġpre tending
ĠO per
ĠE qu
ĠJ ourney
Ġ4 6
Ġafter no
Ġown s
cl os
Ġemploy er
Ġformat ting
Ġemb ra
Ġyell ing
Ġhighlight ing
Ġban king
Ġolymp ic
Ġappeal ing
Ġprivile ge
Ġsurve illance
Ġlamb das
Ġsevent h
vide o
Ġautop ilot
ĠBost on
p g
p age
s ided
Ġ !
Ġn iche
as cal
st ill
ĠD ist
Ġper pet
Ġoff ensive
mo v
Ġcomm itting
ĠHe alth
Ġprom oted
Ġcod ed
Ġtotal itarian
ĠAs soci
Ġinstruct ive
Ġgrab bed
Ġcontact s
Ġaccom mod
Ġparad ise
Ġhun ger
Ġnavig ation
Ġpursu ing
Ġcens orship
Ġosc ill
f un
o en
w ich
on entially
Ġto ss
Ġd il
ĠS omething
are t
ĠL ege
000 1
Ġsw ing
que ue
Ġgeneral ize
ĠX T
Ġdi pl
Ġdep ressed
Ġscript ing
Ġdeath s
Ġlength s
Ġmount ains
Ġsetup s
Ġign oring
oca ust
Ġbul k
Ġdecor ator
Ġpiv ot
Ġembod ied
A PT
f ig
Ġt ilt
or ida
ĠA uthor
Ġshould ers
Ġdis order
atter ing
Ġsub mission
Ġhand ed
Ġass ault
ĠSt r
Ġrandom ness
Ġsocial ism
Ġplug s
Ġdistrib ute
comp an
Ġsto le
von ne
4 9
C S
Ġm urd
Ġg est
if ul
Ġta le
Ġen for
Ġfe es
ĠR o
ĠD ay
Ġlast ly
Ġer ic
Ġloc ality
Ġmeaning less
Ġapplic able
Ġpack s
Ġrich er
Ġvac cin
ĠSAT A
e on
g ered
Â °
Ġo oh
nd on
Ġc ro
al king
Ġwas h
ĠM ass
Ġcl ang
ĠR el
Ġres erv
Ġbr ute
Ġhard core
Ġ5 9
Ġel if
Ġform ats
Ġview ing
he ight
Ġsens ible
Ġarch ive
Ġrout es
Ġbal ancing
itect ure
Ġdecl ared
Ġrefact or
Ġinterv als
Ġsoc cer
c at
Ġr od
Ġpl ates
ĠC ap
ĠB randon
ĠH alo
ĠR on
ip h
Ġ3 50
Ġinc ons
ix el
Ġrec reate
Ġtrans itions
Ġho ll
get s
Ġcommun ist
Ġbeh alf
he ld
Ġcopy right
Ġautom ata
Ġsent iment
Ġrobot ic
Ġill ness
Ġhop eless
Ġmix ing
Ġinvent ory
Ġscan ner
Ġbes ide
Ġinterse ct
Ġimper fect
lead ing
O n
n ie
p ool
Ġw reck
Ġc s
Ġf er
Ġre dd
Ġk orea
im a
so cket
ĠM ind
ĠH ub
Ġun cle
ĠF ord
ĠN PC
Ġinc on
Ġreg ist
Ġident ifying
Ġfu els
Ġcirc ular
rain ing
uff le
Ġsex y
Ġfac ility
Ġdoub ling
Ġhack ers
Ġfrequ encies
Ġschem es
Ġfle w
Ġathe ist
Ġtyr anny
onest ly
Ġib m
Ġafterno on
b rew
d i
f ter
g res
Ġon t
Ġj an
op oly
Ġby pass
ĠW ars
ĠD V
Ġbu zz
ĠE nd
ĠN othing
Ġtra gic
Ġdis placement
ange l
ĠCh all
ĠV ict
cl ose
Ġrem inder
ĠFor k
Ġmor ph
Ġdeb ates
Ġpat ri
Ġtrial s
Ġutter ly
Ġstead y
C D
L P
O ne
r ous
z ant
Ġt iger
Ġc elsius
Ġp adding
Ġha bits
Ġat e
Ġsh aking
Ġv es
ĠT ower
ĠM ulti
Ġcont emporary
ans w
ph en
cl ing
Ġcontin ually
rop ri
Ġforget ting
Ġrelig ions
Ġ18 00
Ġbull ets
ĠDef ense
ĠInst itute
Ġmeta verse
Ġsam pling
Ġentertain ing
ĠGu ys
Ġfemin ine
Ġspectac ular
APT ER
d oc
p c
Ġt anks
Ġl ane
Ġli king
Ġfor d
Ġcomp li
ĠC A
ĠG re
Ġcl amp
Ġtal es
ish es
Ġ5 3
ĠV ol
hip s
Ġlea ked
Ġweb cam
Ġpay s
Ġcorrect ness
Ġeight h
ser ies
umb ling
Ġdocument aries
Ġsens ing
Ġstock s
Ġtri be
Ġspread ing
Ġstrength s
Ġmeg a
Ġapproxim ate
Ġreveal ing
bet ter
Ġminor ity
ĠFin ally
Ġprofession als
Ġcatastroph ic
' ],
g onom
Ġw are
Ġr ose
Ġma ze
Ġal arm
Ġsh ark
ĠC ould
ĠB est
pl at
Ġco ast
ĠL aw
Ġhapp ily
Ġdat es
Ġem power
ĠV alley
bo y
Ġart istic
Ġdam aged
Ġge opolit
Ġevalu ated
ĠFab i
ĠPl an
Ġarbit rarily
Ġconven ience
Ġnegot iate
Ġcollea gue
Ġclim bing
Ġdeliber ate
ĠBea uty
t able
Ġth ro
Ġb ay
Ġh orses
it ivity
Ġal b
ĠT er
ĠT etris
ĠS P
ĠM eg
Ġcont empl
Ġprog ression
Ġbo nds
ac cess
ten ess
ĉĉ čĊ
Ġmist aken
word s
Ġment or
add ress
Ġfold ing
ĠInd ust
Ġindic ator
AT O
Ġcert ification
exper iences
Ġmolec ular
ĠDel ta
Ġbureauc racy
P aul
ed s
al i
ĠĠ čĊ
Ġr ising
Ġr aspberry
Ġthink ers
Ġpo ckets
ĠD utch
Ġco ck
ĠL abs
ater al
Ġexp onentially
Ġpsych iat
pos itions
Ġdisc ord
pre v
Ġintu itions
Ġpin ned
Ġhar vard
ĠPer form
Ġalex ander
Ġretrie ve
Ġpriorit ize
Ġintrins ic
Ġprovoc ative
D A
l anguage
m ath
Ġi q
Ġl g
Ġd ip
Ġhe al
nt ry
Ġen velop
ĠG CC
ĠL ine
vel ength
Ġimp ose
Ġadd ict
oc al
Ġpar aly
Ġhold er
Ġpick le
Ġvis iting
Ġpost gres
Ġrele ases
Ġdetect ing
Ġswe ep
Ġcub ed
ĠMod el
Ġgath ered
perform ance
ĠRepublic an
Ġdisad vantage
Ġplas ma
g reg
p ea
Ġm ice
Ġp ing
Ġr ipp
Ġfor b
Ġhe ats
Ġan ten
Ġcan on
op ping
oo s
Ġsu p
Ġfl ipped
Ġent ers
Ġret ail
Ġmess aging
Ġtext book
Ġcost ly
Ġbro ker
Ġfix es
Ġspecial ization
Ġeat en
Ġcompar able
Ġmanip ulating
Ġdemonstr ation
Ġthumb na
Ġremain ed
Ġarri ves
Ġmit ig
sim ilar
exper ience
A dam
v ance
Ġ âĢ¢
Ġa de
Ġs co
ke l
al ways
Ġan ts
un ting
em p
ĠM iss
Ġun predict
ĠJ uly
Ġgen oc
Ġsl ap
Ġbo iler
Ġaf rica
Ġ5 7
ract ical
Ġcr ashing
char ge
cop y
Ġacknow led
Ġcas ual
Ġcitiz en
Ġtack le
ĠBraz il
" ]
m other
Ġbe es
Ġma kers
Ġwor ries
and y
Ġwr ist
Ġ4 1
ict ional
get ting
Ġpar king
Ġav ail
Ġelect ed
Ġconcept ion
ĠCom es
Ġspl itting
Ġappreci ation
iet z
Ġgar ments
Ġbright er
sp ons
org h
Ġcollabor ate
Ġglass es
ĠDis play
olf ram
Ġrecon struct
Ġestim ated
Ġrefact oring
M ap
f ill
Ġc ord
Ġyou th
Ġgo at
Ġhe mis
Ġnot ification
Ġcom ic
ir us
ĠS ou
ĠS ervices
el come
ĠB I
ĠM UD
Ġlo an
Ġbr itish
Ġret ire
Ġengine ered
up iter
Ġfast ing
vent ions
Ġthreat ened
Ġfill s
Ġconstruct s
Ġsuggest ion
Ġeduc ated
Ġhop es
ĠAlex a
Ġproport ional
Ġcompreh ensive
Ġancest ors
Ġconfir med
Ġemac s
ĠPres ident
Ġlith ium
ĠEmp ire
8 8
T areq
Ġh ates
Ġin equ
as par
Ġr gb
th etics
un s
Ġdis ks
ĠJ ason
Ġmod ul
Ġ5 4
Ġcr own
ps on
Ġrespect ed
Ġeduc ate
Ġhistor ian
ĠPr im
Ġcontrib ution
Ġdomin ated
ĠMax im
Ġinterf ere
Ġinterf erence
Ġvulner abilities
ĠAny way
Ġmemor ize
Ġperman ently
Ġju ice
ĠCS V
ĠDock er
Ġtex as
ĠAuthor ity
Ġb ouncing
Ġl isp
al ities
ver ty
Ġst amp
Ġas h
ĠA p
un ning
ĠT i
ĠT ed
ol ving
ĠS I
ĠM oore
ĠY o
ear s
ĠN ATO
ĠWh atever
Ġreg ulations
Ġadv ocate
Ġaccount able
Ġassum es
add y
Ġstri king
Ġdoub les
Ġdetermin ing
ĠMan agement
Ġsand wich
Col in
Ġcontrad iction
Ġdistract ed
quest ion
camer a
C reate
i ations
w an
Ġt iles
Ġh orm
ĠI S
Ġre name
Ġsh iny
Ġno isy
ĠM ot
ĠG T
Ġlo ndon
ĠL ight
ĠL ew
ĠK ings
Ġsl owing
Ġdec line
Ġequ ipped
Ġrep ublic
Ġcr unch
Ġacc ent
Ġlea gue
Ġexec utes
Ġsum s
Ġdiv isible
Ġsuff ered
ĠAn thony
Ġweak er
land s
Ġalloc ations
any thing
Ġpsychedel ic
Ġgath ering
Ġannounce ment
Ġsatell ite
ĠRub y
Ġincons ist
ietz sche
Ġs ized
Ġb aked
Ġl anes
it ure
ar ity
et or
ort ex
ĠB ook
Ġpo verty
ĠH app
Ġco ating
Ġdis respect
Ġexpl ode
Ġabs ence
Ġdra ft
Ġdist ur
Ġbeh aves
Ġstep hen
Ġdev s
Ġmark er
10 24
Ġlos er
ĠZ ero
Ġiter ative
Ġstick y
Ġcred ential
Ġsegment ation
ID IA
Ġolymp ics
ĠCH APTER
Ġsympt oms
F C
e nding
r d
at ar
Ġm ating
Ġn est
ar ters
Ġv otes
ĠM ed
ĠP arts
na cle
Ġtake away
Ġlearn s
Ġexp enses
Ġcr ate
Ġenc oder
11 1
ĠBl ock
Ġheart s
Ġappreci ated
Ġevalu ating
tr l
Ġexer cises
Ġped est
Ġchair s
Ġcorpor ations
ĠCol in
Ġru ined
Ġreci pro
Ġfulf illing
Ġobtain ed
ĠNumber phile
Ġconsecut ive
o ided
ĉ čĊ
Ġthe ta
Ġb um
Ġm d
Ġd ys
Ġre cept
ĠC ode
ĠG a
ĠD imens
Ġun clear
Ġtra it
Ġmod ifying
Ġread ers
Ġfund ed
Ġcharacter istic
Ġport al
Ġpsych ologist
ĠBl uetooth
Ġrot ates
Ġintegr ating
Ġtravel s
Ġemploy ers
ĠIm age
Ġocc as
Ġfinan cially
Ġrating s
Ġkeyword s
ĠSar ah
Ġdiss ip
Ġobstac les
Ġconvolution al
Ġpyram id
m t
u ana
Ġb orders
Ġm u
ver b
Ġr ope
Ġst ressed
ea ky
ĠS pr
ĠTh ings
ast e
Ġen force
ore an
ĠM ad
ĠR X
ĠD oc
ĠN A
ru g
Ġgen etics
Ġconf use
Ġes cal
Ġ9 2
Ġer ase
Ġvis ibility
Ġimpro ves
Ġdeg rad
Ġstat istically
Ġut op
Ġscal able
Ġpublish ing
Ġdemand ing
Ġattach ment
pri v
Ġhypoth es
ĠBob by
cor rect
Ġnumer ous
Ġoperand s
ĠLea gue
Ġsquee ze
Ġsatisfact ion
A E
b us
o by
Ġt ong
in av
Ġc ig
an cial
ut ious
Ġst ab
ĠT H
ĠT able
Ġimp ul
ud ge
Ġcor out
pro bably
Ġpain ted
Ġ200 3
Ġpat ent
Ġtravel ed
Ġcelebr ating
Ġresol ved
Ġcompress or
ĠMod ern
Ġcance led
, :
f ly
Ġbe ans
Ġch arts
ĠM edia
ĠR em
ĠL amb
ĠV ir
Ġdefin itive
ĠSt ory
Ġdr um
Ġdifficult ies
Ġsca ms
Ġaddress ed
Ġmeasure ments
Ġaffect ing
Ġrock ets
ĠMar x
Ġdise ases
Ġath let
Ġske w
Ġamb ient
Ġdisconnect ed
loc al
Ġfrag ile
ĠLew is
! )
> >
C ont
L inear
b ly
m om
s ur
as ons
Ġpro cl
ol ith
ĠM A
ĠM ond
Ġsc ram
we et
Ġbo ston
Ġtrans fers
Ġinv ention
iss ance
Ġwa velength
Ġmed ian
Ġperfect ion
Ġorgan izing
ĠEx ample
Ġsignific ance
Ġlif etimes
Ġproof s
Ġridicul ously
Ġlabel ing
Ġadapt ive
Ġtrig gered
Ġtrib al
Ġswim ming
ĠHuman ity
ĠJer usalem
may be
ĠProgram ming
Ġholid ay
) -
R E
T able
k it
m atch
u per
as er
ic ago
ca mp
Ġma mm
ul er
Ġch rom
ĠT ry
ĠC O
res pon
Ġar k
Ġun happy
ĠN N
Ġfl ies
Ġeas tern
Ġla ke
Ġcol our
Ġimag ined
Ġer gonom
app ropri
() -
Ġtouch es
Ġappear ing
Ġstick ers
Ġrece ives
Ġanaly st
Ġ/ *
ordin arily
Ġtre asure
Ġpunch es
Ġutil izing
Ġupgrad es
Ġner d
ĠPCI e
gra du
ĠShop ify
Ġresur rection
) ),
] ['
m achine
s cribe
Ġ @
ch ed
Ġme mo
ĠS up
ie ve
ĠM ill
ĠM ob
Ġwork station
Ġpers u
Ġfl esh
ĠIn c
Ġcent ered
az is
Ġdeep est
Ġpay load
Ġpack ing
Ġtable t
ser ver
Ġcrit ique
Ġdom est
Ġgrad es
Ġexhaust ed
Ġcelebr ation
Ġguard s
Ġtransport ation
Ġabandon ed
Ġresil ient
ĠGar rett
eav or
Ġcertific ate
Ġaggress ively
b ad
f ull
re place
an ing
Ġin version
Ġr ib
st icky
am ount
ĠC over
Ġta ils
Ġthem es
Ġen abling
are r
ĠG i
ĠL ar
Ġdis abled
Ġreal izes
Ġem body
Ġimport ing
Ġmon etary
Ġguess ed
lo op
gr oup
Ġappro ved
Ġ19 5
Ġstandard ized
ee z
Ġvis cos
Ġener g
ĠCon ference
Ġclock s
Ġhierarch ies
Ġconver ts
Ġoverwhel med
Ġacadem ia
Ġbund le
ĠNV IDIA
Ġhemis phere
1 50
C he
Q U
Ġb ip
on a
Ġf est
Ġg y
Ġn ick
Ġbe aring
Ġr ails
Ġde light
Ġout rage
Ġar ises
ĠH all
ĠH ol
ĠD L
ĠL and
ĠJ o
Ġinc arn
ari a
Ġart ic
pr ising
Ġsearch es
ĠInt egr
Ġachieve ment
Ġcru de
Ġblind fold
Ġshel ter
Ġpip es
Ġimplicit ly
Ġnit rogen
Ġglob ally
orgh ini
6 3
C I
b ility
f ive
o qu
Ġw ides
Ġb apt
Ġh edge
Ġn p
Ġso cially
le te
le ts
Ġre run
Ġor ch
ĠP ent
ĠP eak
ĠD est
ĠD ragon
ĠK ey
ĠU V
Ġca utious
Ġwatch es
Ġrequ iring
Ġav oided
Ġpay ments
ĠDo om
Ġtruth s
Ġut ilities
Ġexpress ing
Ġran king
Ġaltern atives
ĠFr ance
Ġspread she
Ġhero es
Ġwi pe
Ġconfigure d
Ġobserv ations
ĠBI OS
Ġviscos ity
S im
c p
er ning
or al
Ġn v
Ġst ance
ĠA N
ĠS E
ĠS cand
ĠD ante
Ġnet s
Ġpri zes
ta king
Ġspecific ations
Ġdep rec
Ġpat ience
Ġmotiv ations
Ġdemo cratic
ĠPl ato
Ġturbo charged
Ġknock ing
Ġincrement al
And rew
Ġmig ration
Ġschedul er
Ġirr ational
Ġguid ance
b ies
l at
r t
s ince
u ctor
Ġs ine
Ġb er
Ġh ind
Ġf oss
it ated
Ġdo ge
ur l
ĠT ri
Ġint ensive
ĠC ut
Ġqu ir
ĠW atch
Ġpr ince
ix it
oy d
Ġes p
Ġmet ab
board s
Ġhy phen
ĠRe velation
Ġvol can
Ġplug in
Ġcla use
Ġ14 0
char acter
Ġtre nds
Ġast ero
Ġrecurs ively
Ġlean ing
Ġcrimin als
Ġrh etor
Ġdepos its
ara oh
Ġalle ged
Ġb ots
ar u
Ġst ale
Ġj ames
ich olas
ast ically
Ġtra iler
Ġdes erves
Ġdec oding
Ġcur ly
Ġclear ance
Ġtrack er
Ġsho ots
Ġ40 90
Ġiter ators
Ġdisc ard
Ġphot ons
Th us
Ġsn ipp
Ġinsert ion
Ġisol ate
Ġvast ly
Ġdisappoint ing
cop es
sm all
Ġimmers ion
ĠJapan ese
ĠShad ow
ĠDiv ine
Ġobsc ure
P A
T ree
] ]
b p
u ing
Ġk its
st ory
ea p
Ġor igins
Ġcon form
pp p
ĠA LU
Ġch ris
Ġch asing
ĠT iff
ol s
ĠS und
ĠB abel
Ġag rees
Ġte ars
ĠH onestly
du ino
Ġfl ower
cept ible
Ġinv asion
ĠV I
Ġexp r
Ġcertain ty
Ġnet flix
Ġlisten ers
Ġexcept ional
Ġred irect
Ġdocument ed
ĠInt erest
Ġbehavior al
under stand
Ġinflu ential
Ġcrash ed
Ġphenomen al
Ġhighlight ed
Ġmeg ahertz
erm ans
ĠRy zen
Ġmas cul
Ġpiss ed
ĠWr ite
onz i
Ġdia lect
h im
u ci
Ġw iring
Ġs ons
Ġd ea
Ġg ases
Ġj ake
Ġj unk
pe nding
ĠM ach
ĠM athem
Ġcl iff
Ġtra il
ĠJ im
Ġsl am
Ġattack er
Ġrob in
Ġhouse hold
with out
Ġcross es
ha ving
ĠNew s
Ġaltern ate
Ġchip set
cap es
Ġdemonstr ated
Ġdeliver ing
Ġdiscipl ines
Ġblank et
ĠColl ege
ĠLear n
ĠEv olution
Ġtrib es
Ġdisp atch
neg ative
Ġapocaly pse
Ġregul atory
Ġunst able
Ġwond ered
ĠVP N
e us
i pe
i per
m ine
Ġi on
Ġc ure
Ġf itt
Ġin eff
Ġan a
th ird
Ġme lt
im ination
ĠS ea
Ġout line
Ġtr im
Ġlist ing
Ġsk ipped
ĠĠĠĠĠĠĠĠĠĠĠĠĠĠĠĠ Ġ
Ġextra ordinarily
Ġworth while
Ġreact ive
Ġclos es
Ġchrist mas
Ġthread ed
Ġgear ing
Ġimpact ful
Ġspl its
Ġwilling ness
Ġauthor ities
Ġinterp ol
Ġcontrib utions
Ġdisapp eared
Ġban anas
Ġthumb s
Ġtempor arily
Ġtub ing
Ġbow l
Ġencoura ging
Ġartifact s
plat form
T O
Ġl ined
Ġand roid
it le
et te
Ġst anford
Ġpro ps
Ġch ase
am ous
ĠR L
ĠN intendo
Ġoff ense
Ġph ases
ĠU krainian
Ġrel ies
Ġreg en
Ġwa king
Ġcr ushing
Ġobject ively
Ġtog gle
Ġlea ks
Ġhuge ly
Ġfocus es
att ed
Ġcond ens
Ġbi ases
ĠPC s
Ġcivil ians
Ġrussi ans
Ġ199 5
Ġexplore r
Ġmanifest s
Ġhypoth etical
ĠWhere as
Ġfrustr ation
Ġargu ed
Ġmultipl ier
Ġhat red
Ġcomplain ts
Ġdiam eter
cool er
Qu ery
Ġpermut ation
ĠFact ory
Ġperipher als
ĠMine craft
N one
c s
m ulti
t alk
Ġt id
Ġc ath
Ġre arr
se ct
ch at
ro y
qu ate
Ġthink er
ge vity
ĠA ustin
int egr
ĠD ark
ĠN um
ĠK ind
Ġac id
ĠJ ul
Ġho ver
Ġclass ifier
Ġdr illing
ilar ly
Ġinvol ving
Ġmor ally
Ġmaint ains
Ġrecommend ations
Ġinsane ly
Ġicon ography
ĠQu est
Ġintellect ually
Ġfi at
Ġupload ed
Ġcontrovers y
ĠiP ad
?? ??
ĠLev i
Ġignor ance
Ġmuse um
Ġ! =
Ġa id
Ġp il
or se
ĠA cad
il on
Ġfr ance
Ġle e
Ġsc rolling
cri bed
Ġconf id
Ġtor t
Ġhor ror
Ġ200 2
ograph er
Ġacceler ator
let ter
Ġestablish ment
ios yn
ĠLe ela
Ġintention al
Ġsmell s
Ġvary ing
Ġcatastroph e
Ġpunish ment
aspar ov
d le
Ġt in
Ġw ikipedia
Ġd ow
et a
Ġr and
Ġpro c
Ġv enture
ĠT op
ach ed
Ġcons oles
Ġrec y
Ġquestion ing
Ġclass ify
Ġfound ational
ĠAl ice
Ġfore ground
Ġstream er
ĠZ ion
oph er
Ġweek ly
Ġviol ation
Ġagg ression
Ġscal ed
comp ass
Ġmut ual
Ġlas ers
ĠPre tty
fo ot
ĠRead ing
norm al
Ġgrat itude
S e
i i
m ethod
Ġt k
Ġthe ology
re cord
at able
Ġp ione
Ġf ame
or ters
le ton
ay lor
st ruction
ad ing
Ġpl acing
Ġpe el
ound ing
ĠD P
ĠF oo
ĠF uture
ĠF ields
Ġcall back
Ġbr on
Ġshe ets
Ġele ctions
ak am
Ġinf ant
Ġsound ed
ilt on
Ġprof itable
10 1
Ġra id
Ġsubs id
Ġiter ating
Ġdownload s
Ġspo iler
idel ity
2 50
G L
G et
f our
s ized
t oday
Ġc ous
en able
ĠI Q
Ġj s
Ġpro xim
Ġch apters
ĠT ik
Ġar thur
ĠM os
ĠH andler
Ġid iosyn
Ġpa ired
Ġche ated
ĠU ber
Ġrel oad
Ġhand held
sh ell
Ġident ifier
ĠPro fessor
Ġinvest or
Ġaff ili
Ġrad ically
Ġrequest ed
Ġimpact s
Ġphot ography
Ġbur ied
Ġrespo nds
Ġuns igned
Ġwrest le
Ġjournal ism
Ġcorrupt ed
Ġsucceed ed
Ġamb iguous
ĠFin ancial
Ġinstr uments
Ġacqu ired
war gs
Ġnumer ical
Ġconstit ution
Ġcoh es
Ġinterv ention
ĠOther wise
Ġdevast ating
( -
b one
d irection
m ill
p air
Ġi OS
ou nter
Ġp iano
Ġg aining
ĠI ll
Ġe ve
ct r
ist inct
ore r
ĠM il
Ġfun n
ĠK n
Ġrun ners
Ġph arm
Ġsl ipp
Ġbra nds
Ġ9 4
Ġ9 11
Ġmed i
Ġste er
Ġsubt ree
Ġbur st
ĠRed ux
Tr ans
Ġprag matic
Ġliturg ical
t les
t otal
Ġw and
Ġhe ated
ĠA V
ĠA aron
if er
Ġact u
ĠF ried
Ġdifferent iate
Ġapp les
og er
Ġcomm its
Ġsl ave
Ġjo ins
Ġide ological
Ġresult ed
Ġphys i
pro fit
Ġenjoy able
Ġdisplay ed
Ġnames pace
ĠTV s
Ġens uring
Ġshad ows
Ġrank ed
Ġfinger print
ĠOb ject
Ġproced ural
Ġbreakthrough s
Im age
Ġgif ts
A t
D B
L en
O L
r ations
u cin
Ġw iz
er ving
Ġso ckets
al an
Ġk en
ter y
un a
Ġsp ike
ĠD ot
ĠD ave
ĠF u
Ġprog ressive
Ġem ulator
Ġchar les
Ġfar ming
he y
ĠNo ah
Ġautom otive
Ġgovern ance
Ġweight ed
Ġdang ers
Ġindust ries
Ġsmo king
Ġcontrib uted
Ġmut ation
function al
Ġdescript ions
Ġlon gevity
Ġsixt y
Ġzomb ie
Ġdivor ce
ĠPerform ance
D S
i pt
p ret
er a
Ġp eter
Ġl ou
an ol
ut il
om es
Ġre us
Ġj Query
Ġcan n
ur pose
ĠT ools
el ve
Ġcomp osed
ĠG onna
ĠL G
ĠL at
Ġres erve
Ġdis li
ac cur
Ġcons olid
li ent
Ġtop ology
Ġlog ar
Ġpop ul
Ġtor n
Ġpost gress
Ġgl ance
Ġconc ert
Ġreact or
Ġport ray
Ġloop ing
The y
Ġ{ }
Ġanim ations
Ġbuff ers
Ġwra pping
Ġflat ten
Ġannoy ed
Ġlack ing
bi qu
Ġlaws uit
Ġscan ning
Ġcrack ing
Ġnut r
vol ent
worth y
Ġmagaz ine
ĠMond ay
" ),
L A
c ers
Ġt f
Ġc ram
ll y
Ġre ass
Ġr ival
Ġas ymm
ĠC ase
Ġkind ness
Ġunder ground
Ġunder gradu
cond a
Ġcheck point
po ch
Ġmethod ology
Ġ16 00
Ġcollect or
Ġaccept s
Ġ14 40
ky o
Ġunique ly
Ġroot ed
Ġreli ably
ĠTechn ology
Ġcorrel ated
Ġcloth ing
Ġshocking ly
Ġdescript or
Ġoverclock ing
did n
Ġcataly tic
Ġresent ment
D is
c if
z o
Ġp eterson
Ġg n
Ġg orge
ĠI R
Ġli d
Ġj e
Ġthere by
ite ch
Ġsp it
Ġsp ite
ĠD iff
Ġthr ust
ual ity
Ġ= >
Ġgra il
Ġcur rencies
Ġbra ces
Ġ19 50
Ġprov ider
Ġinde fin
Ġprof iles
Ġaw ake
Ġdi ver
Ġconcept ually
fl ows
Ġ11 00
Ġmar king
Ġdestro ys
Ġband s
col n
mon th
Ġsubst itute
Ġmyth ology
try ing
Ġstom ach
" ).
P ort
j an
s ource
Ġa kin
Ġb ore
Ġm int
Ġf da
ed ay
al one
st ar
st ructure
Ġst ones
ĠT CP
ĠS ay
ĠS pect
em an
Ġsp y
ĠL ic
ĠO R
og ene
Ġ5 8
Ġshe er
bo ot
Ġsing ing
ĠSt ill
Ġadv ancing
Ġ8 6
uck y
Ġdev ops
Ġsca pe
rodu ction
)) )
Ġnote book
Ġfac ilities
comp at
Ġ199 4
Ġdomin ance
Ġexcl amation
Ġmus ical
ĠNe il
ĠFl ink
ĠFl orida
Ġske ptic
Ġdiag rams
found er
Ġvill age
Ġcomed ian
riv ial
Ġsnaps hot
Ġpenn ies
B S
M ax
m ates
o an
z os
Ġc atholic
as sembly
Ġk otlin
Ġcan vas
pl an
ĠM any
ĠG ames
ious ly
Ġsim ulator
read ing
Ġfl ips
ub ers
Ġ6 3
Ġass igning
Ġfound ations
Ġmark ers
ĠAl tern
Ġwall ets
Ġprinci pled
Ġflo ats
pre tty
Ġtit led
Ġregard ed
Ġresist ant
Ġding ly
ĠĠĠĠĠĠĠĠĠĠĠĠĠĠĠĠĠĠĠĠĠĠĠĠĠĠĠĠĠĠĠĠ ĠĠĠĠĠĠĠĠĠĠĠ
How ever
Ġdesper ately
Ġastron aut
Ġblund ered
ĠMem ory
Ġcharism atic
Ġfoss il
0 5
C H
D I
} .
Ġs ab
Ġp ppp
le in
al og
Ġse an
Ġch uckles
ĠW ord
act ions
ĠD en
ĠN av
ĠJ ournal
pr om
he nd
Ġlink ing
Ġsound ing
att ack
Ġmass es
Ġred o
str ide
Ġlock down
Ġconsist ing
Ġboot stra
Ġcelebr ity
Ġpeace ful
Ġsou p
Ġdelay ed
Ġcert ified
ĠSer ies
Ġschedul ing
roc ery
ĠFre edom
Ġcrush ed
Ġsemic ol
ĠSpir it
Ġdipl om
Ġathlet ic
S AT
c ourse
f name
m ail
p ically
re ason
ou ble
Ġh ats
Ġm ild
Ġp add
Ġd ante
Ġf s
ct ive
Ġr ipped
Ġal ice
Ġcon gress
Ġv ital
pe x
ĠM ont
Ġsp ont
ĠL anguage
ĠO K
Ġfl av
Ġhel per
Ġeng land
Ġref used
Ġwhite board
Ġsk ipping
ins ert
Ġcal ifornia
Ġstra w
Ġaccount ability
Ġmer ged
Ġcritic ized
Ġclust ering
ĠTrans cend
Ġwood s
Ġrecur rent
ĠGraph ics
Ġobstac le
ĠCong ress
Ġaspir ated
epend ent
Ġgenoc ide
Ġscape go
= .
W or
k u
Ġm ast
Ġm ong
al g
ĠA ra
os ph
ĠC ross
ĠC la
ĠB re
Ġtw elve
ĠM aps
be h
Ġover lay
ĠF lex
Ġpr one
Ġreal ities
Ġdes irable
Ġdef lect
Ġcar rier
Ġform ally
ĠIn formation
Ġdra in
Ġbreak fast
ĠPro cessing
Ġclean up
Ġhot ter
str ate
Ġver ified
Ġchalleng ed
Ġassoci ation
char gers
Ġ199 9
Ġdrag ons
Ġfa cial
ĠID s
Ġfat al
Ġembarrass ed
ĠCy ber
Ġow ning
krain ians
Ġjew ish
Ġcoh erence
Ġpermut ations
Ġadvis or
ĠHope fully
Ġredund ant
Ġenlight enment
$ ]
6 2
F ind
O G
] ;
g iven
h o
p res
Ġw ings
re pr
Ġf et
Ġg ree
Ġin compet
st ates
Ġdo se
Ġjust ification
im m
ore m
ĠH ouse
Ġeven ly
Ġcall able
Ġbefore hand
Ġhuman oid
Ġmem br
Ġwin ners
ism a
Ġass ass
oc racy
Ġold est
ump s
Ġ7 7
Ġfeature d
Ġsca re
Ġstra p
ĠBl ue
Ġpredict ive
Ġbound ed
Ġemploy ed
Ġax le
Ġcoin base
Ġfilter ing
Ġqual ify
Ġprompt s
bl owing
Ġhood ie
onym ous
cop ic
Ġestim ates
Ġschol ar
Ġvend ors
Ġgorge ous
A G
J ames
M X
T ime
a ires
h uber
i verse
Ġt rop
Ġs ql
Ġc trl
on ing
Ġm ug
Ġg rocery
Ġin acc
ĠI SA
ot le
Ġst akes
ro se
Ġex otic
ess im
act ers
Ġsp arse
Ġag r
Ġover ly
Ġbet ting
Ġsy na
ĠSo crates
av ailable
Ġcons cience
ĠCh e
mer ce
Ġlow ered
ĠTr uth
Ġflow ers
Ġphilosoph ically
ĠSe q
Ġcapac ities
Ġsyn thesis
Ġresponsib ilities
Ġsmooth ly
Ġassist ance
hold er
Ġanx ious
Ġcoinc idence
ĠDep artment
ĠEaster n
ĠHun ter
ĠMeg a
, '
F I
l ived
Ġb a
Ġy ay
it udes
Ġdon ald
pe nded
ĠC ain
Ġsom eday
Ġsp ikes
Ġun he
ĠE lect
Ġsupp lement
Ġimport ed
Ġmon olith
Ġless er
Ġcr ates
Ġimag inary
Ġprint f
Ġbar riers
Ġdam aging
ĠYouT uber
Ġ25 5
ĠAr ray
Ġens ures
Ġpolitic ian
Ġtraject ories
Ġseal ed
Ġtoler ance
B r
P E
b n
c ular
t ered
t arget
Ġw ound
Ġm ism
Ġf ir
Ġre rout
Ġhe lic
Ġcon quer
if i
ĠC orsair
ĠM atching
ĠP y
Ġwork loads
Ġun box
ĠL in
urn iture
Ġrel ational
Ġins erting
Ġbelie ver
Ġret ain
Ġform ulation
up date
Ġspec ulation
Ġsimilar ity
Ġprom inent
uz zy
let te
comp ute
Ġtermin ate
Ġcomputation ally
Ġanalog ous
ĠLe on
Ġalt ar
Ġillustr ates
Ġhtt ps
Ġhall ucin
Ġaug ust
ĠSc ott
Ġaccus ed
Ġshuff le
Ġquot ation
Ġenvelop e
ĠNA SA
appropri ate
" ],
M UD
Ġc pp
Ġp ir
Ġand re
al con
me ga
Ġdo able
od ge
Ġor th
ĠT em
ĠC amp
ĠC OV
ĠB ox
Ġfe ars
Ġsa uce
Ġbl ob
Ġcool ers
Ġcou pling
con text
uck s
Ġaff irm
Ġbene ath
Ġpersonal ities
Ġcred ibility
Ġbillion aire
Ġfold ers
Ġarm or
def ine
Ġcheap est
part icular
ĠSm ith
Ġhar ness
Ġsignature s
Ġll m
lab els
Che ck
H e
N ot
O ut
R et
h uh
n c
o ons
r us
v a
Ġb ru
Ġc ues
Ġli mb
Ġcon j
ĠC ause
ĠD irect
Ġbas eline
ex cept
Ġpar all
ĠUn ix
Ġleg ally
Ġtrack ed
Ġconc erning
mm ers
Ġstack ed
âĢ Ķ
Ġdistrib utions
Ġexperiment ing
uff er
Ġsurv iving
ĉĉĉ čĊ
Ġseed s
win ning
Ġscreens hot
Ġgrind ing
ĠJose ph
Ġscand al
Ġreserv oir
Ġves sel
Ġunpredict able
Ġavail ability
inav ian
% ,
n odes
w ire
w ave
Ġa per
Ġto ys
Ġl ava
Ġd iox
Ġin verted
Ġu f
Ġme x
Ġcom bo
ĠA do
ĠS ty
Ġum bre
Ġby zant
ĠO racle
ĠN azi
ĠK han
Ġres erved
fe atures
ĠIt s
Ġexam ine
Ġmod er
Ġrel ief
Ġcount ed
Ġhonest y
Ġsurpr ises
Ġmar ry
Ġ13 0
Ġhealth care
sequ ently
Ġnu anced
Ġmis leading
Ġlif es
hand ed
Ġexte nding
Ġcompens ation
Ġheur istic
mid huber
) ).
8 9
A A
c d
i ot
Ġw ig
Ġo we
Ġc ros
Ġp essim
es ian
Ġin h
al oader
st ract
Ġfor ty
Ġcan cell
Ġnot able
op y
Ġpro l
Ġv it
il o
ĠT al
ĠS ign
ĠH arris
ĠF ed
Ġnum eric
Ġla z
Ġref ine
Ġadv oc
Ġpres erved
Ġstack s
umb led
ĠSp eaking
Ġ199 6
ball s
Ġcompl iment
Ġgradu ated
Ġstrang ers
Ġgrammar ly
ĠChar les
ĠDemocr ats
ĠSat urday
Ġassess ment
Ġpolymorph ism
ĠLamb orghini
Ġorch est
ĠAcad em
E W
V al
p ush
r ick
ou st
Ġb b
Ġb olt
Ġl t
is ition
ra ined
ul ators
Ġch rome
ĠB a
ĠB ad
ĠB ern
ĠK orea
Ġsc ored
Ġfact ories
Ġdevelop ments
Ġve ter
Ġgeneral ization
Ġelement ary
Ġclean ed
Ġmis information
Ġaddition ally
ĠSim plicity
fin al
Ġcrack ed
Ġcaus ality
ĠTur k
ĠIns ight
Ġaugment ed
Mod el
ĠTransform er
Ġware house
Ġthro at
pea re
Ġartic ulate
en ry
ll o
Ġn ah
Ġn ietzsche
Ġis rael
ĠT S
ĠS al
ĠW o
iz on
iv able
Ġbit es
Ġbr icks
ell y
Ġtest ament
Ġform ulate
con vers
Ġadv ent
aut h
old s
Ġreact ing
Ġreact ors
Ġcollect ions
Ġfinish es
str ing
ĠGen eration
Ġdemo cr
Ġmyth ological
ĠLev on
De fin
Ġfro zen
spec ific
Ġsemic ond
priv ate
c ation
l ang
l osses
p ay
Ġb og
Ġl ingu
Ġg le
Ġu ber
op ard
Ġall eg
ind istinct
Ġtr illions
ĠM i
Ġpo etic
ĠH uff
Ġad h
ĠL ong
ĠL ittle
Ġgu ests
Ġaf ghanistan
ows ki
Ġcr anks
Ġlea king
ps y
Ġra cial
Ġsepar ating
Ġnormal ize
Ġtrust ing
Ġintrodu ces
Ġsus ceptible
Ġbranch ing
Ġhistor ic
Ġalt ogether
Ġrestrict ions
Ġdict ator
Ġsynchron ous
Ġsubstant ially
Ġslee ve
Ġfitt ings
) [
) }
D Y
L S
Z ero
c oded
d og
in ople
Ġs d
en ough
Ġf og
an ity
Ġr aces
se en
ce nds
Ġnot ing
Ġat roc
ca pt
ĠT O
ĠT ell
Ġfr ight
ĠH el
ĠH ell
ĠR C
ĠD am
iv ated
Ġimp ly
Ġdis pro
Ġend points
Ġph osph
Ġfl are
Ġexp ressive
Ġfree zing
Ġprov iders
Ġcod er
Ġconstant ine
Ġcommunic ations
Ġanim ated
Ġfoot print
Ġfol k
ĠNet works
Ġcollabor ative
Ġillustr ation
ĠCont rol
Ġcompens ate
Ġnail ed
ĠCong r
ĠExpl orer
ĠJun ior
ĠVer tex
ĠFa ith
Ġincon ven
M C
P ool
d ated
h all
m al
p owered
u ate
Ġt dd
Ġf ert
Ġre ck
ig e
Ġha cks
Ġst airs
um m
Ġout set
Ġcomp ose
Ġfe at
Ġplay able
Ġco at
Ġco ca
ach es
ĠJ ane
Ġadd icted
Ġhum bling
Ġdef ect
Ġnext js
wh ether
Ġtrans forms
Ġho c
Ġtext ual
ĠX ML
Ġarch ety
Ġthreat ens
Ġtherm odynam
stand ard
some one
Ġlift ed
Ġoccup ied
Ġdisappear s
Ġcompreh ension
Ġvend or
ĠCir cle
Ġcig aret
accur ate
c ertain
d ie
h h
o be
p able
on i
Ġh ipp
Ġf ate
Ġas semble
Ġmo ist
Ġde celer
ook s
Ġup wards
ard ing
Ġsu ite
Ġta ked
ĠP orsche
ĠR oy
Ġad apters
Ġun int
Ġoff s
Ġsl ider
Ġsm ash
not es
ĠAI S
Ġincl usion
Ġmot ions
Ġpsych ologists
Ġund erest
Ġrot ors
Ġcred ible
Ġplanet ary
Ġpipe lines
Ġcondition ing
Ġbed room
Ġpump s
Ġadapt ed
Ġprem ise
Ġdiag on
Ġwealth y
Ġschedul ed
ĠMuslim s
Ġdecom position
Ġdod ge
Ġquadr atic
Ġdow nt
! "
S em
c ir
j son
n ever
r ank
Ġn omin
ck er
Ġall ev
ĠA tt
ĠS ol
ord ered
Ġfo x
Ġdec oder
Ġcar n
Ġposition ing
Ġmodel ed
ĠSt ructure
Ġcoll isions
Ġsw apping
Ġshort age
ĠEx cel
illi ance
ordin ate
ĠBy e
Ġharm ful
exp ensive
program ming
Ġenthusi asts
ĠKar o
ĠEli jah
ĠLic ense
Ġdiox ide
Ġtaked own
/ *
H S
M ark
P y
c ow
Ġ ^
Ġa ster
Ġl u
Ġl av
ke ley
Ġre new
Ġdo s
ĠS ame
ĠB udd
ĠB uy
Ġoff ended
ĠThe o
Ġem it
Ġcar b
Ġtrans mitted
Ġoper ational
Ġsci ences
az z
Ġfil med
Ġgi ants
Ġaccess ories
Ġcop s
Ġpost modern
Ġbott les
Ġeth nic
Ġtransform er
Ġcritic izing
Ġinject ed
Ġmus cles
Ġadjust ing
Ġinsight ful
Ġfort une
Ġsubst ance
Ġdel ve
process ing
Ġcompos ite
Ġshirt s
Ġelev ator
Ġoct ane
Ġfram ing
Ġgp io
Ġsour cing
ĠTit an
Defin ition
4 1
M e
l ining
m oney
p read
r iction
us er
Ġmo ses
Ġex ter
Ġch oke
ĠC ine
ĠM al
Ġback s
ĠF ar
fe et
ĠJ acob
Ġinter cooler
Ġ3 000
Ġgreat ness
Ġfl ick
ub lish
Ġsur ge
Ġcount less
mm a
ĠPro ject
ĠZ en
Ġground s
Ġrele vance
Ġjud ging
ĠWorld s
Ġwild ly
Ġmanifest ing
Ġhypoth etically
log y
Ġappropri ately
Ġtrip od
enc oding
Ġhun ter
Ġpurch ased
Ġyield s
anc is
ĠDemocr atic
Ġpron ounce
Ġss ds
ĠVir gin
ĠSund ay
Ġth under
Ġa is
Ġl s
Ġf uzz
an king
Ġg or
Ġg uts
Ġso vere
Ġwh ale
Ġwh opping
Ġli p
Ġtr ay
ĠC ube
ĠW ild
ĠM ess
ĠE p
Ġhapp ier
Ġprob abil
Ġcons ent
ĠWh ether
Ġmin ister
ĠV e
Ġpass ions
Ġconf ess
Ġ7 8
Ġsqu ir
he imer
Ġve get
Ġcop ilot
Ġprot oty
cul iar
Ġamazing ly
ond a
Ġskill ed
Ġserver less
Ġdem os
Ġmag ically
ĠHT M
Wh ile
Ġbind s
roph y
ĠVal ue
Ġestim ation
Ġastron om
rout ine
Ġtempt ed
Ġsatell ites
Ġbom bs
ĠFact or
Ġvolunt arily
ĠCat alan
Ġelectromagn etic
Ġwed ding
Ġaerodynam ic
Ġslipp ery
ĠCOV ID
r ows
Ġ ĉĉĉĉ
Ġt ar
in itely
Ġn its
Ġwh ist
am m
ĠT ony
Ġpe culiar
ĠW illi
ci ble
ĠN ick
com b
Ġsc ar
Ġsim ulating
ell ar
Ġmod erate
ix ir
Ġcheck out
Ġer r
Ġtrain er
par ams
Ġfre ed
Ġapproach ed
Ġsocial ist
Ġmagn ets
Ġacceler ated
inst ructions
Ġattempt ed
ĠFr ancisco
Ġarr anged
Ġdiscover ies
Wh y
Ġreflect s
Ġpump ing
Ġliber t
Ġtight ly
every one
AN D
ĠRet urn
ĠGr oup
Ġcul min
ĠDisplay Port
P D
d ings
p apers
t oo
w ear
re nder
Ġm ant
Ġp ier
Ġl uc
ĠB M
Ġag i
ĠH R
Ġpre val
ĠL im
ac r
Ġcle ared
Ġret ention
ĠSt anford
Ġ9 1
Ġincl ined
Ġinte nd
Ġframe works
arr ing
Ġprotect s
Ġut f
Ġsignal ing
can vas
Ġhost ed
Ġsecret ly
Ġax es
Ġinject ing
Ġ27 00
ĠPlay er
ĠOb ama
Ġdisad vant
ĠOpt im
Ġimbal ance
m ult
w art
Ġt ink
at ical
le gal
Ġha zard
Ġst eak
im ed
Ġde ce
eth ical
em ploy
ag ers
Ġsy s
ĠK im
ph eric
Ġboth ers
Ġbad ge
Ġclass room
Ġ6 6
Ġ8 8
ĠZ oom
Ġdead ly
Ġpin ning
Ġstrugg les
Ġconver ge
Ġdecre asing
Ġadvance ment
Ġtang ible
ĠDev on
RA DY
num bers
Ġll ms
Ġentrepreneurs hip
Ġell i
mom ent
Ġsnipp et
F irst
a ac
j ud
l ime
Ġt issue
Ġo racle
Ġm ich
ro d
Ġkn ot
Ġcon e
ĠT urn
Ġtr unk
and ra
ĠB or
ĠH a
ĠH ist
ĠR and
ĠL ab
Ġtheir s
Ġam ate
Ġid ol
Ġdef er
Ġcome back
Ġcomput es
Ġcheck mate
Ġear ned
Ġscre am
Ġpop ulations
cent ric
Ġrece ipt
Ġlaunch es
Ġden ial
ĠIm agine
Ġsatisf ies
Ġiron y
Ġremind ed
Ġtast es
Ġproced ures
Ġdict ators
Ġeurope an
Ġrelax ed
ĠCy cles
sa id
Ġhes it
Ġarrange ment
ĠSec ret
ucker berg
Ġcryst al
ĠVi enna
Ġbrid ges
ogene ous
C am
D o
H ello
R isc
m illion
y a
Ġb ros
Ġd yn
Ġg cc
et ries
Ġe lder
Ġr app
ĠC ount
Ġwho ops
ĠG lass
ĠD im
Ġres cue
Ġnew ly
fe el
Ġsc attered
ac ht
Ġrel ay
Ġsub m
Ġret reat
Ġcr imes
Ġspace craft
Ġref uge
Ġdist raction
pr ot
pro bs
Ġprof its
cr itical
Ġinteract ed
Ġfore most
Ġnormal ized
Ġund e
Ġfeed s
rand int
but ton
ĠHD MX
Ġdiction aries
ĠPre cision
Ġinstrument al
Ġaxi oms
Ġgentle man
friend ly
ĠSup reme
Ġwides pread
Ġhelic op
Ġumbre lla
, -
, .
4 6
5 9
m ode
Ġc um
Ġc ope
en a
Ġk in
Ġr s
st uff
ch er
ro ck
ro xim
Ġan om
im ages
un ing
il a
Ġen forcement
ĠM H
ĠM ove
ĠR ea
ans om
Ġgener ics
lic ations
Ġstr ive
Ġear ning
Ġ7 3
ik i
Ġsuccess es
Ġfas c
Ġdisc ou
ha ft
Ġdead lines
Ġdetect or
Ġrepe ats
Ġsna kes
Ġequival ence
Ġtrig gers
Ġpun ished
Ġpros pect
Ġimper ative
Ġritual s
Ġsketch y
ĠIN T
Ġcoron av
Ġbleed ing
Ġalb um
Ġdistur bing
F low
Ġt cp
ow ed
ke nds
Ġst an
Ġfor um
ul ing
ĠC up
ĠP ublic
ish er
ition ally
Ġworld view
Ġ( );
Ġam p
Ġmod ifications
Ġgra ms
wh atever
iss an
Ġsch iz
Ġcal ories
Ġspecial ist
ĠDe ck
Ġscient ifically
Ġunivers es
Ġfit ness
Ġcomment ary
Ġencou n
Ġden omin
cal cul
ĠEd ition
ĠWith out
Ġpy game
Ġsan it
Ġprofession ally
Ġted ious
Ġtransm itting
ĠCour t
Ġaccommod ate
Ġboiler plate
5 7
f ight
r ants
t rivial
Ġi o
Ġl amp
et ing
Ġr ude
op es
Ġex cel
Ġwor n
ĠC I
ag h
ĠH mm
ĠL S
ĠL abel
Ġbet s
ign ment
Ġmod ification
Ġprogram m
Ġacc idents
Ġspec ifying
Ġeffect iveness
min ist
Ġcomb ines
Ġcompet ence
Ġextra pol
Ġcollect ively
ĠJust in
Ġ17 00
Ġbur nt
Ġmultip ro
Ġtransfer red
Ġanalog ies
Ġmad ness
think ing
Ġspan ning
Ġtremend ously
Ġcave at
Ġgalax ies
Ġmush room
Ġhd mi
Ġpert urb
Ġinequ ality
Ġcredential s
Ġundergradu ate
Ġcranks haft
' ))
G en
O f
O ver
f ox
f ashion
o ked
v ille
y eah
Ġc ush
Ġto e
is an
Ġn azi
Ġu biqu
Ġpro st
Ġpro ves
ul pt
Ġv aries
ĠC ru
Ġqu arks
ĠW in
Ġpo king
Ġco oper
ĠK lein
Ġsc ulpt
Ġ5 000
Ġhel met
Ġref und
Ġdr ones
Ġtrain s
eng u
ĠPro blems
ĠRe venue
Ġep ide
ĠCon nect
Ġcontinu ation
Ġinflu encer
Ġbrows ing
ĠAlex ander
ĠEvery body
Ġarri ving
Ġcoach ing
Ġthick ness
Ġexpos ing
Ġenh anced
Ġannot ation
Ġjer usalem
ĠBuild er
Ġinstitution al
Ġtempt ing
ĠCam bridge
ĠAdvent ure
ĠAN D
ĠFried man
Ġflav ors
d irect
h ash
m usic
Ġt etra
in os
Ġm und
Ġd jango
Ġf urniture
ar ial
ut iful
et on
se nd
Ġj ason
Ġnot ifications
Ġch imp
Ġsh ining
Ġint imate
ĠC G
Ġsp acing
ĠH aw
Ġun ix
Ġgu ided
Ġsl aves
wh ole
Ġlast s
Ġhead phone
gin s
Ġbeh old
ah u
Ġsho ve
Ġcustom ization
Ġmar athon
ĠRe f
Ġyoung est
Ġ13 00
Ġinitial izer
Ġobser vers
Ġmer ging
ceed ings
Ġtransl ates
Ġprior ities
ĠMax imum
Ġmargin s
Ġchemical s
Ġintr igu
Ġbless ing
parent s
ĠStep hen
Ġphotograph er
Ġtravers al
Ġreferen cing
Ġasympt otic
ĠCap ital
Ġtong ue
Ġagr icult
Ġencoun ters
f ix
h alf
j k
k wargs
v ature
Ġ \
Ġ ]
Ġa we
an i
ĠI raq
ic an
Ġhe aling
ust er
Ġne po
Ġdon ated
Ġtr ips
ĠB ase
res hing
per m
ĠP ost
Ġun ic
Ġco aster
Ġnew est
Ġsecond ly
Ġche er
ia h
ĠV ers
Ġcle arer
Ġmon et
Ġpass age
Ġbra ce
Ġbeh aving
Ġbuy er
Ġlay s
ĠĠĠĠĠĠĠĠĠĠĠĠĠĠĠĠ ĠĠ
ĠAl an
Ġautom aton
Ġconscious ly
alth y
Ġassign ments
Ġtransform ing
ĠBr idge
cont in
Ġdecl ined
Ġmyth s
Ġcircuit ry
ĠPar is
Ġimpl ied
ĠLi ber
ett i
ĠOd in
Ġcoop eration
ĠInnov ation
ĠInfin ity
Ġrhyth m
Ġreus able
Ġskeptic ism
Ġmism atch
Ġparall els
R I
a ug
d rop
in er
Ġm i
Ġbe ard
ĠA P
ĠA cc
os ion
em ed
ĠM ur
Ġpre st
Ġbu ckets
ĠO k
Ġbl ade
ens ions
ĠN U
Ġdown force
form ed
Ġsystem atic
Ġaf rican
Ġind ia
ne ys
Ġsuper f
ced es
Ġmach inery
Ġ12 5
Ġremo val
Ġmar vel
Ġep stein
Ġquant ify
Ġstat ically
Ġcast ing
Ġment orship
ĠTo kyo
Ġblue print
Ġparticip ants
Ġhistor ians
Ġfrequ ent
Ġsold er
Ġaccording ly
Ġnor thern
ĠSim ilarly
Ġiron ic
ĠĠĠĠĠĠĠĠĠĠĠĠĠĠĠĠĠĠĠĠĠĠĠĠĠĠĠĠĠĠĠĠ ĠĠĠĠĠĠĠĠĠĠĠĠĠĠĠĠĠĠĠ
And y
Ġoverl apping
Ġwarning s
ĠSpace X
Ġpersist ent
ĠCR T
Ġchron ic
Ġlicens ed
lar ge
Ġheats ink
ĠScand inavian
B A
a ways
Ġm hm
Ġp u
or igin
Ġwh is
Ġe lf
Ġcon ve
ge nder
Ġv on
am iliar
pe ction
Ġup stairs
Ġpe ers
Ġar ist
Ġdiff usion
ĠF ant
ĠF DA
Ġgu ilt
ĠE ss
ĠJ iu
Ġdec ay
Ġeff ing
Ġexpl oded
con cept
Ġmill enn
Ġ19 30
verse ly
Ġgl orious
Ġpot ent
port ion
Ġmaxim izing
ev in
Ġimm un
Ġconsum ed
Ġdeli vers
Ġindic ating
Ġtoken izer
ĠInst ructions
ĠNe o
Ġaccident al
Ġrein vent
Ġupper case
Ġliquid ity
Ġamb igu
Ġpatch es
Ġfract ions
arc ity
Ġexcess ive
Ġetern al
Ġmisunder standing
Ġjan uary
Ġstale mate
Ġsemicol on
N G
P layers
S F
g re
r owing
Ġ ).
Ġs r
Ġin qu
ĠI d
ut ors
Ġk ov
ch ing
ter ator
ĠS av
Ġout right
ĠG C
Ġlo ot
ĠE ver
ĠE uler
Ġfun ky
Ġro ast
Ġshe ep
Ġcur ric
Ġret rospect
Ġref reshing
Ġsqu ad
Ġlog ically
Ġincl usive
Ġprot ests
Ġdig est
Ġconstant inople
Ġnormal ization
Ġrespect s
pre m
Ġjud ges
Ġce ase
Ġwra ps
Ġ199 2
Ġvert ically
Ġestablish ing
cap able
ĠRet urns
Ġalert s
Ġencoura ged
inc re
track er
Ġabsor b
Ġthorough ly
ĠLou is
Ġsole ly
5 6
A meric
P re
b ie
b urg
u han
Ġth omas
re ach
ou red
Ġc rop
Ġy acht
on ed
Ġto ck
is ation
it ous
it led
ar gs
ra ble
Ġde ci
ĠA ustralia
Ġv est
Ġv ault
ĠC lear
ĠG M
ĠP ace
ĠD NS
Ġpre gn
Ġun ethical
ĠL ith
Ġper me
ĠO w
ĠN iche
Ġapp oint
ĠJ am
Ġem ulate
Ġrel ating
Ġsupp ress
arch itecture
sw er
ex ec
Ġ9 3
cl ick
ner gy
Ġmed itate
ĠIs land
Ġenv ision
Ġpres idents
Ġplat onic
Ġund irected
Ġrout ers
Ġscrew ing
Ġpat ron
Ġreview ing
Th ese
Ġcand y
inst ance
Ġindic ated
ĠUSB C
Ġgir i
ĠCheck er
Ġcompl aint
Ġinher ited
sole te
', '
Ġjack et
optim al
dis play
ĠMat thew
Ġcompre hend
ĠExpress ions
Ġjer k
Ġshuff ling
Ġdowns ides
Ġcalib ration
Ġresid ual
ĠPsych opath
Ġrectang les
Ġlifes pan
. '
a urs
d ram
e cost
t itle
Ġo led
Ġb ait
Ġf ade
Ġf uzzy
ic ations
Ġli ver
ig gs
Ġnot orious
ĠS uch
ĠC ivil
Ġlo ans
Ġneed le
Ġte aring
Ġpre y
Ġpre print
ens ible
ĠN ations
Ġpoint less
Ġdis pos
Ġthrough put
Ġret ired
Ġ8 1
Ġ8 4
Ġ8 7
ĠHe brew
Ġoptim um
sh ort
Ġmatch up
la ughter
Ġcond em
Ġfavor ites
ĠEx cept
Ġgrand father
Ġglo be
ĠCar ana
Ġcand le
Ġcatch es
Ġ199 8
Ġsquares pace
ĠSu ite
ĠFl ow
Ġhero ic
Ġsubtract ing
ĠCor rect
Ġrain bow
number phile
Ġll vm
Ġunre ason
Ġcree py
Ġtranscend ent
Ġgoof y
Ġinert ia
Ġade quate
V M
s k
y es
Ġb d
Ġb ail
Ġy ard
it ations
om on
Ġr anks
Ġcan non
Ġat tending
Ġdon ation
ĠT oday
ĠW elcome
pl er
ĠG ig
ĠG ree
ĠD I
Ġun ch
ĠF un
ĠE than
ari ans
Ġread ability
Ġequ ity
Ġext r
ĠV M
Ġreg ulate
Ġ7 50
Ġlog its
Ġwar ming
Ġwar fare
Ġsimilar ities
lt a
ĠIs n
Ġsubscri bing
Ġnews paper
Ġeth anol
ev sky
Ġspir its
Ġcred its
Ġprop ulsion
Ġbackground s
aly zing
Ġstre ak
Ġconver gence
Ġinstant iate
Ġacqu isition
Ġner ves
Ġreprodu ction
Ġhex ag
Ġoccup ation
Ġadop ting
Ġtoler ate
ĠBuild ing
Ġfragment ation
Ġcoca ine
L ook
c ence
e lement
g h
g les
nd ay
Ġb am
Ġc ue
Ġd ressed
Ġg ly
Ġin accurate
Ġli ability
ĠS ix
ĠS aud
ĠW ed
ĠM ethod
ĠH ill
ĠD ream
Ġpre de
Ġco ord
ĠE ff
Ġac compan
ft en
ak ers
Ġ6 2
Ġed ited
Ġve il
Ġimag in
Ġrest riction
Ġexpect s
Ġsearch ed
Ġstra in
Ġworth less
ipp y
Ġgrand mother
Ch ess
uff icient
Ġtransform ative
head ed
Ġreflect ions
ĠSome one
equ al
Ġtall er
Ġlabor atory
Ġtro ops
Ġpersist ence
Ġethiop ian
hed ron
Ġss d
Ġcollaps ed
redu ce
Ġflop py
Ġnv me
ĠLith uan
8 7
c ate
f p
i ques
Ġg ad
al ready
ct ua
Ġr age
Ġcon qu
ĠA T
art ite
ĠB al
ĠB oy
int elligence
ĠM is
ĠP T
Ġsp otted
ĠH ome
ĠD og
ĠD rop
ĠL R
Ġthr one
Ġgen esis
ful ness
Ġcomple tes
Ġ4 50
Ġsol o
Ġdefin ite
Ġremem bers
Ġide als
Ġblock ade
Ġ19 0
yn c
Ġgl ued
11 00
Ġunivers ally
fact ors
ĠOr igin
Ġball oon
Ġcat alog
Ġhost age
Ġexpand s
Ġnor ms
Ġcelebr ated
ĠOn line
Ġaim ed
Ġfish ing
Ġbind ings
init ial
build ing
ĠAb out
Ġastron omy
Ġjew s
Com p
bas ically
Ġflour ish
ĠGal ax
Ġesca ping
Ġvaccin ated
Ġthumbna il
F O
N e
c lient
e z
l ie
m ad
Ġb iden
Ġl ining
ar o
Ġe ats
Ġha w
Ġlike wise
st age
ge l
Ġout dated
Ġsu its
Ġlo bby
be y
Ġsp ider
ish i
Ġcont rary
ĠN ets
Ġthr illed
Ġ( )
Ġdis crimin
Ġinter ven
Ġhel ium
Ġcar pet
Ġcur ved
Ġspec if
az ing
Ġ7 4
Ġ7 20
Ġsw allow
Ġtool kit
Ġcontin ent
cent er
ask et
oph ren
Ġste ep
ĠEx per
ĠAn alysis
++ )
Ġinflu ences
Ġevol ves
Ġcru ise
head s
Ġdomin ating
Ġatmos pheric
icks ort
Ġincorrect ly
Ġmyster ies
Ġimmers ive
arg v
"" "
Ġry an
Ġsemin ar
Ġcraw l
Ġcommod ity
ĠEs pecially
Ġembra cing
Ġlogar ithm
ĠAra bs
- )
I nd
m ount
Ġa pril
ou ffe
Ġb s
it o
us sell
se ction
ch ool
Ġkn ees
qu ality
il ation
am ic
ĠS n
Ġout standing
ect ed
ide g
ĠD ar
ĠF ast
co very
Ġpower ing
Ġshow case
ĠV eg
Ġpass ively
Ġspace x
Ġfar mer
Ġworks hop
Ġwar n
pro p
Ġpres ume
uth er
Ġpodcast ing
ob ject
Ġmaterial ist
Ġindex es
Ġminim izing
str ong
amed a
Ġbur ger
Ġcritic isms
Ġhyd ra
Ġpray ers
Ġdecre ases
Ġreject ion
Ġupgrad ing
Ġpros per
Ġderiv atives
Ġsociet al
ĠCP P
uper vised
Ġspreadshe et
Ġmembr ane
Ġschiz ophren
Ġmund ane
e or
f ar
h og
s ure
t aken
w alk
Ġt icking
Ġc er
Ġl ows
Ġf t
Ġf rog
le arn
Ġr ant
ch annel
th ias
os ing
Ġup ward
ort ing
ĠG TX
ĠP et
Ġte nded
ĠD ec
na p
Ġcont ention
Ġbr itain
av g
lic ation
Ġcur vature
arch y
Ġ6 000
Ġoper ated
Ġgeneral ized
Ġshort s
pro per
Ġcomplex ities
Ġcompet itions
Ġinteract s
Ġstream ers
Ġpriv ately
Ġthread ing
Ġ25 00
Ġobser vable
Ġdream ing
Ġsus pended
Ġ199 7
ĠPl ace
year s
Be cause
Ġinvestig ating
Ġdisappoint ment
Ġlege nds
ĠKe ys
Ġacadem ics
Ġsettle ment
ĠRepublic ans
Ġrevers ed
Ġgee z
keep ing
Ġignor ant
Ġanthrop omorph
Ġfacil itate
Ġbol ts
Ġloy alty
Ġregist ered
Ġmex ico
fashion ed
b ots
c ult
c ases
e er
g ressive
j un
t ail
t ogether
z eros
} {
Ġs idel
Ġh ose
Ġd ent
Ġf ut
id ea
Ġne oc
ĠS olid
Ġle pt
int ense
Ġsp icy
Ġwork load
ĠD ub
Ġdis par
Ġsc arcity
Ġgen re
ater n
Ġbuild er
Ġsub conscious
Ġ" ""
po llo
Ġmiss ions
Ġra pe
Ġcult urally
Ġcontext s
Ġeth os
Ġda wn
Ġsell er
ĠFr ont
Ġpen ny
AT ION
Ġmut ations
ĠSim ply
Ġiron ically
ĠMar cus
Ġfetch ing
ĠSpe c
Ġpse ud
Ġapocaly ptic
Ġvolunt ary
Ġmaneuver ing
det ach
Ġnas a
ĠNPC s
Ġana conda
Ġlibert arian
8 1
9 2
h ots
Ġa qu
re move
Ġh arris
ic ians
ea ge
ra ged
im ag
um ann
ĠT ext
ĠB lo
ĠP A
ĠP attern
ĠR S
ĠR os
ĠN er
ĠN akam
Ġend urance
Ġmod ifier
ĠCh oice
li ers
Ġside ways
ex actly
Ġsk ull
Ġbus es
Ġ30 60
Ġconsider ations
rain er
Ġshoot er
Ġhur ry
ĠCar ol
Ġsyn thes
roll ed
ĠIsrael ites
Ġuns upervised
Ġmanip ulated
Ġmut ually
ĠLe go
Ġreward ing
ĠRes earch
Ġutil ized
Ġcircumst ance
Ġnegot iating
Ġsexual ity
field s
Ġ198 4
Ġneuros cient
Ġsingular ity
Ġprivile ged
Ġflour ishing
Ġresil ience
Ar ray
ĠDa ily
ĠHor izon
Ġcanon ical
Ġimpul se
prising ly
ĠAdo be
R O
c aster
f y
m r
n ostic
o ys
Ġd ave
Ġd war
Ġn im
ut ical
Ġre writing
ig i
ea u
Ġuh oh
Ġex cus
ĠS and
pl ess
ĠP op
ĠF ile
ĠK asparov
Ġtra ces
Ġob solete
ĠJ ones
Ġatt raction
Ġhand ler
Ġ8 3
Ġvari ability
Ġ19 00
ott a
rib ution
load ed
Ġspecial ize
Ġprin cess
Ġsequ entially
val id
Ġdisplay ing
Ġsat ur
Ġsat oshi
Ġsimpl istic
Ġglo ves
Ġarchitect ural
Ġsal aries
Ġsmo other
Ġax s
Ġburn s
Ġsymm etries
** *
Ġmart in
Ġflight s
ĠSer vice
Ġthin ner
