#version: 0.2
Ġ t
Ġ a
i n
h e
r e
o n
Ġt he
e r
Ġ s
a t
Ġ o
Ġ w
n d
i t
Ġ c
o u
i s
e s
o r
e n
in g
Ġ b
Ġ p
Ġ f
a n
a l
Ġt o
e d
Ġ m
Ġa nd
č Ċ
Ġo f
a r
Ġ in
Ġ d
i c
Ġt h
l e
i on
Ġ h
o m
a s
Ġ y
en t
l l
Ġ l
Ġy ou
u s
Ġ n
Ġ e
v e
r o
Ġ re
Ġ I
c t
Ġ g
l y
Ġb e
o t
u t
e t
Ġ is
o w
Ġ T
i d
Ġth at
u r
Ġ S
c e
a y
Ġf or
s t
i m
Ġ on
i g
Ġ A
Ġ C
at ion
â Ģ
a d
Ġ it
v er
c h
Ġ he
it h
a m
Ġw e
i l
s e
o l
Ġw ith
Ġs t
i r
Ġw h
Ġa n
i f
Ġ P
Ġ u
r a
Ġ M
Ġo r
Ġa s
er s
Ġp ro
k e
es s
Ġc on
Ġ B
Ġh a
Ġa re
g e
o o
i ll
m ent
at e
t er
he r
u l
a b
l d
ig h
r i
p p
Ġc om
Ġth is
' s
Ġs e
is t
Ġ W
Ġyou r
Ġd e
a c
es t
Ġ D
Ġe x
o re
Ġn ot
Ġ H
Ġ F
it y
t h
Ġ us
q u
us t
Ġw as
Ġ R
an t
p e
Ġs u
Ġa t
ĠT he
âĢ Ļ
Ġc an
i ve
igh t
Ġ r
a in
Ġ Ġ
r om
Ġn e
Ġ v
Ġ L
i es
Ġha ve
t e
re s
Ġs o
Ġ G
a nd
Ġ E
or t
Ġb y
o p
u n
Ġs h
o s
ar t
e l
Ġd o
u m
n t
e m
Ġ le
Ġa l
ar d
Ġf rom
Ġ k
Ġc h
o d
Ġa ll
Ġ N
re d
ou ld
al ly
al l
i v
om e
Ġ j
Ġ O
Ġ (
ou t
i e
ou r
Ġa b
Ġm e
u d
o c
Ġw or
g h
p er
o st
p t
Ġb ut
u re
ct ion
Ġw he
Ġa d
id e
r ou
Ġ 2
Ġthe y
Ġw ill
i al
Ġ 1
f e
Ġl i
k ing
in e
f or
a g
Ġp l
ic h
Ġ en
t her
p l
Ġg o
a ge
ab le
ic e
c c
Ġ âĢ
it e
in d
ver y
Ġo ur
a re
Ġli ke
as t
Ġ U
Ġu p
o g
Ġan y
Ġt r
Ġm a
Ġh is
an ce
oo k
Ġm y
Ġ J
for m
Ġthe ir
Ġ im
ion s
Ġo ut
ou s
at ed
on e
i z
e ar
n ow
ac k
Ġon e
im e
Ġcom p
Ġwh ich
ĠI n
Ġcon t
Ġh as
am e
i a
on g
an s
i p
Ġt e
er v
i b
Ġthe re
Ġm ore
a ct
oo d
Ġm an
Ġwh at
Ġc l
c l
Ġ if
Ġre s
ig n
Ġa pp
Ġ Y
' t
ation s
Ġk now
en ce
Ġab out
n e
a il
d u
s o
i re
ĠT h
Ġf e
as e
r y
t o
Ġwh o
Ġo ther
re e
k s
e p
Ġj ust
re at
Ġ2 0
ul t
Ġh ad
a ce
b er
Ġt ime
Ġu n
T he
Ġthe m
Ġd is
Ġm ay
ic al
Ġp er
u e
ar y
a p
Ġs a
ou nt
v en
as s
Ġa g
Ġ qu
f f
a ch
Ġn o
Ġhe r
Ġp art
Ġs ome
ing s
Ġal so
u b
res s
Ġof f
nd er
âĢ Ŀ
Ġwhe n
Ġa cc
Ġ K
ĠS t
Ġg et
r u
Ġs p
i le
o se
ay s
us e
or s
it ion
ve l
Ġt a
e nd
Ġ V
Ġim p
or d
ar k
Ġh ow
Ġbe c
Ġa r
0 0
Ġwe re
a v
x t
Ġr ight
o ve
Ġw ould
Ġp re
Ġpro v
Ġp e
Ġbe en
ĠâĢ ľ
Ġthe se
in k
b s
Ġs pe
on d
Ġo ver
ou gh
ic k
ĠC h
Ġin to
c k
Ġne ed
is h
ent s
Ġus e
w n
en s
ment s
Ġne w
rou gh
re n
it t
on s
Ġcom m
Ġe m
ou nd
a use
an g
Ġs he
Ġth an
c es
Ġh im
Ġs c
Ġ ro
at er
form ation
ĠW e
il d
ow n
ĠI t
u al
ic es
Ġa m
Ġ "
or y
l ic
Ġse e
op le
Ġin d
in t
Ġre c
Ġu nder
ol d
o v
Ġwor k
c ial
ĠĠ ĠĠ
e ct
Ġn ow
a k
Ġd es
i ous
' re
Ġad d
. .
ad e
Ġit s
le ct
o f
se l
Ġthe n
ĠH e
Ġhe re
if ic
o y
cl ud
ver s
Ġgo ing
Ġcon s
n ing
er m
o b
Ġpe ople
w e
Ġy ear
o ll
Ġon ly
ir st
Ġa ct
is e
r ic
Ġe very
Ġs erv
ĠTh is
at es
Ġw ant
c ess
Ġma ke
Ġa f
ers on
Ġwe ll
j ect
Ġwhe re
Ġin formation
ĠR e
it ies
il ity
Ġth rough
l p
Ġbe t
ter n
h ing
i an
fe ct
Ġre g
Ġd on
Ġ -
a h
? ?
on t
Ġ very
re nt
is s
Ġt w
he d
Ġhe lp
ro w
Ġex per
a w
u ll
Ġb l
l i
p h
at ing
Ġp r
Ġc ould
Ġin clud
f t
Ġsu ch
Ġ 3
ib le
Ġt ra
er t
i ence
f ore
Ġbec ause
Ġb ack
Ġw ay
ur n
Ġpro du
Ġf irst
ĠP ro
if e
Ġd if
an ge
ie w
in ess
f ul
Ġre p
ol og
Ġas s
Ġm ost
Ġre m
i ly
' m
Ġp h
Ġd id
at a
Ġsh ould
ri b
ĠY ou
t he
Ġg ood
Ġg u
u res
os s
Ġb u
t y
Ġ &
l es
g r
Ġsu pp
t ing
c om
Ġp erson
Ġin v
it ed
c ed
Ġe ven
rou nd
Ġb o
Ġth ink
ĠA nd
Ġc ol
Ġ ke
am p
Ġ ent
ic s
pe ct
u ch
Ġsa id
Ġp o
Ġl ook
Ġre l
s s
Ġre qu
Ġtw o
m er
Ġf l
y s
Ġo wn
Ġ [
at h
Ġs y
ĠC om
Ġse c
ri v
Ġin te
us iness
Ġin c
ow er
e w
Ġc o
Ġs et
Ġd own
Ġle t
sel f
ul ar
he n
ĠU n
an y
Ġag ain
Ġ i
g et
w ard
ra ct
Ġe v
en er
u ally
Ġin st
id ent
c i
al th
Ġa c
Ġman y
ur ing
Ġpl ay
ĠI f
r it
at ive
om et
ot h
oc k
t s
i ed
Ġ20 2
Ġg reat
- -
l and
Ġaf ter
al s
it s
Ġprov id
ation al
Ġdo es
c y
ch n
Ġs ay
Ġtr ans
Ġdif fe
h ip
as ed
ot her
Ġth ose
st em
Ġs m
l ine
Ġm uch
Ġta ke
p s
Ġm od
Ġp ost
Ġre ally
ĠS e
Ġp ur
Ġu h
Ġin s
Ġf in
a ir
Ġm ade
Ġbe fore
Ġf ind
n g
Ġl ong
ĠW h
vel op
ĠF or
Ġyear s
Ġ ra
Ġto o
l ed
Ġh igh
Ġsu b
n ess
Ġbe ing
Ġwe bs
at or
ar ch
b le
u nd
Ġd ata
ag es
Ġwor ld
he s
Ġbe l
ark et
) .
Ġst art
ce pt
Ġha nd
ust om
b e
Ġg ot
Ġat t
Ġc re
n er
Ġb usiness
i ent
ction s
g an
itt le
ĠâĢ ĵ
Ġde c
Ġus ed
Ġre ad
re st
Ġre t
Ġpro cess
Ġl ife
Ġs omet
Ġc ar
a ve
Ġe nd
Ġc all
ol ut
o ol
Ġprodu ct
ĠA n
Ġv is
Ġb r
le ase
Ġo pt
Ġd et
m in
Ġth ough
Ġfor m
al ity
Ġst r
Ġex p
Ġa v
Ġ 4
w ay
ĠD e
Ġy e
ĠA r
Ġd ay
Ġp res
Ġc he
I n
us ic
oll ow
Ġa ut
ic t
ion al
Ġs im
iz e
Ġst ud
at her
st and
Ġto p
Ġl ittle
Ġs ign
Ġdis c
Ġb est
ist r
Ġin ter
Ġn um
. "
Ġad v
iv es
d er
T h
en e
Ġdiffe rent
Ġ 5
te xt
Ġl oc
Ġdes ign
ub lic
E R
Ġsy stem
Ġth ings
ar m
ou se
Ġo b
Ġwh ile
l ess
d ay
e ver
Ġacc ess
Ġwebs ite
od y
ĠS h
Ġs ur
Ġcom e
iz ed
Ġpro f
Ġf un
or k
an k
Ġfe el
Ġde velop
u p
ĠĠĠĠ Ġ
Ġsh ow
i o
Ġcomm un
Ġo p
Ġh ome
t en
Ġ ed
Ġte chn
in es
Ġv ar
Ġm on
Ġbo ard
Ġm et
Ġwith out
olog y
Ġe ach
al e
Ġc are
th ing
Ġar t
ĠA d
Ġ1 9
Ġimp ort
Ġcomp le
ol ic
Ġye ah
Ġ20 1
Ġre f
Ġp ass
Ġexper ience
Ġf ollow
Ġsupp ort
it al
Ġg l
Ġv al
) ,
Ġle ad
f fect
Ġs ame
we en
Ġha pp
Ġch ar
Ġm ed
re ad
a z
v ing
Ġm ust
Ġc ustom
Ġc ur
Ġall ow
Ġm in
u es
ĠI s
Ġc our
k es
ire ct
er g
a ke
Ġst ill
Ġl ist
Ġapp ro
Ġl ot
er ing
Ġc ount
' ll
w ays
Ġf am
et y
a u
ĠA s
at ure
Ġe ar
Ġs l
at ch
i x
Ġg r
gr am
Ġus ing
Ġp oss
ic ally
v iew
ou n
er n
Ġc le
y ing
Ġre al
Ġres p
ĠB e
as h
p le
Ġbet ween
Ġm arket
Ġsomet hing
ro l
Ġm em
Ġg ener
' ve
ert ain
ĠN ew
Ġ |
Ġprov ide
en se
Ġk ind
i vers
ri end
im es
in s
Ġe as
W e
of text
< |
| >
end oftext
in ce
Ġc or
Ġserv ices
Ġpart ic
as on
Ġspe c
e red
Ġt y
Ġs k
Ġm ight
ar s
am es
i red
Ġb oth
Ġre ce
Ġpl ace
ac y
Ġf ound
Ġhe alth
w are
Ġcon f
Ġl aw
erm s
ĠB ut
Ġinclud ing
Ġpo int
ĠA l
ĠA ll
v ent
ĠS erv
al k
min istr
Ġp ut
Ġde f
Ġex t
ate g
ort s
Ġke ep
Ġa round
Ġch ild
m s
i qu
o ver
Ġu m
ĠL e
ĠE x
Ġperson al
ab ility
Ġe ffect
oo king
Ġunder stand
Ġwith in
p r
ir d
c on
Ġc ook
ur al
ro ss
ant s
Ġf ull
ra nd
ĠC l
Ġinte rest
ch ool
l ing
Ġd ist
v ed
Ġth ing
u c
Ġle g
Ġl ast
Ġp ay
in ing
W h
ĠThe y
rib ut
et s
iv id
Ġm ain
ent ial
Ġex pl
p os
Ġcont in
Ġs er
Ġf ree
k ay
o ad
Ġle ar
Ġsh all
ĠT e
m an
Ġo h
I N
Ġg ive
Ġne ver
Ġwh y
v es
Ġme an
t on
Ġres ult
iv ing
Ġte am
ail able
rou p
in ed
g g
Ġf act
Ġserv ice
Ġpro per
i er
Ġal ways
he re
a red
Ġ $
Ġimport ant
Ġl ove
ĠT o
Ġnum ber
n ot
Ġp ower
a ut
Ġin f
Ġan other
Ġth ree
Ġo kay
Ġen s
ff ic
cc ess
, "
Ġqu est
Ġon line
ĠH ow
t t
ĠG od
E S
Ġact ually
Ġb ook
is hed
2 0
O N
ĠP l
i en
Ġst ate
it ions
pe nd
ĠT r
Ġsu re
ĠI nd
Ġw r
Ġad ministr
Ġf r
Ġinv est
Ġp at
Ġor der
Ġacc ount
Ġst and
ie ld
Ġ ide
Ġop en
Ġbet ter
Ġb ro
Ġl ar
is m
od e
ate ly
at t
Ġr un
Ġin t
Ġpro te
Ġper form
Ġo ld
Ġne xt
Ġre st
g in
Ġbu ild
m e
is ion
Ġ 6
h or
c ing
re t
en g
ĠO n
oc i
Ġpl an
us s
Ġd uring
age ment
b ers
Ġen g
Ġis s
er y
?? ??
Ġle vel
ĠC ont
Ġor gan
mer ic
one y
Ġav ailable
Ġg ame
Ġab le
ivid ual
Th is
Ġch ange
Ġcomp any
r on
Ġpro gram
Ġma king
e ll
ĠR es
Ġem ail
Ġbel ie
Ġ '
ist s
Ġo pp
ight s
ra ph
Ġsm all
ric t
o ot
Ġ1 0
s c
ĠB l
pl oy
Ġp rom
t ain
.. .
Ġ Q
Ġus er
Ġn ame
Ġw ater
Ġfe w
M usic
Ġc as
ru ct
iss ion
if ied
Ġ est
ir on
Ġd irect
el s
Ġf riend
ĠS p
Ġe qu
ĠS he
if y
Ġcon st
in a
Ġo per
id er
Ġb ig
Ġhe ad
Ġind ividual
Ġoff er
Ġe l
Ġcont ent
Ġinc re
Ġp os
c o
b r
ivers ity
A T
at ter
ort un
Ġc reat
Ġapp lic
Ġcon d
Ġc ost
ater ial
Ġh um
le t
ĠC on
Ġpro ject
p or
Ġc ertain
Ġb as
iz ation
Ġp ract
Ġag ree
it es
Ġas k
m ed
Ġprof ess
Ġg row
ĠA meric
Ġv iew
Ġpro ble
ab ly
O R
Ġa way
Ġch ang
Ġcook ies
ĠThe re
olic y
om m
r ist
ĠT H
Ġp ublic
ou th
ur ity
ĠP h
A N
Ġret urn
or n
Ġs ite
Ġcont act
Ġbe h
Ġc a
Ġwor d
Ġadd ition
Ġh ard
Ġimp ro
Ġcre ate
e x
is ing
00 0
ĠS o
ĠW ith
Ġspec ific
Ġl im
Ġtr ad
Ġw om
Ġ 7
Ġd i
r al
Ġus ers
ĠM an
a x
u g
Ġadd ress
Ġ Z
in o
ut e
ren ce
em s
ri pt
Ġte ll
ent ly
ent ion
re en
Ġp riv
Ġcon ne
ĠS c
te m
it her
Ġd ays
le ction
Ġb re
Ġj o
Ġt urn
Ġc ent
w w
Ġup on
Ġ ident
re am
Ġf il
ĠThe se
Ġc ase
Ġt est
le ment
ĠCom m
A R
is ed
i or
op y
Ġagain st
Ġof ten
. âĢĿ
e k
i ents
Ġproduct s
Ġfam ily
c u
l ish
ĠJ o
Ġre se
Ġ ve
Ġposs ible
Ġc ap
or m
Ġ202 4
or ies
p art
Ġm ove
iv ed
amp le
n a
ot e
iqu e
Ġ 8
at ures
ne y
Ġcour se
Ġcon c
E N
Ġl ooking
Ġvis it
Ġmon th
w ork
Ġl ess
k en
a im
ene f
i pp
iv en
Ġ es
Ġv ide
ard s
Ġdo ing
p ort
Ġsec ond
ĠY our
Ġp ot
Ġme ans
Ġm ind
v iron
Ġb it
Ġm aterial
Ġde m
i um
ĠC ol
Ġm oney
Ġst ore
Ġcl ass
it ive
Ġl and
Ġin tern
or th
Ġind ust
ĠN o
Ġm ar
Ġc r
s er
a king
e c
Ġm ov
as ter
ĠC an
Ġ 9
Ġde v
ain s
Ġh ouse
t ed
ĠCom p
ill s
du ct
ic le
Ġo cc
o or
I T
Ġm en
oc us
in ation
Ġl og
Ġt ri
ur y
Ġact iv
Ġd one
Ġw ar
Ġspe cial
o ice
b o
in al
ut ure
Ġtr y
er r
a it
g er
Ġpres ent
Ġneed s
Y ou
Ġl ight
Ġrequ ire
en cy
Ġf ac
Ġs ince
Ġe ver
al y
Ġon ce
ver n
Ġsu ccess
o pe
Ġd ra
ĠE ng
Ġcont rol
Ġadministr ator
f ter
olut ion
Ġdet ail
an cial
Ġwor king
Ġh ist
Ġc ame
Ġresp ons
Ġha ving
Ġe y
Ġthough t
Ġto day
e ad
Ġpartic ular
Ġcur rent
Ġso ft
Ġp op
Ġp ar
Ġm om
ĠWh at
ĠF r
ib ility
ward s
ĠM ar
p ro
an ces
Ġu nt
Ġme et
Ġ20 0
a pp
j oy
Ġle ft
Ġdid n
get her
Ġp a
Ġto gether
Ġe lect
s h
Ġfun ction
our s
Ġgo vern
d e
read y
Ġro om
Ġh old
Ġa ir
an n
A L
Ġwor ks
u red
Ġlear n
id d
Ġb ased
ar ing
Ġth ird
I t
ur ther
Ġb enef
Ġr is
h od
Ġche ck
Ġt erms
/ /
r ight
viron ment
le y
u ro
Ġre ason
Ġs ide
g ed
1 0
Ġp ol
Ġt re
um p
v ious
I f
Ġevery thing
im ate
Ġqu ick
ĠU S
Ġcomple te
Ġm ult
Ġm ess
b y
Ġt reat
te nd
con om
u ck
Ġbec ome
Ġqu ality
ĠP r
Ġem ploy
Ġcall ed
ri es
Ġw ent
Ġpur ch
ĠM r
w h
Ġhapp en
s ide
Ġty p
Ġs w
Ġal ready
Ġso cial
ra p
at ors
Ġper fect
Ġs chool
Ġt imes
c rib
Ġapp ear
Ġf ore
I C
Ġf ocus
Ġex ample
a i
I S
Ġp ri
ĠS u
f er
Ġde al
Ġp age
m ost
ĠCh rist
ot t
Ġg roup
Ġf uture
Ġf our
Ġsp ace
ot s
are nt
ĠM ed
Ġac ross
a pe
ĠO ur
Ġke y
Ġs ing
ĠO r
Ġchild ren
e e
Ġen ough
ĠUn iversity
Ġfollow ing
Ġne cess
Ġlar ge
Ġcommun ity
Ġto ol
Ġf ar
Ġde li
E D
Ġte xt
ne w
Ġhe art
pl ay
Ġaut hor
Ġeas y
c ript
ver t
Ġare a
ĠB y
at s
le v
Ġp ain
Ġbe aut
o int
ull y
Ġcount ry
m b
Ġvar i
al f
Ġrequ est
Ġcan not
Ġl ive
Ġrep ort
res ent
is ter
Ġen joy
Ġrese arch
Ġma kes
ic ation
Ġex pect
Ġb ody
y le
ob al
Ġwho le
ĠC ent
at form
Ġal ong
Ġ ess
Ġother s
Ġd ri
Ġw in
ir l
Ġoff ers
Ġloc al
Ġinclud e
Ġn on
an e
Ġst ep
Ġget ting
ent al
Ġfe atures
ĠR ep
ĠW hen
Ġyou ng
Ġcom es
Ġ =
Ġse arch
oo se
id s
Ġp lease
Ġev ent
Ġt em
os ed
H ow
ro om
Ġf ood
Ġcol lect
Ġopp ortun
us h
ig ital
il ities
em ber
Ġdoes n
Ġprovid ed
al es
led ge
Ġ Â
b ody
Ġcomp an
ĠA t
Ġy et
ĠServ ices
Ġd r
Ġwhe ther
Ġprote ct
Ġan n
Ġre view
u ff
ĠE n
Ġbr ing
âĢ ľ
ĠC ar
Ġvide o
at ic
Ġsign ific
Ġper m
cl us
Ġens ure
Ġcle ar
ĠUn ited
Ġde l
âĢ Ķ
Ġpro b
ĠG u
Ġne ar
ver al
Ġw rit
au gh
Ġn et
Ġchar act
ĠTh at
) ;
Ġl ine
C h
Wh at
l f
Ġvar ious
Ġch all
Ġre du
Ġhum an
Ġrec omm
Ġl ink
Ġrecomm end
ĠIn tern
n ers
Ġstr ateg
ive ly
our ces
n et
id es
on y
ill ion
S t
Ġc ult
Ġed uc
ag ing
Ġta x
Ġs it
Ġf ace
i od
ĠF l
Ġsub ject
og n
Ġright s
p ar
1 9
am b
Ġdevelop ment
Ġmet hod
Ġindust ry
at ural
Ġbelie ve
Ġ1 8
Ġnot hing
Ġstr ong
Ġrec ord
if t
id ence
ain ed
c hed
Ġ /
ro p
Ġleg al
Ġsh ort
Ġinv ol
? "
ĠN e
sel ves
Ġs ol
ow s
Ġp ast
: //
itt ed
Ġd am
Ġopt ions
Ġunt il
Ġen vironment
c hes
Ġbe gin
Ġknow n
Ġt alk
Ġsh are
Ġmem bers
Ġse veral
Ġtoo k
ac es
Ġval ue
Ġl a
ĠHow ever
B B
ver se
c le
Ġdo cu
or ing
Ġor ig
Ġcons ider
Ġcom pl
Ġquest ion
ĠS y
Ġimpro ve
Ġany thing
Ġw ind
erg y
Ġproper ty
ci ally
as es
Ġ 0
Ġ vers
Ġg iven
ll ing
f ully
Ġrel ations
ĠA g
ific ation
s w
Ġse en
Ġb rand
Ġup d
Ġf ield
ĠD ist
Ġc ra
O U
Ġtechn ology
ang u
i k
Ġl ater
Ġh ig
Ġt al
A S
n ov
an ced
our ce
Ġw ait
Ġph ys
Ġman agement
f ort
ĠA pp
Ġn ight
Ġle ast
Ġc red
ap s
og raph
Ġf urther
ul ation
Ġun ique
ĠA m
Ġsec urity
Ġab s
ĠC o
c ent
erv ed
h n
il i
ĠServ ice
Ġs ays
Ġcl ose
Ġa ud
Ġfin ancial
re ct
Ġst ory
ĠâĢ ĺ
Ġsoft ware
ill ed
il t
Ġpl atform
Ġcom b
Ġam ount
ĠA ss
l oad
ĠA N
Ġent ire
Ġsignific ant
ĠTH E
Ġcomm on
ut es
ĠIn st
Ġam ong
ri ed
Ġg ames
Ġse nd
Ġsu per
Ġf und
w ord
ĠSe c
ab or
ra in
Ġsome one
u ed
g le
ĠM y
ĠP lease
on es
R E
c he
c ome
Ġp ort
Ġcle an
Ġproble m
, âĢĿ
Ġb row
Ġst ay
j or
g es
Ġprofess ional
as ing
Ġc e
Ġ {
Ġs ent
Ġnew s
Ġen c
re w
Ġperform ance
Ġf re
l ished
5 0
it er
Ġr ange
z e
Ġexper ien
Ġe ither
Ġen ergy
Ġimp act
Ġcompan ies
Ġresult s
Ġqu ite
d d
Ġl ow
Ġstud ents
ĠIs land
i ans
Ġe t
iz ing
A s
Ġbu y
ĠI m
os p
Ġsu bs
ĠD is
Ġre pl
_ _
Ġj our
a ff
Ġty pe
Ġper iod
Ġp ress
ce ll
Ġc ou
Ġ X
Ġen h
ĠE m
p ose
Ġac cept
p BB
Ġhow ever
Ġ .
ch ie
ic ated
Ġp ie
Ġreg ard
. ,
o le
ĠW or
Ġpr ice
il ar
m y
Ġc al
Ġs ound
s y
Ġwe b
Ġpre vent
ĠD o
i ke
Ġj ob
el t
in king
ĠSt ates
Ġyour self
Ġprob ably
opy right
Ġcl aim
ĠD es
b ook
IN G
Ġmom ent
l t
H e
Ġpart y
ĠT ra
Ġpot ential
et h
uro pe
for d
Ġpre t
Ġse em
Ġtr ying
en n
Ġdisc uss
Ġm atter
ir m
Ġel se
p ly
f act
Ġcons um
Ġrequ ired
n am
A C
a f
Ġres pect
Ġass oci
ore d
o x
Ġe ff
Ġrep resent
Ġph ot
S h
Ġexp ress
ord ing
Ġris k
av or
Ġsa fe
Ġinst all
Ġe conom
l u
Ġtr ue
Ġhim self
Ġcomp et
ber g
Ġ z
Ġ1 2
Ġm il
ĠAr t
Ġse lf
ur s
Ġal most
Ġrece ive
Ġwe ek
Ġs at
ip s
Ġoff ic
Ġprovid es
Ġnecess ary
Ġrelations hip
u ation
Ġdet erm
Ġex ist
Ġa ge
i res
ar r
Ġw atch
Ġconne ct
Ġex c
Ġme as
Ġwom en
Ġ3 0
Ġde pend
Ġcustom ers
olut ions
Ġy es
Ġc ir
l er
ad a
v al
Ġdif f
Ġd ue
Ġide a
Ġpret ty
Ġcond itions
Ġgovern ment
ĠAmeric an
Ġstart ed
A n
Ġh ope
âĢ ¦
ĠL ord
Ġcustom er
ud e
Ġc ut
Ġiss ues
Ġm or
Ġbel ow
T o
ĠSt ate
I D
Ġf ive
fe rence
ur ance
a pt
Ġfriend s
pe cially
in c
ic ult
1 1
i ally
ĠN ot
Ġma jor
Ġcom ing
ce ed
Ġpriv ate
le x
a ur
ĠG l
Ġin it
Ġhist ory
ĠP art
ct or
Ġass ist
Ġmay be
ĠâĢ Ķ
Ġquest ions
Ġsing le
al t
ur ch
Ġm usic
b it
Ġse lect
h ib
med i
pl es
is on
ĠF in
Ġc ity
o pp
Ġta king
Ġg ra
ro du
ĠDist rict
o id
p ri
ro ll
g o
Ġpri or
Ġind e
Ġknow ledge
Ġmed ia
Ġbl ack
Ġh on
ir t
Ġob ject
Ġsa w
Ġn atural
Ġe ffic
Ġb ad
a ction
un e
ru ction
ĠS te
ir it
ĠT erms
ip le
Ġc rit
if ul
ĠRe g
Ġde ep
Ġp ub
Ġt erm
Ġco ver
Ġpos ition
Ġst at
Ġab ove
Ġc amp
Ġchang es
Ġear ly
s on
ĠE urope
Ġfor um
I ON
ĠB r
Ġp ack
w here
ar get
Ġg irl
Ġl iving
as k
Ġst e
Ġmonth s
om es
ĠO ne
ĠM e
Ġword s
R e
Ġp olicy
Ġf all
ag ed
ul es
Ġs ense
Ġaut om
u x
Ġappro ach
ĠP riv
Ġv ol
it ing
Ġprovid ing
i ol
Ġ #
Ġh ours
ĠO F
Ġsystem s
Ġh y
um b
us ed
Ġw ays
w ise
Ġb ar
Ġmain tain
Ġ ut
1 2
Ġm ot
rou ps
g u
ĠĠ Ġ
Ġbuild ing
r ation
c er
ĠC al
Ġrece ived
ĠPro ject
ear ch
Ġch oose
th ough
Ġ }
g ing
Ġa ction
he ad
F or
st er
ĠHe alth
Ġest ab
âĢĿ ,
Ġcharact er
Ġl angu
ition al
Ġcomp ut
Ġtop ic
Ġan t
Ġtr ust
Ġph pBB
Ġey es
b el
Ġan sw
ĠE d
ĠI N
u fact
! "
ĠJo hn
Ġes pecially
Ġit ems
Ġdiff icult
Ġpartic ip
Ġa chie
Ġ1 5
o on
w or
tt ps
Ġsu m
Ġrec ogn
ren ces
g y
Ġf ail
Ġc oll
Ġd ou
ĠS outh
un ch
ĠF e
Ġta ken
and s
Ġto ld
Ġso on
Ġt able
Ġevery one
Ġw ond
Ġf ire
ov ed
ro wn
Ġcont ribut
Ġh alf
ĠC ons
Ġd est
r ant
Ġo bs
Ġopt ion
Ġdesign ed
E C
Ġr ather
re m
ĠG e
Ġrem ember
itt en
ut en
Ġrel ated
Ġw on
at ory
re et
Ġp ers
Ġgener al
Ġcom fort
W hen
Ġcl ick
A M
it ut
Ġst ruct
Ġtra vel
Ġl ay
Ġdetail s
p ut
Ġpost s
is es
Ġchall eng
g ress
Ġb ed
er c
it or
Ġd igital
Ġsim ply
Ġare as
Ġm ag
ĠC ity
' d
Ġpur pose
Ġma ch
Ġess ential
al ys
er al
or g
Ġins ide
ens ive
ĠS chool
ĠA b
Ġro le
Ġsim ple
ĠP olicy
Ġh ot
h old
Ġl ic
Ġmarket ing
Ġtra ining
il le
Ġs ort
ĠQ u
Ġtool s
Ġv ia
Ġt ou
gg est
Ġ1 00
Ġd ate
Ġe le
Ġmod el
ĠC or
Ġle ave
in ks
ad es
o k
Ġdocu ment
Ġset t
u ly
Ġto t
Ġread y
ĠD r
ĠP ar
Ġsim ilar
ĠM in
Ġw ide
b ack
Ġit self
Ġex act
o ke
Ġdef in
re g
ĠIn c
ĠH is
a ult
ĠA I
ac ed
ĠA f
ĠC ount
Ġsay ing
Ġlear ning
Ġex cept
ob ile
Ġst op
f ace
re me
r ing
Ġinclud es
ove red
um e
2 4
Ġfr ont
Ġex am
ĠN orth
Ġf ather
Ġpop ular
Ġcre ated
Ġhand s
Ġf oot
ĠP er
oo gle
Ġbeh ind
s ing
Ġindividual s
itt ing
Ġl oss
Ġstud y
ron ic
un g
Ġcontin ue
ou l
Ġp le
Ġg round
Ġsub m
ad em
Ġc ard
Ġeng ine
ĠG ener
Ġlong er
Ġbre ak
ach ing
Ġde ath
ut h
ou d
Ġev ents
ren g
Ġn ature
iss ions
Ġpol it
Ġta kes
Ġwant ed
an a
Ġaddition al
iv ity
ĠĠĠĠ ĠĠĠĠ
Ġconc ern
Ġwh ite
ic ro
Ġpre p
ĠC O
Ġout side
ĠComp any
Ġinte gr
b t
Ġlaw s
Ġbeaut iful
ist ic
ĠSt ud
Ġquick ly
ĠL aw
Ġapp ly
I L
Ġet c
ict ion
ri e
i et
ust ain
R O
ĠA ct
Ġs le
rough t
Ġg en
Ġim medi
The re
3 0
her s
l ight
ĠK ing
an el
is ions
Ġem b
Ġaf fect
it ation
Ġthem selves
ag er
Ġcred it
k l
Ġcons ent
Ġgu ys
y ond
Ġask ed
Ġgrow th
h a
Ġsu ggest
Ġa ff
ĠF rom
id ed
Ġ1 1
olut e
Ġus ually
ab les
Ġw alk
Ġn ice
Ġext ra
m ber
ĠM ay
an ks
en ing
Ġm illion
Ġp arent
ĠY ork
m ing
Ġd om
ain t
Ġdist ribut
Ġc ode
ie f
Ġre d
Ġcor rect
Ġab ility
Ġunderstand ing
ĠC he
t ime
in ary
ĠAd d
ĠB u
Ġan aly
olog ical
Ġgl obal
Ġcont ract
Ġbo x
av ing
ra el
n ed
O T
Ġve h
ĠTe chn
j ust
Ġsa f
Ġfor ward
E T
Ġallow s
Ġneed ed
Ġthan k
Ġreg ul
air s
Ġtreat ment
Ġco ol
Ġhig her
Ġc ause
Ġincre ase
Ġf ast
er ve
t m
n al
i ance
Ġdirect ly
ou ra
Ġnot e
Ġis n
Ġlook s
Ġcas ino
ĠB ar
Ġor d
Ġpr int
Ġacc ur
Ġto wards
Ġin nov
ĠA ut
x im
Ġwom an
Ġcl ients
Ġs ize
Ġoff ice
ĠB o
Ġne g
Ġhe ard
Ġeffect ive
Ġspe ak
Ġhe ar
Ġdown load
alys is
Ġappro pri
ĠPriv acy
1 5
us es
E L
uten berg
Ġdo or
r am
nd s
d om
Ġcont ain
Ġs ix
Ġp ick
v est
p re
Ġv iol
Ġm iss
ĠA ust
le ge
Ġexper t
Ġgo es
Ġf it
Ġf ig
Ġ err
Ġpurch ase
i am
Ġmaterial s
.. ..
Ġs il
Ġk new
O n
e es
Ġnot ice
Ġany one
Ġproble ms
tem pt
Ġdis play
Ġhe ld
Ġlike ly
Ġt arget
ĠB usiness
Ġ ill
pos es
ĠS ome
im al
ĠO f
Ġdra w
ic les
Ġrespons ible
Ġwr ong
P ro
Ġst reng
Ġcreat ing
ĠWor ld
Ġwrit ing
pt ion
o ber
ĠW ill
ĠCh ar
Ġent er
U S
Ġh ost
is f
Ġdes crib
Ġlim ited
Ġlangu age
Ġc oun
Ġre v
Ġim m
Ġactiv ities
Ġadd ed
it ch
Ġs ens
ar i
res h
Ġmy self
Ġcomm it
Ġf avor
Ġst uff
Ġim age
Ġopportun ity
ĠIntern ational
ac hed
c ul
ĠD ep
c ast
1 8
Ġm other
op s
u ge
ic ations
Ġhapp y
th at
c king
Ġd a
Ġinf lu
ĠCont rol
Ġst aff
A ll
ar ant
Ġwr itten
Ġmin utes
( '
Ġst yle
Ġpract ice
ers hip
un t
Ġtyp es
Ġim ages
Ġd ed
ig ation
Ġbenef its
im ited
Ġreg ular
Ġk ing
ip ment
ec ut
Ġsaf ety
Ġad vert
Ġ ????
Ġw ish
id ge
h aps
as ons
Ġplay ers
A nd
Ġthrough out
Ġsk ills
Ġl at
s u
Ġc ru
ess ion
ww w
cript ion
Ġeduc ation
Ġorig inal
ĠA fter
Ġinvest ment
ĠP e
on na
Ġapplic ation
ar a
Ġw all
ra w
en ces
Ġpre vious
ĠH er
ist ered
ast ic
Ġcol or
Ġmod ern
ĠM ore
ĠS m
er ous
ed d
f l
ak es
Ġc ell
ĠT w
Ġch oice
Ġre li
Ġassoci ated
Ġbu ilt
on se
Ġ ]
Ġatt ention
Ġca pt
Ġb rought
ĠO ff
ĠA cc
Ġocc ur
w ith
ĠTr ans
Ġdec ision
Ġf elt
ĠS pe
Ġf ight
Ġsp irit
Ġse ll
Ġinst ead
U n
Ġag o
Ġb al
Ġpur poses
Ġc y
r ay
Ġ1 6
Ġn or
ĠU ser
Ġcomple x
he t
at ives
Ġsu n
Ġrun ning
Ġse ason
Ġs we
ĠComm un
iv al
Ġvari ety
ic king
Ġinst ru
Ġin form
Ġjour ney
g est
Ġrequire ments
is c
EN T
ĠH igh
it le
Ġh or
Ġm ass
Ġiss ue
Ġabs olute
le br
ĠAN D
A P
ĠWh ile
Ġ19 9
it c
Ġb ur
ab y
Ġs olutions
A r
ĠM on
Ġbrow ser
Ġfin al
Ġser ies
e al
B y
st r
g round
b all
Ġman ufact
ĠO R
ate ver
fe rences
li ke
ĠG roup
Ġd ark
m a
ĠB ro
u z
am a
Ġsomet imes
fe red
Ġc ateg
ĠIn formation
Ġres ources
Ġatt ack
Ġwor th
Ġcas es
Ġcol lection
an c
Ġmed ical
Ġs on
g s
ĠM arket
Ġex cell
U R
Ġ1 3
ill ing
an cing
Ġpa per
Ġwe e
Ġprom ot
B ut
Ġcost s
Ġb ott
Ġcon vers
Ġp ict
Ġdeli ver
Ġmult iple
Ġst ri
Ġ5 0
Ġ ver
Ġacc ording
Ġbusiness es
Ġeas ily
Ġann oun
ad d
Ġj ud
Ġ1 4
Ġphys ical
en ed
1 4
Ġpr im
Ġg ave
Ġdri ve
Ġcon duct
ĠN et
Ġro ad
Ġob tain
ad y
Ġmem ber
Ġl ives
Ġfe ll
Ġpass word
pp ed
or age
Ġn av
ĠV al
Ġbl ood
Ġpay ment
Ġrem ain
ĠIsland s
E O
Ġl if
ĠN ational
idd le
ĠK e
Ġb i
Ġbec ame
Ġl iter
ir ing
Ġth inking
ĠS w
Ġm ention
Ġenh ance
ĠN ow
Ġhelp s
v is
az ing
sy ch
1 3
Ġp ath
Ġ2 4
Ġlook ed
ĠA c
ĠE l
Ġat tempt
b ased
Ġtra ck
Ġbe gan
olog ies
Ġr ate
Ġlead ing
o es
Ġso ci
ar ies
Ġr ad
ĠC our
ĠAf ric
Ġplay ing
c ks
ĠIs rael
Ġpart s
Ġansw er
Ġtou ch
Ġem ot
Ġcond ition
S e
est s
o ly
O S
Ġse ction
Ġappropri ate
Ġg onna
C l
Ġr ound
Ġnet work
Ġl o
h ood
Ġl ost
re l
Ġst ra
Ġspe nd
h am
Ġf air
Ġ __
ic a
Ġcir c
ĠG oogle
Ġhigh ly
Ġtal king
ch an
il s
Ġpre c
} }
Ġintern ational
ur g
Ġbe yond
Ġse ems
Ġimp lement
Ġ202 3
er a
Ġes c
Ġmod er
Ġlevel s
und red
ren ch
Ġpart ners
Ġcour t
Ġspe ed
A D
u el
Ġd iv
Ġother wise
Ġl ower
Ġn orm
Ġm is
Ġth ous
1 6
Ġfe ature
Ġwond er
Ġdam age
Ġg e
ĠT O
Ġproject s
pl ace
m ore
k er
se qu
O ur
hen s
Ġg roups
ipp ing
Ġde g
Ġsec ure
it ute
Ġsa ve
m on
ar ily
Ġgr ant
t ies
it ary
Ġde ad
bel a
Ġcomput er
ĠD ata
Ġim ag
ĠW est
u le
Ġprocess ing
Ġbut ton
Ġs olution
Ġs old
ite ly
Ġs ales
Ġcount ries
ĠEng lish
op h
Ġon es
kl as
Ġa klas
Ġaklas bela
over n
Ġloc ation
ĠDes ign
he l
1 7
m ar
Â ©
ol id
et er
he ther
b l
Ġse par
Ġs us
Ġoff ering
Ġe p
att le
ĠRe al
Ġfe ed
ac hes
ĠInd ia
Ġexact ly
Ġcl os
Ġb oy
Ġlat est
o om
Ġb ase
ĠAmeric a
Ġar ch
Ġart icle
Ġde p
Ġinterest ing
Ã ©
Ġmor ning
Ġd ream
Ġins p
Ġs qu
t ers
Ġp red
Ġf ine
Ġallow ed
Ġsk in
Ġgu arant
Ġex erc
Ġl ab
L E
b or
Ġt er
Ġa ware
ly ing
A l
Ġprodu ction
ĠIn s
Ġbeh av
Ġpos itive
A pp
Ġh it
Ġsat isf
c are
ĠP res
Ġus es
Ġint rodu
Ġs ustain
z y
Ġf ile
Ġwh om
ĠP a
Ġto wn
Ġav oid
Ġide as
Ġre lev
k y
her n
m en
Ġrem ove
am ing
it able
Ġcou ple
Ġimmedi ately
o ff
ĠP ark
ĠPro f
Ġwh atever
Ġfeel ing
id ing
Ġ1 7
ra ft
Ġpie ce
ough t
2 5
du c
Ġpoint s
ant ly
ĠGener al
Ġadv ant
ĠE ar
Ġc ry
Ġsit uation
Ġv oice
Ġb ound
ur b
Ġcons ist
Ġwork ed
ĠG erm
i ver
Ġread ing
Ġresp onse
Ġal one
Ġse x
Ġcomm er
Ġcomplete ly
ide red
Ġdev ice
riv ing
en c
Ġchar ge
Ġre ach
ĠCan ada
ĠD el
E x
for ce
ĠCent er
as te
he m
s et
Ġexpl ore
ĠAss oci
Ġmean ing
Y our
ĠL imited
Ġtop ics
a ith
I M
Ġph one
Ġh undred
ic ate
il es
ib ly
Ġext reme
r s
Ġa w
an ch
ĠO ut
ĠA ir
Ġhappen ed
ĠBl ack
Ġs ites
Ġachie ve
Ġs ource
Ġm ark
Ġa im
Ġfull y
Ġin j
ĠA re
Ġpriv acy
Ġdeli very
ul f
Ġenc oura
Ġg old
Ġwas n
ĠG utenberg
Ġg iving
Ġpat ients
Ġturn ed
Ġcommun ication
Ġp oll
if orn
Ġas pect
Ġst ru
Ġvers ion
Ġdiffe rence
m ail
E M
ĠD av
Ġw ife
if f
Ġ :
Ġover all
Ġstand ard
Ġ2 5
Ġass ess
ĠHe re
ent y
Ġinclud ed
Ġget s
ig ate
Ġpart ies
b and
C H
ĠS ite
art ment
ĠU K
Ġem erg
a ctions
Ġorgan ization
al d
iz es
Ġbl ock
Ġwho se
it ter
Ġchalleng es
ver age
Ġce lebr
r ast
Ġwe ight
Ġb ra
Ġinde pend
ĠU s
ll ig
Ġth y
Ġconne ction
ous ly
ĠS im
Ġf ear
a res
ĠW ater
ĠU se
Ġjo in
Ġch ance
ĠW ar
Ġadv ice
ed eral
ĠD on
iforn ia
nd ed
Ġpro gress
ĠH ome
Ġcons ult
Ġident ify
ĠÂ ©
Ġan alysis
Ġpub lished
Ġprote ction
Ġcar ry
Ġb on
ce l
Ġre asons
Ġpe ace
Ġth reat
ĠE st
Ġc ross
Ġey e
Ġm at
Ġh arm
Ġf ix
Ġs n
Ġinvol ved
Ġtr uth
Ġopportun ities
ĠOn line
Ġde cl
Ġthere fore
Ġapplic able
Ġac qu
Ġref lect
u gh
Ġser ious
Ġreg istered
Ġper cent
Ġlim it
ĠPro gram
Ġh ttps
Ġpa id
w ood
Ġso le
augh ter
ĠR uss
Ġtot al
o e
Ġloc ated
li er
Ġm obile
T H
ĠF irst
ag n
av es
ĠJ ust
Ġmess age
Ġw ood
ĠH ar
Ġfl ow
ens ion
Ġshow s
ag s
Ġcurrent ly
Ġ x
ĠB ook
iz ations
Ġmov ing
Ġprogram s
Ġcon cept
un ction
Ġrelev ant
Ġc ert
it ude
Ġtrad itional
itc hen
Ġparticular ly
Ġsl ow
Ġsub st
bo ard
Ġam azing
as ure
il ies
ir th
W ith
g al
Ġm ount
Ġr ules
2 2
Ġpl ant
a ign
Ġprofess ion
Ġcons idered
ĠP re
Ġpower ful
as hing
we ll
ĠS ub
ĠThe n
ĠF ound
Ġcom ment
n ight
Ġn ational
Ġfre qu
Ġequ ipment
b ut
ĠDe velop
as c
Ġl ate
Ġrec ent
an ia
ĠC ond
Ġha ir
ĠMan agement
ĠSy stem
ĠB rit
ite ct
Ġg ives
ch ange
Ġdefin itely
ĠWe b
Ġfl oor
ĠP anel
Ġ *
ĠAust ral
ĠRep ublic
Ġintern et
Ġda ily
Ġbl og
Ġeffic ient
Ġwebs ites
C om
Ġopt im
erson al
Ġsc reen
ĠU p
ab led
Ġc at
Ġens uring
eng th
ĠG r
u ction
Ġb ank
pp er
Ġwr ite
if ying
ish ing
oc ks
ĠM et
Ġexperien ces
Ġex clus
Ġqu al
ub e
Ġh uge
Â ®
re hens
ĠL et
ke y
ash ion
Ġpo or
Ġsle ep
y l
Ġstreng th
Ġp ages
A t
Ġ ri
Ġb ud
Ġc am
ru pt
stand ing
Ġsur pr
Ġt our
Ġcoll abor
es e
âĢ ĵ
Ġo il
Ġad m
Ġactiv ity
ĠD irect
Ġhe av
a ven
Ġmach ine
Ġg one
Ġst orage
ĠJ es
Ġcare er
om en
Ġm atch
Ġcult ure
Ġwe l
ĠSu pp
Ġbook s
i ant
Ġm us
Ġdis e
n y
Ġbas is
Ġfil m
ĠS an
Ġt en
S T
Ġinc or
Ġsp orts
Ġgr ad
Ġit em
Ġop in
er o
Ġst ream
Ġmess ages
Ġa head
ĠM c
ist ics
Ġbro ad
Ġregard ing
ond on
le te
ĠP ay
ow ered
istr ation
Ġexcell ent
Ġu lt
ist ry
te red
rap y
Ġc and
Ġl ed
Ġk ids
u ate
N ew
Ġc opy
2 3
an cy
ac c
Ġob l
Ġhist or
ap an
Ġev idence
Ġdis cl
Ġper haps
Ġstore d
ĠB est
Ġeffect s
c ont
y nam
Ġf ra
Ġeff ort
ard en
ĠR ights
Ġstra ight
ĠL ib
Ġfr ame
Ġagree ment
iv il
Ġb all
Ġdem and
Ġcon ven
ĠC as
c ious
ĠO ther
Ġveh icle
ci ent
ic o
ĠDep artment
Ġcommer cial
ĠAr ch
Ġpolit ical
Ġm id
Ġs oul
ĠL a
ur t
ident ial
Ġeconom ic
ĠIn ter
por ate
Ġp ull
ĠH ouse
I I
of t
Ġof fered
Ġ202 2
Ġob vious
D e
se c
Ġcontin u
al ing
ĠNew s
Ġg reen
ist an
I V
Ġchang ed
Ġst ress
Ġ4 0
Ġre le
Ġu nd
Ġf resh
ri al
Ġimp ress
Ġcirc um
am s
Ġear th
Ġresp ond
ĠM od
ĠC oun
ĠE duc
ĠY OU
Ġbegin ning
Ġstep s
Ġins urance
a j
Ġth ou
ĠJ an
A d
Ġrel ig
Ġw al
Ġcap ital
ĠCal ifornia
B e
ĠG overn
Ġabsolute ly
Ġpat tern
Ġinterest ed
Ġredu ce
Ġpract ices
Ġme chan
Ġex hib
ien cy
I G
ĠP ublic
en ge
Ġgu ess
ĠPh il
Ġst ates
Ġplay er
Ġcru cial
ograph y
Ġde part
ĠCount y
ĠCh ina
Ġwind ow
Ġgu y
Ġfact ors
Ġref er
Ġgu ide
am ed
Ġpro s
ra b
Ġh our
Ġman age
Ġc ash
Ġpost ing
at ically
Ġro b
Ġstrateg y
Ġad just
Ġsuccess ful
bs ite
Ġcomp on
6 0
Ġapplic ations
Ġestab lish
Ġst ock
Ġpl aces
Ġgo al
im ent
il ing
ĠJ e
N o
A B
Ġm att
Ġex ecut
pp ing
2 1
Ġfe et
ri ve
Ġde pos
Ġ202 0
Ġmethod s
Ġre ve
idd en
ace book
Ġs ale
he st
Ġ +
Ġtrans fer
Ġat tend
Ġmeet ing
M L
Ġw arm
Ġd ire
Ġpro ced
Ġbas ic
ĠS l
ĠIn te
Ġcrit ical
oc ial
T ER
Ġcent er
Ġd ru
ĠR ed
Ġd ang
Ġ202 1
O L
Ġset ting
Ġass ign
n es
ĠP ort
Ġerr or
ab ilities
Ġal tern
re ci
Ġacc om
ol es
f ree
M y
ra ce
Ġex tend
li ed
am ent
Ġe at
Ġp en
Ġemploy ees
ĠM iss
bo x
g ment
Ġpre m
Ġstart ing
ĠR em
i pe
Ġeff orts
Ġfor ce
ad ing
g ar
ent ially
Ġwee ks
u ary
Ġgener ally
Ġincre asing
ĠPl ay
Ġreg ister
h ouse
L C
or row
in ner
er ia
Ġw ild
A G
y ou
m et
ap ter
Ġinst itut
ĠE very
p ite
ĠP ol
iqu es
Ġdem on
Ġ â
i i
Ġfin ally
Ġparent s
ar ter
Ġtr ade
Ġfor th
c il
Ġst age
ĠF rench
Ġgrow ing
Ġfavor ite
Ġsc ience
Ġgu id
ens es
ĠC are
Ġbenef it
Ġcertain ly
at ur
Ġtechn ical
Ġ ,
y ear
Ġm er
re ed
ĠO ct
pect ive
r is
ĠRes earch
ĠJes us
Ġest ate
v ille
un k
Ġpat ient
Ġgreat er
Ġoffic ial
Ġser ve
g a
Ġsubs crib
ĠCour t
Ġpro pos
Ġdevelop ed
Ġdec ided
Ġcamp aign
se e
Ġtem per
p en
Ġd at
T e
ĠP at
ĠL ondon
Ġcomm and
ĠS ch
ĠP al
wor ks
Ġs al
ugh t
Ġt rou
a ks
Ġm aster
Ġbro ther
Ġde fe
es tern
Ġcl ient
Ġut il
Ġact ual
ĠRe c
l ation
o oth
ĠM ost
id ents
Ġma xim
Ġreg ion
Ġplan ning
Ġmin im
m as
Ġrec ently
w as
Ġpress ure
Ġseem ed
Ġte ac
ĠFound ation
Ġl oad
Ġsp ot
ur ning
s p
ĠS T
Ġf aith
Ġpl ans
Ġrequ ires
Ġpro t
C T
an i
Ġbott om
ĠEurope an
Ġcontin ued
as ion
ĠW hether
Ġne igh
Ġsur v
or ge
Ġcl icking
or ry
ĠA nt
Ġa part
Ġstruct ure
Ġan im
im in
ic ine
ĠI T
Ġev al
Ġc ast
ve y
I s
Ġfor mer
Ġinc red
) :
k now
Ġed it
Ġdev ices
rehens ive
Ġf irm
u k
ac ity
Ġv irt
ĠAd v
O ne
Ġre pe
Ġmeas ure
Ġr ich
Ġun f
opp ing
Ġeas ier
Ġaud ience
Ġb reat
ĠM ich
o ices
ition ally
u able
Ġval id
Ġstud ent
Ġm ix
om b
Ġelect ronic
Ġb le
Ġpass ed
ic ip
ĠC le
Ġinit i
Ġs ong
ĠJ our
Ġd en
Ġg ain
Ġfe es
Ġapp reci
N e
d own
Ġcom ments
Ġr ates
it ness
Ġman ner
Ġdo g
Ġm ental
Ġaf ford
Ġgo als
Ġpr ices
Ġke pt
ru it
O M
Ġdo ll
Ġtrad ing
om ing
in os
Ġpr ay
d oor
Ġstat us
ĠI S
Ġvisit ors
P R
Ġst ories
ĠS er
ĠD ay
Ġk n
ag ue
f riend
olic ies
Ġtrans form
Ġsee ing
C C
Ġsh own
Ġsc ient
ten ance
dd en
ĠU nder
Ġexpect ed
Ġsec ret
ĠH el
ĠWe ll
ĠA v
Ġown er
l in
Ġsoci ety
Ġele ments
Ġsur round
Wh y
Ġcra ft
Ġcircum st
ĠJ ud
l ies
Ġsh ared
Ġatt ract
Ġallow ing
. )
d o
Ġpl aced
ĠT y
Ġhe at
Ġinter view
Ġsy m
Ġtr uly
Ġv ict
Ġun c
Ġl inks
Ġact ive
f r
Ġc old
Ġsur face
Ġincre ased
ĠAn y
erv ation
Ġb aby
AT ION
Ġfor g
hip s
amb ling
Ġar r
ĠF ore
ĠB ank
Ġlet ter
Ġre lease
ĠSec urity
Ġm ist
Ġhelp ing
Ġsett ings
ab ric
ĠSt r
ĠIntern et
Ġad op
Ġfore ign
Ġbeaut y
Ġded icated
b on
ter m
ĠJ er
ĠInd ian
w ide
Ġmod els
ĠWe bsite
os ing
Ġd ro
oy al
C on
ĠR E
Ġar m
ĠT ur
Ġexperien ced
Ġsu dden
ir gin
Ġadv anced
Ġhon est
ot a
Ġh ous
edd ing
im b
Ġh ar
Ġstru gg
Ġen able
Ġrespons ibility
Ġstrateg ies
Ġreli able
ĠE ast
Ġfig ure
Ġbas ically
ro y
Ġnorm al
Ġc opyright
ĠJ apan
ĠS ep
ĠIn vest
ĠE lect
ĠF OR
Ġapp oint
t r
Ġv ot
Ġoper ations
ĠEng ine
Ġdeterm ine
Ġcould n
Ġplay ed
ĠDav id
ĠE v
P h
r ary
ĠPro duct
os ure
Ġconst ruction
Ġpass ion
ĠTechn ology
Ġadvert ising
Ġland sc
v in
ĠF acebook
Ġdisc over
Ġp sych
Ġar riv
Ġpres ence
te e
in ct
Ġt im
Ġexerc ise
Ġpre ferences
4 0
ĠEduc ation
Ġcl in
Ġf arm
8 0
Ġexist ing
Ġdis p
i os
ic ks
Ġem p
Ġse ven
Ġnum bers
ĠF ree
Ġhealth y
Ġstand ards
Ġres erved
ĠFor um
Ġtrans port
Ġtechn ologies
ĠCont act
ĠO ver
Ġtyp ically
id a
Ġproper ties
P A
por ary
Ġse lection
Ġ ic
Ġorgan izations
Ġun less
Ġt itle
Ġd ur
ĠG reen
Ġch urch
ord er
Ġwar rant
ĠR el
um n
Ġdec isions
Ġch ann
Ġb us
Ġthan ks
ĠS ur
Ġw at
ĠI D
Ġdeg ree
B l
al ed
Ġse a
Ġtri ed
Ġm iddle
ĠC ustom
Ġassist ance
Ġvis ual
Ġm ission
ur ities
Ġpro ceed
Ġprotect ed
Ġview s
Ġelect ric
ĠS a
Ġgl ass
S o
Ġmove ment
Ġth us
Ġsupp ly
Ġb irth
ipp ed
a el
Ġsm art
ne ver
Ġorig in
Ġb rain
ĠPl an
Ġide al
p ress
Ġrepl ace
Ġpl us
ove mber
wh ich
L e
Ġback ground
land s
Ġl oved
Ġre nt
Ġ ir
ĠPres ident
Ġpre fer
Ġg ar
Ġal though
Ġmil itary
Ġsum mer
Ġmention ed
Ġval ues
om s
ĠL ife
ol s
Ġknow s
Ġf at
t d
ĠRe view
ĠWill iam
Ġperm issions
osp ital
ĠSe a
ĠL ear
P S
Ġhapp ens
ĠSc ience
Ġt ail
g en
ĠS k
Ġd ress
ne ct
i ation
Ġexp and
Ġreturn ed
Ġn ut
Ġpart ner
Ġsu ff
Ġim pl
ĠC ook
Ġprofession als
Ġe ight
Ġl ock
ĠS ing
Ġpie ces
Ġd ry
ĠG o
th is
Ġk itchen
ug ust
Ġbec omes
ffic ient
ang ing
Ġlog in
ed s
Ġinc ome
Ġad apt
Ġwant s
Ġimport ance
ore s
ĠW ind
I R
Ġadvant age
B C
fe e
in ter
Ġha ven
Ġupd ate
ak er
Ġk ill
d is
ĠS am
Ġsh ipping
i ers
ĠA ccess
Ġcommit ment
tem ber
ĠDevelop ment
ck now
Ġfam ilies
Ġreg istration
Ġ201 9
Ġa ctions
ĠH ist
rou d
Ġtra ffic
Ġcomfort able
. '
ĠWh y
Ġre ality
Ġinte llig
Ġinter act
ĠC ap
ven ue
Ġent ertain
ĠT V
ro te
Ġche m
qu e
Ġlearn ed
9 9
Ġhe y
Ġatt ach
y er
Ġsp ent
ative ly
Ġ _
Ġsc he
ĠMr s
M S
Ġprim ary
Ġh us
om in
ab ase
ĠChrist ian
oc r
Ġlead er
ĠM arch
ov ing
um an
ĠM al
Ġrest rict
Ġqu ant
pr il
Ġg as
ent le
Ġcommun ities
P L
ar c
Ġprocess es
Ġextreme ly
ĠCol lege
Ġtrans m
ĠBo ard
ĠOct ober
Ġclaim s
Ġform s
Ġg rand
Ġfollow ed
Ġb ath
ĠAssoci ation
Ġtra in
Ġcl imate
and a
Ġestab lished
ĠCommun ity
Ġaccur ate
c ause
ri age
Ġd ynam
Ġa verage
it iz
Ġlar ger
Ġl ack
Ġprodu ce
d raw
qu ality
Ġn ation
Ġhand le
Ġannoun ce
am ily
Ġdou bt
Ġf urn
ing er
ĠM ary
Ġchall enge
Ġprovid ers
Ġrelationship s
T r
ĠGl obal
Ġ ing
ĠBrit ish
Ġstate ment
ear s
com ing
nd ing
Ġun s
Ġnear ly
ĠJ une
Ġhig hest
Ġexpert ise
Ġb an
Ġa cknow
i us
Ġcomp rehensive
ĠJ ack
ve re
Ġsl ight
rie f
Ġbal ance
Ġp olicies
Ġm icro
in y
Ġfe e
ĠR et
ĠB ill
Ġstud ies
Ġtechn iques
Ġser ver
O W
r an
ĠB el
Ġaff ili
Ġexpl ain
Ġbud get
ce an
ud d
ĠQ ue
enc ies
c raft
ĠPro te
or ation
ag o
l s
clus ion
Ġl ines
Ġl ux
Ġrep orts
ĠEar th
Ġfor get
ĠAn n
Ġbl ue
Ġdise ase
ĠM ad
e ared
o very
Ġf em
Ġnav igate
ĠProf ess
Ġupd ated
y n
Ġsh oot
p id
Ġc overed
et t
Ġsp read
Ġinterest s
if ts
Ġinflu ence
Ġfun ctions
ast s
Ġres ist
l ause
us ion
ĠP ersonal
P lease
C ont
Ġro ll
Ġd riving
ent ure
Ġcreat ive
ult s
ĠE ach
ashing ton
ĠG et
Ġth row
part y
Ġinstall ation
os h
C opyright
ĠG reat
Ġg raph
Ġcompl iance
Ġvis ion
Ġcook ie
âĢĿ .
oc al
' ,
Ġlic ense
Ġmatt ers
Ġcal cul
ĠOff ice
Ġbehav ior
f ol
Ġsh ot
Ġord ers
Ġfind ing
p a
Ġcomp ared
ree ment
st on
Ġwatch ing
Ġf ashion
ĠEng land
ĠC H
s es
z er
Ġc op
he nt
D A
Ġmult i
Ġwould n
Ġ- -
of fee
ĠL td
V ID
t ics
y a
Ġplatform s
Ġconcern s
Ġdescrib ed
Ġ{ {
e ed
Ġg od
ĠM or
tern al
Ġtest ing
Ġsc ene
ĠM any
Ġlist en
Ġcoun ter
Ġ???? ????
re es
Ġc uz
Ġth r
ruct ure
Ġval uable
ĠP ost
ĠMed ia
l am
us ing
Ġl ength
Ġ2 1
ĠT op
b u
Ġdemon str
Ġun it
Ġrem ains
Ġear lier
Ġinte nded
Ġpict ure
Ġt ree
Ġuse ful
Ġsh ip
ĠV is
Ġ201 8
Y es
Ġadv ance
ĠM ag
h is
ĠThe ir
ĠJ ames
ĠA S
Ġsc en
Ġchang ing
Ġro ck
P l
res p
Ġp et
Ġswe et
Ġsy mb
Ġfil es
use um
Ġlist ed
Ġw rote
en ior
ĠAfric a
Ġr out
ĠL ic
Ġf lex
ĠD em
ĠCoun cil
Ġs ources
od es
y m
Ġch at
ĠN ovember
Ġd ie
Ġindepend ent
Ġautom atically
Ġl ose
Ġcomm itted
" ,
ce mber
go ing
Ġbe g
Ġear n
ĠEx per
Ġvide os
gy pt
ag ram
m ark
Ġhelp ed
Ġf ant
Ġs orry
Ġnum erous
l a
Ġs ac
ĠE ven
wh at
Ġprovid er
I nd
ĠS oci
Ġh op
Ġj oy
ĠSu per
ĠSe e
I A
f ield
Ġ6 0
Ġwe ar
u nder
ĠG old
e ction
Ġspecific ally
Ġwel come
Ġprof ile
Ġf ulf
Ġv ill
App lause
Ġinit ial
om an
ĠS ocial
o h
oo st
Ġm ur
clud ing
it ure
Ġhus band
b our
U T
Ġsh ape
Ġcl ot
ĠA rab
Ġst y
ĠP ower
Ġv ib
Ġkeep ing
Ġdi verse
Ġpol ice
Ġrest aur
H T
ĠGovern ment
Ġcircumst ances
ĠFin ancial
Ġthe e
Ġto ward
Ġmanufact ure
ĠRes erved
Ġcult ural
ĠAustral ia
Ġheav y
Ġevery body
Ġcateg ory
al se
Ġen em
ac ing
I P
Ġcharact ers
le g
il ed
2 00
un ning
Ġa ward
Ġme ant
ĠSep tember
know n
Ġarch itect
ĠW ork
Ġsee k
Ġaccess ible
Ġsc ale
7 0
ES S
se y
ĠS oft
rib e
Ġind ic
ow ers
ĠInst itute
tt p
Ġmov ed
Ġr an
N A
Ġher self
Ġra ce
Ġdevelop ing
Ġc ivil
Ġan x
Ġrel ax
Ġdire ction
Ġopin ion
ĠA ugust
Ġprodu ced
Ġp an
ch ar
Ġde lete
Ġfor t
Ġlic ens
Ġun l
Ġcon text
Ġexper ts
Ġus erg
ber t
ĠA pril
Ġsm ooth
Ġref und
Ġt ask
ĠR ich
Ġeffect ively
p oint
Ġare n
Ġd ut
Ġrele ased
Ġclear ly
Ġcl oud
E n
ĠSt reet
Ġdepend ing
ĠĠĠĠ ĠĠĠ
is hes
Ġdis app
Ġe th
ili ar
e en
Ġmem ory
2 9
az on
Ġmov ie
ĠP RO
ĠCon st
Ġsee king
Ġeffic iency
Ġst ar
Ġmeas ures
Ġg ift
al a
t ion
Ġro of
ĠJ ew
Ġmain tenance
iven ess
ĠB et
Ġent ered
ĠPro v
Ġac adem
Ġprep ared
Ġcon sequ
ad o
Ġenvironment al
Ġbel ong
ĠL LC
t op
oo per
Ġca used
Ġcan cer
Ġserv ed
Ġconsum ers
vent ion
Ġbon us
Ġwait ing
Th at
ern ame
Ġhealth care
Ġgirl s
Ġd aughter
ive red
Ġc ore
ĠO h
b b
ol f
Ġreview s
Ġconnect ed
e ch
ĠGu ide
Sh are
ĠCh ild
Ġcap acity
Ġt ips
Ġpro p
Ġconvers ation
h ow
Ġar gu
l ife
as y
Ġwe ather
Ġreport ed
ĠG ood
ĠM em
Ġwas te
2 6
Ġf ederal
is ation
il it
ĠM a
ĠV e
Ġdo ctor
Ġpr in
Ġsh aring
! !
Ġdi et
Ġcent ury
Ġfield s
ĠPa ul
Ġclean ing
3 3
Ġdef ault
Ġwonder ful
ur is
ĠDis c
ĠF und
ĠD igital
ĠFr ance
Ġf ill
Ġn ames
Ġrecommend ed
Ġconf lic
ri an
Ġ ign
ord in
se mb
Ġb orn
ĠB on
Ġapp eal
ĠWh ite
Ġproper ly
Ġinstru ctions
re ly
Ġsepar ate
Ġus ername
Ġd ig
oo sing
l lect
Ġd er
Ġd rop
Ġpain t
ĠM ac
Ġpresent ed
The se
s m
( "
Ġre ached
em ed
Ġsol id
ĠI P
Ġph il
Ġg ambling
h ttps
en a
Ġguarant ee
âĢĿ )
ĠPh ot
Ġwor ry
Ġte nd
Ġinde ed
Ġrep air
ĠH y
Ġb atter
Ġal ign
Ġschool s
Ġteam s
Ġsh op
Ġcollect ed
ĠJour nal
ĠT re
Ġeven ing
u ps
Ġb attle
ĠM icro
ci ples
Ġinst ance
ĠCas ino
Ġ201 6
Ġdocu ments
em ic
oss ible
du le
ĠRe ad
Ġr ule
c ol
re te
Ġle aving
Ġins ights
Ġris ks
Ġdou ble
g t
oll y
ĠC ur
Ġthough ts
Ġspec ies
ill a
cl aim
ail s
Ġconf idence
uck y
Ġse ctor
ri er
ĠU N
ic ed
Ġlot s
g l
2 7
Ġg entle
h ab
ĠS al
Ġgrant ed
s pe
Ġhe ll
Ġj ump
i j
ree k
Ġoper ation
Ġupd ates
Ġpl ants
Ġoper ating
ĠChrist mas
ound s
Ġour selves
Ġ201 7
ĠInd ust
Ġfund s
ov es
ific ations
S he
ony m
y th
Ġrep ut
Ġf abric
Ġregul ations
Ġinform ed
ĠJ uly
am in
ĠTe x
i able
Ġpr inc
p et
ph one
Ġlar gest
Ġm ill
ĠOn ce
C E
Ġdeal er
Ġc ab
Ġpract ical
Ġauthor ity
as ks
Ġde lic
S p
ĠF ood
= =
ĠN or
ĠO N
Ġcand id
Ġcontin ues
Ġlead ers
re y
N ot
cept ion
Ġobvious ly
Ġwe ak
Ġthous and
Ġlead ership
ol ar
Ġcomple ted
ĠPro per
ĠN OT
Ġwork ers
Ġens ures
in te
ĠA tt
be ing
Ġfin ish
et her
ri a
erv es
Ġcar ried
Ġag ent
ĠDe cember
Ġsignificant ly
ac king
Ġm ale
Ġbec oming
Ġv ary
Ġaspect s
od ay
Ġma p
Ġown ers
Ġaut hent
Ġtri p
ĠFl or
uris d
het ic
Ġr ise
r im
Ġd ied
ĠAg reement
el ess
ĠComm ission
h i
im ately
Ġpop ulation
ust r
ĠEst ate
Ġpost ed
Ġselect ed
h us
s he
L S
Ġf ish
ĠP et
Ġm ut
Ġdepos it
ĠAdd itionally
Ġs ession
ĠS il
ĠW ashington
ild ing
Ġacc ord
ult ure
Ġinnov ative
os en
Ġsome body
Ġg un
Ġhelp ful
ĠB ay
Ġw ww
Ġcomb ination
Ġdat abase
Ġcon tem
pl oad
, '
por ation
ĠJan uary
u ations
Ġfe at
rast ructure
ph as
om a
Ġrem ind
R A
ĠTw itter
b re
Ġbr ings
fe ction
ct ors
Ġag ency
Ġobl ig
Ġ2 2
Ġgood s
Ġfeel s
Ġwe ap
Ġde b
r ig
Ġ2 3
Ġqu iet
Ġr id
Ġra pid
Ġn amed
us ive
ĠCar ol
ner gy
ĠM ex
ĠV irgin
Ġoccur red
Ġdes ire
Ġb ul
Ġtrad em
P ost
Ġhigh light
ent ed
Ġdist ance
ĠSoci ety
ĠM aster
Ġmin ute
i as
Ġb ird
ĠF ire
ort hern
ina fter
ic ian
Ġst ood
Ġform at
oo p
ĠL ou
w in
ĠS pr
Ġh idden
Ġapp lied
com m
Ġcare fully
C A
ĠSpe cial
Ġ ...
Ġ19 8
ĠC am
pro f
Ġsustain able
Ġopen ing
Ġf illed
Ġold er
Ġret ail
i at
Ġc atch
ĠE gypt
Ġdetail ed
ĠR ob
Ġsa v
Ġn one
ĠM at
r or
Ġend ed
Ġthous ands
Ġcol le
Ġperm ission
m osp
oc king
Ġmarket s
Ġfocus ed
Ġeconom y
u a
Ġt err
Ġant i
ĠCond itions
ĠB en
Ġt ick
com es
Ġm outh
or ough
Ġcre ation
1 00
Ġdel ivered
ĠâĢ ¢
Ġcomp ar
Ġnot es
av a
Ġcol lege
Ġex change
ĠFe b
h ol
Ġh omes
ĠA M
Ġass um
Ġass ets
cl ass
Ġopen ed
ĠCh urch
Ġc ards
ro ad
Ġno vel
Ġdest roy
ĠCl ub
Ġinnov ation
Ġjo bs
Ġli br
Ġmen u
here inafter
Ġknow ing
ress ion
ĠEn ter
* *
Ġa p
Ġfunction al
a e
Ġprom pt
ar ks
Ġrep ly
ir ation
al og
ĠC y
Ġcont roll
Ġdet ect
ĠAut hor
Ġep is
Ġe c
ĠM ain
U N
on ic
Ġm o
os es
b et
L A
cl es
ĠCl ass
ĠA P
ap ers
Ġw itness
] .
Ġdesign s
Ġident ity
Ġpur su
ĠE qu
ĠTex as
ĠS un
Ġp roud
st e
Ġspe aking
Ġadd ing
Ġrecord s
Ġtre es
p ass
ĠC ON
est ic
os ition
Ġwhe never
row d
ĠIn f
e per
p ret
on a
ortun ately
( )
Ġb es
Ġacc ident
ĠCont ent
ar ian
Ġas king
ĠM art
le ments
ĠM ont
ines e
ĠM ot
Ġlandsc ape
room s
i verse
Ġne ither
as er
ĠB i
Ġcl ub
Ġan cient
ul ated
ant ic
Ġl abor
Ġfriend ly
2 8
e v
Ġequ al
Ġdistribut ion
Ġc itiz
ĠE conom
ĠAn ge
ur ies
Ġart ist
D o
Ġb ow
Ġart ists
Ġmil es
Se lect
Ġeng age
Ġsupp osed
ĠT ime
s hip
ul ate
ĠSoft ware
ul a
Ġconsum er
Ġcr is
Ġpred ict
Ġr ank
ĠM usic
Ġbr ight
6 5
L L
Ġwill ing
Ġext ent
w ater
ĠAcc ount
ĠB ra
Ġput ting
p ic
ĠSt ar
c an
um m
ĠAb out
L ist
Ġres ol
it ors
Ġu ne
Ġcell s
Ġs itting
Ġocc asion
ĠMarket ing
all ow
um ber
Ġset s
ĠCent ral
Ġaccount s
ian a
ĠIns urance
ĠL ight
Ġest im
Ġst reet
Ġout door
or ial
ĠH ot
Ġrem ark
Ġconf irm
Wh ile
A fter
Ġshow ed
ond s
Ġliter ally
ĠB ack
al le
Ġposs ess
C O
ual ity
n o
p an
Ġpay ments
Ġsound s
i ety
Ġappear ance
Ġv ul
Ġcent ral
Ġemot ional
Ġcor ner
Ġsol ar
Ġf alse
Ġst ick
Ġfell ow
Ġent ry
Ġimag ine
E lement
Ġg arden
ĠC amp
Ġcons id
Ġbro ken
Ġte le
pect ed
S E
Ġem phas
z a
od cast
llect ual
Ġdeterm ined
ĠPar is
Ġg aming
Ġneg ative
Ġ >
ar row
ĠM ount
Ġcall s
ĠL and
Ġs pl
Ġm ine
Ġstand ing
Ġsend ing
Ġg ather
less ly
ĠBe cause
ĠR iver
Ġsc r
Ġfam iliar
h ad
ĠIt s
Ġsl ot
Ġs ight
ci pl
ĠMich ael
ĠC ong
Ġv ac
Ġun w
oc ation
Ġr ou
Ġsh ut
Ġte aching
ĠTr ump
Ġarr ange
h and
Ġst ation
Ġsmall er
Ġmom ents
Ġmark ed
Ġh olid
od ies
ib ilities
Ġspe ct
Ġwal king
k a
Ġfeed back
ĠAl so
Ġcont ains
Ġb and
ars h
Ġrem ote
ĠF amily
Ġdru g
ot ic
Ġcol ors
ĠTh rough
Ġt ill
ru ary
ĠS EO
ĠA lex
ĠU lt
pr ise
ĠY es
Ġcompon ents
Ġse lling
Ġsubm it
I F
s we
Ġw edding
Ġdec ide
ĠDirect or
ĠEx pl
c ons
ag raph
Ġjour nal
Ġprom ote
I m
Ġgener ation
Ġhor se
l ist
Ġbig gest
Ġe lement
Ġe lev
ĠAc adem
Ġl ived
Ġbelie f
Ġsign ature
Ġfre ed
3 5
O h
Ġw a
ĠL at
ĠOr gan
Ġgu ard
Ġpl ays
Ġreason able
r ical
Ġf av
Ġcl osed
ĠC all
Ġre ference
Ġdes cription
Ġs ch
im s
Ġwe alth
Ġperfect ly
f rom
Ġtrans l
us hed
Q u
Ġp ric
Ġb illion
oc ol
Ġwith draw
b ed
Ġm ort
k ed
Ġtri al
u ment
ĠM il
Ġcol our
Ġfl u
Ġat mosp
um in
Ġp al
Ġthe rapy
Ġf ol
ĠS ign
Ġb ag
Ġra ised
Ġsim pl
Ġintern al
ĠA ud
ĠL ake
Ġ8 0
Ġk illed
Ġexc iting
ro s
or ney
Ġc offee
Ġf aster
Ġb ill
Ġst one
ret ion
Ġaltern ative
Ġgreat est
ĠG rand
ac he
Ġev ol
ĠW ord
Ġanim als
R es
ĠR oad
ĠTra ining
Ġs and
Ġn arr
Ġapp eared
Ġcra zy
u pp
Ġse am
Ġfac ilit
Ġde bt
Ġocc up
D on
augh t
Ġf ost
Ġch oices
Ġchar ges
it oring
20 24
Ġl ady
Ġbe at
ĠAN Y
" .
Ġadv is
Ġh ath
Ġcompet itive
Ġr at
Ġdisc overed
ish op
Ġing red
out hern
Ġmajor ity
ĠPe ople
Ġguid ance
ad ian
Ġsh opping
Ġaccord ance
le ar
est yle
mer cial
Ġlead s
ar p
ĠT om
ĠC ard
az ine
ro id
Ġpo ol
Ġra in
Ġexclus ive
Ġencoura ge
Ġf uel
ĠI nt
f unction
u ine
Ġp ush
Ġhistor ical
Ġam end
Ġsp o
ĠGe orge
n s
Ġyou th
un te
Ġfail ure
Ġgu ests
ĠAs ia
Ġb oost
gr ad
Ġevent ually
ĠM o
Ġhold ing
ĠV ol
Ġpr ison
Ġconven ient
ĠD iv
Ġperson ally
Ġclass ic
Ġpattern s
B ook
Ġ2 8
Ġli ability
Ġcas inos
Ġshow ing
Ġfam ous
ĠB re
Ġed ge
Ġsubscrib e
Ġtrou ble
Ġ9 0
Ġhot el
Ġpict ures
ĠLic ense
ĠUS A
Ġple asure
ĠC reat
ren cy
ĠMed ical
Ġpers ons
ĠC ode
Ġman aged
Ġsign s
Ġent hus
Ġmin or
4 5
Ġam b
Ġf an
ul ations
ant a
Ġexc ited
Ġaccur acy
Ġqu arter
h im
ĠT est
Ġconf ig
Ġbreat h
7 5
ĠP ass
EC T
Ġany where
Ġentire ly
u ated
friend ly
-- --
Ġlo an
ĠO per
C an
in i
Ġhe aring
Ġcont ained
Ġt ab
ĠUn ion
rel ated
ov al
Ġde ar
J o
et te
Ġon to
Ġdom ain
ĠAm azon
Ġphot os
g n
Ġsp oke
ap es
D S
Ġt on
Ġprevious ly
Ġ ice
Ġper man
ĠW estern
el ines
ĠK now
ĠDe f
Ġappear s
Ġf if
et ic
Ġmaxim um
Ġdoll ars
ER S
Ġdi agn
Ġart icles
ib er
all ery
ĠVal ley
g or
and er
ang ed
y e
Ġk id
C ol
Ġthe ory
Ġext ensive
ĠRep ort
ind ing
ĠU k
Ġc art
ĠI I
Ġbrand s
Ġintellig ence
c ase
?? ?
ou nder
os is
Ġla unch
Ġin put
Ġaccom pl
Ġ201 5
ĠS ince
Ġdiscuss ion
omm od
ĠAfric an
i ors
Ġhappen ing
Ġman ager
ĠGerm an
G et
Ġann ual
Ġrem oved
ĠH T
ĠO pen
Ġdisc ount
form ance
u gg
ĠD et
Ġfin ished
Ġstate ments
ĠCol or
Ġsudden ly
ail ability
ĠV iew
7 7
Ġal t
O C
Ġadministr ators
Ġs ad
ic ial
Ġleg is
ĠT ax
ing u
Ġb urn
ĠB rand
Ġfac ilities
Ġun able
Ġforg ot
ĠL og
all s
Ġrefer red
Ġrece iving
Ġmoder ator
Ġtre nds
Ġsqu are
ĠSt and
Ġdisc retion
Ġh ur
Ġiss ued
b an
Ġmot or
Ġt aste
AN T
Ġcor porate
Ġexpress ion
Ġst ated
T ube
Ġtell ing
b ar
Ġrec ip
Ġobject s
Ġpl enty
l or
Ġsh ares
opp ed
Ġch osen
Ġar ms
t a
ĠB er
Ġch air
Ġdynam ic
I ES
Ġw ine
Ġrelig ious
Ġcompet ition
B S
Ġc ities
ĠB ig
f ast
A Y
in n
Ġincred ible
Ġ2 6
Ġstart s
pre ne
ĠRuss ia
ak ers
ĠComm it
Ġf old
ĠL ist
Ġro ot
Ġlux ury
Ġtemper ature
d en
ĠD i
ĠE nergy
ĠSec ret
m aking
ĠG en
ĠFlor ida
so ft
9 0
Ġbring ing
Ġp un
Ġident if
Ġn orth
ĠL u
Ġl ad
and emic
ĠY ear
Ġtax es
Ġs now
Ġprov ision
Ġse qu
Ġj urisd
ĠBe ach
re prene
k i
Ġsc ript
ĠM ult
Ġsu it
in cluding
Ġs an
Ġv ir
Ġab usive
the y
Ġbu ying
Ġcar s
it ime
ĠT im
T op
y ers
Ġw id
ĠWh o
Ġc rowd
Ġmod e
Ġcry pt
P er
ag ers
Ġspirit ual
Ġdel ight
Ġsym pt
B A
Ġte ach
Ġsur g
Ġth orough
pl ate
Ġrepl ied
Ġexp enses
Ġleg it
Ġdirect or
Ġinvest ig
Ġt asks
ĠM ark
Ġmed ium
Ġ id
The y
Ġattach ments
Ġ er
Ġeng agement
ĠStud ies
am m
H ome
Ġa id
ra ine
Ġwin ter
Ġc os
Ġimp ossible
Ġtrans actions
ĠI re
ĠCh inese
Ġsu itable
Ġregular ly
Ġm ent
Ġm ir
Ġv ast
og ether
Ġneigh bor
Ġsp ort
Ġstr ange
Ġtot ally
Ġs in
ĠO b
int s
Ġdes pite
ĠL ab
Ġcam era
ĠH uman
Ġmaintain ing
Ġjust ice
rib le
Ġpers pective
l ook
Ġdr ink
Ġdist inct
ri p
Ġforum s
ð Ł
Ġsk ill
Ġloc ations
Ġli qu
Ġra nd
Ġvol ume
ĠFeb ruary
ĠP ri
Ġbet ting
Ġar bit
ĠArt icle
ĠGerm any
Ġinf rastructure
Ġin qu
Ġind ex
Ġeduc ational
n el
ĠLe ad
ĠM ake
Ġstrateg ic
T R
Ġposs ibly
p at
he red
ĠT er
ĠStr ateg
5 00
Ġ iron
Ġreal ize
g on
ĠQue en
Ġcomp ly
ĠNet work
let ter
Ġan g
re c
Ġz ero
st ood
Ġpar agraph
P T
Ġ201 4
Ġbe ar
Ġveh icles
os oph
Ġchann el
Ġconst antly
Ġri ver
Ġclin ical
an ing
ĠM el
resp ond
ĠProte ction
ĠA R
ĠM us
Ġreturn s
Ġexhib ition
Ġproced ures
Ġcons cious
ĠW ood
Ġsp aces
ĠM er
Ġmar riage
ĠB E
Ġs ir
Ġbeh alf
Ġinvol ves
ac ific
ĠD uring
Ġ2 7
ĠTh om
Ġvirt ual
Ġchem ical
Ġaccept ed
l o
Ġcover age
Ġp ure
ĠTh ank
ĠK ore
4 9
We ll
ĠRuss ian
Ġcap abilities
' );
ĠEngine ering
ĠT em
Ġan imal
r ad
S S
ic ians
Ġappreci ate
ĠW here
Ġsec urities
Ġto m
Ġen force
Ġad s
Ġhy d
Ġfor ces
ĠThere fore
Ġscient ific
Ġexp ensive
ĠL ike
ide o
ĠAl though
Ġpres ident
ĠB ur
Ġkind s
Ġrand om
Ġminim um
Ġle aves
ĠF il
Ġfant astic
ĠO pt
ap ing
IT Y
Ġwin ning
ot es
ĠCO VID
swe red
ĠM ill
Ġt ro
et ary
Ġfl at
Ġmass ive
Ġsupport ing
un ting
ĠG ame
Ġmanufact uring
Ġres ource
I d
Ġcut ting
ĠP C
Ġste el
us hing
mer ce
Ġmet al
Ġparticip ants
ĠDe c
Ġroom s
ĠS olutions
ĠL ong
ĠRe v
ĠR ober
ĠE sc
ĠO ffic
ir ty
ĠBl ue
Ġp ark
Ġbl ess
Ġslight ly
Ġwor se
Ġ ur
h ave
Ġapp arent
Ġcommun ications
Ġwall s
Ġobtain ed
Ġh om
ot al
is k
are n
Ġv ital
ang er
Ġinter pret
ol ars
re ate
Ġcontribut e
ar io
ĠW omen
ĠYou Tube
Ġdef ined
ĠCarol ina
r id
ĠC ert
Ġsw itch
Ġan swered
ĠP ress
Ġport ion
W or
O r
Ġbelie ved
Ġpro hib
Ġinstitut ions
Ġsc ore
Ġsche dule
Ġstand s
org ia
Ġw ow
Ġtrans p
ĠSupp ort
k in
t ra
Ġbatter y
x y
Ġb rief
Ġres idents
ĠRe qu
Ġso il
Ġspend ing
ob e
ĠAd ministr
Ġsubst ant
Ġ201 3
D r
Ġident ified
Ġro t
ed y
Ġrec overy
ap ed
ĠTr ust
Ġfreed om
Ġag ents
fol io
ĠW all
ĠO ld
Ġch arm
l ines
Ġpay ing
Ġdepart ment
Ġfrequ ently
gor ith
ĠHe ad
Ġinvest ors
Ġpack age
Ġout put
Ġacc ommod
-- "
Ġanaly ze
D es
Ġmar ried
Ġf ans
ĠW H
the re
Ġexcept ional
ĠR est
ol it
ĠSystem s
Ġde emed
Ġimpro ved
Ġaud io
ĠL ove
e qu
Ġcour ses
Ġt it
ĠBl og
Ġdang erous
ad ow
Ġprem ium
Ġd inner
Ġen abled
ĠS and
Ġus age
Ġp air
Ġun its
ĠLib rary
Ġconsid ering
E W
L Y
as ant
Ġperform ed
3 4
Ġacadem ic
b i
g age
Ġf le
as p
gr ade
Ġfl o
ic an
art s
Ġpurch ased
Ġsp ring
Ġfund ing
th let
Ġe ating
Ġex ternal
out s
N ow
Ġtra cking
y our
Ġst ret
ĠR ock
ul ous
Ġpot entially
Ġh ospital
Ġexam ples
Ġt urning
is ms
Ġs ister
ce ler
est ival
ĠAn aly
Ġfac ility
ĠSm ith
ĠT own
A dd
at ar
Ġl ie
cript ions
ĠKing dom
Ġ201 0
ĠCent re
el come
Ġch ain
ord s
Ġprep are
Ġcon v
ĠHist ory
Ġsupport ed
m es
ĠS qu
Ġadv oc
Ġexpect ations
al ian
F rom
O D
an ish
g reg
Ġu pload
ĠE X
ĠG ar
ĠAr ts
Ġdec or
Ġcall ing
Ġrecogn ized
Ġd u
ang es
clus ive
Ġoffic er
Ġsatisf action
S ub
act ive
Ġev il
Ġgl ad
Ġnet works
c her
ĠL iter
e f
Ġs outh
om y
Ġta ught
Ġprec ise
d es
Ġh ate
Ġturn s
en ced
Ġdec re
Ġprin ciples
Ġfix ed
U M
Ġmiss ing
Ġdep th
ĠH ill
Ġca uses
Ġtell s
Ġconc ent
Ġchalleng ing
Ġsu fficient
ic ity
Ġcollabor ation
z z
er ning
Ġpro of
Ġex ceed
le ts
ay er
Ġteac hers
ĠP ack
ĠF urther
red it
in ations
Ġimpro ving
Ġreport ing
Ġdepend s
Ġh ttp
Ġlicens ed
Ġli ber
ick en
Ġm al
Ġl augh
ra id
Ġhe aven
Ġco ast
Ġtalk ed
Ġtrans ition
Ġindust rial
Ġo dd
ol a
r ate
el f
Ġno body
Ġtw enty
Ġsk y
Ġepis ode
Ġla un
z en
Ġdec ades
ĠCommit tee
Ġdisplay ed
Ġcomp ens
Ġclass es
Ġto w
ult ural
Ġredu cing
S c
onym ous
Ġatt ribut
Ġperm itted
ĠIn nov
ĠCan adian
Ġconflic t
Ġanx iety
â Ħ
Ġte eth
Ġafford able
Ġrel ating
Ġhold s
ot i
Ġinvol ve
ĠC ir
p es
p ot
Ġworld wide
tm l
Ġsil ver
ens ions
Ġeng aging
Ġcomb ined
Ġ7 0
Ġviol ence
Ġfore st
3 6
Ġrad io
Ġis land
cess ary
ĠOn ly
' ).
ĠT or
Ġlet ters
Ġfunction ality
Ġconcern ed
Ġcris is
ĠM ass
ĠMex ico
Ġha bit
Ġdis abled
Ġappro ved
re qu
Ġc aught
T S
ric s
ĠI d
Ġsac r
Ġch ief
Ġrecogn ize
Ġfl ight
Ġadministr ation
Ġjo ined
{ {
ir ms
Ġar my
es ome
Ġcomm ission
Ġdef ense
Ġfact or
sc ribe
Ġmot iv
8 8
ĠH am
atur ally
ĠR ight
ĠG ames
Ġstore s
Ġs ick
Ġf ly
ĠL o
ock ed
os ite
Ġprov isions
ĠFr id
hold ers
Ġconsist ent
Ġsympt oms
r um
Ġinte llectual
Ġ201 2
ĠFr anc
ĠA ward
Ġbig ger
er ation
Ġr ing
st one
ain e
Ġ2 9
a ver
Ġsu c
Ar t
ic ago
ĠG ra
Ġcr im
S ome
ĠC at
Ġapp s
Ġsm ile
a id
us al
Ġtrans action
ĠDe v
Ġmach ines
Ġra re
Ġass et
Ġgu est
Ġcab in
Ġex cess
ĠLou is
ce ived
Ġwrit er
ĠC A
ab et
ĠJ ose
iz er
Ġserv es
Ġ Ã
Ġemploy ee
Ġon going
urb an
y stem
Ġ //
Ġpar am
Ġst rict
Ġcol umn
âĦ ¢
r ance
Ġcontinu ing
Ġre new
Ġdo ors
ath y
el ine
Ġma il
Ġsecond s
Ġdel ay
Ġjud ge
Ġth ick
Ġlif estyle
Ġdraw ing
Ġp andemic
Ġe ase
Ġintrodu ced
M A
ic it
Ġphot o
Ġenjoy ed
Ġmon itor
Ġengine ering
Ġfurn iture
ĠWind ows
ĠInst agram
ĠTra vel
ĠC a
ĠD own
ĠN av
ĠR ad
Ġcitiz ens
Ġt ight
Ġdi am
Ġsh ift
Ġdo gs
Ġarriv ed
Ġch oosing
Ġassess ment
Ġsuc ceed
ĠP rem
Ġdri ver
ograph ic
Ġinstall ed
M an
Ġerr ors
Ġinv ent
Ġfeel ings
Ġteac her
el ing
Ġassign ed
Ġvul ner
Ġn ine
Ġsole ly
ĠâĢ ¦
ific ial
ab ling
Ġd im
Ġcoun sel
ĠKe y
Ġmon itoring
fr ont
3 2
Ġingred ients
Ġp ra
Ġlibr ary
Ġde ploy
osp it
ĠChar les
Ġr ub
g ers
I B
Ġg rew
Ġrev olution
i xt
Cl ick
ĠD u
se ll
Ġst opped
Ġre ward
Ġpersonal ized
ĠVirgin ia
Ġtr ig
ig an
Ġmost ly
Ġserv ing
Ġra ise
Post ed
Ġst ars
Ġin n
ĠT ake
Ġal gorith
Ġhundred s
Ġinj ury
Ġ3 1
hem at
Ĥ ¬
Ġse at
Ġag reed
Ġ( âĢľ
ak ed
Ġmot ion
Ġpurch asing
ĠA uction
Ġfem ale
Ġb ought
ĠV er
3 1
w orth
Ġr ide
Ġconf ident
ĠS ci
ord an
O P
al i
Ġimplement ation
ĠH en
Ġun iverse
Ġsa ved
Ġcr ime
Ġhe ight
ĠD en
Ġannoun ced
Ġele g
ĠA G
ĠFin ance
ll ed
Ġv ote
Ġcar bon
i est
it age
ĠS und
Ġoffic ers
rom e
ĠPart y
the m
Ġappro val
P ress
wh ile
Ġemerg ency
Ġel imin
Ġwind ows
Ġown ed
Ġpropos ed
E E
Ġind icate
Ġem pt
inte rest
Ġab use
Ġ <
Ġli able
Ġaffect ed
ig ration
Ġe lection
Ġse vere
ĠÂ £
Ġl ights
Ġb id
Ġre venue
ĠF ind
4 4
G l
M r
ad s
h ost
z one
ĠE U
Ġoper ate
ĠApp le
ĠAcadem y
Ġult imately
Ġenc oun
ĠT ool
Ġun ivers
cu it
ĠIre land
Ġlink ed
Ġfail ed
Ġatmosp here
Ġhe ro
ĠM useum
Ġredu ced
Ġconst ruct
Ġlay er
U D
Ġv an
Ġfound ation
ĠT our
Ġst unning
ĠSt art
Ġfoot ball
Ġbus y
Ġentertain ment
ĠT oday
Ġspe ech
ĠFr ank
Ġres erve
Ġman aging
, --
Ġd ial
l im
D F
Ġd ance
igh ter
H ouse
Ġbo at
Ġslow ly
Ġar g
ak en
ĠTe am
ann ed
z ing
Ġcor respond
Ġgener ate
Ġsit uations
ess ions
og rap
Ġprof it
is her
ord ers
ock et
Ġc ried
Ġout comes
Ġgen uine
ĠS af
âĢ ¢
ĠProduct s
u er
Ġcateg ories
Ġliqu id
Ġent ering
Ġ5 00
ĠTw o
ult y
ac le
ĠP ract
ĠM ax
Ġa st
ĠPh ys
Ġf ruit
ĠC EO
Ġcap able
Ġsum m
all ed
ĠE r
Ġed itor
Ġemploy ment
ĠFrid ay
Ġaf raid
Ġs enior
Ġf asc
ack s
ĠC opyright
Ġprom ise
f in
Ġmed icine
ĠEn vironment
b les
Ġa uction
V E
ĠM ach
A b
or ter
Ġadv enture
ch ant
Ġproced ure
Ġde eper
ans ion
ur d
Ġvers at
Ġ ?
Ġhouse hold
ĠHT ML
K e
Ġresult ing
Ġhon or
ĠComp ut
.... ....
M ed
Ġte ch
Ġconc erning
Ġsex ual
Ġdut y
Ġclos er
e er
Ġ <|
Ġfor ced
Ġas semb
clud ed
3 9
ad or
d ata
Ġst re
Ġconst ant
" :
ĠC oll
Ġar ray
ĠSh op
ĠSe lect
ĠS U
Ġwe ird
ĠW al
Ġsc hed
ĠMed icine
Ġsl ots
Ġel ig
Ġconven ience
ick ed
Ġb unch
ĠAdv anced
C L
Ġcon clusion
Ġnecess arily
oc ument
ĠD ou
ĠS H
Ġtre ated
S outh
A re
ĠK n
Ġve get
b al
Ġparticip ate
Ġt un
ĠC r
Ġterm in
Ġreput ation
Ġl ies
Ġany way
Ġaware ness
ur se
Ġdis pos
xim ately
Ġclose ly
Ġincor por
ĠC ath
Ġp anel
Ġpub lish
ĠApp lic
Ġsubm itted
W here
Ġg ate
Ġass ume
ĠĠĠĠĠĠĠĠ ĠĠĠĠĠĠĠĠ
is dom
Ġun iversity
Ġresist ance
ĠProper ty
Ġneighbor hood
ain ts
Ġfact s
Ġdeliver ing
ast ing
Ġsp ons
Ġla id
ast ers
IT H
ĠAt l
Ġdom in
the n
3 8
il st
A m
Ġm and
P re
a fter
or a
ĠTh anks
ĠIt aly
Ġsuccess fully
ĠCor poration
Ġte a
Ġpre v
at o
Ġbe ach
Ġbl ind
Ġread ers
ĠB ible
ul ed
Ġm el
Ġpric ing
M e
Ġv en
um es
re ens
Ġwhe el
ĠS ol
ge nd
Ġde let
ĠF riend
Ġexpl ained
R S
ĠSp irit
ĠPr ice
Ġrout ine
3 7
ĠSh ow
Ġcompon ent
ani el
Ġne ck
Ġr ough
Ġlist ening
Ġvol unte
ĠE nt
Ġeng aged
Ġpros pect
Ġrem oval
Ġb read
t w
ĠAcc ording
Ġplan et
ĠCustom er
Ġfight ing
ep ing
j o
ll ow
Ġpro ve
Ġfra ud
Ġav ailability
Ġhous es
ĠI r
ĠChild ren
ĠG D
Ġleg ally
Ġpos itions
y d
Ġs ides
U L
w ing
Ġw ire
ry pt
Ġdefe nd
ĠS P
Ġexist ence
Ġwalk ed
ar n
it a
Ġsu gar
wor king
st ate
Ġinter ior
Ġposs ibility
Ġc ooper
Ġh at
ĠSe ction
l ights
Ġunder stood
Ġ201 1
Ġenthus i
ĠFor m
ien ces
ĠP sych
ĠH all
ĠL ook
ĠS earch
Ġinsp ired
Ġge nder
ow nt
ĠA D
Ġ3 5
Ġrun s
w ear
Ġcre w
Ġtra ined
Ġexpress ed
G u
ĠS ir
ĠW in
Ġjurisd iction
Ġ200 9
m m
ĠE xt
ĠSp orts
h op
ĠBe fore
Ġsurpr ise
ĠS aint
Ġremain ing
Ġholid ay
ĠF arm
Ġbrow sing
Ġsymb ol
Ġpain ting
l ong
Ġcontem porary
ific ate
b um
Ġcare ful
ĠFranc is
Ġanaly tics
oun ce
Ġp ill
Ġd ude
i pt
F OR
Ġsubs cription
Ġcreat es
ĠCh icago
ious ly
h tml
ĠP eter
Ġsign ed
Ġcrim inal
ĠSte p
Ġframe work
er ies
Ġkeep s
Ġimmedi ate
Ġmoder ators
Ġchar ged
Ġconduct ed
ĠA T
Ġrem ained
Ġrestaur ant
P r
Ġnot ify
ĠU t
Ġcal m
ll a
ra ge
ĠJ ava
Ġlog ged
C S
Ġtrust ed
ĠBro ad
re ation
ut ter
Ġsupport s
Ġrecord ed
ll er
ĠP R
ĠL ink
Ġmill ions
ĠA ff
ĠD a
c a
Ġre in
Ġimprove ment
ing ly
Ġacknow ledge
ĠB rown
ĠCh ief
Ġsw im
Ġunder t
Ġsome where
Ġorgan ic
Ġesc ape
Ġreal ized
Ġro se
Ġrelig ion
ĠJapan ese
4 8
p o
r ated
Ġthem e
Ġpick ed
ĠMart in
Ġpre par
Ġpl astic
AN D
Ġal ive
ĠV an
ound ed
IL L
Ġb are
Ġno ise
en ate
Ġb odies
m od
ot ed
c ar
He re
ĠD ub
f o
ĠTh us
Ġbeg ins
ĠMin ister
ic ing
ĠC ost
um a
Ġent ity
ĠK en
c ies
Ġobs erved
ĠChe ck
Ġs am
ĠB as
Ġal ter
Ġrel ief
Ġsurround ing
ĠF ederal
Ġcl ar
Ġwor st
Ġattack s
sec ut
ĠCong ress
Ġsp in
Ġd ining
ist ers
Ġl atter
Ġhand ling
ĠE nd
ĠS ar
Ġus ual
Ġsustain ability
ĠComm on
ĠF ord
ĠCap ital
or ne
Ġcy cle
t ical
Ġo cean
Ġint ent
Ġcont rast
Ġag encies
Ġport folio
ĠCol umb
w an
Ġcomp rom
Ġhous ing
rit ing
Ġdra ft
Ġrel ation
ip al
Ġinstru ment
. ;
Ġad ults
Ġvib rant
prof it
um er
Ġhum ans
Ġrese arc
ĠPr ince
ĠR oyal
Ġa est
ill iant
re al
riv es
Ġphil osoph
r d
v ity
h ors
Ġinf o
Ġemail s
Ġjo int
Ġstruct ures
co hol
Ġ200 8
Ġp il
ocr atic
Ġph ase
Ġinst ant
Ġaw esome
Ġp odcast
ĠLear n
Ġfun ny
Ġdeal ing
S P
ĠAmeric ans
Ġbl ow
Ġmov es
d ate
Ġcon ference
itut ion
Ġn uc
yth on
ill y
aw ay
ĠSc ott
Ġe gg
ĠH ave
res ents
Ġess entially
ĠC e
ĠS ales
ĠM en
ĠF ull
4 7
un a
Ġmount ain
Ġexpl an
ĠProfess ional
Ġfollow s
ĠSecret ary
ig er
ĠG al
aut hor
Ġrequest s
C ar
M ar
Ġcan cel
ĠQu est
9 5
Ġo ught
Ġn aturally
ĠE V
ĠJ on
ĠP oint
Ġnot ed
Ġ4 5
w est
ĠMan ager
Ġsens itive
Ġtail ored
ul pt
AR T
Ġadvant ages
es sel
Ġter rit
ĠL ive
Ġtw ice
B u
h ome
n ame
Ġ @
ke nd
6 6
P U
Ġme rely
ĠP acific
Ġf ault
Ġnot iced
ĠCh apter
Ġac celer
le ctions
Ġme al
the ir
ou red
ĠF ac
Ġdescrib e
uz z
h an
Ġv s
Ġman if
Ġr ig
ĠGe orgia
Ġempt y
Ġany more
in ent
ĠC ross
ĠH and
Ġdiffe rences
S A
Ġr u
w ind
ish ment
R ead
Ġcont ents
co in
Ġbl ank
um ps
ĠK night
Ġsurg ery
m ade
Ġdest ination
Ġb en
ast y
an o
Ġdis s
wor ld
Ġstrugg le
ist ant
ĠEx ecut
Ġdam ages
Ġend s
ĠH old
Ġconc rete
Ġpublic ly
Ġspec ified
Ġfit ness
ĠUk raine
k et
ĠB BC
os ystem
Ġch apter
Ġtechn ique
Ġdistribut ed
Ġh urt
Ġdeep ly
F T
g as
ĠW ild
Ġco vers
ĠH aw
ĠV ict
Ġrecommend ations
lev ision
Ġro les
Ġh ole
ens ity
Ġsupp lement
Ġp hen
Ġvisit ing
on ial
Ġexper iment
ĠY e
Ġdru gs
ste in
Ġp ipe
Ġl uck
Ġbuild ings
Ġsy n
Ġsub sequ
Ġdiscuss ions
Ġansw ers
Ġlim its
ĠR oom
Ġp ed
Ġl it
Ġre ject
Ġpass ing
Ġappro ximately
Ġj ack
F L
ign ed
ĠCons ult
Ġs ought
ter y
Ġover w
Ġt one
te en
Ġ19 7
Ġpur s
Ġexpl oring
Ġph r
ĠS et
ĠJ im
Ġconne ctions
Ġtest s
Ġsty les
Ġregard less
ĠTH IS
Ġg ro
Ġdri ven
ĠB ox
Ġen ables
Ġcapt ure
F A
ll y
Ġant icip
ĠAuthor ity
ul s
Ġpo ly
Ġg rown
Ġr om
ĠTH AT
A meric
ain ing
ap ore
Ġuserg roups
Ġal ert
ind er
Ġextend ed
Ġauthor ities
Ġtal ent
" )
Ġtr uck
Ġcy ber
ĠRich ard
Ġstr ing
ĠAg ency
Ġsh arp
viron ments
ĠS uch
ĠM iddle
ĠH or
An y
Ġenem y
Ġrep resents
Ġtre nd
Ġpartners hip
u ous
Ġconsider ation
Ġtradem ark
L et
ĠI ll
Ġappoint ment
Ġacknow led
ag on
Ġesc ort
ĠM id
A K
enn es
it i
il er
Ġcreat ivity
Ġult imate
ĠAn other
Ġdelic ious
Ġintegr ation
Ġg ear
Ġreplace ment
r ich
Ġb anks
Ġhe aling
Ġindust ries
ĠPart ners
Ġregul atory
ĠPl us
Ġarchitect ure
Ġh ang
ac hel
Ġrob ust
l v
Ġemot ions
Ġill ustr
am ber
ĠP an
Ġincred ibly
ĠE ss
Ġobs erv
p m
ĠN on
Ġw ave
ĠS S
ĠSp ace
ic he
Ġsur vey
m p
Ġco ordin
ĠDo es
ĠLear ning
ĠC redit
Ġde fect
Ġneg oti
ĠIt alian
Ġgr ass
ĠReal ty
b ro
ĠA C
Ġdes k
l ooking
ĠCl in
Ġincreasing ly
ig en
Ġ ille
Ġinter face
Ġguarant eed
Ġcommon ly
Ġjud gment
ĠJose ph
Ġres il
Ġent reprene
Ġwarrant y
? âĢĿ
ĠSt ock
os it
w ill
ĠSt at
ph p
Ġdeg rees
Ġcampaign s
ĠN ap
ĠRober t
Ġche cking
Ġopp osite
Ġimpress ive
ar te
ple te
ĠHel p
Ġfav our
Ġpr ide
Ġprocess ed
ĠCon nect
ĠSund ay
Ġun like
o ch
Ġc up
b urg
Ġrel atively
Ġdom estic
Ġsuff ering
Ġair craft
r ition
Ġqu ote
tern oon
ĠSc ot
app y
ĠSci ences
Ġl osing
ĠSer ies
Ġ era
Ġt or
ĠF ed
g ent
Ġform ed
Wh o
Ġreg ions
ur ation
ors es
ER V
Ġrepe ated
ĠMicro soft
pe l
Ġlove ly
Ġen abling
g ener
Ġc ooking
st ery
Ġj ew
ĠB oth
Ġbl ocks
Ġve nd
Ġl oyal
ut ch
Ġad ult
Ġincor rect
Ġc ro
Ġp ump
Ġcrit ic
Ġadvert ise
ir med
ĠL os
Ġso ph
Ġdes ired
ĠIs lam
Ġview ing
or al
if ies
Ġde als
Ġevery where
Ġterr or
Ġrequest ed
k ins
olog ist
Ġob st
Ġlegit imate
Ġt ough
Ġw ise
ĠPro cess
Ġmag ic
Ġfour th
ĠThom as
Ġcorrect ly
Ġvill age
ant ed
ĠAre a
n ings
Ġatt orney
be ll
az a
F in
am ental
ĠY et
RE E
ce ive
Ġauthor ized
ĠM aterial
ĠW E
Ġabs or
Ġrecogn ition
ĠFore ign
pro duct
Ġp ills
Ġdra wn
4 6
Ġf ro
Ġd ivid
we ight
ĠMan ufact
Ġclot hes
Ġf inger
Ġdiscuss ed
Ġrestrict ions
P al
Ġf ool
Ġar rest
Ġh i
ĠH ard
cl ing
Ġdr am
s ub
Ġn arrow
Ġre ly
Ġble nd
A cc
ous es
ĠAut om
Ġhe s
ĠCO M
i ar
ĠF oot
Ġres olution
ĠBe aut
Ġhead s
Ġbath room
b ur
Ġsur f
Ġst ead
Ġfil ter
Ġguid elines
ĠCo ast
IG HT
Ġunt o
' )
l aw
Ġact s
Ġapp lies
How ever
Ġremark able
Ġins ight
C ustom
v y
Ġf irms
Ġro y
Ġdis cipl
Ġsol ve
Ġmag n
Ġserious ly
Ġreg ional
ĠSh ould
Ġappro aches
Ġed ited
Ġintegr ated
Ġcontroll ed
Ġn ative
Ġst ake
ans as
Ġple ased
Ġune x
p ir
Ġche ap
Ġcompens ation
ent ures
Ġcommun icate
ed ing
ĠPay ment
S pe
ri ers
Ġout standing
Ġboard s
Ġweap ons
Ġa thlet
Ġs essions
Ġcon ver
E very
ĠF ollow
ffect ive
ĠIm p
ĠSec ond
Ġpack aging
ask a
Ġcre am
y an
Ġd ates
Ġinc ident
Ġform al
ĠJ ac
ĠKore a
ĠL ux
ĠV ideo
Ġfl ood
ER E
ord inary
Ġprogram ming
Ġunc ertain
Ġconsequ ences
Ġch amp
Ġpr ince
F irst
ĠI de
ĠM ort
Ġdream s
it zer
Ġm ad
Ġst im
Ġany body
Ġfin ance
Ġqu een
ĠBook s
Ġefficient ly
ĠAdministr ation
Ġw isdom
Ġpo et
Ġlist ing
Ġmonth ly
Ġtreat ments
ĠNe xt
Ġfore ver
ĠA ng
ĠN orthern
Ġequ ipped
Ġb oss
ĠM ike
i el
Ġargu ment
Ġincre ases
Ġexclus ively
ur a
Ġpres ents
Ġpromot ing
Ġboy s
Ġoblig ations
Ġ urban
Ġsatisf ied
h ire
ĠB id
at re
ĠW il
Ġy ield
el ry
Ġdis m
ond ay
Ġh ast
ĠB it
Ġsome what
Ġoverw hel
Ġrep rodu
Ġvis ited
Ġamount s
U p
or able
en ess
Ġfac ing
Ġv essel
Ġout come
Ġcarry ing
S ave
ĠWor ks
oo f
ress ed
( );
p ost
Ġt ag
az z
Ġad min
Ġorgan ized
ĠBu ilding
im ents
Re g
Ġfl avor
Ġd ating
ĠD E
Ġprim arily
S te
ES T
ĠTr ade
Ġinc ent
ten se
A A
Ġtr ick
Ġal bum
O f
Ġinst ruct
Ġt iny
Ġse ctions
Ġme at
The n
ĠW ay
Ġ20 00
Ġk ne
ĠChar l
Ġliter ature
ĠR om
Ġpl ain
Ġmo ist
5 5
og ue
Ġre form
Ġu pper
Ġd ust
Ġsh oes
per or
co very
st yle
ru ption
clud es
Ġhy per
fl ow
ĠK ong
ra ction
B D
re f
ĠT reat
Ġbed room
Ġlab el
in er
on ia
Ġg ifts
ĠM att
our se
Ġlight ing
Ġprior it
M ore
Ġopin ions
it led
Ġev olution
u h
Ġv it
ĠG allery
Ġim per
ch ain
rol og
C omm
Ġin ner
ld er
Ġinvest ing
ĠZ eal
Ġal le
omet imes
l ers
Ġp apers
Ġsp r
ĠB al
ĠL ocal
ole on
ennes see
Ġm it
ĠLe gal
Ġsupp ose
Ġtransm ission
Ġh all
ĠD ra
com fort
ribut ion
Ġrepresent ation
IV E
i very
on ed
Ġar ts
Ġcontrol s
Ġa x
ĠF air
Ġen vironments
Ġro w
Ġlog o
if fe
Ġadd s
ak istan
ĠAd vis
ar ge
ĠCon ference
Ġsc an
b a
at i
ĠD rive
th rough
Ġtime zone
li ers
ire ment
O ther
Ġres idential
p ower
Ġins pe
Ġshould n
ha ust
Ġlaun ched
ig ating
Ġag ric
Ġinvest igation
ed ge
ĠP rom
az e
le vel
Ġown ership
ĠLe g
Ġmov ies
Ġconsum ption
âĢĿ ),
aw are
Ġhapp iness
Ġlist s
Ġdang er
ĠProfess or
U nder
Ġre b
Ġevery day
Ġaccess ories
Ġquant ity
Ġinter action
ĠO cean
ĠElect ric
Ġflex ibility
ĠCl ick
Ġwat ers
Ġcont ro
Ġact ing
br idge
Ġenem ies
j ection
Ġannounce ments
Ġs ample
ĠG row
Ġinvest ments
ĠAnge les
Ġnews letter
Ġking dom
ĠH oly
ĠJ ordan
Ġdifficult y
ĠCook ie
Ġn urs
Ġrou te
N ame
Ġthe rap
Ġwar ning
Ġaddress es
p any
Ġrespect ive
Ġ3 00
Ġh ire
m o
ov a
Ġpre gn
Ġsearch ing
I AL
est y
ĠF uture
ĠRe f
pa per
Ġsign al
Ġrapid ly
Ġperman ent
ar ia
Ġfig ures
ol t
Ġcl imb
Ġt act
ĠPl ace
Ġcharacter istics
ul ing
Ġyoung er
ter day
be red
Ġstrong er
Ġter rible
Ġc ater
S w
ĠExecut ive
p ie
t le
in ity
Ġse m
Ġsc ar
Ġfol ks
Ġr ising
ĠL ady
Ġgener ated
ĠSt ore
Ġexp osure
atur day
Ġvis ible
Ġord ered
G B
ĠF act
ĠYou ng
Ġtrans formation
wh o
An other
ro gen
ĠB Y
E ach
us ter
Ġrec on
Ġme ets
du ction
ĠFor ce
ĠZeal and
Ġenter prise
ir ts
ĠW at
Ġreve aled
Ġspl it
Ġb ond
IC E
Ġexc ite
a ud
Ġre nder
ĠW ITH
Ġsoph ist
ĠCon f
Ġye llow
F F
Ġ200 7
ĠNe ed
Ġsav ings
Ġfair ly
ĠR oman
Ġbre aking
Ġfasc in
Ġca using
Ġphen omen
Ġj u
so le
ĠPl atform
ist ed
Ġpolit ics
ĠI ss
Ġuserg roup
ac ious
ĠAnd rew
AP TER
Ġnarr ative
Ġre ar
ĠT R
Ġflow ers
Ġmus cle
Ġfund amental
AC K
Ġsurpr ised
ĠA LL
Ġemp ower
od ing
ĠSh are
ĠColor ado
Ġqual ified
Ġlaw yer
Ġlo ans
u ce
Ġgra ce
Ġatt ached
s uch
as tern
S cript
ost on
ĠB an
Ġn ations
ĠÂ ·
Ġphot ograph
Ġg ained
ian ces
Un ited
Ġbuy er
ra cy
Ġaf ternoon
Ġtrad ition
i ot
li ament
Ġaccess ing
Ġequ ity
Ġsch olars
it ar
Ġsupp lies
Ġbro ker
Ġobl igation
oy s
Ġdem ands
Ġdevelop ers
P C
ĠT imes
if ting
Ġaut hors
ĠB ang
Ġtest ed
p age
se ct
Ġec osystem
ig ure
ri ven
u ct
Ġcontribut ions
Ġt ur
Ġv acc
ĠJer sey
Ġprefer red
ĠL ow
ĠU sing
ĠInst ead
Ġmanufacture r
Ġst ability
ĠAv ailable
Ġchann els
ay a
Ġst orm
k ers
Ġmor al
Ġpray er
ap arte
Ġbro ke
ph pBB
Ġst uck
Ġco ach
ĠWe ek
Ġdes ert
angu age
Ġm oon
ot y
ch ing
ĠM ur
ate ful
Ġtyp ical
r as
Ġwe aring
Ġocc as
Ġch ances
Ġread er
Ġachie ved
Ġc ul
Ġsp am
ĠAustral ian
6 8
ĠN Y
Ġtransport ation
c ount
Ġfind s
ĠTe ch
AL L
ut s
de f
Ġmur der
Ġelig ible
Ġs izes
ĠCath olic
ri z
Ġinf ring
Ch rist
ĠTy pe
Ġsacr if
Ġdis h
ĠP ub
ĠD am
Ġfocus ing
og a
et ers
Select or
= "
D is
ll s
Ġstre ets
Ġd ental
Ġev ident
b its
ĠC apt
Ġbr idge
ĠWith out
Ġintegr ity
Ġt all
et ime
st ream
Ġrepe at
C he
j a
Ġwide ly
char ge
Ġprote in
vent ional
Ġsuper ior
S ec
g ov
Ġl oves
Ġconf idential
Ġin tense
Ġp owers
ĠLe vel
p ed
Ġbenef icial
Ġp in
Ġas ide
Ġdist ingu
ĠJe ff
z il
Ġgreat ly
ur ious
Ġcomp at
Ġinsp iration
o a
ĠS outhern
E ng
Ġw est
ĠP ot
P M
S m
Ġwh ilst
um mer
Ġinstru ments
ĠJud ge
t able
ĠEx change
Ġplan e
ĠEm ploy
ĠM LS
ri x
Ġbon uses
Ġmanif est
ĠSp ain
Ġvers us
Ġloss es
' ;
Ġp owered
al ty
Ġth in
ĠPhil ipp
c ular
Ġke ys
Ġsy nt
Ġnorm ally
Ġrece ipt
usal em
G e
ĠS anta
ĠE th
v a
ail ing
Ġs ons
Ġcan cell
