#version: 0.2
Ġ t
Ġt h
Ġ a
Ġ i
Ġ w
Ġ s
Ġth e
r e
i n
Ġ o
o u
a t
e r
Ġ b
Ġ c
n d
Ġ h
in g
Ġ m
Ġ y
Ġt o
Ġ d
Ġ f
o n
Ġ l
Ġa nd
Ġ p
Ġy ou
Ġ g
l l
e n
a n
e s
o r
i s
Ġ n
Ġo f
Ġi n
Ġth at
Ġi t
i t
u s
e d
a r
a s
o w
' s
Ġw e
Ġw h
o m
i c
v e
e t
Ġ e
Ġi s
u t
l e
o t
Ġb e
Ġ u
a y
Ġo n
a l
k e
Ġs o
Ġh e
Ġ re
Ġth is
Ġh a
Ġg o
i on
i g
Ġ r
v er
a c
Ġl i
a ll
Ġs t
i d
Ġ j
Ġ k
Ġf or
l d
en t
l y
s e
Ġd o
a m
h t
s t
c t
Ġli ke
us t
' t
i m
it h
Ġw as
Ġa n
ig ht
Ġha ve
Ġb ut
u r
r o
Ġs e
Ġw ith
all y
a d
Ġwh at
Ġc an
Ġthe y
Ġm e
i r
Ġj ust
Ġk n
Ġs h
Ġa s
c h
Ġn ot
t h
o d
' re
Ġa re
Ġkn ow
Ġn e
om e
Ġa ll
Ġthe re
i ll
an t
ou ld
c e
Ġc h
o p
us e
Ġl o
Ġa t
Ġi f
Ġa b
Ġgo ing
t er
Ġm o
Ġo r
e re
Ġm y
Ġd e
Ġf r
p p
Ġon e
Ġyou r
i l
' m
at ion
Ġt r
e a
ou t
Ġa l
Ġu h
ver y
Ġe x
Ġg et
Ġ [
a in
Ġc om
q u
Ġc on
o l
Ġ v
g e
Ġr ight
Ġhe re
Ġd on
Ġp ro
Ġn ow
o k
u l
es t
u n
es s
Ġu p
Ġo ut
Ġw or
a b
er s
in k
at e
a use
Ġs u
Ġbe c
ar t
Ġab out
in d
ac k
a ke
Ġthe n
i ve
i f
u m
e l
Ġs ome
Ġse e
us ic
Ġfr om
Ġw ant
Ġs p
Ġth ink
Ġp l
ou g
i e
Ġ us
m usic
Ġwh en
Ġbec ause
a nd
Ġin t
is t
Ġn o
Ġu m
Ġth ing
am e
Ġh ow
ea h
Ġy eah
e ct
n t
Ġt im
Ġl et
Ġs ay
Ġ 1
Ġw ill
or t
Ġw ould
Ġt e
o s
Ġp e
ic h
id e
Ġl e
et h
Ġlo ok
u re
a p
Ġc o
Ġb y
a k
as t
c k
Ġre ally
ar d
v en
Ġg ot
ou nd
Ġthe m
Ġthe se
Ġmo re
Ġwh o
in e
it y
oug h
Ġo k
Ġa ct
Ġo ur
r i
Ġpe op
Ġwh ich
Ġpeop le
Ġd id
Ġtim e
Ġok ay
Ġan y
Ġ qu
ou r
Ġp re
Ġa r
Ġc l
on e
o re
Ġha d
' ll
Ġf e
Ġs a
Ġe very
Ġm an
' ve
Ġwe ll
o se
m ent
Ġ en
ac t
Ġw ay
a re
m p
Ġ very
Ġh is
Ġb ack
a g
u ally
Ġwe re
i es
Ġh as
ou s
Ġa g
Ġne ed
it t
Ġo h
Ġcom p
Ġwh ere
on g
s o
ic k
Ġwor k
Ġb r
Ġo ver
Ġint o
ow n
Ġth an
h er
Ġa d
Ġs om
Ġgo od
f f
ic e
i p
ac e
Ġp r
it e
Ġg r
Ġg u
a ge
Ġc ould
e p
re at
Ġt w
th er
Ġ 2
Ġthe ir
Ġu n
i re
Ġm ake
Ġal so
Ġs c
Ġme an
b le
Ġf ir
e m
i z
w ay
Ġact ually
e ar
b er
s s
ac h
Ġfir st
p t
Ġsh e
Ġex p
Ġa m
0 0
Ġbe en
al k
Ġr o
Ġk ind
eth ing
Ġsom ething
Ġo ther
Ġb u
Ġd own
Ġe ven
Ġtw o
i v
re e
ion s
Ġp o
itt le
Ġthing s
Ġl ittle
Ġb o
Ġh im
Ġof f
r a
Ġcon t
r y
nd er
if f
Ġst art
u e
Ġl ot
Ġdo es
x t
as s
Ġb l
u d
as e
Ġth r
Ġd iff
Ġt ake
ab le
Ġm u
Ġ use
in t
Ġag ain
Ġp art
Ġm ay
b e
Ġa c
Ġth ose
Ġa pp
Ġy ear
Ġmu ch
Ġne w
am p
Ġc all
Ġ ke
f t
i al
is h
th ing
Ġon ly
Ġh er
Ġf o
Ġi mp
t ing
Ġwh y
Ġp er
v ing
Ġf l
Ġha pp
Ġdiff ere
y s
Ġt alk
Ġp ut
ig n
c o
Ġb et
Ġc ome
or m
an g
Ġpl ay
Ġsa id
se l
f e
en ce
Ġd ay
i le
Ġthr ough
od y
n ing
an s
Ġre s
Ġtr y
or d
Ġa f
ul t
or y
ot her
an ce
i ous
Ġd is
Ġu nder
a v
p er
en s
i ld
ad e
Ġb it
at ed
Ġsh ould
e nd
ve l
Ġdiffere nt
c ess
Ġfe el
Ġmo st
f ore
Ġgo d
t y
ou nt
at er
Ġdo ing
Ġst r
Ġre m
Ġaf ter
Ġst ill
Ġd es
e c
Ġsh ow
ic ally
Ġw r
Ġj o
u ll
ic al
ation s
Ġb as
u ct
a il
Ġbe ing
Ġi d
Ġad d
Ġg reat
w n
Ġb ig
Ġs ame
ar k
ur n
at ch
Ġr un
Ġdid n
Ġbe fore
Ġe nd
o g
Ġs er
Ġ 3
Ġh o
sel f
Ġwor ld
Ġar ound
ak ing
Ġc ar
u g
ar y
Ġpo int
Ġp h
Ġcom m
Ġhe l
Ġyear s
Ġli fe
Ġs et
Ġto o
Ġs m
Ġg ive
Ġre al
ad y
Ġman y
re d
Ġne xt
Ġbe l
Ġte ll
i a
Ġf ind
l es
re ss
Ġc r
Ġd r
Ġin c
Ġl ong
Ġs y
Ġmay be
Ġin st
it ion
Ġth ree
Ġlo ve
Ġin s
oug ht
d ay
Ġf un
ver s
Ġo b
f ul
n a
Ġm in
f orm
ow er
b ody
Ġy es
l ic
Ġan other
Ġs im
Ġhel p
or s
Ġp ers
Ġthan k
at h
ot h
Ġm ight
Ġsu re
way s
Ġne ver
e ver
Ġn um
Ġd at
an ge
Ġre p
v es
Ġh ig
m s
Ġc re
Ġst u
Ġf in
Ġs l
w e
Ġp os
Ġin ter
y p
ak es
Ġv ide
Ġo p
Ġhapp en
Ġm od
v ed
Ġevery thing
Ġde f
j ect
Ġe v
i ble
Ġi nd
Ġm ade
ab ly
ct ion
a pp
Ġat t
Ġg en
Ġre c
Ġch e
Ġke ep
Ġi m
is e
Ġde c
e ad
at ing
Ġqu est
on s
Ġdoes n
Ġal ways
Ġgu ys
i x
eth er
u al
Ġpre t
l o
Ġe ar
c es
Ġ ent
ent s
Ġha nd
Ġpro b
i ly
co nd
Ġc our
er t
Ġit s
Ġl ast
Ġg ame
is s
Ġpers on
Ġse cond
Ġo wn
Ġpret ty
h ing
Ġw a
u b
ut e
i ed
Ġbet ter
Ġre l
g r
on na
Ġprob ably
Ġhig h
Ġus ing
Ġdon e
Ġbu ild
Ġt yp
e ll
Ġg onna
Ġe l
i an
Ġ z
Ġas k
ic t
l et
Ġto day
ou p
Ġstu ff
Ġget ting
Ġ2 0
Ġdat a
od e
iz e
Ġcall ed
Ġl a
Ġunder st
Ġ 5
op e
Ġvide o
Ġc le
Ġe as
Ġnum ber
w ard
Ġn ame
st em
Ġop en
Ġsu pp
Ġin v
Ġsp ec
Ġbel ie
Ġh ard
Ġv al
Ġp ower
as on
Ġ 4
Ġab le
ul ar
Ġcon s
Ġm on
Ġl ist
Ġs ur
Ġto p
Ġimp ort
Ġth ought
Ġsy stem
Ġe m
Ġle ar
Ġpl ace
Ġs ort
Ġus ed
Ġpro ble
Ġunderst and
Ġany thing
Ġt urn
Ġmo ve
Ġa way
at es
Ġsu b
i b
Ġac c
s h
Ġf our
Ġt er
Ġf act
Ġtry ing
at ter
' d
Ġcour se
en se
Ġlook ing
Ġw ar
Ġc u
Ġb re
Ġex amp
Ġe ach
Ġc ol
Ġpro d
Ġp ass
Ġen g
if ic
Ġwa it
Ġwh ile
Ġm om
o ck
Ġon ce
o st
Ġ1 0
ere st
Ġb est
Ġs ide
Ġl ea
Ġc reat
Ġche ck
re ady
Ġw atch
Ġal ready
Ġex t
Ġ ]
Ġgen er
Ġs k
Ġa ir
Ġ _
at her
i ence
Ġ_ _
Ġc or
Ġint erest
Ġf am
ie w
Ġsim p
Ġch ar
Ġwho le
Ġe ver
o od
Ġ -
Ġsay ing
al s
i ent
Ġc are
n ess
i ally
i er
one y
Ġhe ad
Ġm a
Ġcon f
ing s
Ġb oth
Ġde p
Ġm ar
ere d
Ġt est
l ause
Ġpl an
Ġw ent
Ġe le
g er
Ġo ld
ic s
il ity
app lause
k s
a z
Ġch ange
Ġf ound
Ġn ice
Ġcre ate
Ġ1 9
re n
Ġc ap
c ri
Ġbas ically
we en
Ġexamp le
Ġbet ween
Ġf ar
Ġcom ing
u c
Ġa h
Ġimport ant
ol og
Ġsay s
ment s
Ġfe w
Ġwor d
em ber
at ure
Ġquest ion
ce pt
Ġh ome
ie nd
p h
Ġte am
Ġl ight
Ġfor m
Ġs w
Ġle ft
Ġbe g
Ġtr ans
Ġm oney
as h
Ġth ough
ow s
Ġtalk ing
Ġco ol
Ġexp er
Ġmean s
d er
Ġc ame
Ġre t
Ġb ad
um p
Ġs in
Ġas s
Ġen ough
Ġc ur
Ġre g
on t
Ġb ro
Ġm aking
Ġc ase
Ġst op
Ġcont ro
Ġh u
Ġrem ember
v ious
Ġhe y
at ive
Ġto g
et s
Ġins ide
Ġpre s
ent ion
Ġid ea
Ġb us
Ġw ater
Ġm ind
Ġlook s
ou se
Ġh it
Ġh um
Ġe ff
Ġnot hing
w h
Ġtog ether
e w
Ġex act
Ġre ad
ir d
Ġbo ok
Ġtim es
Ġc ount
Ġha ving
Ġre f
Ġcom es
Ġs ign
a ir
Ġg l
Ġc ode
Ġproble m
Ġbelie ve
Ġl ine
b o
Ġst and
Ġstart ed
Ġe qu
Ġm iss
n er
Ġfr iend
Ġsu per
Ġsm all
let e
in es
Ġf ive
Ġwhat ever
Ġse c
Ġa ut
Ġqu ick
Ġs ing
un ch
Ġm ark
00 0
Ġwork ing
Ġwant ed
m an
Ġle vel
Ġel se
Ġres p
Ġsp ace
it ed
Ġgo es
n e
c us
Ġlear n
Ġd et
i o
Ġc ent
Ġch r
Ġre d
Ġexp l
Ġf ull
Ġ ed
Ġ 6
Ġbe h
Ġso l
Ġwith out
ur ing
Ġsome one
ll ow
Ġgu y
u p
Ġwe e
Ġte ch
Ġdef in
Ġf ore
it s
Ġs ch
Ġpos s
ert ain
in ess
am es
Ġd ire
Ġjo b
Ġm akes
it ies
Ġre ason
ro ss
Ġle ad
ar s
l ed
Ġst ate
Ġprod uct
Ġre st
us h
Ġco ll
Ġcl ass
an k
ar ch
re t
Ġdes ign
t en
Ġp le
Ġho ld
iz ed
Ġp ol
Ġqu ite
Ġsu ch
Ġcomp an
u es
ud e
Ġh ope
en c
Ġ es
o c
Ġst ud
n ect
m ost
ate ly
Ġh our
Ġtyp e
g y
Ġl ess
Ġse en
Ġw in
Ġm et
Ġcu z
Ġpro cess
vel op
Ġke y
Ġin f
g et
Ġm ain
Ġm ill
Ġah ead
y ing
it ch
Ġm ed
Ġn ight
Ġch ang
Ġpart ic
or k
Ġde velop
Ġf il
Ġu nt
Ġv ar
Ġfun ction
Ġs it
ea k
an c
Ġst ep
Ġs ound
Ġl ar
i et
Ġa p
Ġf ree
er ic
Ġun i
a ve
u ck
Ġwas n
Ġp ie
Ġsin ce
it er
Ġal most
Ġh ouse
Ġab s
Ġbr ing
re am
Ġw alk
l ess
Ġl ater
Ġv is
Ġme m
Ġmod el
et im
Ġfo llow
Ġcomp lete
Ġexact ly
Ġk id
Ġcon nect
ot e
re en
Ġp a
Ġa w
e xt
Ġp ick
Ġcl ose
Ġst ory
Ġf ight
ut ion
n ce
Ġad v
Ġh al
Ġk ill
Ġtech n
Ġcont in
Ġw o
Ġ 7
Ġtr ue
Ġc ertain
Ġbre ak
Ġli ve
Ġg iv
Ġhe ar
er n
Ġro om
at t
Ġsa w
ag es
Ġinterest ing
Ġgu ess
Ġor der
ut es
ot t
s w
f ect
ie ld
Ġbl ack
Ġ vers
Ġpro ject
Ġto ok
Ġcle ar
Ġe mp
Ġin form
Ġc ra
Ġmon th
Ġ x
Ġo pt
Ġre qu
Ġst e
Ġis n
Ġp ast
Ġcontro l
Ġw on
Ġc ut
m ed
h ip
Ġch ild
Ġday s
a ut
os ed
Ġs ense
Ġd ist
Ġser v
l ing
Ġf re
Ġevery one
Ġan sw
Ġc oup
Ġper fect
Ġbus iness
Ġeas y
Ġob vious
Ġbeg in
st r
Ġunt il
Ġmom ent
Ġ 8
Ġp ay
Ġfam ily
as ter
Ġm ess
Ġagain st
Ġb ody
Ġval ue
Ġam eric
e e
ug ht
Ġcl ick
Ġst ay
Ġsom etim
Ġy et
l t
Ġp op
b r
Ġ ve
Ġchr ist
Ġwr ong
are d
Ġ 9
Ġch o
Ġhal f
s ide
Ġm atter
g est
Ġm or
a le
Ġyour self
Ġe y
Ġf ire
a h
Ġlo c
Ġent ire
ith er
Ġp ar
p l
Ġinst ead
Ġo pp
Ġpro v
Ġm id
ure s
Ġwork s
Ġhe al
at or
Ġsometim es
id ent
is m
Ġw om
Ġex c
Ġa v
Ġle ast
Ġg i
Ġhappen ed
Ġw ind
Ġs ix
Ġthink ing
Ġevery body
Ġl and
Ġcoup le
Ġple ase
Ġget s
t on
ic es
wh ere
Ġpre ss
Ġinc l
e ed
Ġinform ation
Ġmin utes
er ing
Ġj es
Ġre ady
Ġto ld
Ġlist en
Ġar t
Ġde m
ver se
Ġhum an
Ġsing le
Ġm il
Ġabs ol
o nd
Ġdire ct
ter s
Ġtr a
Ġam az
a ught
Ġwith in
p ect
l i
Ġm ult
gr am
b ers
Ġabsol ute
Ġh ist
Ġc al
Ġeng ine
ite ly
Ġo per
Ġpr ot
Ġm ust
Ġhe art
r ic
Ġp ull
Ġt aking
it ing
Ġp ur
Ġrun ning
Ġfr ont
qu ot
a x
im e
Ġcomm un
Ġd ri
Ġsome body
Ġpro gram
Ġjes us
Ġgr oup
Ġbec ome
Ġs n
Ġf ace
ist s
Ġb ar
z y
Ġde al
en e
Ġte mp
Ġlea ve
Ġf ile
Ġlo g
Ġf ig
Ġto n
ro p
b s
Ġv iew
Ġfo od
Ġcon c
Ġbe aut
Ġdefin itely
Ġs or
Ġs qu
Ġpartic ular
le x
Ġsp eak
Ġ $
Ġde ep
Ġd uring
Ġp ri
an n
Ġtr ain
l and
ap e
Ġf ine
Ġh on
Ġwh ite
Ġe ither
Ġall ow
Ġf ast
Ġm ag
Ġob ject
ot s
in s
Ġsupp ort
Ġsu c
o ol
o ve
Ġso c
Ġt akes
end o
Ġle g
Ġk ing
Ġhe ll
Ġte xt
Ġsimp le
Ġexper ience
Ġto ol
Ġl ink
ation al
il t
Ġpr om
Ġb ab
Ġobvious ly
le ct
Ġp ub
Ġl iter
Ġ er
d d
Ġs al
Ġde v
c on
Ġcompan y
Ġp ain
Ġeff ect
Ġgr ow
Ġof ten
m in
Ġsor ry
Ġm en
Ġwh ether
Ġl ay
Ġev ent
Ġd i
Ġp ot
Ġbeh ind
Ġis s
Ġag o
en g
v iew
Ġhapp ens
t s
Ġret urn
Ġh ar
Ġpro f
g an
Ġal ong
Ġac cess
an e
ou d
Ġf u
Ġf all
g n
Ġbuild ing
ull y
Ġatt ack
Ġposs ible
l f
olog y
Ġ1 2
Ġb all
Ġkn ew
Ġ &
Ġsh ort
Ġwr ite
al ity
ac es
Ġes p
Ġres ult
av or
Ġcol or
Ġm ach
Ġyou n
Ġc ust
re s
ain s
Ġw ow
Ġs ou
ward s
w ork
Ġrec ord
m m
Ġn et
Ġc op
Ġexp ect
re w
Ġdes cri
Ġr a
ap s
id ed
Ġpo st
ort un
Ġ <
Ġansw er
| >
ft ext
endo ftext
Ġ< |
Ġ1 5
Ġto t
Ġwee k
Ġsch ool
Ġabsolute ly
Ġen er
Ġfo cus
at s
ire d
r act
Ġac ross
Ġstr ong
Ġmill ion
sel ves
c i
Ġco nd
Ġse nd
id es
Ġmy self
Ġare a
Ġim ag
Ġn orm
Ġh ot
Ġ3 0
Ġhow ever
Ġl ow
er o
Ġm eth
re nt
Ġ1 00
Ġcust om
Ġsh o
Ġhour s
Ġsuc cess
ap h
Ġchar ac
or ies
Ġf ut
Ġst ar
i pp
Ġpos ition
f ully
Ġapp lic
Ġm usic
Ġbeaut if
Ġcomplete ly
Ġfin ally
are nt
Ġinter n
Ġbl ock
Ġl ang
Ġear th
ur al
ou n
Ġplay ing
l ine
Ġc ity
itt ing
Ġb ott
Ġout side
Ġinv est
c om
Ġapp ro
Ġper form
Ġg ir
Ġquest ions
Ġme et
Ġwo nder
Ġma j
Ġhe ard
Ġpr act
j o
Ġesp ec
Ġespec ially
Ġcomm and
p r
Ġheal th
um ent
Ġele ct
if y
ou ch
Ġf ield
id er
it ive
Ġway s
Ġn or
Ġear ly
Ġener gy
Ġor ig
Ġbo x
Ġd ark
Ġst ra
Ġpro per
Ġl ord
Ġch all
is ion
Ġph ys
Ġh or
Ġlang u
Ġliter ally
u ce
Ġm ass
Ġfut ure
Ġst ore
it al
Ġp ort
Ġamaz ing
iz ation
Ġfig ure
Ġon es
Ġro ck
Ġit self
Ġw all
Ġmeth od
Ġneed s
Ġcra zy
Ġb ill
Ġbas ed
Ġla w
Ġgr ound
Ġam ount
il ar
m ing
Ġm ention
Ġp ack
Ġwould n
ish ed
Ġre le
Ġha ven
Ġwatch ing
Ġmaj or
Ġthank s
Ġlar ge
Ġbeautif ul
Ġhapp y
l er
Ġus er
Ġhist ory
Ġd ra
Ġbu ilt
Ġcomp ut
Ġbab y
Ġvar i
el s
Ġsee ms
Ġd am
ip le
as es
Ġcreat ed
r on
Ġgi ven
Ġincl ud
n y
Ġserv ice
Ġcle an
re m
Ġt able
Ġhu ge
d le
Ġd ou
Ġar m
Ġknow n
Ġfriend s
Ġsp eed
Ġspec ial
Ġa i
Ġc am
Ġorig in
Ġco st
Ġcur rent
Ġsu g
Ġbu y
i or
i ans
Ġjo h
Ġd iv
Ġfe ature
Ġth ird
Ġe at
n ot
Ġcount ry
p ar
pt ion
Ġpie ce
p ut
qu e
r ow
Ġso on
w are
Ġg one
Ġor gan
Ġar g
Ġword s
Ġp at
Ġlo st
Ġquick ly
Ġsp ir
Ġcould n
Ġd est
c le
enc y
. .
Ġjoh n
if t
Ġinc re
el t
i um
Ġex ist
Ġne ar
Ġc a
Ġsit u
Ġs un
Ġfore ign
Ġyoun g
os s
c c
Ġv o
Ġsim ilar
Ġhon est
Ġcor re
Ġ ess
t o
Ġg ames
Ġf ather
id ence
ant s
Ġs le
Ġm ot
Ġf avor
Ġse lf
c ed
Ġli m
Ġc ir
Ġsimp ly
ous and
Ġacc ount
Ġre ach
Ġth ousand
Ġsa ve
Ġch ann
Ġe p
Ġa ff
ion al
Ġm ic
ne y
Ġ5 0
or n
ri b
ak en
Ġid e
Ġpl us
Ġmo v
Ġmark et
Ġgir l
Ġen jo
Ġs our
r or
Ġfo ot
Ġmonth s
er y
lo y
Ġs ent
Ġp ush
Ġso ft
Ġmor ning
c ome
g ress
Ġmo ving
Ġz ero
Ġtr ack
ic ult
at ic
as ed
Ġqu e
Ġdep end
Ġcom b
Ġdo ll
Ġr ad
Ġdiff icult
Ġfin al
Ġr is
Ġstra ight
Ġrel ations
ent ially
Ġt ouch
Ġkid s
g ed
ent ly
Ġtr ad
Ġs on
ard s
Ġsh are
Ġmid dle
ur y
Ġj ump
Ġpub lic
ip s
Ġg ave
u le
is on
ver n
Ġro ll
Ġbr ain
Ġr ather
Ġn at
Ġse ll
b y
Ġinst all
ent ial
Ġvers ion
Ġde ad
Ġfeel ing
Ġprot ect
Ġf a
o ld
re ad
Ġde ath
Ġsl ow
s on
lo ad
Ġen c
Ġt ur
Ġf ill
Ġfor ward
on es
Ġli ving
Ġhappen ing
ab ility
Ġstart ing
Ġse arch
Ġcap t
Ġtr ust
Ġspec ific
Ġd ude
Ġto m
Ġan im
Ġsh ot
Ġman ag
Ġsub s
Ġen v
Ġs ize
Ġf elt
Ġf ail
Ġlangu age
Ġf ly
Ġco ok
Ġse ven
Ġsc reen
Ġv ol
Ġlo ad
Ġb unch
Ġlook ed
in a
Ġrelations hip
Ġaut h
Ġstr uct
Ġg e
Ġdo or
Ġus ually
Ġdet ail
Ġinc red
Ġb ase
Ġwant s
Ġmach ine
Ġgo vern
Ġask ed
Ġco ver
if e
in ed
ur ity
Ġexpl ain
Ġcomm on
Ġdis c
Ġp age
Ġsee ing
Ġter ms
Ġey es
Ġim age
Ġf ur
Ġbott om
Ġa ge
Ġchann el
Ġe ight
ter n
Ġcent er
er c
Ġspir it
Ġp ict
is ed
ut h
th ers
Ġcorre ct
Ġbec om
if ied
Ġb ur
Ġre co
Ġph one
g ing
Ġ1 8
Ġlong er
e x
Ġs at
r al
Ġgiv es
Ġ2 00
Ġfl o
Ġre se
Ġm r
Ġimag ine
Ġo thers
Ġcan not
Ġse lect
Ġp ath
Ġsp end
Ġneed ed
Ġhand s
r ay
Ġ20 1
f ace
Ġlear ning
Ġfor ce
Ġgiv ing
ra ft
Ġid ent
Ġwor th
Ġcon st
Ġst ates
i k
Ġpr ay
Ġany way
Ġr id
Ġcoll ect
Ġext ra
Ġchild ren
Ġgener al
ab les
ens ive
c raft
Ġbo y
Ġany one
Ġenjo y
Ġcl os
et er
Ġbel ow
Ġt re
Ġan al
g t
Ġdiffere nce
Ġpres ent
Ġsec ret
Ġsec urity
Ġs we
Ġsle ep
Ġit em
Ġoff ic
Ġappro ach
Ġt ar
Ġc ell
Ġapplic ation
ir t
Ġl ab
Ġknow s
b ed
Ġd ad
as k
Ġb att
Ġh ur
Ġre ce
Ġpur p
Ġst y
ve red
Ġbut ton
Ġdo c
in c
Ġa ud
Ġf ix
Ġsupp osed
Ġf air
ar ing
ir on
Ġp an
Ġdis co
ri ed
Ġp s
Ġwork ed
as ure
Ġg reen
Ġsw itch
Ġro b
Ġcon vers
Ġh un
Ġg er
Ġ est
Ġvide os
Ġdo g
Ġcont ent
u be
l ier
Ġan t
Ġdr ive
Ġte ach
it ions
Ġd ream
ver t
Ġs ong
Ġne g
Ġnew s
Ġpr int
Ġse ason
Ġstr ing
Ġtr uth
Ġenv iron
Ġm other
Ġm atch
Ġcharac ter
Ġd rop
Ġav ail
Ġin it
Ġc ult
Ġtr ied
Ġst ick
Ġm ount
Ġbegin ning
er v
Ġthr ow
Ġdra w
Ġcl a
Ġinv ol
Ġp ap
Ġsitu ation
Ġch ance
Ġbo ard
Ġj our
Ġch ur
Ġproble ms
Ġhim self
Ġt aken
Ġrep ort
n o
Ġque en
an ces
Ġd om
Ġwe ird
Ġwom en
Ġbec ame
Ġgr and
Ġan g
Ġc y
ac y
ro d
Ġequ al
Ġrese arch
iv es
Ġsa fe
Ġar ch
Ġc e
Ġ1 1
Ġchur ch
iv id
Ġsubs cri
Ġimp ro
Ġcontin ue
Ġtalk ed
Ġun f
Ġpl at
Ġbl ue
uct ion
rem e
or ing
Ġact ual
m ore
Ġpoint s
Ġwe l
Ġsur pr
iet y
Ġgo ld
Ġsound s
Ġre act
b all
um e
Ġob s
Ġro ad
Ġpower ful
Ġse par
l ish
Ġmic ro
Ġfur ther
Ġtell ing
Ġnot ice
Ġmult iple
ul ation
t e
Ġplay ed
Ġchang es
Ġg un
Ġsk ill
am ent
Ġhell o
Ġinf l
Ġb ene
Ġlo ck
Ġthem selves
ri es
k en
Ġr ound
Ġcam er
Ġm ater
Ġr ich
ie f
Ġd ig
ib ly
Ġsoc ial
Ġup d
Ġ20 2
med i
Ġo cc
Ġfavor ite
av y
Ġno body
Ġu lt
op s
Ġhu nd
Ġbr ought
Ġyou t
Ġser ies
Ġind ivid
aught er
in ation
o f
Ġuni verse
Ġst re
Ġopp ortun
Ġwom an
Ġhund red
Ġpro p
Ġameric an
iz ing
Ġear lier
l ight
le ment
Ġto wards
Ġmov ie
Ġaut om
Ġsho ot
Ġd ie
Ġb ed
Ġs il
Ġne cess
Ġpre d
Ġadd ress
Ġm ix
Ġt reat
Ġ4 0
Ġem ot
Ġavail able
Ġma x
Ġbl ood
Ġmater ial
Ġnot e
Ġnum bers
Ġ2 5
Ġnet work
Ġcomp on
Ġkn ight
Ġc amp
Ġst ri
ang er
Ġcl oud
Ġmin ute
Ġcont ain
e mp
Ġj ud
Ġser ver
Ġlo se
Ġbr and
Ġrep l
ist ic
Ġb al
Ġcon str
Ġp y
Ġfr ame
Ġwe ight
ast ic
Ġfeel s
Ġwe b
Ġput ting
om m
Ġser ious
Ġhig her
Ġcho ose
Ġnorm al
ition al
it ical
Ġt it
Ġex ec
Ġh y
Ġtra vel
e g
Ġare n
Ġmess age
Ġcop y
Ġmention ed
Ġc ross
Ġb i
iv ity
Ġm aster
Ġph ot
Ġn on
Ġsh ip
Ġturn ed
ul es
us ed
b it
o int
Ġch at
Ġla unch
Ġp arent
Ġli ves
Ġex cept
a ult
Ġchang ed
Ġenviron ment
Ġpri v
f ort
Ġnor th
m on
Ġf ac
Ġpr ice
Ġc atch
us s
i od
Ġdr ink
Ġo il
Ġperson al
Ġsour ce
en ces
Ġfl ow
Ġ1 6
Ġde b
ra el
Ġext reme
Ġper iod
n s
r am
cus s
Ġr out
Ġany more
Ġlearn ed
Ġd ot
Ġsqu are
Ġwor ry
Ġmean ing
Ġim medi
Ġcon cept
Ġcomput er
Ġind ust
Ġpres ident
Ġgovern ment
Ġse ver
ire s
Ġis rael
n et
Ġp al
l a
Ġpart s
Ġcomp et
Ġwel come
Ġun ited
Ġfl ight
Ġiss ue
Ġindivid ual
Ġl uck
Ġman age
u it
Ġst ream
ore d
ug g
Ġfin ish
Ġsecond s
z e
ure d
Ġc ard
Ġint ell
id ing
Ġdec ided
Ġrep res
Ġfu nd
ct or
Ġcir c
Ġab ove
gr ound
Ġcreat ing
m a
Ġgr ab
is ter
Ġm ist
c ent
Ġent er
Ġcol um
Ġsc ale
Ġv i
Ġapp ear
Ġcommun ity
Ġag ree
Ġde fe
Ġfor get
Ġinter view
Ġm ine
m b
Ġtechn ology
Ġev idence
Ġtyp es
Ġloc al
ant ly
Ġset ting
ere nce
Ġdat ab
Ġpre vious
Ġunderstand ing
Ġshow s
Ġp atter
Ġsur v
Ġe g
Ġcomp lex
Ġf it
Ġc ry
Ġyout ube
Ġwe bs
Ġvo ice
Ġ (
Ġrequ est
Ġeas ier
Ġact ion
Ġplay er
Ġstart s
y n
es ome
Ġsever al
Ġameric a
bo ard
Ġinclud ing
Ġfor g
Ġe ur
st er
Ġdis cuss
Ġorigin al
ol ution
Ġris k
Ġevent ually
Ġatt ention
Ġsee m
ib ility
Ġv ict
Ġdr ag
am ed
Ġtool s
Ġac cept
Ġp ark
Ġval ues
Ġb ish
Ġess entially
Ġab ility
Ġlot s
Ġplat form
ive ly
Ġs itting
Ġde li
Ġsp r
Ġbr other
Ġl ate
Ġsc ience
at ors
Ġco ld
Ġcontin u
Ġsystem s
t ed
c ast
Ġaw esome
Ġgo og
Ġpie ces
p s
Ġi ll
Ġwr iting
Ġpress ure
Ġcon v
Ġres our
Ġsou th
Ġp od
Ġjo in
Ġpict ure
Ġbig ger
Ġep is
Ġsc ient
Ġsp ot
Ġsome where
Ġprof ess
Ġbig gest
c ious
Ġbatt le
Ġthe ory
Ġl ower
Ġresp ons
Ġcertain ly
Ġ Ġ
pl ay
led ge
Ġ1 4
ig h
Ġwee ks
Ġso ld
Ġh op
ar ily
Ġsu mm
ate g
Ġm us
Ġm i
Ġbene f
ro om
es e
Ġr and
im ate
b ack
Ġst age
Ġpract ice
Ġcla im
Ġg lo
Ġse ction
Ġnat ural
n ed
Ġgo al
Ġal one
ress ion
Ġal th
Ġbe at
Ġfollow ing
Ġc ast
s c
il i
dd en
Ġger man
f er
Ġany body
Ġalth ough
Ġgoog le
Ġro le
Ġask ing
Ġh ang
pp ed
Ġhe at
Ġdou ble
Ġ1 3
Ġco ff
Ġsu dden
Ġbish op
Ġimp act
Ġph il
w ord
Ġint e
Ġtrain ing
r ation
Ġcons ider
Ġrec omm
en ge
in y
Ġr ange
as ons
itt en
is ing
Ġsc ri
Ġrecomm end
Ġsug gest
Ġd a
Ġw ood
Ġc at
Ġdest ro
Ġtot ally
Ġst at
Ġfa ith
Ġl ines
um b
Ġapp re
Ġj ack
Ġu r
Ġw ife
Ġn ature
g es
p ort
Ġfe ed
Ġadd ed
m y
as ing
Ġuni que
Ġlike ly
Ġwait ing
Ġbeg an
Ġplay ers
t ime
Ġsoft ware
Ġfun ny
il ities
Ġh ol
Ġpe ace
Ġsu ff
Ġcompan ies
Ġd av
Ġm ap
Ġt ast
Ġm ent
Ġf ish
Ġth reat
Ġmem ory
Ġdoll ars
Ġtar get
Ġconf ig
u ly
Ġresp ect
Ġd ro
Ġprov ide
Ġi r
Ġfe ar
Ġreco gn
Ġscri pt
Ġem ail
Ġmed ia
i ents
Ġw ish
Ġperform ance
Ġmod ern
d y
Ġho ly
Ġdevelop ment
Ġpa wn
Ġc oun
Ġeas ily
Ġha ir
Ġexper i
Ġf at
Ġb ow
Ġch ord
Ġey e
Ġide as
Ġsty le
Ġi ce
Ġpre p
Ġh i
th on
Ġa ch
Ġ et
Ġair craft
h aps
Ġappre ci
Ġtot al
Ġs ens
Ġpap er
Ġchall enge
Ġho st
Ġtr ump
Ġstand ard
o ke
Ġper haps
un k
Ġcre w
Ġap art
it es
Ġj ew
Ġbecom es
Ġreal ize
Ġreal ity
Ġpl aces
Ġe con
ic le
h e
Ġimmedi ately
Ġwe ap
Ġme ant
Ġbr it
Ġpart y
Ġt un
ain ed
Ġb om
Ġrem ove
Ġecon om
Ġimp lement
Ġdatab ase
s et
Ġtr ade
ct ions
Ġ 0
Ġstruct ure
Ġt ree
Ġopt ion
Ġcom ment
Ġapp ly
Ġint rod
Ġd anger
Ġqu ality
Ġy ep
Ġpol ice
Ġup on
Ġsc r
Ġcoff ee
Ġsur face
t a
Ġwh e
Ġsk in
Ġbas ic
Ġs and
Ġro ok
Ġs us
Ġfeature s
Ġen em
Ġde g
Ġsl ight
Ġde l
Ġme ch
Ġg ar
u x
Ġiss ues
Ġr uss
Ġpr im
Ġf ing
Ġwebs ite
Ġhope fully
ver age
ad es
Ġsign ific
Ġcamer a
Ġp il
Ġlo s
Ġexc ited
Ġmass ive
Ġw ild
Ġs ir
Ġt ax
ain ing
Ġsh ape
Ġacc ord
Ġst ren
Ġvari able
Ġdet er
v ent
Ġch ap
Ġspeak ing
Ġes c
Ġto wn
Ġinst r
f l
p ed
im ent
Ġauth or
Ġconvers ation
Ġtrans form
Ġn ar
Ġdescri ption
g th
iv ed
Ġ q
Ġr om
Ġdoc ument
Ġstren gth
Ġfil m
Ġdec ision
Ġse a
Ġy ork
Ġb ank
ens ion
Ġall ows
r u
Ġchall eng
Ġer ror
Ġwr itten
Ġpurp ose
Ġdes p
Ġdire ction
ri ble
w ise
Ġon to
Ġhonest ly
Ġdirect ly
Ġcont ext
Ġthrough out
Ġcom fort
Ġc ause
ap t
Ġcommun ic
ac ed
Ġjour ney
Ġstr ugg
Ġb ible
5 0
on se
Ġach ie
Ġincred ible
Ġre v
Ġm ad
Ġp en
Ġfo ld
Ġf aster
Ġb reat
Ġsh op
d om
Ġcontro ll
Ġopt ions
Ġm ur
ck s
Ġbeh av
Ġinterest ed
Ġopportun ity
Ġtr ou
Ġresp onse
Ġpop ular
ict ion
Ġ1 7
Ġturn s
Ġin put
Ġknow ledge
Ġli k
Ġhelp s
Ġeur ope
Ġrepres ent
bo ok
Ġm ath
Ġfl at
Ġor d
Ġ6 0
Ġintell ig
Ġd in
Ġcare er
sh ip
Ġl ed
Ġme asure
Ġwind ow
Ġb en
or row
Ġ2 4
Ġpa ul
im in
Ġcar ry
Ġreg ular
Ġtr ick
Ġmech an
o id
Ġa in
Ġrand om
ul ate
Ġmil it
ro ll
uc ed
Ġpos itive
Ġbe y
Ġper cent
Ġve h
r aph
Ġneg ative
Ġw est
Ġim m
Ġhe avy
Ġshow ing
Ġton ight
Ġstud y
Ġsh ut
ip e
ap an
Ġdesign ed
d ing
Ġb ag
Ġd en
Ġfe et
Ġinvol ved
Ġsh all
Ġeff ort
Ġhand le
Ġtemp er
anc ed
Ġphys ical
Ġj av
Ġj apan
Ġdr ug
Ġeg g
Ġk ick
Ġaccord ing
Ġr an
b ing
Ġ ver
ag ed
Ġpro gress
as c
Ġplan e
Ġan c
Ġbey ond
Ġclear ly
f or
Ġuni vers
Ġinst ance
Ġmiss ion
im ately
Ġam ong
Ġsm art
Ġkill ed
Ġresult s
Ġplan et
Ġconc ern
Ġepis ode
Ġdestro y
Ġaw are
Ġp ow
Ġed ge
Ġho le
Ġsc en
Ġc red
Ġte nd
Ġf ant
Ġinter act
Ġrel ig
Ġsk y
Ġread ing
n ers
Ġoff ice
Ġindust ry
Ġstre et
g ue
a i
s p
Ġst ock
Ġmem bers
Ġcho ice
Ġinvest ig
Ġch ina
Ġfull y
Ġqu ant
a ur
Ġj e
it or
Ġon line
Ġallow ed
d en
Ġbook s
Ġele ment
am s
Ġan n
Ġu nd
Ġdef ault
Ġflo or
Ġm is
Ġre asons
Ġd ied
iv al
Ġb ir
Ġke pt
Ġ ut
Ġwhen ever
Ġemp loy
Ġto r
Ġwr ote
Ġunf ortun
Ġsol ution
Ġt our
id ge
Ġcons id
am a
c er
Ġgr aph
Ġm er
Ġuse ful
Ġback ground
Ġs ad
Ġr ace
Ġd ate
Ġr i
us ion
Ġswe et
Ġmod e
Ġr ate
Ġm ir
Ġpl ug
ren ch
Ġnot es
Ġter r
Ġmodel s
Ġintern et
Ġb urn
p ing
olog ical
Ġf an
Ġex ce
Ġn ine
Ġparent s
Ġcal c
Ġpy thon
b al
Ġinfl u
Ġc ases
Ġco re
Ġt ask
Ġcent ury
Ġcar s
Ġmilit ary
Ġps y
Ġwalk ing
Ġextreme ly
Ġb atter
a w
Ġpr inc
Ġsp l
Ġvar ious
eng th
Ġpot ential
Ġbu ll
Ġimpro ve
Ġdav id
Ġcont act
.. .
Ġre ve
Ġap i
ac ing
Ġsp ent
Ġis land
Ġsc ene
Ġinte gr
le y
Ġatt emp
ic ient
Ġdis play
g o
Ġvis ual
it ude
Ġpsy ch
Ġtemper ature
Ġspec if
Ġm at
Ġserv ices
Ġproduct s
Ġchrist ian
er ve
Ġn one
m er
Ġst ories
Ġg as
Ġr ules
Ġm ich
um ents
Ġcom ments
is es
al d
Ġdou b
Ġlay er
Ġout put
Ġdesp ite
ic ed
Ġmo ved
Ġsubscri be
Ġwere n
Ġd ry
Ġgo sh
ress ed
Ġsmall er
Ġt en
Ġappreci ate
Ġd an
Ġbill ion
Ġli ft
Ġf al
Ġse x
Ġfu el
Ġproduct ion
Ġar ray
g en
Ġend ed
Ġlo op
Ġtell s
in ary
Ġoff er
Ġcu p
Ġsa f
Ġwor se
Ġconnect ion
Ġh ate
Ġstep s
l s
Ġsh ar
Ġa verage
Ġthere fore
Ġcall ing
Ġkind s
Ġaff ect
Ġb orn
Ġadd ing
Ġt ough
Ġv irt
Ġc iv
Ġfore ver
h ow
Ġpriv ate
Ġthought s
Ġ8 0
Ġitem s
Ġch ick
Ġdis app
Ġthousand s
Ġrequ ire
Ġop in
Ġn amed
Ġfil es
Ġcor ner
Ġwind ows
Ġsepar ate
Ġadv ant
Ġp in
Ġe ating
Ġgl ass
Ġg al
Ġpr ison
Ġw ide
Ġshould n
Ġem er
Ġvi ol
Ġqu ar
Ġpers pect
Ġchar ge
Ġb le
Ġany where
a ven
v al
Ġad j
at ically
Ġc and
Ġbir th
Ġr ot
Ġn av
Ġsp read
Ġslight ly
Ġmiss ing
o ff
Ġgrow ing
Ġfam ous
Ġcons ist
Ġad m
Ġtr uly
Ġl ength
ar ies
Ġh om
Ġreal ized
et y
Ġdetail s
og raph
Ġlo ss
Ġn ut
Ġmain t
Ġele ments
Ġfor t
Ġpod cast
Ġlevel s
Ġy ell
Ġrem ind
Ġshow ed
Ġre view
Ġs am
Ġun less
Ġst ation
Ġs ite
Ġen s
Ġspecif ically
ic y
Ġex erc
Ġto w
h y
Ġsh ift
Ġli br
Ġsp in
an ch
Ġsug ar
Ġwonder ful
Ġmin or
itt ed
li ke
Ġus es
Ġcap ital
Ġciv il
Ġd ue
Ġother wise
Ġev ents
Ġn ames
Ġwor st
Ġind ex
b i
Ġh yp
Ġg re
Ġelect ric
cri pt
Ġca us
Ġrele ase
et ic
b or
Ġtom orrow
Ġclos er
Ġcult ure
Ġl in
Ġrec ently
Ġbehav ior
Ġare as
Ġrep e
Ġdet ect
Ġst ack
m as
Ġdam age
Ġour selves
Ġfight ing
Ġdef ine
Ġfly ing
z z
Ġa ust
Ġus ers
Ġsy n
air s
Ġres ist
Ġr ow
Ġunfortun ately
Ġj un
Ġmag n
Ġro ot
Ġdep loy
Ġtr uck
Ġli e
Ġpa id
pp ing
Ġresour ces
Ġupd ate
Ġvers us
Ġter m
Ġi gn
ke y
Ġparticular ly
Ġt v
Ġb ound
end ed
Ġsuccess ful
Ġp et
u nd
ll y
ag ing
Ġr ule
Ġopt im
Ġhe aven
Ġequ als
Ġarm y
Ġcond ition
Ġhu h
oc r
ific ation
Ġg am
Ġincre ase
Ġv ill
re st
Ġfre sh
Ġact iv
Ġins p
Ġstate ment
Ġar ri
Ġr ain
ck et
o h
a ff
Ġpatter n
ess ion
Ġtest ing
Ġb ought
Ġarg ument
Ġt ight
Ġb and
Ġrem o
Ġm ac
Ġtit le
so ci
pp er
Ġw id
it ect
Ġchap ter
Ġhur t
Ġthe r
oc ol
Ġdem on
Ġ9 0
Ġdri ving
Ġsc ore
Ġcour t
Ġp u
Ġhold ing
Ġarch itect
it ar
an a
Ġmo on
Ġh t
Ġteam s
Ġcurrent ly
Ġstand ing
Ġstu ck
Ġn ational
Ġ19 9
Ġch amp
Ġcolum n
Ġpri or
Ġbro ken
Ġb an
at o
ipp ed
Ġperspect ive
Ġt ab
Ġu k
Ġcl ient
c l
Ġwe ak
m iss
Ġrun s
Ġtrou ble
Ġconnect ed
Ġover all
Ġdown load
Ġd yn
Ġy o
Ġbut ter
Ġsoc iety
Ġanal y
Ġapp le
Ġlisten ing
im um
Ġfin anc
Ġcharac ters
os p
Ġs en
Ġmil es
Ġlea ving
Ġfun ctions
Ġas soci
id s
Ġi ron
al th
Ġlead ers
Ġdef ense
Ġcompon ent
Ġeng lish
ur s
Ġw ire
Ġinit ial
Ġmo ves
h ere
Ġs ick
Ġpl ant
Ġfind ing
h a
Ġl at
or ge
Ġj ames
Ġsaf ety
Ġchang ing
Ġsome how
Ġmeet ing
Ġwar m
Ġvis ion
Ġknow ing
o on
i us
Ġav oid
ul a
Ġfin ished
Ġb oss
Ġf ol
Ġt iny
Ġwill ing
Ġla ug
Ġproper ty
Ġcons cious
w or
Ġpre c
Ġskill s
ili ar
Ġhum ans
Ġopp os
Ġm al
Ġbl ess
Ġgr av
Ġt ick
Ġpass ed
Ġcons um
h ood
Ġsol id
ut ed
Ġloc ation
Ġc aught
Ġun it
ut ions
Ġevery where
Ġadj ust
Ġgr ad
Ġst or
us hing
Ġcoun ter
Ġdefe nd
Ġpar am
Ġdanger ous
Ġli f
Ġst ress
Ġcall s
Ġopen ing
Ġsub ject
Ġforg ot
Ġresp ond
Ġrel ative
Ġexp ert
t le
Ġnecess arily
Ġanc ient
Ġexp ensive
Ġs ac
Ġdep art
Ġi p
Ġatt ach
Ġd im
Ġal ive
Ġbo ys
Ġmanag er
Ġapp arent
Ġenem y
Ġj er
Ġperfect ly
Ġlim it
Ġne igh
Ġpo or
Ġrel ated
Ġed uc
Ġbu dd
o b
Ġter min
Ġsh ad
Ġdec l
Ġgreat er
Ġlo ved
e y
Ġe ast
Ġadvant age
Ġsh ock
Ġdec ide
Ġbr own
Ġpass word
Ġsn ow
Ġst ars
Ġmanage ment
Ġtechn i
Ġse qu
Ġaud ience
Ġcomp lic
Ġreve al
Ġc ab
y ear
Ġreg ard
Ġdist ance
Ġgener ally
Ġbo om
Ġt al
Ġr are
Ġlight s
Ġcl oth
Ġcustom er
Ġsc rew
Ġkeep ing
Ġfre ed
Ġhist or
Ġcl ub
Ġf le
Ġfe ll
Ġan ge
Ġha ll
Ġdam n
Ġsol ve
Ġintellig ence
ou th
Ġqu ote
l aughter
Ġc os
ra id
Ġsm o
Ġa lex
Ġter rible
Ġhe ight
p oint
Ġcre am
Ġ7 0
is ions
Ġexp and
Ġth ick
Ġmag ic
Ġgener ation
Ġgu ard
Ġar r
Ġmo b
Ġind ic
Ġass um
Ġold er
Ġfor th
r ast
Ġproject s
Ġr ing
Ġult imately
Ġfam iliar
Ġemp ty
Ġstor age
Ġkn ock
Ġlar ger
Ġf ed
Ġsm ell
Ġ eth
Ġopin ion
Ġl ack
Ġexper iment
Ġshar p
Ġmin us
Ġaf raid
Ġr ough
Ġbrit ish
Ġl u
Ġpred ict
Ġh ill
Ġim ages
Ġpol itical
Ġant i
e es
h am
Ġnorm ally
Ġachie ve
od es
Ġ verse
in o
Ġsou l
ous ly
Ġev il
Ġlead ing
Ġ2 1
Ġfund ament
Ġc ateg
Ġhigh ly
Ġgreat est
a el
f act
Ġend s
p id
Ġdev ice
Ġco vered
Ġincred ibly
enc ed
Ġo ce
p or
Ġbr ight
Ġnear ly
Ġte le
Ġsignific ant
Ġtra ff
Ġincl ude
Ġtyp ically
ipp ing
on y
Ġsudden ly
Ġcare ful
Ġrepl ace
Ġtr ip
Ġal i
Ġdist rib
Ġest ab
Ġg ent
Ġsp ort
Ġobject s
Ġglo bal
Ġre b
Ġsal es
Ġgi ant
ck er
Ġco ach
k ing
Ġmost ly
Ġce le
Ġveh icle
Ġas pect
it ic
et ers
Ġdis e
Ġfor ces
Ġvis it
Ġstr ange
Ġ2 2
if ying
Ġf rench
Ġfre qu
Ġmove ment
Ġgl ad
t ies
Ġcol ors
Ġgrow th
Ġcele br
Ġfoot ball
Ġch ea
Ġbro ad
c y
Ġfant astic
k y
Ġimp oss
ay s
r ound
Ġfal se
Ġdyn am
Ġri ver
Ġsal t
Ġtast e
Ġv an
Ġhelp ed
Ġli ved
m en
Ġho ok
uc le
l ished
Ġd ough
Ġcont ract
Ġsee med
Ġcl im
Ġcell s
el ine
x ic
Ġbre ad
Ġrout e
Ġbo b
Ġhelp ing
id den
ru pt
Ġcr ack
Ġr ub
ur ation
Ġd aughter
e f
Ġgot ta
Ġfil ter
Ġstu pid
Ġjo y
Ġconf ir
Ġcomp let
Ġbl ow
Ġs an
Ġdem and
Ġhealth y
Ġd ar
Ġexamp les
Ġwe ar
Ġqu iet
i est
Ġorgan ization
u ary
Ġass ign
Ġatt ract
Ġadv anced
Ġstr ate
Ġmist ake
Ġhundred s
Ġpack age
Ġ19 8
Ġbring ing
Ġbelie f
Ġstrate gy
Ġdisco vered
Ġfour th
Ġm h
Ġad min
Ġt ro
Ġdo ctor
y al
Ġm outh
Ġcond itions
Ġrequ ired
Ġchick en
lo ck
Ġact ive
av es
Ġconstr uct
Ġmet al
Ġfreed om
Ġh us
Ġrele ased
o le
Ġexpect ed
Ġb at
Ġk itch
Ġcompon ents
Ġimposs ible
Ġacc ur
Ġcount ries
Ġpr in
Ġcoll e
Ġexpl ore
Ġb ord
Ġm c
Ġme l
Ġh osp
Ġb ird
Ġquar ter
Ġn ucle
Ġk en
Ġr ide
Ġcustom ers
ent y
Ġs ides
Ġmich ael
Ġst one
Ġref er
Ġref erence
Ġt ail
il ing
Ġplay s
Ġposs ibly
Ġexp ress
b and
Ġl ad
Ġo x
Ġprogram ming
Ġstop ped
Ġadd ition
Ġhe ld
Ġher o
Ġt ill
Ġtur ning
Ġt ank
Ġsmo oth
Ġme at
il es
Ġstud ents
Ġdri ver
Ġmed ic
Ġsur round
i os
r ing
m ber
Ġnot iced
Ġgener ate
Ġoper ation
Ġmot or
Ġment al
Ġch em
i ation
Ġcent ral
Ġdepend ing
iz z
Ġbal ance
Ġpain t
Ġfinanc ial
Ġbecom ing
Ġprom pt
Ġcolle ge
Ġanim als
Ġdeli ver
Ġcomp ared
Ġcr itical
b ar
Ġprom ise
Ġtr i
Ġf ans
Ġmult ip
Ġt ag
Ġslow ly
Ġconst ant
Ġapparent ly
s es
ag ram
Ġbr ings
Ġadd itional
Ġpre vent
3 0
Ġkeep s
r ight
Ġs ister
Ġprod uce
Ġperson ally
Ġlead er
it ter
Ġjob s
Ġang le
Ġwe ather
Ġfill ed
d own
Ġo ct
l ate
st on
Ġtr ig
Ġbro ke
Ġchalleng es
ea red
Ġnav ig
Ġgu itar
Ġexerc ise
Ġd iet
o o
ch es
Ġj u
Ġet c
Ġdom in
Ġc art
Ġkitch en
Ġyell ow
Ġwa ve
ber t
ul ated
Ġimp ress
Ġ5 00
Ġsumm er
Ġenc our
Ġcomplic ated
Ġquant um
Ġchrist mas
en ing
iz es
Ġmanag ed
it ness
Ġcan cer
g a
Ġsy mb
Ġval id
Ġfr ank
Ġbr idge
Ġde lete
Ġspr ing
Ġapplic ations
Ġlibr ary
Ġreg ion
Ġhard er
ge nd
Ġcontain er
Ġfold er
Ġintern ational
Ġlos ing
es is
ep end
Ġamaz on
Ġdem ocr
Ġwhe el
Ġp ure
Ġconsid ered
se qu
Ġjo e
Ġal ign
Ġtr ial
n ces
Ġpast e
Ġp ump
Ġrad io
Ġr ap
ul f
Ġgirl s
Ġd ish
Ġsc al
Ġcomfort able
Ġbe ll
. &
Ġle gend
anc y
Ġal t
u ed
Ġmil k
Ġbatter y
Ġrest aur
ent ic
Ġhor se
os op
ir ing
Ġmount ain
Ġautom atically
Ġgot ten
Ġinv ent
Ġtop ic
Ġgroup s
Ġs amp
re es
i ers
Ġfol ks
Ġcomp l
Ġhas n
Ġref lect
Ġaf ric
Ġcapt ain
Ġaust ral
Ġdevelop ed
ul ations
Ġp ad
Ġsc ared
l in
Ġi con
i ant
Ġphil osop
Ġpre m
no v
Ġpick ed
Ġmom ents
iv ing
Ġ19 4
Ġpro ph
Ġact ions
Ġcap ac
q l
Ġdi am
Ġoce an
Ġp itch
Ġk il
Ġsa ved
Ġins ane
it ory
Ġconst antly
om p
Ġnecess ary
Ġesc ape
Ġexc iting
Ġsell ing
Ġg ift
Ġset s
Ġfollow ed
Ġh idden
Ġbe ar
Ġeffect s
Ġwin ning
Ġda ily
Ġmill ions
Ġc ash
Ġp ound
Ġr ise
Ġth read
im s
Ġsymb ol
Ġf lex
Ġlea gue
c ing
Ġf asc
Ġf if
Ġa mp
en ed
Ġp ip
ys is
Ġh ide
Ġhy d
Ġind eed
b on
Ġcr ash
Ġbre aking
Ġch art
Ġpull ed
Ġwe alth
Ġsc roll
Ġge orge
Ġin j
Ġcont rib
Ġtraff ic
Ġg rew
Ġcir cle
Ġhigh light
Ġemp ire
Ġind epend
Ġn ode
th e
Ġmar ried
Ġfing er
Ġacc ident
Ġgo als
Ġvirt ual
Ġf ro
Ġsh ap
Ġv ir
Ġcl osed
Ġtw ice
Ġgent le
Ġv ac
Ġfar m
Ġj an
Ġtrad itional
Ġcr ow
Ġj im
Ġb ath
Ġg h
1 0
m os
Ġmi ke
Ġweap ons
Ġ 000
Ġb are
Ġcred it
Ġg ear
Ġdeg ree
Ġman u
f r
Ġtr ail
Ġw es
Ġdoub t
Ġrece ive
e al
Ġsupp ly
Ġhelp ful
Ġw itness
Ġse at
Ġde lic
Ġyes ter
Ġhear ing
Ġbu d
; &
Ġengine ering
Ġpot entially
Ġeff icient
Ġsac r
r uct
Ġauth entic
Ġunder ne
Ġhus band
Ġn ation
uc ing
m l
Ġst orm
ub lic
Ġyester day
Ġunderne ath
Ġbr ill
Ġgu est
Ġev olution
Ġst ret
w ood
Ġg ard
Ġelect r
Ġpay ing
Ġlim ited
Ġbr ows
Ġdoll ar
Ġse ed
ic les
Ġform at
Ġmethod s
b a
ph one
Ġlead s
Ġtre es
Ġinf in
ol es
Ġm art
Ġmem ber
Ġoper ating
Ġsh ared
Ġrep ublic
Ġg ate
Ġh ous
Ġr u
Ġdec isions
nd ay
Ġsl ide
Ġeffect ive
Ġblock s
se c
so ft
Ġfocus ed
Ġunivers ity
Ġscen ar
g s
Ġp un
Ġcra ft
Ġs ession
Ġs ar
Ġb on
Ġser ve
Ġpro ve
Ġrecogn ize
Ġopen ed
er al
Ġwall s
Ġcl ust
Ġass ist
are n
Ġoppos ite
Ġste el
ther n
Ġ19 7
Ġa x
ke nd
in ct
o x
Ġhol es
Ġvari ables
Ġspl it
Ġbo at
an na
Ġhun g
Ġp eter
Ġcomm it
Ġrec ent
Ġenjoy ed
Ġoffic er
Ġr ail
ce ed
Ġking dom
Ġprofess ional
Ġse m
2 0
Ġbo ost
Ġke ys
Ġw ake
ers on
Ġsurpr ise
Ġphys ics
r ain
Ġemot ional
Ġqu ery
Ġlar gest
as ks
ic ing
Ġstat us
Ġcr is
o om
Ġbenef it
Ġal tern
Ġdemon str
Ġgal ax
Ġz one
Ġmiss ed
Ġinter p
Ġocc ur
at ory
Ġl am
Ġun like
Ġdig ital
Ġfl ag
Ġch ain
Ġanal ysis
Ġwatch ed
Ġlet ter
ph ere
Ġeng ines
Ġev ol
Ġcl ock
Ġpop ulation
Ġa z
Ġt ap
Ġ19 6
Ġne ur
Ġstud io
Ġanim al
Ġbr ief
Ġdrag on
Ġluck y
bo x
Ġdepend s
g in
Ġp i
Ġweap on
Ġwor ried
Ġpil ot
Ġdeter min
Ġmanu fact
Ġag ent
Ġdisco ver
Ġ '
Ġjav as
Ġsch ed
Ġbelie ved
Ġdeep er
it ation
Ġind ia
g ment
Ġnucle ar
et ch
Ġmed ical
Ġw ed
Ġless on
Ġpo ol
Ġin g
Ġbel ong
id ay
Ġscient ists
Ġd ash
Ġjavas cript
Ġcollect ion
Ġsub m
Ġdise ase
Ġexperi ences
ines e
Ġinter face
Ġpre fer
Ġup gr
Ġapp l
Ġpres ence
Ġconc l
Ġrece ived
Ġun c
Ġass ume
Ġche ese
Ġset up
Ġsol ar
Ġit al
Ġcut ting
Ġd ive
g or
Ġe gy
le ction
Ġch inese
Ġp air
Ġegy pt
Ġlaw s
Ġpr oud
Ġt ip
Ġform er
nd on
Ġsec ure
Ġd u
Ġtest s
Ġdeal ing
Ġwe aring
Ġf er
Ġproper ly
Ġra ise
Ġmicro soft
Ġcon so
Ġjud ge
Ġsub st
Ġinstall ed
Ġfall ing
Ġo dd
el ess
o v
Ġstud ent
Ġre nder
Ġlea ves
Ġm att
Ġoffic ial
Ġd ed
Ġentire ly
Ġrom an
Ġhosp ital
Ġcr ime
Ġbr anch
Ġpol icy
Ġre n
d o
Ġsign al
Ġhigh est
Ġw al
d eg
Ġto ken
Ġwalk ed
Ġp ushing
Ġact ivity
Ġ3 00
Ġdes k
Ġjapan ese
Ġph ase
ou nce
Ġsh out
Ġcon vert
Ġstr ateg
Ġmult i
r ated
Ġton s
Ġt ables
Ġval u
Ġoper ations
Ġconso le
Ġdescri be
Ġeng land
Ġserious ly
Ġhot el
Ġgu ide
Ġspirit ual
Ġt an
Ġmot iv
Ġair pl
Ġbu ying
oth ers
en om
Ġpass ing
Ġex am
ut or
Ġconf lic
Ġsu it
Ġinflu ence
in ing
Ġclass ic
h old
Ġas se
Ġco ast
Ġfr uit
Ġg ig
Ġintern al
un e
Ġdis p
Ġsp ee
Ġdin ner
Ġmaint ain
Ġcamp a
Ġgood ness
Ġdepart ment
Ġcampa ign
ak er
Ġbom b
Ġhop ing
Ġsh own
Ġgerman y
Ġt es
Ġtechn ical
b el
Ġprep ared
Ġmur der
Ġbu ff
Ġadv ice
Ġshe ll
ce nd
Ġview s
ant ic
Ġexce ll
Ġf t
Ġident ity
anc ing
Ġstret ch
Ġg ain
Ġprim ary
Ġansw ers
Ġrem ain
Ġsend ing
Ġrelationship s
i el
Ġmath em
Ġno ise
Ġc od
Ġ4 5
re g
Ġlo ndon
ĠĠ ĠĠ
Ġd er
Ġsurpr ised
Ġh at
Ġrecord s
Ġfair ly
Ġpl ans
v ant
Ġw is
re sh
Ġruss ia
Ġg ap
ad a
Ġcol on
Ġprinc ip
Ġlog ic
Ġwar s
Ġclass es
Ġb ac
Ġp c
Ġshoot ing
Ġchr is
od ies
Ġne ck
Ġan x
Ġe c
Ġpl enty
Ġcontinu ed
ul ous
Ġr am
Ġ vert
Ġt aught
Ġwas h
wor ks
os h
Ġproper ties
un t
Ġpur ch
Ġra ised
Ġv ul
ac le
Ġar ms
Ġcy cle
n el
Ġcur ious
Ġfl u
Ġam b
Ġbrill iant
Ġ2 3
Ġb ang
Ġcreat ive
ol ic
Ġtrans port
Ġpray er
Ġlab el
ok ing
Ġsupp ose
Ġwhere as
Ġany ways
Ġl uc
Ġb es
Ġplan ning
Ġthink s
Ġwonder ing
Ġqu al
Ġf ake
Ġleg al
st e
Ġmach ines
Ġwho se
Ġpan el
Ġth in
ac her
b b
u ber
Ġt all
Ġbord er
Ġconv in
Ġhon or
on om
Ġconstr uction
Ġby e
r ate
Ġland ing
Ġgold en
Ġfl avor
Ġarchitect ure
Ġyour s
Ġincre asing
in ating
Ġwill i
Ġlik es
Ġfe m
am m
Ġcr u
Ġreach ed
Ġinstr uct
Ġpl ate
Ġfield s
Ġg ro
Ġal gor
Ġca used
k et
Ġred uce
Ġfact or
Ġspend ing
ar a
Ġdep th
Ġrel ax
act ion
Ġalgor ith
enc ies
Ġlaug h
ab ilities
Ġex ch
Ġsh el
Ġin nov
Ġvol ume
Ġde ce
Ġbreat h
Ġk ore
Ġconf idence
Ġc as
Ġwas hing
Ġwas te
Ġsp ons
Ġequ ip
Ġcap able
as ion
Ġsurv ive
Ġexc use
Ġfail ed
Ġcomp are
Ġad ult
Ġcal if
Ġfore st
n al
os es
Ġneigh bor
Ġc ake
Ġl ady
Ġsetting s
Ġtermin al
Ġli qu
Ġhor iz
Ġdro pped
Ġd ut
Ġpart ner
Ġcrow d
Ġbe ach
Ġbr ush
Ġfl our
Ġdec ades
Ġallow ing
Ġattemp t
Ġw ing
Ġbus y
Ġp izz
Ġcreat es
Ġkill ing
u nder
Ġcalif orn
Ġun p
k n
Ġm ig
Ġbegin s
wh at
Ġsat is
Ġrem ains
Ġmov ies
Ġrespons ible
Ġpict ures
Ġc ute
Ġer a
h ouse
Ġin ner
Ġp ages
Ġexc l
Ġst aff
Ġcre ation
Ġnar r
Ġex ists
v in
Ġtrans fer
d a
Ġl ake
Ġdo cker
Ġch ill
Ġcal m
Ġpr ote
Ġdrug s
Ġgr ace
n am
Ġsp ect
we ll
Ġbas is
Ġg ree
Ġconf ident
Ġmajor ity
Ġ3 6
Ġstand s
Ġpatter ns
Ġsus p
Ġar rest
Ġgrav ity
app ed
it ics
Ġbut t
ur ally
Ġch ocol
Ġmy st
Ġmod ule
Ġaut o
Ġve ctor
Ġteach ing
Ġcr uc
Ġsp an
Ġdom ain
Ġur l
Ġp ill
Ġchea p
Ġp ig
om s
Ġbow l
Ġdev ices
Ġmh m
y le
Ġcaliforn ia
Ġengine er
Ġag gress
Ġt asks
Ġeven ing
p u
Ġcon sequ
Ġrem ote
Ġimpress ive
Ġn erv
Ġm ut
Ġl as
app ing
Ġameric ans
Ġmatter s
Ġaff ord
Ġfound ation
Ġre ven
f ield
Ġstud ies
Ġcook ing
Ġconfig uration
Ġwes tern
Ġsa ving
Ġa im
Ġunderst ood
Ġadv ent
Ġbenef its
Ġha ck
Ġdr ill
Ġsp oke
Ġcapt ure
an o
Ġfail ure
Ġdo ors
Ġprep are
or ation
Ġ3 5
Ġform ula
Ġf ab
Ġs ight
Ġdefin ition
Ġconcern ed
Ġg ang
Ġsuff ering
Ġrev olution
Ġspec ies
os ing
Ġbl ind
Ġbo nd
Ġwho a
Ġfl ash
Ġc ards
Ġrequ ires
Ġlin ux
Ġsort s
Ġpain ting
Ġcomb at
Ġpr ime
Ġa str
ri er
Ġexp ression
Ġinst it
Ġd ress
for ce
Ġhard ware
Ġtow er
Ġr at
Ġident ify
Ġn ic
Ġde ck
Ġdefin ed
Ġemot ions
Ġex tern
Ġrec ipe
Ġsh r
Ġh itting
Ġl oud
Ġinc ome
Ġn ative
Ġcapac ity
Ġbeaut y
ist ry
Ġtalk s
Ġfif th
Ġbo ot
Ġadmin ist
ri an
Ġwr ap
Ġarri ved
Ġsh aring
Ġb ol
Ġjew ish
m ark
Ġfix ed
Ġcomp ar
Ġgen u
Ġfl ip
Ġattack s
Ġing red
Ġrelig ion
Ġse al
Ġbrows er
ri age
Ġeng age
Ġpur s
Ġf i
Ġfor ced
il ies
Ġshad ow
Ġdeg rees
Ġlay ers
Ġeconom y
Ġins ert
Ġpr a
Ġv ot
Ġrestaur ant
Ġmar ch
us ing
Ġresist ance
Ġv ib
Ġfir m
Ġhead s
Ġnerv ous
Ġlo ves
Ġinclud ed
Ġs ke
Ġv ast
h ead
Ġmot ion
Ġchocol ate
Ġc ert
Ġc ub
Ġd ust
Ġfeel ings
Ġhe av
Ġcheck ing
Ġse es
Ġdelic ious
Ġphot o
Ġgenu ine
Ġcompet ition
Ġd ance
Ġro of
Ġl ou
Ġp unch
Ġmag net
Ġvalu able
Ġleg s
iz ations
Ġr ank
Ġb id
Ġcontroll er
Ġbl ah
Ġext ract
Ġhang ing
Ġequip ment
Ġrelative ly
y m
Ġt ired
Ġapp s
Ġ3 2
Ġext end
Ġ "
Ġrelig ious
m ine
Ġsc an
Ġbit s
Ġmy th
Ġph enom
Ġvul ner
Ġlink ed
Ġmess ages
Ġexec ut
Ġasse mb
r ig
Ġfigure d
Ġprov ided
Ġli ber
Ġro yal
Ġcirc um
Ġtre nd
Ġlove ly
Ġjav a
Ġgh ost
Ġjo ke
Ġcab in
ct ors
Ġcomb ination
ill a
Ġpull ing
Ġatt rib
Ġgu ar
Ġ2 6
Ġbas ket
Ġs ql
Ġso v
Ġhad n
Ġcommunic ation
Ġm erc
Ġaud io
Ġdiam ond
Ġegg s
Ġphenom en
Ġess ential
n es
Ġad op
er ved
Ġinit ially
Ġn as
op er
Ġrock et
Ġun s
Ġprotect ion
Ġfa ult
Ġor ange
Ġj et
and er
Ġsh ips
Ġsa uce
Ġ2 7
Ġman if
Ġat mos
Ġbu cks
Ġchamp ions
Ġfor ms
miss ion
Ġn ick
r ie
Ġstrong er
Ġexcell ent
or ter
Ġwin ter
Ġgard en
Ġsh a
Ġch air
Ġal b
es h
Ġme as
Ġdisc ip
Ġguar ant
Ġaz ure
Ġc ow
Ġmax imum
Ġele v
Ġins ight
Ġme al
Ġpo ke
Ġrem ark
a u
Ġremo ved
ag on
Ġcontin ues
Ġwee kend
Ġtal ent
Ġpro s
Ġlab or
Ġfundament al
Ġdestroy ed
Ġsus pect
Ġdid dy
Ġfr ust
Ġdevelop ers
Ġw i
Ġput s
Ġto ward
Ġmob ile
Ġatmos phere
Ġp ink
Ġprov ides
Ġscient ific
Ġdevelop er
Ġve get
Ġtemp le
Ġright s
il s
Ġeffect ively
Ġlet ting
Ġresour ce
Ġcr imin
Ġsc ary
Ġrob ot
Ġdream s
Ġspee ch
r ors
Ġo w
ens ions
Ġch ief
Ġjour nal
Ġbirth day
at ives
Ġexperi enced
Ġc ath
Ġconscious ness
il ed
Ġmin i
Ġprof it
Ġens ure
Ġwor ship
Ġbr others
Ġh oney
ve re
Ġpizz a
Ġlik ed
Ġexist ence
Ġeduc ation
t es
Ġlink s
Ġm ary
Ġgr id
Ġstrugg le
ic i
Ġhy per
k a
Ġpre par
Ġclust er
Ġch est
Ġrepe at
Ġide al
Ġent ry
Ġsch em
Ġne ut
Ġ2 8
Ġint ention
Ġpat ient
Ġemot ion
Ġtrans ition
Ġmin im
Ġframe work
Ġhit s
Ġliqu id
Ġp ix
f ast
Ġno se
Ġexec ute
Ġfam ilies
Ġpro of
Ġcor por
Ġas h
Ġlat est
Ġobs erv
Ġn ail
Ġsl ash
Ġextern al
ak ed
ret e
Ġpal est
Ġpl ot
Ġcloth es
Ġang ry
Ġvol t
Ġstri ke
e v
Ġph r
Ġded ic
Ġface book
Ġan no
Ġassoci ated
co h
Ġlock ed
Ġh en
wh el
Ġb odies
Ġkey word
Ġoff ers
Ġdescri bed
ur ies
r ict
ed i
Ġtw itter
up s
Ġpot ato
Ġit er
Ġexpl an
Ġmed ium
Ġch a
Ġun ion
Ġpl aced
Ġpass ion
ad em
Ġbare ly
Ġshe et
Ġappear s
Ġcar bon
o ver
Ġgr ant
Ġa ug
Ġto k
g ers
Ġindividual s
Ġdirect ory
Ġmaterial s
l am
ar i
Ġht ml
Ġs ust
Ġelect ron
Ġr y
Ġr od
ia h
Ġin ch
Ġg pt
Ġtrans l
Ġlangu ages
Ġre in
Ġexist ing
kn own
Ġed it
Ġrespons ibility
Ġdes ire
Ġdri ven
Ġaustral ia
Ġp our
Ġorigin ally
Ġfre aking
Ġl unch
Ġreact ion
Ġste al
Ġemer g
ter m
r is
Ġtes la
Ġb er
Ġown er
ruct ure
Ġther ap
Ġthem e
Ġdynam ic
Ġz oom
Ġup load
ag er
Ġexpl os
Ġac adem
Ġw ick
Ġj am
rop ri
Ġsurpr ising
- -
al u
Ġd ial
Ġsu m
Ġinclud es
Ġkey board
Ġo l
Ġmist akes
Ġengine ers
Ġfr ance
Ġgun s
Ġprinc iple
Ġset t
Ġbudd y
Ġsy mp
w r
Ġcan ce
Ġtechn ically
Ġg ut
Ġf ulf
Ġacc om
z en
Ġcost s
r ant
ord in
Ġult imate
Ġsign s
Ġprec ise
Ġcast le
Ġuk rain
qu es
Ġfeed back
Ġpow ers
Ġmarket ing
Ġaccom pl
Ġal coh
Ġairpl ane
Ġmar io
Ġje ff
Ġruss ian
Ġst ood
Ġrap id
Ġv ote
Ġlay out
Ġtemp late
Ġopp on
Ġcolum ns
Ġtechni que
os en
Ġfulf ill
Ġwis dom
Ġsport s
Ġwork ers
Ġmor al
Ġt utor
ash ion
Ġj ail
et ry
Ġpick ing
Ġbud get
Ġm ask
Ġsho es
Ġopportun ities
u ing
Ġo s
ce ler
Ġpl astic
Ġgr ay
Ġsm oke
Ġr ush
a f
Ġcateg ory
Ġo ven
b re
Ġam en
am ing
Ġac celer
Ġcr itic
Ġscenar io
Ġt ape
Ġcond uct
Ġinf rast
Ġma le
Ġover whel
Ġste ve
Ġtrad ing
Ġcos m
Ġpl ants
Ġrid ic
Ġnat urally
Ġis ol
Ġpat ients
on ic
Ġstri p
Ġinterp ret
Ġsour ces
ste in
Ġi i
Ġmen u
Ġme xic
Ġac qu
ur ance
Ġdevelop ing
Ġag ents
Ġact ing
Ġfasc inating
Ġar ab
Ġroll ing
r s
ar m
ly ing
Ġhead ing
at ers
Ġad am
Ġg ather
Ġfing ers
u its
Ġsequ ence
Ġsong s
Ġprevious ly
Ġfight er
Ġbl ank
Ġvar iety
p y
Ġsitu ations
Ġl ying
ir ty
Ġr ose
Ġc it
Ġscr atch
Ġord ers
Ġle an
Ġdec ent
Ġcomplet ed
Ġsimp l
cept ion
Ġwhere ver
Ġprod uced
Ġfac ing
Ġind ian
Ġafric a
Ġd umb
p ro
Ġch ip
Ġwar ning
Ġexcept ion
Ġc ities
Ġsa v
ag o
Ġtra um
Ġ4 00
Ġox y
Ġfem ale
n ow
Ġpush ed
Ġconflic t
Ġyoun ger
Ġconsist ent
Ġsw ord
Ġadv ance
Ġun its
Ġsh ots
Ġjust ice
ang le
Ġcare fully
Ġb ul
Ġand rew
Ġl ic
Ġas ide
Ġun cle
Ġmanif est
Ġsar ah
Ġgo sp
Ġwho ever
Ġen h
; /
Ġsh ark
un g
Ġinfrast ructure
y l
Ġre ject
Ġcomm erc
Ġent ertain
Ġte acher
Ġinst agram
oun ced
Ġt act
Ġv ent
Ġem br
Ġcont ains
ain t
Ġmar riage
Ġjew s
Ġdog s
ist ics
Ġaccur ate
Ġarg uments
Ġbr ack
Ġsw im
Ġspec ify
Ġins ul
ri al
Ġenc oun
Ġreturn ed
Ġj edi
Ġte x
Ġcaus es
Ġprogram s
Ġth us
Ġsh ield
il er
Ġr ou
Ġreturn s
olog ies
Ġdeep ly
Ġtyp ical
Ġauthor ity
d s
Ġat l
Ġinc or
Ġsk ip
Ġdifferent ly
Ġcorrect ly
Ġmus l
Ġlu ke
g ets
Ġt rem
Ġsent ence
Ġsold iers
Ġdraw ing
Ġpract ical
Ġcl ip
Ġr ust
Ġstr ings
Ġfact ory
Ġli es
Ġdan iel
Ġindepend ent
Ġa st
Ġwh is
Ġdes ert
Ġb ay
Ġw aves
Ġl y
Ġvict ory
Ġa th
Ġch ess
Ġchem ical
Ġcon ven
um s
Ġsc ream
Ġsol utions
Ġbreak fast
Ġad apt
Ġprom ot
Ġgr ind
Ġrel i
Ġis lam
Ġre ar
Ġr ac
ber g
u ces
Ġu pper
Ġeconom ic
Ġprof ile
Ġcomput ers
Ġestab lish
c ons
Ġsil ver
Ġd ying
Ġg ri
Ġpart ners
Ġmathem at
Ġv ia
Ġjoin ing
Ġble nd
Ġsu ck
Ġt ea
Ġtutor ial
Ġha bit
Ġpo ly
Ġcircum st
Ġart icle
Ġfl or
ie v
Ġhit ler
as p
Ġimp er
f ord
Ġp ed
Ġprofess or
Ġp it
Ġw ine
h and
Ġpar ad
Ġher self
Ġscen es
Ġdr am
Ġfo ol
Ġtrad ition
Ġvill age
Ġd ump
Ġintrod uced
Ġcoll ab
Ġconc ent
Ġnow here
Ġpartic ip
Ġsp aces
Ġsatis f
Ġdirect or
Ġconc rete
Ġr ice
Ġcontrol s
Ġpo cket
o ber
Ġdiscuss ion
Ġv all
Ġalcoh ol
Ġtrain ed
Ġw ise
Ġmyst ery
Ġloc ated
Ġwashing ton
Ġbur ning
p ower
Ġman ip
Ġinvest ment
Ġwe t
Ġqu ot
Ġfl ood
Ġdel ay
Ġbreak s
Ġposs ibility
Ġv es
Ġsc ar
Ġn avy
Ġtrig ger
Ġwant ing
Ġm ort
Ġrecord ing
Ġro bert
h an
Ġt y
Ġs ink
Ġal ph
Ġrep os
Ġbu g
Ġre verse
Ġch ose
Ġprov iding
Ġen orm
Ġstrugg ling
Ġbath room
ok ed
Ġre nt
1 1
u ff
Ġla id
Ġmus cle
Ġdes per
Ġconfir m
Ġev alu
Ġo m
by e
Ġaccount s
us ive
Ġwin s
Ġball s
Ġref resh
Ġcont r
Ġjo ined
Ġmin imum
Ġparam eters
Ġa ck
Ġexch ange
Ġj ord
Ġencour age
Ġsp ark
Ġstay ing
Ġpol itics
t op
g le
Ġenem ies
Ġsov iet
Ġcommerc ial
ic a
Ġoct ober
Ġbeing s
Ġmagn us
ill y
Ġra w
um in
Ġchalleng ing
Ġwid th
Ġr ab
Ġcl ients
wh ile
st and
re l
Ġsee k
Ġc ro
Ġw ol
Ġkn ife
Ġdrink ing
Ġprote in
Ġheal ing
Ġsamp le
iss ion
ag n
in i
Ġmind set
Ġres ol
Ġar row
c les
Ġhor rible
Ġfind s
ro gen
ul ating
Ġclean ing
Ġjan uary
Ġup set
Ġgl ory
Ġstre ets
Ġple asure
Ġne ither
Ġbox es
Ġlaunch ed
Ġint ense
Ġ15 0
Ġto ne
Ġc ave
ha ust
ens ity
Ġbrit ain
Ġattach ed
Ġdisapp oint
Ġg az
r om
Ġpret end
Ġdisco very
Ġarg ue
Ġk iss
Ġre ward
Ġl ux
Ġu i
Ġha w
Ġpil ots
Ġch op
as y
f i
Ġsome what
Ġv oc
Ġthrow ing
Ġcirc uit
Ġair port
Ġr on
Ġoffic ers
Ġcor n
Ġdeli very
Ġha mm
Ġk uber
Ġcl ar
Ġexpect ing
Ġrele vant
Ġgalax y
Ġw ound
Ġstore d
Ġpartic les
Ġbr ick
Ġleaders hip
Ġmir ror
ve y
Ġoff ering
Ġfall s
Ġphot os
Ġj en
Ġun bel
Ġemploy ees
if ice
Ġdisapp ear
Ġpoke mon
or g
Ġsign ed
Ġoxy gen
Ġso ph
l ies
Ġs ab
ea ks
Ġdem o
Ġvict im
in ter
Ġn in
Ġafter no
Ġhous es
Ġrich ard
Ġde ar
Ġpos itions
Ġdiv ide
Ġcaus ing
Ġex haust
Ġhar m
Ġdoc uments
Ġack now
Ġste am
Ġconf used
Ġmar s
Ġp ause
Ġr ul
Ġapp ropri
Ġleg it
net es
Ġtest ament
Ġheart s
ak ers
Ġcry st
Ġkuber netes
Ġj ose
Ġdon ald
Ġsw ing
Ġcruc ial
Ġintrod uce
Ġun com
iz er
k i
i ate
h ib
Ġtravel ing
Ġign ore
Ġmount ains
Ġg all
Ġcar l
Ġv it
Ġveh icles
ot ic
ok en
ici ency
Ġcar ried
Ġno ve
re ed
Ġbott le
Ġsu p
Ġpar all
Ġmy ster
Ġrough ly
Ġtechni ques
res p
Ġsched ule
Ġcomp os
Ġappl ied
n ight
Ġtr ap
pl ace
Ġsp ell
re p
Ġal right
Ġingred ients
if ts
Ġab and
Ġcho ices
etim e
Ġchord s
i ven
Ġw anna
Ġnove mber
8 0
Ġcheck ed
Ġqu it
Ġcom ed
Ġhold s
Ġha m
Ġhung ry
Ġsm ile
Ġviol ence
fl ow
Ġafterno on
Ġarm or
id a
Ġrem aining
Ġdeter mine
ens es
Ġh ub
Ġf ashion
Ġhe ck
Ġn az
Ġcris is
Ġconnect ions
Ġtw ist
Ġel imin
Ġcy ber
Ġch am
Ġprot ocol
ad ed
Ġc able
Ġr ay
Ġprocess es
Ġdark ness
Ġres c
Ġfood s
Ġjord an
Ġme lt
Ġg ym
Ġreport ed
Ġhen ry
Ġsn ap
Ġinsul in
Ġcon gress
Ġves sel
Ġlad ies
Ġem bed
all ed
ograph y
Ġst atic
Ġin n
Ġocc up
Ġhom es
im p
Ġv en
Ġins pect
Ġlo ose
c ore
Ġpub lished
Ġmon ster
Ġdev il
Ġr ig
ish ing
Ġt ier
Ġalgorith m
t r
Ġgr own
Ġgr ass
Ġpu zz
Ġter ror
Ġlam b
Ġs s
Ġexplan ation
re ens
b an
Ġst able
om as
Ġsacr ifice
Ġh iding
Ġcommunic ate
Ġaband on
Ġm ate
ut ter
Ġdis ney
it z
Ġf ont
Ġcomm itted
Ġanx iety
b ased
Ġbusiness es
Ġreport s
Ġar c
Ġdis ag
Ġtreat ment
Ġclaim s
Ġj son
Ġtan ks
Ġfr ag
Ġvers ions
Ġdeb ate
Ġend ing
Ġappro x
Ġinsp ired
Ġele ction
Ġdec or
Ġun us
Ġestab lished
Ġco oper
id ents
Ġp ac
es c
Ġpre f
Ġjo int
Ġchrist ians
Ġpra ise
a e
h as
Ġland sc
Ġgener ated
Ġwhe els
Ġinvestig ation
Ġdra ft
Ġeurope an
Ġt ie
Ġac id
Ġp iv
Ġben ch
Ġprincip les
Ġconsid ering
Ġcarry ing
Ġw ra
Ġsh ame
lic it
Ġun lock
Ġart ist
Ġstay ed
Ġdeb t
Ġconcept s
Ġselect ed
c ut
Ġhyp oth
Ġparam eter
Ġtr ies
ach e
ill e
Ġtrack s
Ġm and
Ġridic ulous
Ġlo ving
Ġm m
Ġfed eral
ch ar
et te
Ġhar v
om b
Ġdad dy
Ġref ere
Ġwh om
et t
Ġm ouse
Ġp atch
ri a
Ġb one
Ġconf erence
Ġlaw y
Ġsu nday
Ġf bi
Ġill eg
ian o
m ate
Ġmix ed
Ġer rors
Ġb ite
Ġu g
Ġextra ord
Ġdistrib ution
ic ious
Ġgosp el
g ues
Ġsm ith
Ġsleep ing
Ġab str
Ġcommand s
Ġtex as
Ġgr ade
4 0
Ġut il
Ġregard less
Ġprocess ing
Ġcoll ea
Ġbl og
Ġvall ey
b its
Ġconvers ations
Ġbl ade
Ġg ith
am i
Ġbe ast
Ġkid ding
Ġorgan ized
Ġaggress ive
Ġr acing
Ġexplain ed
Ġor bit
Ġ2 9
Ġw ings
Ġany time
Ġenorm ous
e k
Ġr ows
ri x
Ġcl imate
Ġl un
Ġdis aster
e et
Ġfire d
Ġinfin ite
Ġn est
Ġown ers
Ġextraord inary
Ġd uck
Ġgith ub
Ġdiffere nces
Ġf ancy
Ġbu ck
Ġtest ed
Ġleg acy
Ġaltern ative
Ġapp eared
Ġed itor
Ġsat ur
Ġp eak
Ġchampions hip
and a
g u
Ġch osen
ist an
Ġvert ical
Ġcand id
id ers
Ġemerg ency
Ġdist ract
c ase
Ġemploy ee
Ġactiv ities
Ġdec ade
Ġtext ure
Ġan ger
Ġequ ation
o ot
Ġre vel
Ġgree k
Ġb oring
ro id
Ġmind s
o ch
Ġrout ine
Ġmedic ine
Ġmem or
Ġin ject
Ġse pt
Ġ9 9
Ġj on
Ġreveal ed
Ġaug ust
Ġte eth
Ġh ug
Ġscript ure
b ble
Ġchar l
Ġpr ices
ib ilities
Ġform ed
Ġincre ased
im es
r ating
Ġd ies
Ġve g
Ġsqu ad
Ġperson ality
Ġhuman ity
Ġfunction al
Ġ7 5
Ġpiv ot
Ġtrans p
Ġd na
Ġex it
Ġexp ort
b age
Ġord ered
Ġhistor ical
Ġinst ant
Ġbuild ings
ir ation
Ġnas a
ate ful
Ġfr iday
Ġstruct ures
t p
Ġint u
Ġrep lic
Ġthe ore
Ġto il
Ġupgr ade
Ġsp o
Ġmem ories
Ġdri vers
as hing
Ġact s
Ġsc reens
Ġmechan ics
Ġinc ident
Ġsuccess fully
Ġk it
Ġte en
Ġsen ior
Ġanno ying
ot yp
am in
Ġco ordin
Ġaspect s
l or
Ġcrimin al
ant a
Ġmon it
Ġsa le
Ġabs or
Ġhapp iness
Ġret ire
Ġlet ters
Ġ202 0
Ġmo le
Ġass ets
Ġsearch ing
Ġst ab
Ġcap abilities
Ġmur d
Ġhar ry
Ġdiv ision
Ġoppon ent
Ġbutt ons
w in
Ġt ips
Ġfoot age
Ġch ips
Ġcon gr
Ġop ens
Ġis a
Ġjud gment
Ġcan ada
Ġneg ot
Ġsuc ceed
Ġa er
Ġoper ator
Ġphilosop hy
Ġtemp or
Ġprin ce
Ġet ern
l ines
Ġpound s
on a
Ġth omas
s a
z ing
Ġmat th
Ġd irty
Ġsing ing
Ġroom s
Ġvolt age
Ġm it
Ġattack ing
ud es
Ġoff ered
Ġdece mber
Ġsurv ival
Ġed ges
Ġbl ame
ific ations
Ġd ip
Ġstop s
Ġneighbor hood
v ision
Ġext ension
Ġr hy
Ġgu id
Ġl ap
Ġem bar
Ġsy nt
us es
1 2
Ġoper ate
Ġsust ain
Ġukrain e
Ġaw s
Ġin her
im ents
Ġcomb ined
Ġanal og
Ġout er
r ics
Ġopp osed
Ġfrequ ency
Ġest ate
Ġvis ible
Ġplatform s
Ġinstruct ions
Ġn om
Ġphys ically
Ġb ones
b ur
Ġr ack
Ġapart ment
Ġjun e
Ġexp osed
Ġmon itor
olog ist
Ġsens itive
Ġir an
Ġdri ves
Ġplan ned
Ġdes erve
m ans
Ġn ations
Ġcit iz
p a
Ġinter f
1 5
Ġag reed
Ġrock s
Ġpalest in
Ġdedic ated
Ġp ipe
Ġwilli am
Ġco ck
Ġhas h
Ġclim b
Ġd ur
ea ble
Ġbu cket
Ġmean while
Ġcons erv
b l
an es
Ġtr ib
Ġmatth ew
Ġrec on
Ġto y
Ġfriend ly
Ġse vent
Ġpub lish
Ġn ull
Ġsh ake
r ass
Ġfocus ing
Ġcur ve
ing er
Ġl ect
Ġen able
Ġdiv ine
Ġbe ef
Ġr um
Ġ202 4
Ġsou thern
Ġt el
Ġk im
Ġad vert
Ġch ase
Ġunbel iev
Ġext ent
r ator
Ġt ang
ap er
Ġrepres ents
Ġequ ival
ro s
Ġbes ides
Ġanim ation
Ġcamer as
less ly
os aur
Ġdetermin ed
Ġchar ging
Ġless ons
Ġdis s
Ġd up
Ġcan n
Ġch ic
Ġad s
Ġencoun ter
Ġent ered
w ing
Ġho od
Ġbl ast
Ġp ace
Ġcre ep
Ġser ved
Ġc pu
Ġemp has
Ġd c
Ġfact s
Ġload ed
Ġpre ach
Ġfact ors
Ġgl uc
est yle
Ġpro ced
d ed
Ġparall el
u h
ict ed
Ġl l
Ġo oh
Ġb ump
Ġcreat or
Ġap olog
Ġfort un
Ġreb u
Ġflor ida
Ġb a
Ġdocument ation
Ġrepos itory
Ġn er
Ġt ack
n is
Ġf aces
Ġj ay
com ing
Ġfo ll
u el
Ġun ex
Ġ6 4
Ġnar row
Ġcomp ass
Ġadvent ure
r il
Ġus ual
ast y
Ġremark able
k es
Ġcontroll ed
Ġadminist ration
Ġkill er
Ġho lly
Ġreven ue
Ġun known
Ġkore a
Ġth or
Ġnum er
Ġy e
Ġupd ated
Ġadd s
Ġcry pt
Ġf red
Ġlet s
Ġgentle men
Ġst un
ific ial
Ġb ars
ac les
Ġchar les
Ġnet works
Ġvict or
ch e
Ġpo ll
Ġsyn th
ain ts
Ġfe llow
ul s
Ġmat rix
Ġdiv ided
Ġstud ying
l ist
st ers
Ġfo x
Ġunus ual
Ġwe igh
enc ing
Ġund ers
Ġm use
Ġsept ember
Ġrou ter
ess ed
Ġsp ray
Ġembar rass
Ġlaug hing
nd a
Ġf ret
Ġse lection
Ġcalc ulate
m e
Ġle e
Ġjim my
Ġaw ful
Ġsc ope
Ġth umb
Ġst ir
Ġal ert
Ġcheck s
is ms
Ġmart in
Ġprob ability
Ġem b
i ot
Ġcomm a
v id
Ġbe nd
Ġload ing
Ġalb um
Ġbull et
Ġr oles
Ġcon qu
Ġcl in
Ġh orm
Ġsub t
Ġdef ensive
Ġd un
Ġnavig ate
ro ad
Ġch ances
Ġcomplex ity
ok es
Ġmechan ism
Ġdisag ree
Ġr ome
Ġli ver
Ġrequire ments
f all
r iend
Ġport ion
Ġcircumst ances
se y
Ġexp ans
be ll
Ġcha os
Ġcry ing
Ġsignific antly
Ġline ar
Ġpe pper
Ġali en
Ġtro ops
Ġphr ase
Ġpurp le
Ġp aren
Ġsc ott
Ġwin ner
Ġt ied
Ġmet ers
Ġrep ut
ur ning
Ġc d
Ġafter wards
Ġmark s
Ġcod ing
ad o
Ġreason able
Ġco in
Ġtrem end
Ġsynt ax
Ġr ick
Ġsupport ing
Ġme ga
Ġassemb ly
Ġf urn
Ġnut s
Ġest im
Ġout come
Ġterr itory
Ġhur ry
Ġcomb ine
en ger
Ġsex ual
Ġintellig ent
Ġb ind
Ġtr ash
Ġocc asion
th r
Ġgr ateful
Ġdist inct
Ġk et
Ġconv ention
Ġ3 3
Ġcont rast
h en
Ġn int
ch o
Ġt ension
Ġhar mon
Ġclos ing
Ġatt end
Ġange l
5 00
Ġclose ly
ul ator
Ġgu il
Ġexce l
is c
ath y
ort ion
Ġhel m
Ġdi agn
Ġd irt
Ġst ro
Ġmanufact ure
w ater
Ġinstr ument
Ġconsequ ences
Ġcompar ison
Ġg em
Ġfig ures
Ġsil ence
ur a
Ġnarr ative
9 9
Ġleg o
Ġor ient
Ġgod s
Ġsur re
is ters
Ġnint endo
Ġsp a
Ġser ving
Ġeff iciency
Ġtun nel
Ġappropri ate
Ġcontro vers
xt ure
Ġprov ider
Ġfac ed
Ġnot ion
Ġmain ly
Ġ *
Ġm ile
Ġmole c
Ġret urning
Ġinte ger
Ġry an
Ġplan es
Ġimport ance
ab et
Ġper man
Ġf its
Ġne at
Ġbo ld
Ġsur f
Ġstore s
Ġgluc ose
Ġforg ive
Ġap ril
con nect
Ġelectric ity
ren e
Ġjump ing
Ġtele vision
Ġbasket ball
Ġlif estyle
ch ron
ath an
b es
Ġdec re
Ġimplement ation
Ġr ang
ro ph
Ġcu be
Ġbid en
Ġt ik
Ġke vin
Ġtop ics
Ġnear by
Ġflo ating
Ġju ice
Ġl av
Ġconvin ced
Ġphys ic
Ġfle et
Ġr ates
Ġsecret s
Ġnice ly
Ġce o
Ġgrad u
Ġd ang
Ġadm it
Ġres et
Ġen ab
lf riend
b ling
Ġ2 000
Ġbi ke
Ġassum ing
Ġb un
Ġf ought
Ġguil ty
st ream
Ġpre gn
Ġins urance
Ġs illy
Ġdeploy ment
Ġdes cend
Ġman ual
ad ing
Ġstate ments
Ġbreat hing
Ġc ere
Ġappear ance
Ġcivil ization
is co
Ġj osh
Ġfl esh
Ġfunction ality
Ġimportant ly
Ġsal v
Ġcand y
Ġshap es
ale m
eng ers
Ġtreat ed
Ġbelief s
Ġnor thern
Ġexpert s
j s
Ġcr ush
Ġfill ing
Ġtraum a
Ġ vel
Ġcr ap
Ġdel ive
Ġsp oken
pt ions
Ġpurch ase
Ġshop ping
resp ond
Ġp and
Ġtechn ologies
Ġl it
Ġbel t
Ġsqu ee
Ġken ned
Ġint ent
Ġcult ural
Ġrepl aced
Ġmo ist
Ġpar is
Ġheav ily
g ar
Ġj uly
st airs
Ġjer us
Ġcor respond
Ġcommand er
Ġche f
Ġi ra
Ġe ll
Ġn a
Ġsur ger
Ġn ope
Ġ12 0
Ġrad ar
Ġmexic o
Ġrecord ed
Ġpow der
Ġsp ots
Ġcover ing
Ġcapt ured
Ġl ens
Ġbird s
Ġd ave
o ons
Ġcon ver
Ġther m
Ġjerus alem
1 00
Ġstand ards
Ġtim ing
um my
Ġser vers
Ġbed room
r ick
Ġag ency
Ġobject ive
Ġeas tern
Ġj ac
ate ll
Ġj ul
Ġpo ison
Ġprof ound
p et
Ġload s
Ġall e
iven ess
Ġdesign s
Ġgl ue
ann y
Ġcontinu ous
Ġgenuine ly
Ġpurp oses
Ġw aters
Ġad ap
Ġdim ension
Ġn ich
Ġsh irt
nd ered
Ġv iet
Ġwar ri
Ġjohn son
Ġd b
Ġart ificial
Ġe in
Ġ19 5
k ins
Ġguarant ee
Ġmiss ions
Ġcut s
e ous
Ġint ended
Ġrequest s
Ġcour age
Ġgam ing
Ġdelive red
Ġn ba
Ġab und
Ġdr um
2 5
Ġlim its
in ity
Ġreg ret
Ġenc ry
Ġsure ly
Ġult ra
Ġm ail
Ġl apt
Ġroll s
Ġste ven
Ġtit an
Ġsit es
Ġtherap y
Ġdep ression
Ġfab ric
Ġdest ination
Ġht tp
Ġpip eline
Ġus ern
pect ed
Ġneigh b
Ġcon ce
Ġpresent ation
p ir
Ġdiscuss ed
Ġequival ent
Ġreach ing
Ġdo ctors
Ġbus h
h ab
Ġmar sh
Ġre ly
Ġdesk top
Ġkenned y
Ġso il
Ġp ist
Ġalong side
Ġdim ensions
Ġgen ius
ap se
Ġdut y
Ġlandsc ape
Ġshould er
Ġth rew
al y
Ġupd ates
Ġsh er
Ġgood bye
Ġpun ish
Ġphot ograph
Ġbr ut
ber ry
Ġsil ent
Ġdi vers
Ġilleg al
Ġs ake
Ġme re
Ġpay ment
Ġrem em
Ġh int
Ġask s
Ġd are
os is
Ġrevel ation
e en
Ġm ud
Ġsn ack
Ġpoint ing
Ġc ord
Ġfle w
ib l
Ġsign ature
Ġthr own
Ġinst antly
Ġsm ash
i ke
Ġb rian
Ġreg ister
Ġmet ab
Ġsupport ed
Ġorgan izations
Ġgir lfriend
Ġintell ect
Ġjose ph
Ġtrick y
Ġsty les
Ġneut ral
Ġpercent age
st one
Ġb ust
os ure
f ont
Ġte ars
Ġrest rict
Ġhun t
Ġk ings
Ġex cess
Ġsch ol
Ġenter pr
v ille
y stem
Ġass ess
Ġmatch es
r ance
Ġrec ip
ag ger
Ġmagnet ic
d on
a ud
for ward
Ġpro ceed
Ġhun ting
Ġc ss
Ġz e
Ġpract ices
Ġs atell
Ġret rie
Ġpass engers
Ġalph a
f ol
w ich
p ass
Ġpr on
Ġatt itude
we ight
Ġh ire
Ġamount s
Ġpray ing
Ġeffort s
Ġcath olic
Ġtr im
Ġthe ories
Ġschool s
Ġbr az
Ġfr anc
Ġact or
re ct
Ġn ap
Ġill ust
Ġann ounced
i j
fr iend
Ġrhy th
Ġmar gin
Ġcongr at
it ate
Ġwed ding
ed ing
Ġear n
Ġprod ucing
ott ed
Ġchristian ity
Ġ3 1
Ġtoil et
Ġchic ago
m o
d r
Ġchild hood
Ġt ens
Ġbreat he
Ġreput ation
Ġ202 2
op h
Ġinn oc
Ġsimilar ly
Ġenjo ying
Ġj ason
e u
Ġaccept ed
Ġcontain ers
Ġse vere
Ġweak ness
Ġmin ister
Ġaccompl ish
Ġfast ing
Ġm aps
Ġch er
Ġcent uries
Ġat om
out s
Ġcour ses
Ġdefe at
Ġtom ato
on aut
if ting
Ġapp eal
Ġback wards
Ġhead er
Ġst an
Ġde let
Ġprod uc
Ġexist ed
Ġstraight forward
Ġanc est
ell ing
Ġm ush
Ġf etch
b les
Ġindust rial
Ġlas er
Ġital ian
Ġo sc
Ġmo ld
Ġfil ms
Ġa ward
Ġlog ical
Ġinterview s
Ġsevent h
in al
Ġauthentic ation
Ġstay s
Ġvir gin
Ġ19 3
Ġt ub
Ġrad iation
Ġsurround ed
Ġemp er
Ġcal ories
Ġsn eak
Ġshow er
Ġco gn
Ġattack ed
Ġconven ient
Ġpass es
Ġre ct
Ġkil om
Ġt ent
k in
Ġcommun ities
Ġclaim ed
Ġcomp ound
Ġholly wood
m ates
Ġe ld
Ġrec all
g reg
Ġmo nday
Ġchar ges
Ġapp oint
Ġan ch
Ġrem ained
Ġepis odes
Ġdrop s
Ġusern ame
o op
Ġb other
Ġprotect ed
Ġarr ive
ot a
ens ional
Ġcar ol
Ġpr ide
Ġhoriz ont
Ġrat io
Ġunt o
Ġexec ution
Ġconf using
Ġc ale
ic ip
Ġper mission
Ġtun e
Ġcomp ute
Ġrepe ated
Ġcomm ission
Ġear s
Ġpartic le
Ġbless ed
Ġmanag ing
Ġprofess ion
Ġdi agram
Ġs ith
Ġp iano
Ġwid get
Ġ eric
Ġprom ised
Ġlic ense
Ġinvestig ators
Ġvac u
Ġt ed
Ġflow ers
r um
Ġinter ior
Ġi phone
at a
Ġmet a
Ġdat ing
Ġord inary
Ġcr own
Ġd ancing
Ġdiv or
p m
Ġgener ations
Ġover come
Ġunex pected
ing u
Ġk m
Ġcount y
Ġpresent ed
Ġ3 7
Ġt ires
Ġconcern s
Ġb aking
ap ed
Ġlight ing
r un
an y
Ġchar ged
Ġco ins
Ġlog s
Ġtouch ed
Ġaware ness
Ġconcl usion
Ġein stein
Ġk ar
Ġcle ver
Ġtrack ing
Ġman ner
Ġgar age
Ġr ib
Ġton y
Ġe cho
Ġsurger y
Ġtel esc
Ġconnect ing
Ġstr ict
Ġtick et
Ġr os
Ġ6 00
w ind
Ġmo ses
Ġmyster ious
Ġban ks
Ġsatur day
Ġdesign er
Ġmine craft
Ġst om
Ġbur ied
Ġincor por
Ġcare s
Ġplan ets
Ġmi xture
Ġrep air
Ġcap s
Ġabstr act
Ġass ault
Ġoff ensive
Ġbelie ves
Ġep ic
Ġconst it
Ġpoint ed
Ġdetail ed
Ġ25 0
ic op
se ll
Ġmom my
Ġro ast
Ġveg as
Ġun re
Ġcreat ures
Ġsw ear
br uary
Ġlog in
Ġcur s
Ġpy ram
Ġunivers al
Ġth under
Ġimmedi ate
Ġelectr ical
Ġown ed
Ġs i
Ġsee king
Ġarch ae
Ġstr uck
Ġarrest ed
w an
Ġuncom fort
Ġexpect ations
Ġvol c
Ġmuse um
Ġright eous
Ġch unk
Ġmo od
Ġco vers
Ġspeak er
Ġbound ary
Ġpack ages
Ġdro ve
Ġdra wn
Ġfe bruary
Ġ3 4
az z
k er
en n
Ġpart ies
r uction
ig er
olog ists
Ġdin osaur
Ġli p
Ġdro pping
Ġb am
ro l
ill ed
Ġexp lo
Ġpl ain
Ġhand ling
Ġsp ider
Ġsand wich
Ġchamp ion
d ie
Ġall oc
Ġcontinu ing
Ġset tle
Ġob l
Ġd rew
Ġres il
Ġlif etime
Ġpro x
Ġhel icop
Ġple as
Ġunbeliev able
Ġ .
Ġ4 8
Ġexec uted
Ġbag s
Ġg it
Ġluck ily
b by
Ġent ity
9 0
Ġd ub
Ġ202 3
Ġth y
Ġstop ping
Ġassist ant
Ġoffic ially
Ġguest s
Ġpow ered
Ġtest im
Ġital y
m ade
w ar
Ġloc ations
Ġsuff er
o ll
Ġb in
Ġn u
Ġlea k
Ġvacu um
Ġcook ed
re h
Ġj ones
ill ion
Ġstream ing
al a
Ġclick ing
Ġhol iday
Ġsat an
Ġobs erve
Ġse ctions
Ġinst ances
Ġbene ath
Ġalle ged
Ġps al
r ont
Ġfro zen
og ue
ut s
Ġtremend ous
Ġprot otyp
Ġor ch
Ġinfl ation
Ġhamm er
Ġvict ims
Ġrom ans
Ġsl ower
ow ing
Ġcoun c
Ġbe er
Ġexpans ion
o be
Ġinvol ves
if orm
Ġfi ber
Ġc s
Ġmr s
Ġsurround ing
Ġext ended
b c
Ġconfir med
Ġmultip ly
p e
Ġbatt les
Ġman eu
Ġeas iest
Ġshort ly
ag ue
Ġpotato es
Ġst ages
Ġmark ets
Ġoverwhel ming
Ġtur key
Ġdest ruction
Ġlegend ary
Ġimpro ved
Ġger mans
Ġbound aries
Ġresc ue
Ġbr on
Ġexp licit
Ġport s
Ġpol ic
Ġlight er
Ġt ube
Ġse ats
Ġcoll apse
Ġpan els
Ġbac ter
Ġcryst al
Ġr ings
Ġlux ury
er ies
Ġj ake
Ġicon ic
Ġc ous
Ġdeb ug
Ġdup lic
Ġcho osing
Ġmax im
Ġstrateg ies
Ġansw ered
Ġfoll ows
Ġst im
Ġsupport s
Ġscient ist
Ġhead ed
Ġstra w
Ġbatter ies
Ġreli able
Ġuncomfort able
Ġgr at
Ġph ones
Ġris ing
Ġbu bble
Ġreco ver
Ġd ow
Ġd oug
Ġspeed s
Ġgraph ics
h us
Ġsu cks
it able
Ġpast or
Ġglass es
Ġres olution
Ġtransform ation
Ġv p
Ġconf ront
Ġpri est
Ġdev ast
go ing
Ġpolic ies
Ġdist ur
Ġprepar ing
Ġvulner able
Ġperform ing
Ġw ires
Ġfr ames
Ġm ama
if ies
Ġcham ber
c p
Ġr amp
off s
Ġann ounce
Ġde lt
Ġphilosop h
Ġto xic
Ġg ates
ad er
Ġs oup
Ġpo inter
Ġpro sec
Ġmark ed
Ġec os
Ġman ually
Ġexper iments
ire ct
is her
Ġrecogn ized
Ġunders core
Ġseed s
b ered
Ġpriv ile
Ġfish ing
Ġmake up
Ġgre g
Ġcomp ress
Ġconsum er
ren cy
Ġevol ved
ur t
Ġcompet itive
Ġapprox imately
Ġgen esis
Ġdo d
il ot
ore s
od ed
Ġd iction
Ġsn ake
Ġbill ions
Ġrece iving
are s
ning s
Ġge om
Ġobs er
Ġfl aw
Ġce iling
thr ough
Ġtre asure
Ġbl o
Ġt ire
Ġprin cess
Ġl ion
Ġtr apped
Ġsign als
Ġastr onaut
Ġv ice
Ġecos ystem
Ġand roid
est ic
Ġro ots
Ġmeaning ful
Ġwol f
Ġbraz il
Ġh atch
Ġscrew s
Ġr h
Ġcharl ie
Ġaffect ed
Ġspa wn
Ġemper or
Ġstud ied
Ġinvol ve
Ġag es
Ġat e
um bs
Ġland ed
Ġso lo
Ġgr ams
Ġz eal
Ġparen th
Ġo ops
Ġbr ains
Ġatt or
Ġpol itic
Ġcateg ories
Ġgri p
Ġshe ep
Ġsymp t
Ġper ce
Ġchann els
Ġinv ited
Ġbon us
Ġant icip
Ġbro ok
Ġel on
Ġfant asy
Ġcomp iler
ed s
Ġas yn
Ġ202 1
Ġe ve
om a
Ġr ating
Ġtax es
Ġviol ent
Ġcomput ing
Ġj ar
are t
Ġ3 8
Ġhard est
b ow
Ġinv ite
Ġsol ving
Ġworld s
Ġembr ace
Ġp ent
Ġlog o
Ġincre ases
Ġsend s
Ġrhyth m
ul ting
Ġlo yal
Ġd ict
Ġme g
Ġsh ine
Ġpac ific
Ġdram atic
Ġg b
Ġdemocr acy
Ġcont emp
Ġ4 2
Ġanaly ze
itt y
j a
Ġmusl im
Ġrest art
rep rene
is ible
o y
co in
Ġsqu ared
Ġinit i
st ar
Ġne ural
Ġent reprene
Ġno vel
is er
Ġsuggest ed
Ġcounc il
in ations
Ġgl or
ess ions
Ġprim arily
Ġreal m
Ġcloud s
Ġinteract ion
Ġst ones
Ġsurv ived
Ġass et
Ġsim on
ian a
Ġtar gets
b rew
Ġsubm it
Ġl ane
Ġ18 0
en a
Ġgar bage
Ġprem ium
Ġart ists
Ġge nder
Ġbas ics
Ġfall en
ĠĠĠĠ ĠĠĠĠ
1 6
Ġmar ry
Ġpap ers
Ġinnov ation
Ġel ite
Ġo d
Ġimm ig
Ġgood s
Ġob st
Ġexpl oring
Ġ6 5
Ġmerc y
Ġinf ect
Ġsal ary
Ġreco very
es th
Ġlarge ly
Ġminim al
Ġun iform
Ġbe ating
Ġprior ity
Ġmag az
Ġpost s
Ġprot est
Ġstrateg ic
el ines
Ġ201 9
Ġt s
i ors
m it
Ġlibr aries
Ġt ay
Ġflo at
Ġenviron ments
Ġira q
Ġassign ed
Ġsoph istic
Ġl b
Ġlapt op
le ep
Ġbuild s
Ġforgot ten
Ġproph et
Ġcl ue
Ġcomp rom
Ġgener ator
Ġb ot
Ġchea per
Ġagree ment
c alled
c a
Ġport fol
Ġisrael i
Ġover l
p ace
Ġco al
Ġbelie ving
Ġequ ipped
ic ial
Ġthreat s
Ġnight m
Ġto ler
Ġoccur red
Ġs its
Ġfre ak
Ġmoment um
Ġm s
Ġa id
Ġident ified
Ġ9 5
Ġcosm ic
Ġintrod uction
in ated
Ġst em
v as
Ġthe ater
Ġaccess ible
en er
Ġimp ressed
Ġpain ful
on ge
Ġwork sh
Ġab ilities
Ġsp eaks
Ġnut r
Ġconstruct or
Ġadop t
i ver
a way
Ġ5 5
ann ed
Ġstom ach
ten ance
Ġclos est
Ġapply ing
Ġconvin ce
Ġunder ground
j i
Ġch uck
w ide
Ġl is
Ġdelt a
Ġsepar ated
Ġas ia
Ġimprove ment
Ġin ches
Ġlawy er
ind er
Ġde als
Ġsmell s
Ġfrequ ently
Ġhun ter
Ġinsp iration
f ather
Ġmain tenance
Ġa ri
Ġgo lf
Ġu f
Ġreg ions
Ġenterpr ise
Ġfast est
Ġpe ar
Ġse gment
Ġimplement ed
Ġmush room
Ġm l
or ate
Ġs ed
ol a
Ġab use
Ġtouch ing
Ġcompass ion
Ġfight s
i ance
Ġpuzz le
Ġsl ice
Ġhand y
Ġmir acle
Ġsh orter
Ġr ip
Ġconfig ure
ro g
Ġhoriz on
Ġtast es
Ġfight ers
Ġnar c
r id
Ġinvent ory
Ġcollea gues
Ġcongrat ulations
f it
Ġw re
im eter
Ġfl av
Ġy ards
Ġhor ror
cc a
Ġres on
Ġar med
Ġpo le
Ġug ly
Ġjack son
Ġb ass
Ġ201 6
Ġpers ist
Ġfl ower
Ġrapid ly
Ġmind ful
Ġy ard
Ġpen al
Ġl one
Ġp ul
Ġunc ertain
Ġmet er
Ġtheore t
m ad
Ġview ers
Ġreview s
Ġpick s
Ġgate way
Ġrab bit
Ġrad ical
Ġbat man
Ġfr ied
Ġwr iter
Ġs lic
Ġtyp ing
Ġ +
Ġcomm itt
Ġhalf way
Ġprop os
Ġcar go
Ġroad s
Ġed iting
Ġinj ury
Ġg ath
f ish
it ors
Ġdec ides
Ġo t
Ġsh ipping
Ġcomp reh
Ġbl u
Ġprint ing
Ġup side
Ġb orrow
Ġpre v
Ġlight ning
Ġinvent ed
Ġde light
Ġpri ze
Ġsuggest s
Ġw ig
Ġc av
Ġinf o
Ġshock ed
Ġv l
Ġspan ish
Ġg ay
Ġintegr ation
Ġabandon ed
l ers
Ġy og
Ġdat es
Ġbe ans
Ġremind s
Ġwalk s
Ġtemp l
Ġin ev
Ġimag ination
Ġgalax ies
Ġtur b
ik es
arch y
Ġdeli ber
Ġent ering
Ġisland s
Ġbab ies
la w
h al
Ġent hus
Ġevery day
Ġse asons
Ġsix th
f ire
Ġout s
Ġcor ners
Ġharv est
Ġbi ological
Ġf est
Ġfac ility
Ġcomed y
Ġcap ability
Ġint im
Ġpre cious
Ġr ational
Ġmechan ical
ud ed
Ġris ks
Ġhe brew
Ġcook ie
Ġworth y
Ġd ick
Ġsc am
Ġposs ibilities
here nt
Ġgaz a
Ġdark er
Ġtur bo
Ġs id
Ġy ay
Ġqu ad
Ġcl one
Ġsa il
Ġlou is
Ġenthus i
er ves
Ġdirect ions
Ġdash board
Ġarr ange
Ġg ross
Ġred uced
Ġanaly t
Ġapolog ize
Ġk y
Ġcl ay
Ġa ven
Ġn odes
Ġtemperature s
Ġmod ules
Ġvo id
ok er
Ġsl ip
Ġh an
n ament
Ġn it
Ġh ors
Ġjump ed
Ġbrief ly
Ġdesper ate
6 0
Ġback up
Ġpro ved
Ġbit coin
la im
fl ix
bur g
Ġas leep
Ġco at
Ġpost ed
Ġsecond ary
Ġref rig
Ġdisc ord
Ġbill s
Ġexplain ing
Ġremo ving
Ġrefrig er
Ġnight s
st ep
Ġentertain ment
v an
Ġmin istry
Ġcitiz ens
Ġeng aged
Ġachie ved
Ġtr ace
Ġbrack et
pr int
Ġstick ing
Ġpawn s
ar n
Ġe ase
Ġimp ression
Ġnet flix
Ġprint ed
Ġwood en
Ġdomin ant
Ġcommit ment
Ġautom atic
Ġattrib ute
or a
ic ide
ang ed
Ġh es
ys on
Ġmod ify
Ġport al
Ġpark ing
Ġr it
Ġbu zz
Ġreal istic
Ġpal ace
Ġen force
n at
Ġ201 8
Ġle mon
Ġdis connect
Ġalt itude
Ġmeas ures
Ġsubscri ption
Ġsee ming
Ġcontroll ing
Ġtri angle
Ġmer ch
Ġha bits
Ġprec ision
Ġbom bs
Ġt um
Ġveget ables
Ġt a
Ġun able
Ġrid ing
e ing
y a
Ġmet aph
Ġneighb ors
Ġcool ing
Ġlay ing
Ġj up
Ġinter rupt
se ct
Ġdo ck
Ġfir ing
Ġform ation
Ġscal es
Ġtay lor
Ġtrail er
Ġse am
Ġbo ston
Ġwilli ams
Ġcance l
Ġte ar
Ġround s
Ġfrank ly
Ġdemonstr ate
Ġsl ides
Ġincre ment
Ġfl ows
Ġb apt
Ġpract icing
Ġsin s
Ġwo ke
Ġsil ic
Ġrel ief
Ġbar rier
stand ing
Ġcu ps
Ġcra w
Ġcorpor ate
Ġol ive
Ġimper ial
Ġres ur
l ife
Ġoff ense
Ġob t
Ġmonit oring
Ġlect ure
Ġsuper ior
Ġmed itation
Ġrob ots
Ġb c
Ġsafe ly
Ġafric an
r ist
ur an
Ġch asing
Ġwr it
Ġemail s
Ġjac ob
z er
Ġcomp act
Ġportfol io
Ġtrick s
ri ers
ph ones
Ġsw ift
Ġpro ven
Ġgu ards
Ġass ass
Ġinstall ation
ut en
Ġident ical
att le
Ġbur st
Ġcloth ing
Ġattemp ts
Ġspin ning
Ġcelebr ate
Ġath let
Ġprom ises
Ġhar sh
Ġbo ards
Ġdep os
Ġshort cut
Ġhyd rogen
Ġsubm ar
Ġauthor ities
Ġver b
Ġc m
Ġste ady
Ġmon t
Ġs ons
Ġrel at
Ġtor t
ab y
Ġwind s
Ġpriv acy
Ġrun way
Ġange ls
Ġinv isible
Ġrefer red
Ġsh ed
Ġcreat ure
Ġb atch
Ġre vers
Ġvol ts
y ard
Ġadult s
Ġteach ers
Ġf ate
Ġmo ck
Ġbu gs
Ġdepend ent
Ġd ual
Ġmanufact uring
Ġinsight s
Ġetern al
Ġc ort
Ġbr a
Ġexecut ive
Ġdisc ount
Ġcl iff
Ġtok ens
r ison
ra w
Ġgrant ed
Ġsupp lies
Ġtim eline
Ġcont est
Ġdiction ary
u ous
Ġexpl ains
Ġgr ave
Ġall ies
Ġaccident ally
Ġexplos ion
Ġpack ed
Ġver ify
Ġcop per
Ġinfl amm
Ġwebs ites
Ġover s
ren ce
Ġmeas uring
Ġpregn ant
Ġzeal and
if ier
Ġprotect ing
Ġf oss
Ġrebu ild
w all
Ġab ra
Ġscream ing
Ġgr ain
Ġincreasing ly
w alk
Ġnow ad
Ġun co
Ġh ier
Ġmusic al
Ġbacter ia
Ġacknow ledge
Ġregular ly
Ġthr ust
Ġser ial
Ġax is
Ġh ired
Ġsur ve
Ġlav a
let s
Ġref lection
Ġpol ar
Ġland s
Ġexcl usive
so ever
Ġstick s
Ġus b
Ġswitch es
Ġmotiv ation
og en
Ġdifficult y
Ġlow est
Ġinnoc ent
2 00
Ġflex ible
Ġmaint aining
Ġend point
Ġviet nam
Ġshare s
Ġbrand s
Ġspace craft
Ġswe at
Ġbu bb
Ġwhat soever
Ġdi abet
Ġc ad
v is
ol en
Ġav o
Ġwork er
Ġw ard
Ġreal izing
Ġv ine
Ġequ ally
Ġra ising
Ġnowad ays
Ġfor d
Ġh ind
Ġmathemat ics
Ġp ier
ly n
Ġor b
ll a
Ġhorizont al
p ack
ip ed
Ġpull s
Ġpro c
Ġmeet ings
Ġconsist ently
Ġpain ted
Ġastr onom
Ġgen etic
Ġext r
Ġw il
Ġcur t
Ġbr ad
Ġstart up
u a
Ġshap ed
Ġdrink s
b ra
Ġst ad
Ġfr anch
Ġp d
Ġnews p
Ġdr one
Ġa the
Ġspons or
Ġnumer ous
Ġvel oc
Ġcar rier
Ġsen ate
Ġsol ved
Ġcompet e
Ġknock ed
Ġwith d
Ġall eg
Ġkick ed
Ġburn ed
Ġinvest ing
Ġact ively
Ġtw in
Ġreg ist
Ġresearch ers
Ġeth an
Ġbad ly
z ed
Ġcommitt ee
Ġyou th
Ġcoll aps
Ġguid ance
ly mp
Ġcount ing
Ġrub ber
Ġg ab
Ġbase ball
Ġattor ney
Ġgener ating
Ġmar vel
Ġdecl are
Ġhar ris
Ġfundament ally
Ġal umin
Ġpl ates
Ġdr ama
Ġrefer ring
Ġkilom eters
Ġ8 00
amp s
Ġamong st
Ġbe am
Ġfl utter
Ġabra ham
Ġq uran
Ġpix els
al ous
op es
Ġg ifts
Ġsub tle
Ġve nd
Ġthread s
u k
Ġsl ot
Ġhard ly
Ġdig ging
g ie
Ġh mm
Ġsw ap
Ġimp lic
Ġsk etch
Ġdo om
Ġent rance
Ġclass ical
Ġth umbs
Ġd ensity
att ered
Ġdatab ases
ham mad
Ġv ital
Ġenh ance
z a
ick s
Ġf ence
Ġorgan ic
Ġsuff icient
Ġg p
i vers
Ġstro ke
ap ing
Ġcomp at
Ġprop ag
Ġdav is
Ġperman ent
Ġautom ation
Ġintegr ated
Ġaw a
Ġo lymp
v y
Ġy ield
Ġspace x
Ġbuild er
Ġresol ve
Ġswe ep
Ġremind er
Ġshock ing
Ġbuff er
i ences
Ġtw eet
Ġn ons
Ġrepublic an
ge on
Ġaw k
Ġs izes
Ġp iss
Ġregard ing
Ġrepresent ation
Ġla zy
Ġdish es
Ġbl ur
Ġperform ed
Ġvo ices
pp y
Ġinstall ing
Ġswim ming
Ġske let
Ġtr iple
Ġrad ius
Ġcy l
Ġfinish ing
Ġb inary
Ġand y
Ġmess ed
Ġens uring
Ġgrad ually
Ġcas ual
if act
Ġact ors
Ġfeed ing
Ġconsist ency
Ġdistrib uted
l ation
v a
Ġre ck
un ction
Ġout do
Ġmathemat ical
Ġbrut al
Ġad h
Ġadv oc
Ġsacr ific
l on
Ġmaneu ver
Ġg ary
Ġterr ifying
Ġdeploy ed
Ġgrav it
Ġw rest
ut ing
Ġgar lic
Ġmi ami
Ġe ag
Ġall ah
Ġsem ic
Ġfe ars
Ġmo s
Ġmag ical
Ġess ence
Ġ201 7
Ġo ught
Ġste pped
ane ously
Ġsurv iv
back s
Ġrepresent ed
Ġsubst ant
Ġem ily
Ġspr int
Ġcert ific
om ing
am ine
Ġfaith ful
Ġst ability
Ġb iz
Ġb ounce
Ġmove ments
l ied
Ġbu nd
Ġ4 4
Ġimm une
Ġsophistic ated
Ġawk ward
Ġinput s
Ġstad ium
Ġpartners hip
Ġcale nd
Ġwo o
Ġd y
Ġv s
Ġover night
m ond
Ġmus k
it ure
Ġlist s
Ġreport ing
Ġcollect ed
Ġrot ation
Ġpix el
Ġtempor ary
Ġbet ray
Ġinher it
Ġto ss
Ġcr imes
n ie
Ġmu hammad
Ġflu id
Ġsurre nder
ar ian
Ġstrong ly
Ġc rop
Ġpath s
Ġhous ing
Ġretire ment
Ġgr ows
f are
Ġpress ing
Ġaccur acy
Ġintellect ual
Ġproph ec
e ff
Ġbill y
Ġdr unk
com es
p art
Ġda wn
Ġart ifact
Ġbeautif ully
Ġsympt oms
al es
ad s
Ġcomp ile
Ġdisapp eared
Ġcreat ivity
em ic
Ġle on
n ar
Ġton gue
Ġsumm ary
Ġsk ull
Ġpublic ly
i h
Ġdist ant
et ics
Ġcent ers
Ġmiss ile
Ġacadem y
Ġwe ld
Ġlist ed
Ġrest ore
Ġtour nament
Ġfr idge
Ġun l
Ġ198 0
Ġhorse power
e qu
Ġb ake
Ġre ign
Ġinter v
Ġdiabet es
1 4
r ations
Ġcr unch
Ġsyn c
Ġbol t
Ġwra pped
Ġd ense
Ġblock ing
Ġkn ees
Ġcr iter
Ġmar cus
Ġrot ate
Ġnavig ation
Ġmus cles
Ġgrat itude
Ġfil ming
c r
Ġcop s
Ġbet a
ct r
Ġcogn itive
in ction
Ġanaly st
et ric
Ġret reat
Ġexpand ing
p it
Ġbo o
Ġattrib utes
Ġp ak
Ġunder lying
Ġwood s
Ġtestim ony
Ġthe ta
um es
Ġcr ick
Ġcommon ly
Ġstream s
Ġclim bing
Ġr us
Ġcr ust
Ġjup iter
Ġsc ot
Ġprecise ly
Ġvoc al
Ġrare ly
Ġwick ed
Ġsuff ered
Ġth ou
Ġm aker
Ġle verage
Ġbl own
Ġrel ate
in ent
Ġto oth
7 0
Ġ201 5
Ġimpro ving
Ġg orge
Ġcatch ing
Ġbr ave
Ġschem e
Ġfor k
Ġapproach ing
Ġse l
Ġsm oking
Ġroll ed
Ġske pt
ios ity
Ġmiss iles
Ġp ars
Ġdescri bing
Ġcook ies
Ġc odes
Ġexp on
Ġisol ated
Ġjohn ny
Ġbr id
Ġh ated
Ġd art
Ġdis miss
Ġprocess ed
Ġspect rum
Ġconserv ative
Ġho ver
Ġlea f
Ġsquare s
ter y
Ġdefin ing
Ġgre et
il a
Ġder iv
b ie
Ġdiscip line
Ġmeasure d
Ġp ile
Ġp or
Ġmar ine
Ġhors es
Ġme als
Ġapproach es
Ġele ph
Ġaut onom
Ġext ensive
Ġkill s
Ġl ag
Ġren ew
Ġmatch ing
Ġnote book
Ġcru ise
Ġtruck s
Ġboost er
Ġdow nt
Ġpat re
Ġexperi encing
Ġalex ander
Ġpan ic
Ġodd s
ap es
Ġflow ing
Ġp ir
Ġbi ology
Ġeg o
Ġbob by
Ġbrack ets
ent ed
st op
Ġcan ad
Ġinterest s
Ġshel f
Ġtun ed
Ġz omb
Ġaddress es
Ġ- -
Ġcool er
Ġblock ed
Ġproduct ivity
Ġtit les
thon y
Ġtend s
u ge
Ġh ip
Ġr ival
Ġreach es
Ġjer ry
Ġc ats
Ġacc um
Ġtelesc ope
Ġold est
Ġamp l
Ġst olen
Ġmight y
Ġbroad cast
Ġlong est
Ġsyn chron
Ġjun ior
Ġcop ies
Ġsurprising ly
Ġbit ter
Ġed ition
Ġn od
Ġpass enger
Ġfer r
fr ont
Ġhouse hold
Ġthreat ening
Ġfig uring
Ġseeming ly
Ġhe ating
Ġdo o
Ġdr ain
Ġfree ze
Ġoper ators
Ġpass age
Ġdial ogue
Ġnarc iss
Ġfin ance
Ġgrand m
Ġpe el
Ġstock s
Ġwre ck
Ġpsych ological
Ġquot es
Ġs d
e z
Ġinst inct
Ġvol un
Ġco inc
h uh
Ġdam aged
Ġevol ve
Ġopin ions
Ġthor ough
Ġscenar ios
Ġro ger
c lock
Ġan thony
Ġvolun te
h i
Ġange les
Ġrit ual
Ġst ake
Ġhigh way
Ġx box
Ġge org
Ġg ained
Ġwr ites
ony m
Ġble w
m es
Ġmanag ers
Ġcan vas
Ġcons pir
Ġsold ier
Ġap ost
Ġdis ord
Ġremem bered
ell o
Ġpsal m
Ġint r
olog ically
Ġhop es
Ġsumm ar
Ġc ig
um ber
Ġexc ite
Ġsem i
Ġk at
Ġquant ity
ath ers
Ġhur ts
iet ies
Ġfew er
Ġstun ning
Ġb ing
Ġmin ing
Ġphenomen on
Ġste pping
Ġalign ment
Ġtouch down
Ġvit amin
Ġun w
Ġinv asion
Ġquick er
Ġcur iosity
Ġg a
Ġat oms
Ġcover age
Ġst airs
Ġconf usion
ru ption
Ġshad ows
Ġb ibl
Ġabund ance
Ġto mm
Ġdis g
Ġret ail
Ġvis ited
Ġsched ul
ar on
Ġj unk
Ġun h
Ġw ider
ell e
Ġt ies
Ġqu eries
Ġsimp ler
Ġbless ing
p ie
Ġfil ters
Ġc ass
f ree
Ġfund ing
Ġcandid ate
Ġpatre on
Ġfe at
Ġliter ature
Ġveloc ity
Ġman s
Ġt i
Ġenab led
Ġear ned
Ġcount s
Ġint el
Ġhelicop ter
w est
Ġir r
Ġsamp les
Ġwait ed
Ġpeace ful
ul us
Ġacc omm
Ġtempl ates
ir ts
Ġmet rics
Ġcollect ing
at ile
Ġaccomm od
anc er
Ġv ault
Ġval ve
Ġtables p
Ġprop ell
ch ed
Ġcreat ors
Ġso le
Ġprom ote
Ġpurs ue
Ġdisg ust
Ġdemocr atic
Ġres ume
Ġtick ets
g l
Ġsometim e
Ġcross ed
Ġpyram id
Ġrec ru
Ġcar r
Ġrepublic ans
Ġdead ly
d am
Ġref used
Ġs anta
al f
Ġheal ed
li est
Ġinstr uction
nd ers
Ġr ag
Ġlone ly
Ġc ott
Ġour s
Ġhor r
Ġexpl oration
Ġ197 0
Ġred ucing
Ġsepar ation
Ġnot ification
Ġgrand ma
Ġdiamond s
Ġkore an
b u
Ġw att
Ġb um
Ġle w
Ġ201 0
Ġjew el
Ġwealth y
Ġthr ows
Ġc ables
Ġs isters
Ġh iring
od ing
Ġend less
Ġr ic
Ġcons ume
Ġsup reme
Ġli ps
v p
Ġbiz ar
don ald
Ġmicro s
m ble
Ġfr y
Ġdist rict
Ġpat ience
Ġfarm ers
Ġadm itted
Ġser ves
Ġprod uces
Ġhypoth esis
Ġsalv ation
Ġli d
Ġ19 2
Ġobs erved
Ġdes ires
Ġve ter
Ġvalid ation
Ġrecommend ed
Ġd or
Ġse ctor
nes day
Ġre form
Ġmod er
Ġinteract ions
+ +
Ġdefend ing
Ġf use
Ġshut tle
Ġre load
ag an
ash ed
Ġwed nesday
Ġpre view
Ġactiv ate
Ġon ion
Ġt yson
Ġle ver
Ġsett led
Ġgr a
ph y
th y
Ġperiod s
Ġsquee ze
Ġtrust ed
Ġfortun ately
Ġexp osure
Ġinvest ors
Ġfr uits
Ġ199 0
Ġd well
es es
Ġr ud
Ġper ception
Ġser ge
Ġorgan ize
Ġmagaz ine
ick ing
Ġalign ed
Ġtomm y
Ġcontrib ute
ir m
Ġpros per
Ġapproach ed
Ġimm ense
Ġelectr ons
Ġc ia
Ġback s
Ġsho e
Ġrestaur ants
Ġgath ered
Ġrev ol
Ġban ana
ach el
Ġdist ingu
Ġbe ars
Ġpak istan
e em
Ġn vid
Ġst ated
Ġw and
Ġr ope
Ġj azz
Ġprison ers
Ġform al
Ġnvid ia
Ġage nda
Ġp ants
Ġv ary
Ġart icles
Ġprior it
Ġrender ing
Ġfl ame
ipp er
Ġa esth
Ġthank fully
Ġmix ing
Ġanch or
Ġjack et
Ġt ues
Ġdepend encies
Ġmusl ims
Ġpunish ment
il ation
Ġtrans late
Ġswitch ing
Ġinstr uments
Ġdiscip les
it a
Ġcor rupt
b led
Ġdecl ared
Ġcalend ar
3 5
Ġfire s
Ġtues day
Ġg m
Ġar k
g ent
Ġpre y
Ġvac ation
o e
Ġcl ips
Ġblow ing
Ġin qu
Ġj okes
Ġhill s
Ġjust in
Ġsecret ary
Ġhy br
Ġnons ense
bo ards
; #
s en
Ġmon key
Ġlift ing
Ġn ether
Ġj aw
Ġc t
Ġ201 4
ain e
Ġeng aging
Ġtransform ed
Ġpu ff
Ġwar fare
Ġpe an
Ġcur ly
land s
Ġcontrovers ial
1 8
ill ing
Ġadd iction
Ġnaz i
b ase
lo ok
Ġt iss
Ġj ere
Ġlar ry
Ġpros pect
en ess
Ġn ah
Ġstri kes
Ġrecip es
st ation
Ġcat ast
Ġru in
Ġbizar re
= &
Ġa qu
Ġal ter
Ġbeh ave
Ġproduct ive
et r
Ġsw ed
f ia
Ġlo ops
Ġclar ity
Ġn asty
Ġdescri bes
Ġenvironment al
Ġdiscuss ing
Ġcr ab
Ġalgorith ms
Ġf ame
ck ets
Ġwide ly
Ġnightm are
Ġ7 00
Ġuse less
Ġinvest ed
Ġexerc ises
Ġcos ine
Ġup stairs
Ġrob ust
Ġcatast roph
ke l
Ġtun ing
Ġ36 0
Ġdis rupt
Ġpack et
Ġmot ors
Ġ3 9
Ġobs essed
Ġrout es
Ġus age
Ġtim er
Ġcomp ens
Ġr if
Ġvan illa
Ġfor cing
Ġint ro
Ġ201 2
Ġappl ies
Ġkn ee
Ġbo ots
n ic
Ġa unt
Ġch ains
Ġv m
Ġc ouch
Ġunf old
Ġsa ud
Ġang les
Ġfund s
Ġobserv ation
Ġon going
Ġdivor ce
Ġresil ience
r ons
Ġgorge ous
c s
Ġanx ious
Ġcl ut
Ġguess ing
Ġrep rod
act or
Ġt iger
Ġsp here
Ġinstit utions
Ġout comes
Ġchr ome
Ġtor n
Ġand re
Ġput in
Ġpalestin ian
Ġno ah
Ġbranch es
it o
Ġse an
Ġlast ly
Ġvi be
Ġgrab bed
Ġsim ult
Ġcustom ize
Ġprototyp e
Ġl ind
Ġcirc les
Ġm all
Ġcr ank
Ġeat en
Ġfort une
Ġtrial s
Ġflav ors
er able
Ġl ined
un ks
ar ter
Ġm ong
ac ular
Ġint rig
str uct
Ġtrou bles
Ġc ul
Ġd ressed
Ġmc donald
Ġprepar ation
Ġcriter ia
Ġsy mm
Ġevolution ary
Ġtrans action
Ġut ility
Ġchart s
Ġdisappoint ed
z o
Ġpop s
Ġproduc er
Ġd j
Ġel astic
Ġill ness
Ġinj ured
be at
Ġd all
Ġy am
Ġche ating
Ġha mas
Ġw ipe
ist ically
Ġrefere nces
Ġloss es
Ġacknow led
Ġinterpret ation
Ġthr one
Ġclean er
Ġalumin um
Ġro y
Ġb oun
Ġsh iny
Ġdom estic
Ġsad ly
c al
Ġto ast
Ġte asp
Ġcr it
Ġcharacter istics
Ġj s
Ġvessel s
Ġj r
Ġje alous
Ġoccasion ally
Ġsatell ite
Ġcous in
Ġhand ful
Ġintegr ity
Ġcabin et
Ġbre w
m ers
Ġshe ets
Ġunder water
Ġst ole
Ġsc ored
Ġap is
Ġ8 5
Ġcapt ures
Ġgather ing
Ġc el
Ġz ip
miss ions
Ġw are
Ġco ven
ang ing
Ġorch est
Ġrandom ly
Ġdiam eter
b ath
Ġm apping
Ġz er
sh ips
Ġcock pit
Ġpand emic
Ġprogress ion
Ġdesign ing
Ġinter cept
Ġgener ic
Ġelimin ate
Ġbi as
Ġm asc
Ġcritic ism
Ġatl antic
Ġcrypt o
Ġcross ing
itar ian
Ġbibl ical
Ġclean ed
Ġdefe ated
Ġf usion
Ġfail ing
Ġunlike ly
Ġexcite ment
Ġt uck
Ġvirt ually
Ġocc urs
Ġliter al
Ġto ys
Ġfollow ers
Ġdiv ing
Ġfeature d
Ġprop osed
Ġrespons es
Ġnegot i
Ġth ro
Ġid iot
r d
Ġcons ult
Ġflex ibility
Ġa ston
Ġd imin
Ġst all
Ġs essions
Ġb io
im ensional
Ġsubt ract
Ġwork flow
Ġunderstand s
Ġgl ow
Ġreven ge
Ġd ots
ric ult
Ġsp y
Ġins ist
Ġann ual
ik ing
Ġcontr ad
Ġon ions
Ġsp ain
Ġbar rel
ell y
ost er
Ġinstit ution
Ġaffect s
Ġconsum ption
Ġh ou
Ġequ ations
Ġspr ink
Ġlimit ations
re y
Ġk ern
Ġconvention al
Ġl s
Ġag greg
Ġmer ge
Ġlew is
Ġansw ering
Ġsp are
Ġag ricult
Ġworld wide
Ġshr ink
Ġhelm et
Ġhum ble
Ġref ers
Ġshel ter
Ġrequire ment
Ġflight s
Ġscal ing
Ġtack le
Ġinfin ity
ment ed
ang o
Ġrock ets
Ġintu itive
Ġp ets
Ġbe ats
Ġpred iction
Ġg pu
Ġstrugg led
Ġm im
he y
Ġmar g
Ġas p
Ġthr ott
Ġ4 3
Ġboy friend
Ġjun gle
Ġpure ly
Ġl en
Ġp anc
Ġdall as
Ġtravel ed
Ġsh y
Ġpres um
Ġsuggest ing
Ġfurn iture
Ġdo z
Ġb or
Ġdec line
Ġrun time
Ġsing ular
y ou
Ġche at
Ġst oring
Ġrep et
Ġassum ption
Ġhaw ai
Ġgl itch
Ġstri king
Ġproced ure
ins on
Ġbelong s
Ġfail s
Ġchem istry
Ġst eak
Ġbur ger
. "
Ġgr an
Ġemotion ally
Ġhero es
Ġn urs
Ġst itch
Ġlad der
Ġron ald
Ġlis a
le g
Ġsign ing
h s
Ġal arm
Ġbox ing
Ġali ens
Ġtherm al
Ġgravit ational
Ġshould ers
Ġprincip al
c ont
os c
Ġcur rency
Ġspeak ers
Ġ196 0
Ġdem ons
Ġ7 2
Ġpar ag
Ġcomp aring
ach es
Ġpsych ology
ou red
Ġcred ential
Ġre wr
Ġdo ctr
Ġhybr id
c ery
cl ass
act ive
sh ot
nar rator
Ġg ently
Ġste ep
Ġson ic
Ġfranch ise
Ġs ack
Ġwh il
Ġbe an
ak in
Ġinj uries
Ġruss ians
Ġengage ment
Ġelectron ic
Ġt roll
Ġapp les
Ġlegit imate
l ink
Ġliber al
Ġmount ed
Ġste ering
Ġsusp icious
Ġw itch
Ġr ug
Ġtw itch
Ġbre ast
Ġden y
Ġbudd h
Ġblo ody
Ġoptim ize
if er
Ġcere mon
Ġobl ig
as m
Ġc ine
Ġf ou
own ed
Ġmod ified
Ġinvestig ate
Ġsu icide
Ġsp ac
Ġsha ft
d e
Ġt rench
Ġsub sequ
Ġmotiv ated
d ri
Ġh ay
Ġque ue
Ġdise ases
Ġdoz ens
Ġd ent
Ġav iation
Ġan th
ere nces
Ġbo ats
Ġn fl
ke ep
Ġst al
Ġkeyword s
Ġtact ics
Ġsmall est
Ġh ilar
Ġfriend ship
Ġlamb da
Ġ4 9
Ġelse where
Ġm itch
Ġcann on
Ġnetwork ing
Ġvolc ano
Ġ200 8
Ġpen et
Ġjon athan
Ġintegr ate
v i
Ġj ury
Ġclaim ing
Ġenforce ment
Ġp enc
m art
Ġb ored
Ġr aces
Ġst ain
Ġinteresting ly
Ġmod es
emp t
Ġintim id
Ġf el
or ters
ag ers
Ġsatisf ied
Ġut ter
Ġinnov ative
Ġw iz
Ġcompet ing
Ġchemical s
Ġfrust rated
Ġsac red
ff ff
Ġnew ton
Ġconstruct ed
Ġtom b
Ġl ions
an i
Ġre cept
Ġwitness es
Ġde br
anna h
Ġconvert ed
he im
Ġreason ing
Ġmess y
Ġaddition ally
Ġmonth ly
Ġdisc our
Ġattemp ted
Ġnav al
Ġcult iv
Ġafford able
Ġinflamm ation
Ġdetect ive
Ġbehav iors
Ġexpand ed
Ġspect acular
Ġth urs
Ġref uge
1 7
ur d
Ġautom ated
Ġmolec ules
Ġment ally
Ġopt ional
Ġluc as
Ġread s
Ġthurs day
Ġinc ent
Ġgeom etry
Ġt ac
Ġrecogn ition
Ġtalent ed
c ar
Ġj ets
Ġch ad
Ġfound er
Ġassoci ation
Ġf ier
Ġbeh alf
us ions
Ġp ing
Ġtr ag
Ġpop ping
, &
c an
Ġa k
Ġpart ly
Ġf ert
Ġk am
Ġma fia
Ġtrain s
Ġm cc
al o
Ġsou ls
Ġke lly
Ġsh ade
Ġsh aking
Ġbe lly
Ġbreak through
Ġsp icy
Ġspir its
Ġme ets
f a
Ġ ,
it ated
Ġtw enty
Ġexp ose
Ġret ired
Ġf itting
Ġsab bath
Ġrob ber
Ġhou ston
Ġsaud i
Ġass ert
Ġinf ant
ig en
Ġ5 2
Ġhum or
c are
Ġl es
Ġtr illion
Ġex hib
Ġdev ops
Ġlinked in
Ġcont ents
h our
Ġair b
Ġmicro phone
Ġcollab or
Ġwhil st
e ast
Ġm es
r int
Ġr p
Ġvisual ize
Ġdeliver ing
Ġgame play
Ġadop ted
g i
Ġform ing
Ġbes ide
Ġstruct ured
o ved
Ġlos es
Ġst ations
ce l
g ies
Ġlo an
Ġdr ift
Ġschem a
Ġstab il
Ġleg is
Ġarr ows
Ġmel ody
Ġbl az
Ġt up
il ton
Ġsp it
Ġha z
ap or
Ġdynam ics
Ġfrust rating
Ġentreprene ur
Ġfr act
Ġal an
Ġfranc isco
Ġc ents
th is
Ġ /
Ġneed ing
Ġacadem ic
l ined
se e
Ġtr aged
Ġvis iting
d imensional
Ġtrans act
Ġ19 0
Ġindic ate
Ġchurch es
Ġg au
th ur
Ġpe pp
Ġres ort
Ġisa iah
Ġsc are
Ġsc oring
Ġrec re
Ġcoven ant
Ġpay load
Ġt id
Ġhe m
Ġattract ive
Ġsp ike
Ġel iz
Ġsal ad
Ġhilar ious
Ġp ork
ed ge
Ġpenal ty
Ġ6 6
Ġdepend ency
Ġast ero
Ġsm arter
Ġtarget ing
Ġaustral ian
Ġdelet ed
Ġdec im
Ġlab els
Ġsoon er
p an
Ġi os
Ġreg ime
Ġweek ly
Ġwire less
Ġnew er
Ġweight s
Ġrein force
cons cious
Ġer u
Ġintu ition
Ġinc omp
Ġhand led
Ġkind ness
Ġsymbol s
g b
Ġdestro ying
Ġmeasure ment
Ġharmon y
Ġy an
ay er
Ġevalu ate
Ġd il
Ġg aps
Ġinform ed
Ġl ately
Ġ4 6
Ġconsequ ence
iz able
Ġcanad ian
g un
Ġmeant ime
1 9
f unction
Ġsun ny
ard o
Ġgen es
Ġt in
Ġconstit ution
Ġnutr ition
Ġconspir acy
Ġa is
Ġe u
Ġoper ational
Ġbaby lon
ion e
Ġur ban
Ġgro cery
Ġmetab ol
Ġsilic on
Ġfound ed
Ġunfortun ate
Ġst ats
Ġrele asing
Ġh d
Ġco il
Ġvari ation
Ġbase ment
Ġscr um
Ġofficial s
Ġestim ated
r ates
Ġc age
ow ed
Ġcrick et
Ġfo g
Ġreject ed
Ġeld er
Ġp airs
Ġcur se
Ġrom antic
Ġhand les
Ġexpert ise
Ġsubst it
Ġo ak
Ġstrugg les
Ġassum ed
Ġa aron
Ġtrad es
Ġbrick s
Ġint ensity
Ġapp et
Ġeight h
om in
Ġnut ri
Ġbr uce
Ġsc and
Ġoff set
nat ural
Ġfl ush
Ġele g
Ġdri ed
Ġglo be
Ġmurd ered
Ġgen e
Ġreve als
Ġt am
Ġi b
Ġpalestin ians
um an
Ġneed le
Ġover view
res pect
Ġar bit
Ġag ing
Ġmodel ing
Ġart s
Ġdig est
Ġbac on
Ġmaster s
Ġadvant ages
Ġsaving s
is y
Ġpl a
enc er
Ġvisual ization
Ġpal m
Ġbul k
Ġt ai
Ġap oll
Ġbott les
Ġsubst ance
Ġill usion
Ġl ing
Ġpract ically
Ġmere ly
Ġg ib
ak a
Ġcle ared
Ġide ally
Ġf iction
Ġun ne
Ġsl ave
Ġlock s
Ġmicros erv
Ġj oking
Ġscore s
Ġha llow
r ich
Ġan akin
Ġdest iny
Ġreplace ment
Ġparag raph
g iving
Ġstr ang
Ġ5 1
Ġg ord
Ġowners hip
Ġrelat ivity
Ġfr action
Ġcarol ina
Ġin herent
Ġjust ify
Ġch el
Ġgeorg ia
Ġstrong est
Ġdut ch
Ġduplic ate
Ġm as
Ġfr aud
Ġres ign
Ġbel oved
Ġjump s
Ġpr icing
Ġhome less
Ġrel ation
Ġcontain ed
? &
Ġdo zen
ail s
Ġgrand father
Ġbal anced
f s
Ġgi ants
ip er
Ġbur den
Ġbenef icial
Ġcompl ain
Ġsav ior
Ġsound ed
Ġhistor ic
Ġclin ical
ill ance
Ġloc ally
Ġwrit ers
Ġmagn ific
Ġphenomen al
Ġscreens h
Ġn ur
Ġancest ors
Ġrus sell
Ġcalc ulated
Ġsubscri bers
Ġocc as
Ġesc al
Ġche ers
Ġstat istics
Ġup s
Ġmet ric
Ġsteal ing
Ġb unk
Ġconcent ration
Ġpear l
Ġ19 50
Ġanalog y
Ġgu ilt
Ġr apt
Ġarri val
Ġisa ac
Ġte nder
Ġtransp arent
Ġcount less
Ġdar win
a ire
ig an
Ġre be
Ġseal ed
Ġencry pt
Ġus a
Ġsp otted
Ġcoach ing
Ġsurve illance
Ġmid night
Ġimprove ments
Ġph o
Ġmanip ulate
Ġconvers ion
Ġcertific ate
Ġk ong
Ġdirect ed
Ġdecl ar
Ġp ins
st ate
Ġj elly
Ġstar ter
Ġ201 1
Ġdeal t
Ġpat ri
g ered
Ġbo il
Ġbas es
Ġhand ed
Ġve ctors
Ġfal con
Ġtag s
ol on
Ġfe e
Ġprophec y
Ġmill enn
Ġemp athy
Ġeth ical
Ġlaunch ing
r up
Ġst ressed
be ing
Ġgau ge
Ġbubb les
Ġsupposed ly
Ġri vers
Ġr ated
app y
Ġenc l
Ġg ad
Ġdo l
Ġout fit
Ġrec y
Ġcheck mate
Ġsustain able
Ġb ern
Ġmon sters
Ġsens or
Ġf ib
Ġfirst ly
Ġroll er
Ġlift ed
Ġhighlight s
Ġdin ing
Ġegypt ian
ere r
Ġpad ding
io x
Ġelev ator
Ġan na
Ġsen ator
Ġconsum ing
er ning
Ġb anned
Ġwe ed
Ġkick ing
Ġst amp
Ġor g
Ġind o
Ġsur vey
Ġsub net
Ġstick y
Ġanalyt ics
ab eth
Ġmis under
Ġst ew
Ġaf g
Ġpress ed
Ġswitch ed
Ġwild er
Ġexplicit ly
Ġt rop
Ġred uction
Ġexc av
se a
Ġcontin ent
Ġcat al
Ġunne cess
Ġtransl ation
Ġcollab oration
t i
Ġbe aring
e el
l as
Ġmoist ure
Ġne il
Ġacc ent
Ġlisten ed
Ġest imate
i able
eth e
Ġbeh old
Ġd uration
Ġper pet
Ġacc omp
Ġred irect
Ġhur ric
Ġosc ill
Ġbeg un
Ġn an
Ġpat rick
Ġfix ing
Ġdemocr ats
Ġre bell
re ction
be c
1 3
Ġdev ot
m atic
Ġtra ject
Ġcy cles
Ġderiv ative
Ġdesign ers
Ġir re
Ġexpress ions
Ġrail s
Ġres ulting
Ġnin ja
g ments
Ġwas ting
Ġdes ired
r ants
Ġy ah
Ġwarri ors
Ġgrandm other
Ġplug in
Ġ4 7
Ġin hab
Ġd ess
ip her
bre aking
Ġincor rect
Ġastronaut s
Ġrepl ied
Ġfro st
Ġnich e
Ġb ast
Ġgreat ly
Ġrebe cca
a ware
Ġn ik
Ġfr ight
Ġsp at
Ġinter val
Ġpolitic ians
Ġsu its
Ġrecogn izing
Ġpredict ed
Ġeliz abeth
Ġlog ging
Ġstar ing
Ġneur ons
Ġworksh op
Ġc in
Ġpass ive
Ġhor n
Ġmac ro
Ġb ent
Ġoh io
Ġwhe at
Ġjer sey
Ġmetaph or
Ġtrans mission
Ġple ased
Ġmor gan
Ġsl ope
Ġcond em
Ġrespond ed
Ġex ter
Ġout line
Ġconnect s
Ġco c
z illa
Ġd udes
Ġ3 50
Ġelect ed
Ġsatisf ying
Ġcar b
Ġnail s
est one
Ġlea p
Ġm ature
Ġv ader
ul ates
Ġadv is
Ġapoll o
Ġgener ous
Ġarg uing
Ġcult ures
Ġbom ber
Ġoptim al
Ġare na
Ġhistor ically
Ġover r
Ġche w
Ġchr onic
Ġembarrass ing
ch ing
Ġca es
Ġequ ity
Ġbord ers
be y
Ġlog ged
Ġprivile ge
p ool
ort ed
Ġshe er
Ġimplement ing
bo y
Ġbreak down
Ġdream ing
Ġk ir
Ġinterview ed
Ġh ust
Ġsh ore
Ġphil ipp
Ġear liest
Ġqual ified
Ġd ing
Ġg d
Ġar sen
Ġgovern or
Ġens ures
Ġclos et
Ġpassion ate
Ġn erve
Ġup coming
Ġfo am
Ġt ile
Ġpl acing
pie ce
Ġserge ant
Ġst o
pro of
it ating
Ġstep hen
Ġgentle man
Ġwithd raw
ing e
Ġsimult aneously
Ġdess ert
Ġo o
Ġres id
Ġn aked
Ġball oon
u j
Ġpush es
Ġson y
Ġp ope
Ġatom ic
Ġindepend ence
Ġwarri or
Ġb isc
Ġc p
Ġacc used
le ments
Ġinteract ive
Ġmay or
Ġdi verse
Ġuncertain ty
Ġag ile
Ġquarter back
Ġembed ded
Ġk r
Ġwor ries
Ġche er
Ġbegin ner
Ġpro l
Ġi cons
Ġsp oon
Ġvill ain
Ġassign ment
Ġvulner ability
onym ous
ile y
Ġtreat ing
Ġmembers hip
Ġres ident
Ġg ains
Ġ201 3
Ġt att
ve t
Ġprem ier
Ġru ined
it ivity
Ġb ark
Ġter ra
Ġabs urd
Ġcalc ulation
Ġindic ator
Ġthro at
Ġb ats
Ġm ant
or ph
Ġvirgin ia
Ġth resh
Ġteach es
Ġk ate
Ġcand le
Ġg inger
Ġavail ability
Ġadvert ising
Ġinstit ute
Ġb aked
Ġd ns
Ġover t
br on
Ġconc ert
Ġtax i
Ġtast y
Ġdebr is
se ction
Ġglo ves
Ġinflu enced
Ġdiss ol
Ġall en
Ġintern ally
Ġye ast
Ġsens ors
Ġterr ain
Ġappro ved
rib ly
Ġhun ger
Ġdar th
Ġisol ation
Ġd ug
Ġfire f
Ġc ure
Ġpurch ased
Ġmedic ation
Ġsa fer
Ġteasp oon
Ġno od
m ind
Ġma h
Ġdemand s
Ġcompos ition
2 2
Ġlo ot
Ġrun ner
Ġutil ize
Ġdecre ase
t ered
Ġadd ict
Ġachieve ment
Ġ5 4
Ġbattle field
Ġheav ier
Ġc n
Ġd ion
Ġg um
Ġdes erves
Ġtransport ation
Ġfl ies
Ġtransform er
Ġvisit ors
Ġmo l
Ġpo nd
Ġstar ship
ef ined
Ġcan on
Ġor th
Ġrele ases
Ġcollect ive
Ġarbit r
p ow
Ġbac kend
Ġli ed
Ġrub y
i ac
Ġsp ice
Ġrepresent ing
Ġper m
Ġvot ed
Ġoutdo or
le vel
Ġcl amp
Ġfin als
Ġ5 8
Ġafg han
p at
r us
Ġl amp
Ġrob in
b ound
Ġlisten ers
Ġaw ake
Ġtraged y
Ġst ump
Ġpredict ions
Ġg or
Ġin sect
Ġbl ades
Ġch in
av ed
Ġ9 8
Ġiter ation
Ġdinosaur s
Ġo z
Ġemer ged
Ġtext s
Ġh ence
Ġcomp elling
Ġcar ries
Ġhall el
Ġacqu ired
Ġthresh old
Ġgovern ments
Ġbeat en
Ġdip l
Ġb ure
Ġaff ili
ches ter
Ġguarant eed
Ġpho en
Ġcoun sel
u an
Ġconstr aints
ch a
Ġover head
og ram
Ġsubmar ine
a ver
g age
Ġexp ed
Ġdis k
Ġir ish
Ġmic row
Ġpres erve
Ġcontinu ously
Ġcher ry
ap ers
Ġsy nd
Ġlegend s
Ġwar rant
Ġw aking
Ġe b
Ġpred ic
Ġdram atically
Ġcreep y
Ġrighteous ness
Ġpast a
Ġtypes cript
wor ld
Ġencry ption
v able
ch er
Ġcur ry
Ġpost ing
Ġa ver
Ġbar bar
g us
Ġd ys
Ġhost ing
Ġto e
v ity
om atic
Ġcrash ed
Ġle ather
Ġfe min
Ġdivers ity
Ġrad i
Ġhier archy
or ous
ad or
Ġbo ole
Ġg est
og y
Ġrook ie
Ġden ied
Ġam y
Ġvers es
Ġr age
Ġsa ves
Ġres erve
Ġfoss il
Ġnewsp aper
Ġb m
Ġj ur
Ġle x
Ġcontract s
Ġsing er
Ġdisplay ed
Ġcoordin ate
Ġd anny
ol s
Ġpleas ant
Ġspir al
Ġrum ors
o ard
Ġd ere
Ġen ables
Ġra id
Ġper missions
Ġbull ets
Ġaccompl ished
Ġhorm ones
Ġsp onge
Ġch ili
Ġgr ief
Ġso ap
Ġall iance
Ġdocument ary
Ġconsum ers
Ġunc ons
Ġfac ilities
Ġhyd ra
Ġmig ration
Ġoverwhel med
Ġk a
Ġsl am
Ġwo ndered
Ġhar bor
Ġexperiment al
Ġschol ar
Ġe ager
Ġan not
Ġefficient ly
3 2
Ġne on
Ġcar n
Ġorig ins
bit ious
Ġcurs or
Ġco con
Ġshift ed
Ġassum ptions
Ġshark s
end ing
Ġclick ed
Ġw ore
in er
Ġp orn
Ġpalest ine
Ġport ray
Ġvo y
Ġdevast ating
Ġle bron
Ġli ly
Ġrect angle
Ġposs ession
Ġwall et
Ġthanks giving
Ġaff irm
at ar
Ġcra ig
min ute
Ġvir us
Ġign or
Ġcomp li
Ġo we
Ġdo p
Ġpo ver
Ġm un
Ġthem es
Ġdet ro
Ġthreat ened
um ble
Ġown s
Ġrevolution ary
Ġpover ty
Ġam bitious
Ġindust ries
Ġpurs uit
Ġcompress or
Ġobst acles
Ġthe e
Ġveget able
Ġcance ll
Ġm ild
Ġover se
Ġob ama
Ġearth qu
Ġsun light
Ġlat in
Ġparad ise
Ġbl oom
Ġmin er
och ond
Ġconce al
Ġhow ard
Ġaw aken
Ġi v
Ġlight weight
Ġdist inction
Ġrock y
Ġalleged ly
Ġsh am
Ġhur ting
Ġasyn c
Ġmark er
Ġdies el
Ġl on
th ink
Ġz ones
Ġpal ette
Ġstr anger
Ġsan ct
Ġcandid ates
Ġreb ound
Ġkern el
on ed
Ġpers u
Ġent ities
Ġcor al
Ġground ed
Ġbroad er
Ġdisgust ing
Ġpop ped
Ġvir al
Ġwal mart
Ġv in
Ġco co
Ġnew ly
Ġtechn ological
Ġmess ing
h ett
ise cond
Ġcol ored
Ġrot ating
Ġband s
Ġoppos ition
Ġsh ifts
Ġsu ite
rop y
Ġsh ifting
Ġas ian
Ġhook ed
Ġp ione
Ġwh ip
Ġv im
Ġf id
Ġbr akes
Ġfavor ites
Ġpres cri
Ġdetro it
Ġm int
Ġfor b
Ġmill isecond
Ġrisk y
Ġcompl aining
Ġpa le
Ġsimpl est
Ġs as
Ġbl ink
Ġ5 3
Ġ5 6
Ġ200 7
ie val
Ġhel en
Ġparenth eses
Ġs ig
Ġassoci ate
Ġparticip ate
Ġflag s
Ġintent ions
Ġcig aret
Ġres erv
Ġprom ising
Ġmit ochond
p age
ke ys
Ġperfect ion
Ġintrod ucing
Ġg an
Ġr iv
Ġnot ifications
Ġar thur
Ġmed ieval
Ġgraph ic
Ġpean ut
Ġu ber
Ġbom bers
are r
Ġcirc ular
Ġharv ard
Ġsequ el
Ġvent ure
Ġparad ox
Ġconfirm ation
p ent
Ġtr ips
Ġ4 1
Ġself ish
Ġinteract ing
Ġari z
Ġmagnific ent
Ġrep ent
Ġmain stream
umb ling
Ġuncons cious
Ġun ity
Ġel ab
Ġarray s
Ġcomplet ion
u i
Ġm ason
Ġst air
Ġsort ed
Ġtown s
Ġcalc ulations
Ġware house
ear s
Ġinter medi
Ġmanufacture rs
Ġpick up
Ġpray ed
Ġmarsh all
Ġad vers
Ġgener ative
Ġkid na
Ġassist ance
Ġminim ize
Ġtiss ue
Ġc er
Ġen light
hy d
Ġtab s
Ġdemonstr ation
im a
Ġby tes
ak i
Ġreg ression
Ġre ass
Ġnot ed
Ġquestion ing
Ġprocess or
Ġaust in
heim er
ct ic
Ġstat ue
Ġi c
Ġch unks
Ġquar ters
Ġj ane
Ġed ward
Ġcyl inder
Ġmeasure ments
Ġback ing
Ġph ara
Ġbur nt
Ġscrew ed
Ġschol ars
Ġst ove
Ġplug ins
Ġbol ts
Ġhallow een
Ġreact ions
Ġclub s
Ġairpl anes
Ġaim ing
uck y
Ġ200 9
m un
Ġto es
Ġz ach
Ġcra z
Ġque ens
Ġvac c
Ġprogram mer
Ġimag ined
Ġsignific ance
Ġmechan isms
Ġtact ical
Ġfree ly
Ġbl ows
Ġcle ans
Ġnur se
Ġt ense
Ġphara oh
Ġke en
Ġabsor b
Ġrepe ating
Ġg t
Ġariz ona
Ġgo at
Ġphil ip
Ġhorm one
Ġi re
Ġd iana
Ġand erson
Ġse as
Ġavo iding
i at
act ic
Ġbr un
v or
Ġr uth
Ġpenc il
Ġhead qu
Ġ8 8
Ġintention ally
uj ah
Ġso da
Ġstruct ural
o ly
Ġback ed
Ġplay station
Ġ202 5
i que
r ange
Ġtw eak
Ġeleph ant
Ġr az
Ġsh ining
Ġbas eline
e lect
Ġcontroll ers
Ġattract ion
Ġs na
Ġsub conscious
h ello
Ġwh ist
Ġaccept ing
Ġthrott le
Ġwas ted
Ġab oard
Ġcl ark
Ġla und
Ġnic er
Ġped al
Ġpres ents
Ġchel sea
Ġbench mark
Ġt ale
Ġsupp lement
Ġvis ually
Ġprotect ive
Ġrepl acing
Ġr app
Ġarg u
Ġorient ed
Ġmid st
Ġautom ate
Ġber lin
Ġsemic olon
Ġde er
Ġprefer red
Ġflu ff
Ġvers atile
Ġtrad ed
Ġcompat ible
Ġk yle
Ġsh ops
th eless
Ġcaes ar
Ġb ail
Ġst ink
Ġsecond ly
Ġtri be
Ġi an
Ġnever theless
Ġcent ered
Ġlie uten
Ġmindful ness
Ġs ought
Ġr achel
Ġsh ep
Ġexcept ions
Ġt cp
ad el
Ġsim ulation
Ġart ic
Ġconc erning
Ġexpect ation
Ġhop ed
r ome
Ġdep ressed
hand ed
or ic
Ġback pack
Ġappro val
Ġbudd ha
Ġinterf aces
Ġcoc aine
Ġrep o
Ġgradu ate
ol ith
Ġcredential s
Ġfire wall
Ġman h
aught ers
Ġhallel ujah
Ġsl ap
Ġunf air
3 00
Ġlo bby
Ġab d
Ġcl ues
Ġdiscuss ions
Ġattemp ting
Ġho llow
Ġp el
Ġin ex
Ġchar ger
Ġingred ient
Ġun m
Ġ200 6
Ġcoordin ates
Ġadh d
Ġindivid ually
Ġremind ed
Ġdu ke
Ġprop s
Ġfe es
Ġsl a
Ġmess iah
Ġfair y
Ġmerc ury
Ġgord on
Ġtraject ory
Ġm ph
Ġd s
ep t
Ġbelie ver
Ġcamp s
Ġterra form
Ġprov iders
Ġscript s
Ġcontact s
Ġr im
Ġpo ckets
Ġpen ny
Ġterr ified
Ġburn s
ane ous
Ġcompet itors
Ġimplic ations
Ġun qu
Ġspecial ized
Ġreveal ing
Ġt iles
Ġprom inent
Ġtrig gered
Ġed die
Ġlik ing
ol i
Ġg aining
Ġso y
ast s
Ġground s
Ġtrad itions
Ġtarget ed
Ġspread ing
Ġpip es
w a
om y
Ġbl ues
ount ered
Ġspread sh
Ġsubject s
ious ly
Ġcar bo
Ġattract ed
Ġcorpor ation
Ġdisord er
Ġl yn
Ġtrust ing
Ġcontain ing
Ġphilosoph ical
Ġint ake
Ġphenomen a
Ġexplos ive
Ġdownt own
Ġarri ves
Ġpu pp
Ġenc ountered
Ġforg iveness
Ġdetect ion
Ġislam ic
Ġinitial ize
Ġh ans
Ġachie ving
Ġwash ed
j ack
Ġb ree
ne ys
Ġ7 6
Ġsuggest ions
Ġphoen ix
4 7
Ġres idents
Ġpray ers
Ġlab s
Ġplug ged
Ġresist ant
Ġchill ing
ir st
ag en
Ġgre ed
r ane
) .
n els
st ick
Ġcan al
Ġmetab olic
Ġd war
al t
Ġwick et
Ġin sec
Ġtr iv
Ġrece iver
Ġmelt ed
Ġvp n
Ġsubstant ial
Ġbrid ges
Ġabs ence
Ġpol ish
Ġinvest ments
Ġrein for
Ġdesper ately
Ġprofession als
u ate
Ġp ud
Ġha cker
Ġsk i
Ġpour ing
Ġmexic an
Ġunnecess ary
Ġj ing
est y
Ġdeath s
Ġboole an
nd ing
Ġframe works
Ġpd f
ut o
Ġcon vey
Ġfail ures
Ġvot ing
ans as
Ġsat urn
Ġsw all
Ġemp ower
Ġsle e
Ġfit ness
Ġbow ling
Ġquiet ly
ah am
et ically
Ġst ere
Ġz ig
Ġhook s
Ġrep ly
che ck
Ġall ied
Ġgen oc
Ġpay ments
Ġprim itive
Ġpopular ity
l og
ar ters
im ited
Ġsp am
p ilot
lic ity
Ġscript ures
Ġsatis fact
sp ace
z es
Ġeconom ics
Ġnot or
iss ions
Ġfort ress
Ġprote ins
are st
Ġbar ry
van ia
Ġrespond ing
p o
Ġg ee
Ġglo b
Ġcond ens
Ġvari ations
Ġreco vered
Ġfro g
Ġatl anta
Ġre ver
Ġtr ay
sc reen
Ġgrand pa
Ġnaz is
Ġlawy ers
Ġwor m
Ġcor p
Ġobserv ations
Ġplay offs
Ġchr on
Ġren ame
eth eless
ody nam
Ġfore cast
Ġsuit able
rane an
f ound
op y
Ġv r
Ġcollea gue
Ġkn ots
Ġfree zing
Ġaud iences
Ġnon etheless
Ġnick n
Ġposs ess
Ġfac il
Ġn i
Ġcast ing
Ġtrend s
Ġrif le
Ġbo iling
Ġstan ford
Ġcom ic
Ġmor ality
Ġtomato es
Ġconven ience
Ġpack s
Ġang ular
Ġref use
Ġfl ick
Ġd ome
Ġg el
r age
Ġobs c
Ġgener ates
Ġbed s
Ġinev itable
Ġag encies
Ġjes se
ced es
Ġd aughters
Ġdown s
Ġph ant
Ġbreak er
Ġwork out
Ġwor n
Ġbank ing
Ġintegr al
Ġmushroom s
ing ing
os ition
Ġtemp t
Ġspons ored
Ġh p
Ġd itch
Ġcommunic ations
Ġcolon el
Ġhack ing
Ġmanufacture r
Ġg il
Ġher it
Ġfrust ration
Ġcar pet
Ġthank ful
Ġred d
Ġport able
Ġhe ated
Ġ5 7
Ġdi agon
Ġport ug
m at
Ġk obe
Ġpred ators
Ġsurf aces
Ġmans ion
am el
Ġsnack s
Ġferr ari
sp eed
Ġproced ures
z zy
Ġpro be
Ġcool est
Ġrac ist
Ġbron ze
Ġd read
art ed
Ġstand point
ant ed
Ġinc oming
Ġfar mer
Ġdownload ed
Ġhawai i
al i
Ġeduc ational
Ġheight s
Ġst iff
Ġoccup ied
Ġf isher
op l
Ġsubscri bed
m ic
Ġgen re
f o
Ġg na
Ġfun eral
Ġmaint ained
Ġintention al
Ġargu ably
r ous
Ġx p
Ġcris py
Ġb eth
Ġb ows
Ġamp s
Ġdoctr ine
Ġwilder ness
Ġl akers
Ġp ors
Ġsens es
Ġexhaust ed
Ġtai wan
Ġdec iding
Ġprof its
Ġprofit able
iz ers
Ġreg ulation
Ġrank ing
Ġsl iding
Ġoil s
2 4
Ġ #
Ġgig antic
Ġrul ed
Ġp ine
Ġexp ressed
Ġsl im
Ġnarr ator
Ġven us
Ġdifficult ies
ul ously
Ġbo eing
Ġindic ation
Ġelectron ics
ag net
Ġrelax ed
Ġco h
Ġimpact s
Ġb os
Ġdo se
Ġmention ing
Ġtre as
Ġcert ification
Ġmon et
Ġs ie
Ġf ade
ed ay
Ġas cend
Ġpat rol
Ġmir acles
Ġso vere
Ġesc aped
Ġinsp ire
Ġconqu er
Ġsom eday
Ġ9 00
Ġtrag ic
Ġoutput s
Ġmaxim ize
r uit
Ġun le
Ġsepar ately
Ġarab ia
Ġlieuten ant
ber ries
Ġresur rection
Ġfeat uring
Ġcons ists
Ġ6 7
vert ed
Ġcontemp or
Ġdown side
Ġupd ating
Ġtheoret ical
Ġtransact ions
Ġproph ets
Ġwil son
Ġwhat not
Ġtow ers
Ġafghan istan
Ġtow el
Ġbond s
Ġcomprom ise
Ġport ra
Ġemer ge
c ol
Ġdis respect
Ġgod zilla
Ġinject ion
Ġunl imited
Ġstal in
Ġv ic
Ġrain bow
p ers
Ġworks pace
as er
st orm
k ind
Ġcons ol
Ġfact ories
Ġarsen al
Ġg y
sh irt
Ġflo ors
ill s
Ġv int
Ġheaven ly
Ġpresum ably
Ġwiz ard
Ġc ache
oth y
Ġheadqu arters
Ġpe e
Ġm amm
Ġdown stairs
Ġcor ruption
Ġnap ole
Ġsurviv ors
c ause
Ġcla w
Ġworry ing
Ġinherit ance
ach ed
Ġcapt uring
ask a
t z
Ġtrans m
aby tes
t ic
Ġreg ulations
Ġexpl ode
Ġra ises
Ġtouch es
Ġmis erable
Ġsl aves
Ġthick ness
Ġire land
in th
Ġanim ations
Ġtransfer red
Ġcrimin als
Ġfulfill ment
Ġsimpl ify
Ġtrib es
Ġeag le
Ġco vid
Ġdest ruct
Ġcrush ed
Ġgrab bing
hold ers
Ġham ilton
Ġnot icing
Ġhome work
Ġsuper natural
Ġinsp iring
Ġcocon ut
Ġserv ant
Ġnat o
Ġsurv iving
Ġimm ers
Ġjewel ry
Ġmill er
Ġcru el
Ġk aren
Ġselect ing
Ġschedul ed
Ġf av
Ġcan y
Ġsa us
Ġdie go
Ġhosp it
Ġgu ides
Ġskill ed
is ons
Ġtor que
Ġparad ig
al g
Ġan ton
Ġev ident
Ġcompl iment
Ġ200 5
Ġevol ving
Ġwound ed
Ġbar n
Ġcommunic ating
Ġelectr om
Ġrec ruit
Ġacc us
Ġmotor cy
ial s
Ġmar ia
Ġexcept ional
Ġtr ium
Ġre jo
Ġsp ar
Ġdis m
Ġsk ies
Ġimmig ration
Ġh annah
Ġrecommend ation
Ġmagn itude
hold er
Ġunre al
Ġsuggest ion
Ġmicrow ave
im m
Ġcl o
Ġmay a
ens us
Ġpay s
Ġcolor ado
u ity
Ġle o
Ġaccept able
Ġoptim ization
Ġd ice
Ġrese mb
Ġlaund ry
Ġway ne
Ġcott on
ch ild
Ġcomp art
Ġ9 6
Ġpod s
Ġcatal og
Ġdec ay
Ġhar ness
Ġign ored
bre ak
Ġha un
Ġk in
Ġdefe nder
u ch
vel ope
Ġcare d
Ġreflect ed
Ġdistract ed
Ġwa x
Ġview ed
Ġrout ing
Ġp eng
Ġre h
Ġfr iction
Ġden nis
Ġfol k
Ġhydra ul
lo ying
Ġlast ing
Ġj ig
Ġen velope
Ġmon ument
Ġsent ences
Ġgrad ient
Ġannounce ment
ash es
Ġsher iff
Ġartifact s
ul i
Ġhand ler
Ġtake off
Ġimport ed
Ġshort s
Ġhost s
Ġund o
Ġdetect ed
Ġth omp
Ġa a
Ġemer ging
her o
Ġred uces
Ġassess ment
es ter
ap ore
Ġsimp licity
Ġaltern ate
Ġpart ially
Ġdetermin ation
Ġqual ities
Ġfest ival
Ġp oured
Ġbab e
Ġthomp son
Ġcomput ation
Ġoptim istic
Ġherit age
Ġhe x
Ġgu ided
Ġchar m
Ġfunction ing
Ġbrand on
Ġrand y
Ġment ality
Ġconnect or
Ġdig it
Ġje an
Ġperce ive
Ġco aster
Ġtrans cend
Ġear nings
Ġadm ir
Ġcivil ian
Ġvint age
Ġtr unk
Ġwork load
ell ar
Ġair lines
Ġread er
Ġjud ges
Ġactiv ated
Ġlaugh s
Ġi on
Ġl ith
Ġ6 8
Ġdoug las
Ġpul se
ut ors
Ġstrength s
Ġeven ly
Ġca fe
Ġindic ates
Ġunco ver
Ġcl int
Ġcomp ression
ograph ic
Ġp m
Ġsc attered
ra h
Ġz ion
Ġtur ret
Ġencour aged
Ġty ler
Ġreact or
Ġoptim ized
Ġprompt s
Ġo bey
Ġspec ified
Ġreg ards
Ġpromot ion
Ġincorpor ate
Ġhe ater
ab s
Ġtum or
Ġp ic
Ġcom bo
Ġ6 2
er ving
Ġwr ist
Ġsec ured
Ġlist ing
it udes
Ġgu it
Ġsm ack
Ġwatch es
Ġtra its
Ġliber ty
im eters
Ġcaps ule
Ġprox y
m ons
Ġbe ep
Ġvot es
Ġextend s
ot ive
Ġr ipped
umb led
Ġencour aging
Ġbas h
Ġlun ar
f oot
Ġw ired
mark et
Ġph arm
Ġkick s
Ġll m
Ġcompreh ensive
Ġvine gar
Ġpl un
Ġdes cent
Ġstress ful
Ġyog a
Ġh ud
Ġknock ing
Ġaesth etic
Ġlim iting
Ġchap ters
Ġrefere n
e nder
Ġfulfill ed
r ap
Ġcos mos
Ġdop amine
Ġretrie ve
Ġwatt s
Ġdecim al
Ġn athan
Ġshow c
Ġanim ated
Ġyout uber
Ġlast ed
Ġext ensions
Ġ200 1
Ġtend ency
Ġfound ations
Ġsoc cer
Ġcop ied
Ġrespect ed
Ġc elt
Ġfar ming
Ġwalk er
Ġbom bing
Ġten nis
Ġal ice
Ġtro phy
Ġdistur bing
Ġp ose
Ġconf ess
Ġpsych iat
Ġshell s
id ays
Ġsc ram
Ġpol and
Ġweakness es
Ġfl own
Ġcommun ist
Ġguit ars
Ġr s
Ġbr ow
Ġche es
Ġcoll ision
Ġconc ur
Ġpoor ly
Ġn ord
Ġsh in
ress ing
Ġcr itics
Ġrepeated ly
Ġl aps
Ġstr and
Ġrel ie
Ġclick s
Ġcal ci
Ġscr ub
Ġexcl us
Ġf et
Ġ19 30
Ġpet e
Ġreb el
Ġ194 0
Ġexp enses
zz le
Ġst akes
Ġmo ons
Ġathlet es
Ġk i
Ġco le
Ġpre st
Ġcolum b
Ġwal ter
Ġalleg ations
Ġg ren
ac ity
Ġab road
Ġv ague
Ġcar riers
Ġinterv ention
Ġmitch ell
Ġy arn
Ġn aming
ell ed
Ġ7 8
Ġsoc ieties
Ġcolor ful
7 5
p rod
it ories
ld a
Ġinf er
Ġtrium ph
Ġsqu ir
Ġtr av
Ġblank et
Ġdist ances
Ġsm iling
Ġnic kel
Ġmet e
Ġdraw s
Ġelab orate
Ġcr ane
Ġclass room
Ġr oss
ep rint
Ġoper ated
Ġscr ap
Ġskelet on
Ġde an
Ġdisplay s
Ġcoach es
k ers
Ġt ilt
op ol
Ġra f
Ġrepresent ative
Ġdemonstr ated
Ġemphas ize
Ġmod ular
Ġblu eprint
Ġexp ense
Ġdeal er
Ġplant ed
Ġcapital ism
Ġreck on
Ġb s
Ġm esh
Ġj um
Ġj ango
Ġent ropy
Ġw ik
Ġd ign
Ġso d
Ġnot able
ol ine
Ġdr ums
Ġdef ect
Ġyell ing
Ġrecon c
Ġcalci um
Ġyour selves
Ġpl ague
Ġstr ain
iss ance
Ġstud ios
f old
Ġear ning
Ġinv ention
Ġcorrespond ing
Ġrepl ay
Ġcred its
Ġwh it
Ġsing apore
Ġ7 3
Ġx ia
Ġ200 4
Ġcelebr ation
Ġscot land
Ġrid ge
Ġfortun ate
Ġpeng u
Ġsle pt
Ġ11 0
c ling
ant e
Ġdis gu
Ġaccur ately
Ġw iring
ur p
Ġch im
Ġscroll ing
Ġwhis per
Ġdur able
Ġbrook lyn
Ġback st
Ġle v
Ġdraw er
Ġpref erence
Ġpo op
Ġmed iter
Ġste alth
Ġconsider ation
Ġpretend ing
Ġorient ation
Ġover flow
Ġb aker
Ġy ol
Ġd m
Ġsp acing
Ġun he
Ġev ange
Ġshall ow
Ġanno y
Ġan ten
Ġmal es
Ġres ent
Ġconduct ed
Ġobt ain
Ġelectrom agnet
al id
Ġph d
ped o
Ġregist ered
Ġinc ons
Ġbelie vers
Ġfar ther
Ġwater fall
Ġcrack s
Ġeleg ant
Ġexecut ing
4 00
Ġpr ank
Ġfl op
Ġcrew s
Ġvib rant
Ġbind ing
Ġ ...
Ġpost er
Ġconfig ured
Ġdar ling
un a
ach ing
Ġrel ay
Ġstory t
Ġsummar ize
ic ism
Ġman chester
Ġprotocol s
ab ul
Ġlabor atory
Ġthe or
Ġknight s
Ġcart oon
Ġre use
am ous
Ġent ers
Ġtor pedo
Ġre un
Ġrail road
Ġacceler ation
Ġpart ial
Ġmarket place
h ill
Ġde leg
Ġpr iced
Ġlight ly
Ġarri ving
Ġtab let
Ġexplo it
b uck
Ġprogram mers
Ġrece ives
Ġattach ment
Ġla ura
Ġsound ing
Ġaddress ing
Ġeduc ated
Ġglor ious
Ġvis ibility
Ġinflu ential
Ġhighlight ed
Ġlo b
Ġcon e
Ġent it
Ġaff airs
Ġcollect or
Ġcitiz en
Ġphysic ists
Ġout standing
Ġback yard
att an
Ġident ifying
inc ing
Ġauthor ization
Ġvl ad
r an
Ġin mates
Ġcar ing
Ġcop ying
Ġrespons ibilities
Ġtub es
or se
Ġex agger
Ġno st
Ġvari ant
Ġfat ty
Ġpors che
Ġs aint
ast ing
Ġprevent ing
Ġpreach ing
Ġdr own
Ġteen ager
Ġph p
ors hip
ball s
Ġthick er
Ġtri ang
Ġelev ated
Ġbe ard
Ġnapole on
Ġal ar
Ġcamp us
lo c
Ġproblem atic
Ġminer als
m el
Ġho bby
Ġscan ning
Ġtransl ated
an as
Ġpre ced
Ġbank rupt
Ġmer cedes
Ġdelic ate
Ġfirm ly
Ġrefriger ator
Ġn p
Ġpro ving
Ġdis ab
Ġ6 9
Ġloyal ty
Ġdeliber ately
Ġmediter ranean
Ġr c
ol n
Ġprov ision
Ġg le
Ġfl ames
Ġdol ph
Ġpassword s
Ġpin ch
Ġclust ers
Ġtravel s
Ġstrength en
Ġdr ake
Ġins ult
Ġcatch es
Ġwitness ed
Ġin verse
ac ent
ell a
Ġprint s
Ġmicroserv ices
ud ge
Ġfat al
Ġcelebr ity
Ġf athers
or us
ud ing
Ġphys i
Ġj ess
Ġskept ical
Ġcin nam
Ġdom ains
Ġmich igan
Ġmetabol ism
Ġr ushing
Ġsmooth ly
Ġlean ing
Ġmanh attan
Ġv ig
res so
Ġc ows
Ġr ally
Ġcomb ining
uls ion
Ġthorough ly
Ġa wards
ist ical
vers ion
Ġsuper hero
Ġunivers ities
Ġcrack ed
Ġr asp
Ġal z
Ġib m
Ġha ul
Ġ6 3
Ġhyd ro
Ġpropag anda
Ġj d
Ġaffect ing
Ġbuff alo
Ġsatell ites
Ġc aut
Ġlisten er
Ġadjust ments
Ġjere my
Ġzer os
Ġw u
Ġu b
Ġr ude
Ġpl um
Ġheaven s
Ġadap ter
Ġclut ch
Ġp ly
v ised
op her
Ġun st
Ġpres erved
Ġoper ates
Ġip ad
Ġoppon ents
Ġasyn chron
Ġint ric
Ġpath way
Ġdemand ing
Ġshap ing
Ġthumb n
Ġa uction
ather ine
Ġton es
Ġstre ak
Ġbro ker
Ġze lda
Ġover load
Ġtw ins
Ġ200 3
Ġoce ans
Ġchair man
Ġh ates
Ġsl ack
Ġcraft s
re nd
Ġk ai
Ġsc iss
Ġan onymous
Ġchar ity
Ġarr anged
Ġl inc
Ġobject ives
Ġteach ings
Ġmich elle
Ġcateg or
Ġlabel ed
Ġsell s
ex ist
Ġfinanc ially
Ġrestrict ed
Ġcoinc idence
Ġla ure
Ġgrind ing
Ġphant om
Ġm akers
Ġ14 0
Ġceremon y
Ġth ri
od a
Ġwar ren
Ġacceler ate
Ġexter ior
Ġtor ch
Ġmut ual
Ġhurric ane
Ġpol it
Ġdi ver
c at
Ġspr ings
Ġrush ed
Ġcinnam on
Ġsh red
Ġke l
Ġclin ic
in ery
pp le
Ġshep her
Ġm p
Ġd v
Ġk ent
Ġtur tle
Ġconv incing
ij ah
Ġro ber
Ġlat ency
od ox
Ġgr asp
Ġph ases
Ġshoot er
Ġmillisecond s
Ġend ea
Ġneg lect
Ġweigh s
Ġan om
Ġgl ance
Ġsusp ension
Ġpiss ed
Ġsla very
in ate
ath etic
Ġarbitr ary
Ġar ise
Ġadd icted
book s
Ġelimin ated
Ġbe es
Ġch en
Ġom eg
ĠĠĠĠĠĠĠĠ ĠĠĠĠĠĠĠĠ
Ġperson nel
Ġview ing
Ġrecommend ations
Ġvalid ate
Ġpainting s
Ġrig id
Ġk ay
Ġsqu id
Ġjam ie
Ġlinc oln
Ġst ap
Ġid s
Ġarm ored
Ġpad s
Ġdepth s
Ġjournal ist
Ġrul er
Ġmyster ies
Ġgb t
Ġswed en
Ġlin ing
Ġto dd
Ġphil adel
Ġtort ure
Ġgenoc ide
Ġsp ices
Ġorder ing
Ġsho ots
Ġround ed
g les
Ġs sh
ph ia
Ġtutorial s
Ġsynd rome
Ġso cket
Ġall er
Ġcomp osed
Ġh r
Ġh ipp
ot o
ang es
Ġspeed run
Ġdelay ed
Ġrobber y
ac ies
Ġst alk
Ġfif ty
Ġnutri ents
Ġtun nels
Ġiniti ative
Ġspl ash
Ġcas ino
Ġintermedi ate
Ġl ump
Ġper sec
Ġlock er
Ġstretch ing
Ġs aints
om an
Ġpodcast s
Ġanaly zing
Ġstorm s
Ġh ut
Ġtr actor
Ġapp end
Ġesp resso
Ġinev it
or ient
Ġel ijah
Ġmatch ed
Ġr ats
Ġs ine
Ġh ats
Ġsp ear
Ġcamp ing
Ġeth ics
Ġfundament als
Ġtwist ed
an ks
Ġcalc ulator
Ġco zy
Ġrec ap
Ġexpl ored
Ġ15 00
Ġappear ing
Ġgree ce
Ġbun s
Ġwrest ling
a ving
Ġbr ace
Ġpack aging
Ġpred ator
Ġentertain ing
Ġhapp ier
Ġorgan izing
Ġcha otic
Ġindian a
Ġarrange ment
Ġaston ishing
Ġprest ig
Ġus s
Ġvirt ue
Ġfou l
Ġy a
Ġre cess
ill ery
Ġint end
Ġob i
Ġtrig gers
Ġgear s
Ġassemb led
Ġcomm od
Ġrec urs
Ġmicro sc
Ġadjust ment
Ġtherap ist
Ġtradition ally
Ġm d
Ġj ag
Ġsc oop
Ġdr ones
Ġinvol ving
Ġut ah
Ġhat red
Ġse als
Ġ5 9
Ġcany on
Ġfl are
Ġret ro
Ġarg ued
Ġaccount ability
Ġaddress ed
Ġprosper ity
Ġrelig ions
Ġmathem atic
Ġosc ar
Ġscreensh ot
it is
Ġappreci ated
Ġphiladel phia
Ġh ose
Ġamaz ed
Ġresult ed
Ġsett lement
Ġg ly
Ġk h
Ġno ble
Ġhost ed
Ġc ried
Ġj as
Ġreal ization
Ġinvest or
Ġbound s
Ġspons oring
Ġb ount
Ġr oth
Ġsy ria
Ġcons ent
Ġfound ers
Ġwid gets
Ġaven ue
Ġautonom ous
Ġe ph
od s
Ġcl own
bo o
Ġpromot ing
Ġem ma
Ġperform ances
Ġelect ro
Ġupload ed
Ġj oker
Ġgu iding
Ġdef enses
Ġ24 0
Ġcelebr ating
Ġdiscover ies
Ġcontrovers y
Ġbr aces
Ġho ll
Ġfin ite
Ġgam bling
Ġprev ents
Ġunh appy
4 5
Ġh og
Ġl atter
Ġdo s
Ġqu iz
b orn
an ic
Ġshow case
Ġsupp orters
Ġch and
ass es
Ġarm ies
Ġc ody
Ġlic ens
Ġembarrass ed
Ġprem ise
Ġinterp re
Ġappoint ment
Ġdo pe
Ġne o
Ġcl i
Ġwin ners
Ġiss ued
Ġdomin ated
Ġclar ify
Ġsc out
Ġem o
Ġfier ce
atch ed
Ġloc als
Ġdiagn osis
Ġfranc is
Ġsatisfact ion
r ative
Ġconsum ed
Ġformat ting
Ġla ught
Ġremember ing
Ġconfig ur
Ġuf c
ul as
Ġbre ed
Ġdiagn osed
Ġomeg a
Ġaccept ance
Ġlos er
Ġdistingu ish
Ġanth rop
op ic
wh eel
Ġgl imp
m i
Ġrest ing
Ġstack ed
or al
Ġhead ers
Ġrequest ed
Ġhost ile
Ġmanifest ation
r as
Ġsim ulator
Ġdeclar ation
Ġlaught er
Ġth irst
Ġbr ake
Ġext rem
Ġfoot print
Ġ16 0
Ġre wards
Ġyoun gest
Ġfat ig
Ġcondition ing
Ġevalu ation
gu ard
Ġo re
Ġfil med
Ġconv icted
Ġsuck ed
Ġb ri
ul ative
Ġsp e
Ġz en
Ġhealth care
Ġhyp e
Ġn pm
Ġchrist opher
g ame
Ġk g
Ġch airs
Ġmass es
Ġ13 0
r ust
Ġre lying
Ġsh en
Ġsu e
Ġsl ots
Ġexam ine
Ġsusp ic
itz er
Ġtheoret ically
Ġfrequ ent
Ġparadig m
Ġglimp se
p erson
Ġcar ter
Ġrel ent
Ġstrict ly
Ġin k
th a
Ġline up
Ġsun set
Ġaccomp an
Ġinhab it
ac ious
Ġgift ed
Ġan k
Ġsh ipped
Ġreal izes
Ġhum ili
6 4
Ġwhich ever
Ġfl ipping
Ġind ones
Ġide ology
Ġ ether
s ql
Ġo un
am ic
Ġtight en
Ġdim ensional
Ġtablesp oons
Ġk er
Ġse w
ok y
Ġman ages
Ġupgr ades
d ings
Ġthr ive
Ġdyn asty
yl vania
ogen ic
at onic
Ġter ribly
Ġwo nders
Ġat m
Ġtele phone
Ġgr amm
Ġin nings
ros pect
h h
et e
Ġair line
Ġmother board
Ġprogress ive
Ġpill ow
f c
Ġgo of
Ġcal i
Ġdrag ging
Ġunqu ote
Ġm ast
Ġspecial ist
Ġran ks
Ġunp ack
om es
Ġgr aham
Ġap oc
Ġs r
Ġb ore
it ative
Ġr al
Ġr aining
Ġvib ration
Ġenab ling
Ġobser ving
m ines
es ign
Ġhall way
Ġconflic ts
Ġadvoc ate
Ġunder t
Ġinv alid
abul ary
f ly
Ġan ne
Ġhold er
Ġlock ing
Ġinflu ences
Ġpist on
Ġoff ices
Ġsy rup
Ġrewr ite
Ġcompli ance
Ġfr ies
Ġoff s
Ġhot els
Ġpack ets
Ġann ivers
Ġroot ed
Ġrang es
Ġathe ist
Ġg ulf
Ġembr acing
Ġspreadsh eet
Ġj j
Ġhead phones
Ġrest r
oles ter
Ġreli ability
Ġne b
Ġsc ul
Ġreason ably
tr ack
ig hing
Ġsm ugg
Ġboss es
Ġd uct
Ġreg ional
Ġdress ing
Ġs ant
Ġpe er
Ġcr ashing
sh ire
Ġbar bec
Ġencoun ters
Ġfool ish
Ġastero id
o ir
Ġw y
Ġuh huh
Ġcl ap
Ġfl ed
Ġly rics
Ġvoc abulary
Ġs ams
Ġal bert
Ġar ist
Ġwar n
Ġfil ed
Ġ7 7
Ġcontr ary
Ġperce ived
Ġzomb ie
l ings
in os
Ġint act
Ġun e
Ġmicro bi
Ġcirc uits
Ġble eding
Ġdere k
Ġf itted
or gan
gr ad
Ġ9 11
Ġdeliber ate
Ġmasc ul
h o
Ġby pass
Ġfinger print
Ġl onge
Ġflat ten
Ġba it
Ġnost alg
Ġl an
Ġfold ers
Ġp all
Ġj in
Ġac ids
Ġper p
char ge
Ġe ats
Ġmo sc
Ġcon n
Ġexp o
as ma
Ġpro st
Ġbo oth
Ġmist aken
Ġrail way
Ġadvert ise
Ġcollaps ed
Ġarg ent
Ġch olester
Ġph ill
Ġsur ge
Ġconv iction
Ġcontrib ution
Ġproduc ers
os ity
Ġshot gun
Ġcomplet ing
Ġsquad ron
Ġlonge vity
Ġgre ase
Ġa ce
Ġw iped
Ġall y
Ġcheck out
Ġret ain
Ġchalleng ed
Ġreflect s
Ġreflect ing
Ġpropos al
Ġpriorit ize
Ġphotograph s
t im
in ters
Ġsc or
Ġy ummy
as ant
Ġli ar
Ġj a
Ġparenth esis
ipp ers
Ġdocument ed
empt ion
Ġs ap
Ġse o
ff e
Ġdisc l
Ġcab bage
Ġlike wise
ib les
Ġcomb ust
Ġlack ing
Ġru ins
Ġvulner abilities
aud ience
oster one
Ġalz heimer
Ġre ndered
Ġco ke
Ġar rog
Ġsec ular
Ġtight ly
Ġwra pping
Ġobst acle
Ġfinish es
Ġembed ding
v m
Ġcare ers
Ġtheore m
Ġi o
Ġexpl oded
li ers
Ġstri ps
Ġgro ove
Ġtang ent
Ġinvolve ment
Ġcholester ol
i ro
Ġse attle
Ġgreat ness
og rap
Ġcr us
Ġsw iss
Ġam end
Ġoverl ap
Ġprop ortion
la ug
Ġt at
mp h
Ġso cks
Ġstr at
Ġcompan ion
Ġisrael is
Ġscul pt
at ility
Ġsam uel
ky o
Ġbam boo
Ġk o
ch em
Ġcor rid
Ġhum ility
Ġupgr aded
Ġcath ed
l age
Ġgr ill
Ġinv itation
Ġbless ings
Ġexplore r
Ġdun geon
Ġaccommod ate
Ġprison er
Ġcert ified
Ġb art
Ġposition ed
Ġronald o
Ġmet ad
Ġcut ter
Ġcs v
Ġu ap
Ġbr y
uct ive
Ġsy d
Ġcontin ually
Ġmad die
Ġachieve ments
Ġju icy
Ġm cl
Ġtr aces
Ġfamous ly
Ġadjust ed
Ġan ime
Ġconcent rate
ment ation
Ġper ry
Ġboth ered
Ġtransp aren
Ġcontrad ict
is k
Ġbul b
Ġsprink le
et o
Ġhol idays
Ġmitochond ria
Ġconsol id
Ġto kyo
Ġwh ale
Ġred eem
Ġcond itional
sc ale
Ġamb ition
Ġfem ales
Ġemphas is
Ġphilipp ines
Ġcontempor ary
Ġt read
ch ain
ol as
Ġtrad ers
Ġdiagon al
Ġin eff
Ġtechn ic
Ġdisp os
Ġsubsequ ent
Ġhal o
Ġmount ing
Ġbal ancing
Ġbright er
Ġcontrib uted
Ġreplic ate
Ġbund le
Ġincons ist
Ġannivers ary
Ġiter ate
Ġrel ates
Ġslow ing
Ġdeb ut
Ġwol ves
Ġ194 5
Ġj ared
Ġind igen
Ġclass ified
Ġcam el
Ġcivil izations
Ġsyd ney
s is
Ġb ak
Ġr ipp
Ġam anda
aut h
te ch
Ġcontrib uting
Ġwar ming
Ġsil k
Ġfurn ace
Ġm ak
ĠĠ Ġ
Ġsumm it
Ġin hib
lic ation
Ġinv iting
br idge
Ġscr ape
Ġna ive
Ġover ly
Ġtyp ed
Ġpen ns
Ġstrip e
Ġla wn
Ġmon olith
Ġcur ves
Ġart illery
Ġbehavior al
Ġstretch ed
Ġacqu ire
Ġsc oot
Ġadm ire
Ġpron ounce
p ress
Ġm others
Ġplay list
Ġid ol
Ġname ly
Ġcrack ing
Ġaff inity
Ġlights ab
s y
Ġr ash
Ġdepos it
Ġmosc ow
re ls
ke e
Ġli z
Ġmete or
Ġne arest
Ġover lo
Ġindepend ently
Ġhar ass
Ġjud ging
Ġwound s
Ġstart ups
Ġpresident ial
Ġinterview ing
Ġmurd ers
Ġsaus age
Ġthe ology
ro ck
Ġsp ine
Ġpast ry
Ġcommand ments
Ġmass ively
Ġairb n
Ġob ed
Ġ19 20
Ġris es
Ġign oring
Ġnin th
Ġexpon ential
Ġce ment
Ġcivil ians
Ġbell s
Ġtransparen cy
Ġjoint s
Ġorg ans
e ets
az e
Ġorgan isms
Ġdod ge
Ġv ik
Ġment or
Ġindigen ous
i ated
Ġimp lies
Ġfrequ encies
Ġcelebr ated
Ġdiscover ing
Ġnegot iate
Ġetern ity
Ġwe aken
Ġsl op
Ġjack ie
Ġsick ness
Ġwarm th
Ġlou der
Ġrecre ate
Ġtele port
n ite
Ġpurs uing
Ġst ead
od er
Ġfar ms
Ġoccas ions
v ie
Ġclos ure
Ġj ee
Ġcooper ation
Ġmemor ize
Ġstain less
Ġglob ally
h mm
Ġint imate
Ġmusic ians
Ġpal pat
Ġtour ists
Ġfluff y
Ġtr aps
Ġclear ing
Ġam id
Ġloc ate
Ġje ans
Ġemploy ed
g h
Ġto ll
Ġsam my
Ġw en
Ġdep loying
Ġpalpat ine
p arent
Ġch ass
ah a
Ġsad ness
Ġhe ars
am eric
Ġfl ipped
Ġshel ves
Ġexclus ively
Ġpenns ylvania
m ap
Ġab ortion
Ġmu ff
Ġob es
Ġreg ul
Ġmetad ata
Ġs ulf
Ġcris p
Ġconcl ude
Ġwi i
Ġslic es
Ġsel en
Ġt u
Ġth irty
Ġw at
Ġins ulation
Ġcard io
Ġdef ines
Ġcons ensus
Ġ10 1
Ġgl oss
Ġtrain er
Ġremote ly
Ġbree ze
Ġn ash
Ġa ka
Ġrec ur
Ġawa it
Ġp orter
Ġr ural
Ġk ansas
Ġgr am
ud a
Ġmort gage
i as
Ġmor ph
Ġant ib
Ġtact ic
Ġout let
ont o
Ġsho ok
Ġ200 2
Ġstraw berry
Ġt amp
Ġent ries
Ġguess ed
Ġ9 7
Ġsuspect ed
Ġinher ited
Ġwe ighing
Ġdis able
Ġpass port
Ġhum id
Ġsty ling
Ġpark ed
Ġacqu is
Ġrib bon
Ġint eg
Ġnew est
Ġsecret ly
Ġur an
Ġsubject ive
Ġcorpor ations
Ġpref erences
k o
Ġex cus
red ict
Ġpress ures
n ut
t ail
Ġdetect ives
Ġinsect s
Ġid i
Ġcool ed
Ġbar riers
Ġpet erson
Ġm um
Ġst ark
Ġad obe
Ġcor inth
Ġen ch
other ap
Ġpark s
Ġten nes
Ġcraft ed
Ġdisab led
Ġopen ly
Ġinspect ion
Ġtest osterone
Ġra ven
Ġfill s
Ġsciss ors
Ġhas s
Ġmon keys
Ġenh anced
Ġsal mon
Ġenv ision
Ġappoint ed
Ġthe ft
ad vant
vel and
Ġment ions
Ġdomin ance
Ġarc ade
Ġnood les
Ġt ide
ok a
Ġdisappoint ing
Ġabstr action
Ġhydraul ic
Ġl akes
ret t
Ġd ated
Ġpop ulations
Ġmach inery
le m
Ġdefend ed
Ġvend or
Ġhorr ific
Ġp se
Ġbl itz
Ġtog gle
Ġfasc inated
Ġp ant
Ġg ps
ar o
ir l
op ath
Ġact ed
Ġev ac
Ġred und
Ġleg ally
Ġcollect ions
8 00
Ġperman ently
Ġpersist ent
Ġd yl
Ġfore most
mind ed
k ed
Ġc ed
Ġdis advant
Ġpresent ing
Ġtruth s
Ġdoub ts
Ġunp redict
ing ton
Ġv est
Ġfort nite
Ġadvent ures
Ġinevit ably
Ġsh akes
Ġhealth ier
Ġfurther more
Ġfac ial
Ġesc ort
Ġ194 4
Ġextend ing
Ġadmir al
om on
Ġinf r
Ġaccess ing
Ġaccount able
Ġsent iment
Ġaff air
Ġwish es
Ġinvestig ating
Ġweak er
Ġterror ist
Ġpro ves
Ġpub l
Ġath lete
Ġpe ach
Ġcust ody
Ġsink ing
Ġcarl os
Ġdyl an
Ġmin eral
Ġz h
Ġref res
Ġmark ing
Ġn urt
ur b
Ġ9 3
s l
om eter
Ġcon j
Ġcomment ary
Ġharm ful
Ġsucceed ed
Ġevange l
Ġwh ites
ac on
Ġup wards
Ġout rage
sh ine
Ġter ry
Ġview er
Ġm vp
Ġy um
Ġd iox
Ġj ong
Ġal ge
Ġinc idents
Ġpublish ing
Ġinfant ry
od us
Ġval ued
Ġma id
Ġdepart ure
Ġnot ic
Ġeas ter
Ġspec ulation
Ġtransform ing
m itt
Ġc v
Ġto ck
Ġnail ed
6 00
Ġund erest
Ġpump kin
walk er
Ġpolit ically
Ġw ides
Ġc attle
Ġcons c
Ġform ulas
Ġvers a
Ġelect ions
Ġexce ed
Ġbunk er
Ġmark ers
Ġbegin ners
Ġchick ens
Ġlegis lation
b ird
Ġem issions
Ġcol ony
Ġinf amous
Ġtri ad
Ġutter ly
Ġp ony
Ġmore over
Ġspot light
Ġmel ting
Ġmultip l
Ġpromot ed
Ġh ong
Ġvis a
Ġforget ting
Ġsex y
Ġmal icious
Ġdrill ing
i ets
Ġ8 2
Ġve t
Ġimm ort
Ġrespond s
Ġtempor arily
Ġn am
ur u
Ġinter section
bor ne
Ġtennes see
Ġhapp ily
Ġphilosop her
Ġadap ted
Ġwar ned
Ġtrav is
Ġv amp
Ġint ensive
Ġimp l
Ġhigh s
Ġside ways
emp loy
Ġbal ancer
Ġbarbec ue
Ġdig its
Ġphysic ist
Ġzomb ies
ian ces
Ġwar mer
Ġdoub led
Ġ199 9
Ġad ren
Ġlast s
Ġcle veland
Ġcolon ial
Ġaim ed
Ġmanip ulation
Ġgo ose
Ġcar amel
Ġlaw rence
Ġmix er
Ġguid elines
Ġagricult ure
Ġpse ud
Ġcap e
Ġpar ach
Ġdam aging
Ġsent enced
Ġcel est
al ine
Ġlearn s
b urn
am ation
Ġhun ters
Ġdrag ged
Ġali ke
Ġalt ar
Ġwhis key
Ġd unk
Ġso ber
Ġse gments
ree k
atter ing
Ġmar ble
Ġd amp
it an
Ġmin es
Ġfocus es
Ġtitan ic
ih il
Ġalge bra
Ġas pir
Ġfun n
Ġref ined
Ġband w
Ġk han
Ġtro op
Ġdomin ate
Ġmit ig
Ġobes ity
Ġo g
op ard
Ġcorre ction
Ġr av
Ġent ang
Ġmem e
Ġbal d
Ġmechan ic
Ġpill s
Ġaffili ate
Ġd ummy
Ġcor on
Ġbright ness
Ġarchae ologists
Ġcarr ots
Ġ9 2
Ġtur k
Ġsubscri bing
Ġtour ist
Ġner d
Ġcatastroph ic
Ġstrang ers
Ġf aint
is ive
Ġse min
Ġreg ener
Ġvisual s
Ġoct op
Ġl ust
ut y
Ġteam mates
Ġhistor ian
Ġhall uc
Ġder ived
Ġintrig uing
ro se
Ġposition ing
Ġcarl son
Ġtatt oo
Ġd h
id ian
Ġle ban
Ġhop eless
Ġmedic ations
Ġinfr ared
Ġum bre
Ġvi able
Ġmemor able
Ġdestruct ive
Ġf eared
Ġg on
Ġpar li
Ġhands ome
Ġpref ix
Ġinteg ers
Ġs ibl
Ġr ides
Ġlo ver
Ġab c
Ġpar as
Ġimpact ed
Ġcampaign s
Ġimp licit
Ġunder way
Ġop s
Ġrel atives
Ġequ ality
Ġpump s
Ġflaw s
Ġpubl isher
Ġkn ives
Ġdisc r
Ġcere al
h ole
Ġsupport ive
Ġr ays
Ġex odus
li hood
Ġl ur
Ġon board
Ġmir rors
Ġchass is
o bs
or ie
Ġe ject
Ġday light
Ġmod est
Ġmar x
Ġnews let
Ġsouth east
Ġdar n
Ġcryst als
Ġfuse lage
Ġhust le
Ġpl asma
Ġover d
Ġfl uct
Ġmultip lied
Ġpriest s
Ġoverr ide
Ġsibl ings
a id
Ġm orm
Ġst agger
Ġfo nd
Ġmess aging
Ġfle e
Ġveter an
Ġrebell ion
Ġportra it
Ġf ern
Ġfree zer
Ġsens ation
Ġo v
er ting
Ġc c
Ġst ance
Ġam d
Ġsusp ended
Ġstew art
c ur
Ġne ph
Ġcol oss
Ġsov iets
Ġw ag
Ġre ef
Ġun b
Ġstr ap
Ġsk ate
Ġ8 7
Ġegypt ians
Ġclint on
Ġlike lihood
ch anging
Ġfire base
Ġdeep est
Ġsens itivity
Ġaggress ion
n g
Ġy u
Ġrep orter
Ġfre el
Ġvot ers
Ġoccup ation
Ġfrag ile
Ġc ri
Ġal ab
ul um
Ġdeal ers
Ġconcent rated
Ġc ater
Ġjo el
Ġwho ops
Ġaccount ing
it ives
Ġal f
Ġpart ition
Ġplay off
Ġsell er
Ġdoc s
Ġsie ge
ograp her
Ġth ief
Ġw rench
Ġp ots
Ġsp ouse
ash i
Ġl ut
Ġfe ast
Ġtop s
Ġsince re
Ġswe ll
Ġluc a
Ġliver pool
as se
ur ious
Ġam mun
Ġsearch ed
Ġpatch es
Ġteen age
Ġappeal ing
Ġmotorcy cle
d les
ou b
Ġv apor
Ġfl ux
Ġda w
Ġorth odox
j u
l ash
is en
Ġun ic
ost ic
Ġsw ept
ro c
Ġbel g
Ġimm un
Ġshr imp
Ġdign ity
Ġparli ament
h ost
Ġan oint
Ġbr ass
Ġsn iper
Ġbec k
Ġdeli vers
Ġfilter ing
Ġpredict able
Ġsi xt
Ġairbn b
ac ht
Ġind ians
Ġappreci ation
Ġphr ases
Ġgem ini
im ination
Ġcl er
Ġfun nel
Ġthin ner
Ġgaz e
Ġconver ting
Ġcrop s
Ġbount y
w atch
Ġre agan
Ġj i
Ġfr aming
Ġhome page
Ġenc aps
Ġenjoy able
Ġclos es
Ġtor onto
Ġs ized
Ġentire ty
Ġcompet itor
Ġfeed s
Ġmir ac
Ġmoist ur
Ġmoder ate
Ġco res
Ġauth ors
Ġan ts
Ġhon ored
Ġ18 00
Ġsynth es
Ġestim ates
Ġh ik
Ġpark er
Ġdistur b
Ġunst able
Ġb ots
Ġc akes
Ġrest ored
Ġca ffe
Ġhistor ians
Ġcontrib utions
Ġrestrict ions
Ġdisconnect ed
ll er
Ġha v
Ġfo ster
Ġran ch
uff le
Ġu d
Ġfab ulous
Ġsh ak
Ġacc idents
Ġasynchron ous
Ġsol omon
Ġ7 9
Ġexist ential
wor th
Ġwal es
ou st
Ġgr im
Ġinc on
Ġmill imeter
Ġproject ion
Ġste er
Ġentit led
Ġammun ition
Ġi q
Ġ8 4
ed er
Ġso f
Ġfre ight
Ġloc om
Ġsole ly
ic it
ach i
Ġappear ances
Ġlaws uit
Ġluc y
Ġsc ent
att ed
Ġres erved
ush i
Ġimag inary
Ġmusic ian
Ġgradu ated
Ġdiox ide
Ġf ist
Ġre ed
Ġplace ment
old s
Ġdry ing
Ġash amed
Ġmicrobi ome
Ġsort ing
Ġhyp hen
Ġrent al
Ġchop ped
m etry
Ġmed al
Ġmer ry
Ġgem s
Ġencrypt ed
Ġve gan
Ġant ar
Ġkil o
Ġcurs ed
t or
ol is
Ġsu ited
ast ically
Ġwall ace
Ġdemocr at
Ġolymp ics
Ġtablesp oon
Ġoverse as
Ġstoryt elling
Ġbe ams
ast e
Ġoff line
Ġca ution
Ġasse mble
r ise
Ġkn ead
Ġpe g
Ġann oun
Ġtal ents
Ġt ak
Ġse ated
Ġspl itting
Ġc tr
art s
Ġscr ut
Ġlith ium
Ġt k
en ch
Ġpers ons
ann on
Ġtrad er
Ġhighlight ing
Ġsp ikes
erson ic
m aking
Ġkeep er
Ġsun shine
Ġcorre l
Ġbr u
Ġgl ac
Ġneur osc
Ġreject ion
Ġpuzz les
Ġlun gs
as is
Ġan at
Ġco ord
Ġsho vel
Ġdistrib ute
Ġvolc anic
Ġaccording ly
Ġbroad ly
Ġgard ens
Ġforest s
Ġjournal ists
Ġresil ient
Ġinfect ion
Ġturb ine
Ġdimin ished
Ġwhist le
b ot
c ode
Ġemb ark
h uman
ar ity
et ical
Ġer ase
Ġarchitect ural
r ad
Ġo reg
Ġz am
Ġsn akes
Ġprop ort
Ġresol ved
Ġmu g
Ġtit led
Ġoccur ring
Ġb t
Ġc aves
Ġst ur
Ġen rich
Ġmed ian
Ġtall er
Ġmyth ical
Ġenlight en
Ġoreg on
3 8
Ġn ets
ith m
Ġadv ise
Ġgre ens
Ġprin ter
Ġcathed ral
Ġar ctic
ish es
less ness
Ġsky walker
Ġ199 8
Ġcav al
x ual
Ġw ives
Ġinter ven
Ġcelebr ities
Ġinfin itely
Ġtoy ota
Ġky rie
Ġcon form
Ġdefin itive
Ġ199 4
let on
Ġvill ages
Ġeth nic
on ing
Ġcon sec
Ġbr ag
Ġiron ically
Ġspo il
Ġadopt ion
Ġexped ition
it ary
Ġfind ings
Ġcour ts
Ġclear ance
Ġgd p
ess a
Ġpe c
Ġrespons ive
Ġnest ed
Ġconfigur ations
Ġdon ate
Ġref ine
Ġcomb inations
Ġindic ated
Ġunp re
Ġpig s
Ġinterf erence
Ġrel uct
Ġperspect ives
Ġre us
Ġdis com
Ġnor way
Ġchurch ill
Ġsubm itted
Ġaggreg ate
Ġearthqu ake
Ġsod ium
Ġrasp berry
Ġsub d
Ġorb ital
Ġcor ps
Ġpap a
Ġgall ery
Ġunlock ed
Ġentreprene urs
in form
Ġp as
Ġche e
Ġless er
ax is
Ġswing ing
ag ne
Ġtext ures
con f
asc ular
Ġcub ic
Ġcro c
Ġcomp ose
Ġsim ulate
Ġquestion ed
Ġpin ned
Ġmar in
Ġdro id
Ġtriv ial
Ġsams ung
p read
Ġm asks
Ġact ress
sp eak
Ġfulfill ing
Ġvictor ia
Ġselen ium
Ġa j
Ġtr an
Ġrem n
Ġpar se
dam n
Ġwides pread
Ġch alk
Ġar p
Ġcl ing
Ġgr app
Ġtoler ance
Ġintr ins
Ġb ik
Ġj p
Ġhead lines
Ġken ny
Ġbing o
Ġcl ause
Ġwar p
Ġvari ance
Ġwes ley
Ġd l
Ġcol omb
Ġchar ming
Ġinf erence
Ġremo val
Ġmart y
Ġj w
Ġaffect ion
Ġlif es
n i
Ġre ne
Ġj ab
Ġthought ful
Ġcraft ing
u ation
Ġl or
Ġli v
Ġcorre lation
Ġspend s
Ġqual ify
Ġboun cing
Ġs ip
on al
Ġg ases
Ġjo ins
Ġgen etics
Ġinterview er
Ġneb ula
Ġunpre ced
Ġre x
Ġmo ss
Ġtemp ted
Ġhug h
Ġdefin itions
Ġce ase
g ling
Ġde em
Ġsymbol ic
Ġextract ion
Ġbuddh ism
ar u
Ġcomm itting
Ġy acht
Ġ12 5
Ġalph abet
Ġfert il
Ġjust ified
Ġphot ography
ze k
Ġctr l
Ġe cl
Ġcharacter istic
Ġrev is
Ġcapac itor
Ġrul ing
Ġlect ures
Ġla z
Ġdead line
Ġp ere
Ġg ian
Ġlo re
Ġpe ers
ro y
Ġdec omp
h op
p able
Ġhard core
Ġey el
Ġf s
ar ia
Ġme cca
Ġ6 1
Ġvib es
Ġabsor bed
Ġinv oke
sh ell
he ld
Ġox id
Ġjee z
Ġunpreced ented
Ġdon key
Ġsl ime
Ġden ver
Ġtele metry
Ġsatisf y
otherap y
Ġg s
id th
qu is
Ġpe ek
Ġprotect s
Ġske w
Ġdistinct ive
Ġnotor ious
Ġcar ved
Ġspot ify
Ġcand les
Ġcream y
Ġcort ex
Ġf ury
Ġl oun
Ġlog an
Ġsword s
Ġestablish ment
Ġu v
Ġso ak
Ġkn ob
Ġuh oh
Ġfe ver
Ġatt ended
Ġprox im
Ġelder ly
Ġsubstit ute
Ġtempt ation
Ġto x
Ġclass ification
Ġsn iff
Ġhar rison
Ġadj acent
Ġg room
ot es
Ġcr ushing
Ġemploy er
Ġmultip lication
Ġex otic
Ġsp er
Ġdifferent ial
Ġgrab s
Ġadjust ing
Ġparticip ants
Ġpro ver
Ġcomp iled
Ġ8 6
Ġbar bie
Ġtreat s
Ġ199 5
Ġcaut ious
Ġsh it
Ġgod damn
sh aped
Ġdisappear s
s ized
Ġad ul
d og
Ġh m
Ġv icious
Ġimp ul
Ġper se
og ether
Ġfund ed
Ġhi ke
Ġexpress ing
Ġrever b
s ight
Ġh id
Ġd re
Ġpl ag
Ġtim ber
Ġlook up
Ġqu ack
Ġcount ed
Ġ9 4
Ġhar vey
Ġconcl usions
Ġmut ation
Ġlet hal
Ġbuild ers
Ġdem ol
b one
Ġag rees
Ġma ze
Ġconnect ivity
Ġur g
Ġhack ers
Ġobser ver
Ġcombust ion
Ġall ey
Ġmy sql
Ġper imeter
Ġfin est
Ġ198 9
Ġdub ai
Ġenthusi asm
Ġw ip
Ġimport ing
Ġah a
Ġhome land
com mer
fl ows
Ġterr ific
Ġlaugh ed
Ġrod s
a uc
r idge
Ġpro hib
Ġlux urious
Ġhub ble
Ġbuck ets
Ġlind a
Ġin gen
Ġpo inters
Ġhope ful
work ing
Ġphot ons
Ġ199 6
Ġveter ans
commer ce
Ġconqu ered
l ene
Ġc asc
Ġpot ion
Ġcomput ational
Ġtast ing
Ġpaper work
Ġhero in
Ġsnap shot
Ġmarg aret
Ġslee ve
Ġanten na
Ġal aska
Ġsp ill
Ġsa ul
Ġsw itzer
Ġread able
Ġrich est
Ġhaz ard
t ent
Ġwh ack
Ġmin nes
Ġhu ber
Ġserv ants
Ġarab ic
Ġaer odynam
Ġanticip ated
Ġshortcut s
Ġo li
Ġm ice
Ġqu ir
Ġcar bs
Ġhome made
Ġhol oc
Ġbas il
Ġamb ul
Ġfatig ue
ra wn
Ġexecut able
Ġp on
Ġbr ady
Ġbl ob
Ġgrand parent
Ġdeter mines
Ġdisappoint ment
Ġm ute
Ġmem br
Ġund efined
fr ame
Ġmonit ors
g ence
o vers
Ġkn uck
Ġess ay
Ġlower case
Ġeye br
Ġimper fect
Ġjen kins
Ġdang ers
Ġregist ration
Ġredd it
3 3
Ġd orm
Ġro gue
Ġfin ances
Ġchar ism
Ġprot on
Ġvert ically
Ġinherent ly
Ġanton io
Ġshepher d
Ġminnes ota
Ġback ward
Ġcontact ed
Ġalt ogether
Ġdiscom fort
Ġa le
es ive
Ġbl ond
Ġid le
Ġpack ing
Ġphot osh
Ġdevot ed
Ġb ould
Ġc els
Ġv on
Ġpot ent
Ġmatt ress
Ġsacrific es
Ġnod ded
Ġst er
Ġprov in
Ġgal ile
Ġconcl uded
Ġnit rogen
c key
Ġwith stand
Ġbr ig
Ġchr om
Ġlink ing
Ġcurt ain
Ġpepp a
Ġgl uten
Ġcal orie
Ġglo ve
Ġunivers es
Ġinqu ir
Ġli b
Ġbo iler
Ġtrans it
ox y
Ġelev ate
Ġbm w
Ġne l
Ġtr il
be an
Ġwa ff
Ġbad ge
Ġuf o
Ġc reek
Ġh edge
Ġbit es
Ġgl am
Ġimag ining
Ġen zy
Ġgraph s
Ġrelax ing
Ġjen n
Ġinspect or
Ġnich olas
Ġdil ig
Ġcompart ment
Ġun se
ath on
Ġmad ness
Ġexecut ives
Ġpregn ancy
er a
im ag
if ul
Ġpr one
Ġcol in
Ġlaunch es
m ill
Ġw age
Ġfl aps
sh ake
Ġreplic a
Ġdescend ing
Ġpand as
Ġinex p
Ġcaffe ine
Ġnot ation
Ġus able
Ġle nd
Ġdeb ates
Ġner ves
Ġappet ite
Ġc ens
Ġcan s
Ġor acle
Ġun aware
Ġunderstand able
Ġred emption
Ġwo ol
Ġpost ure
Ġtreat y
Ġill umin
Ġaltern atives
Ġfred dy
Ġintric ate
Ġthe o
Ġl ame
Ġal mond
Ġag ed
step s
orient ed
Ġd air
Ġst ating
Ġtemp o
Ġregard ed
Ġnot ably
Ġdri p
Ġdesp air
Ġdebug ging
Ġagricult ural
Ġcelt ics
Ġh ers
Ġtra it
ci ation
aff e
Ġpyram ids
Ġha mb
Ġtw el
Ġton gues
Ġincorpor ated
Ġv ivid
Ġaccess ories
Ġban anas
Ġmolec ule
Ġcompound s
Ġirre le
Ġt apping
or able
Ġin equ
om ed
Ġgo o
Ġcar ib
Ġass y
Ġnewslet ter
Ġm ck
Ġv inc
Ġman kind
Ġfl ock
Ġexplan ations
Ġstan ley
Ġbrun o
e on
Ġl enses
Ġass ured
Ġrest oration
Ġcalc ulus
Ġyog urt
Ġply wood
ll e
Ġtr action
Ġplay ground
Ġjeff rey
Ġnickn ame
Ġmo ore
Ġsp ite
ick ed
Ġwa vel
Ġball oons
Ġgovern ance
Ġgam ble
Ġassass ination
Ġinterv als
Ġcorinth ians
2 1
Ġb od
Ġcur ved
Ġsal ty
Ġrank ed
Ġraz or
Ġoli ver
Ġthr illed
Ġreg ulate
Ġpar an
Ġbuy ers
Ġswitzer land
d ad
p al
Ġr t
Ġlord s
Ġd p
Ġsp ins
Ġprof iles
Ġpun ished
8 6
Ġemer ald
Ġuncle ar
Ġcircumst ance
Ġexcess ive
Ġelectromagnet ic
Ġg n
Ġn y
Ġal m
Ġv as
Ġ4 50
Ġhead line
Ġfac ult
2 9
Ġst ing
ad ic
Ġper f
Ġbefore hand
Ġaer ial
Ġretrie val
Ġdwar f
Ġm our
Ġelement ary
Ġsh an
Ġexcus es
Ġphotosh op
Ġs ang
Ġc ush
Ġof tent
Ġr pm
Ġout ward
Ġstat istical
Ġoftent imes
ar ound
Ġsupp lements
bo ys
Ġep ide
Ġcy cl
Ġbrand ing
Ġpent atonic
Ġeb ay
Ġlightsab er
un ting
Ġrel ational
Ġfall out
Ġd al
Ġwild life
Ġtrop ical
Ġthumbn ail
Ġjenn ifer
Ġr iley
Ġread ers
Ġnavig ating
Ġcompar able
Ġcooper ate
Ġavo ided
b read
Ġf ats
ir a
Ġco ating
Ġindones ia
Ġunpredict able
Ġpl uto
Ġmad rid
Ġgal actic
Ġkil ogram
Ġbandw idth
er ie
Ġpo em
Ġvol umes
Ġtreat ments
Ġcat aly
Ġpill ars
Ġgm ail
Ġtim othy
Ġcheck point
Ġconf eder
Ġpract iced
Ġprior ities
am an
Ġnot ified
el come
Ġart istic
Ġdivor ced
Ġe h
Ġro ose
Ġdr ank
Ġinsane ly
Ġpolitic ian
Ġbisc uits
Ġl um
Ġr ans
Ġch an
Ġor le
Ġcomp ressed
Ġend ure
Ġwind ing
Ġsubs id
Ġconcept ual
Ġm ik
Ġst arch
th at
Ġwr ink
Ġhel ium
Ġpers ian
Ġcle arer
Ġfound ational
Ġsynth etic
b ac
Ġb icy
Ġg ust
Ġr f
Ġlea ks
Ġy oda
Ġn ag
Ġre ception
Ġpeop les
Ġbillion aire
Ġral ph
i ating
ar p
Ġ8 3
Ġdescri ptions
Ġhonest y
Ġduck s
Ġpir ate
! !
Ġsh irts
Ġrac ism
Ġrp g
Ġno bel
Ġthreat en
Ġamb ass
Ġchief s
Ġflood ed
Ġhamb ur
Ġnot ing
Ġbull y
Ġcrash es
Ġmultipl ayer
Ġl od
and o
Ġback log
Ġtail s
h oot
am ins
Ġmiss es
Ġsurpr ises
Ġcous ins
Ġcompens ation
buck s
Ġre nd
se ason
op a
Ġpar aly
Ġolymp ic
iss a
Ġbeg ging
Ġsuper char
Ġmob ility
Ġtraff icking
Ġukrain ian
Ġpron ounced
Ġst ern
Ġun load
per t
Ġgl enn
Ġart work
Ġcopy right
Ġsequ ences
Ġpump ing
Ġcomed ian
Ġabund ant
burg h
Ġtid y
Ġhospit als
Ġf aded
Ġcapt iv
Ġdut ies
Ġjosh ua
Ġvolunte er
d ict
Ġre na
Ġel bow
Ġadminist rator
Ġvik ings
Ġch orus
Ġlo vers
Ġsa iling
Ġtrans f
Ġmust ard
Ġselect or
b in
Ġhel per
Ġz oo
Ġnegot iation
Ġumbre lla
Ġh ull
ok u
Ġsuper vis
Ġcomb ines
Ġdedic ation
Ġwarning s
Ġremem bers
Ġab used
Ġtemp les
Ġdi ab
Ġaud ition
Ġindic ating
Ġcham bers
Ġcarr ot
Ġwavel ength
Ġth ail
Ġi g
Ġc ue
Ġe nder
Ġsw amp
Ġprogram med
Ġcost ume
Ġreview ed
Ġp eaks
Ġv iking
Ġpin ea
Ġmarg ins
Ġcels ius
Ġtest ify
Ġur gent
Ġdur ability
Ġcali ber
y er
us ible
Ġrun ners
Ġdownload ing
Ġthail and
5 2
Ġsp ont
Ġac oust
Ġskin ny
Ġenlighten ment
a fe
p ot
Ġun ified
Ġbl ake
orm al
Ġconsider able
Ġmanufact ured
Ġsha wn
Ġbrook s
Ġdair y
Ġw ages
Ġcom et
Ġest rogen
Ġnecess ity
Ġestablish ing
Ġmargin al
Ġrelent less
Ġbe e
Ġinsert ed
Ġtoler ate
l u
Ġc ope
ig ible
Ġr ams
Ġstri pped
Ġstack s
Ġreported ly
Ġhuber man
m et
v ol
Ġs ic
Ġr in
Ġher b
Ġbre ach
Ġimpro ves
Ġ199 7
Ġclim bed
Ġtransport ed
wr iting
vel t
Ġsuspect s
b ish
so ver
Ġro ster
Ġmaster y
Ġcalc ulating
Ġsovere ign
d ep
Ġm ash
Ġper t
Ġbre wing
Ġcertain ty
Ġben j
Ġremo ves
laim ed
3 6
Ġh ul
Ġen um
Ġgam er
rest rial
Ġirrele vant
a a
Ġnorth west
Ġdismiss ed
Ġsp ag
Ġtheir s
Ġtorn ado
op ia
Ġwell s
Ġnorm an
Ġcast les
Ġlimit ation
Ġspaces hip
Ġn ix
Ġsa ge
Ġad equ
Ġrock ing
Ġcompl aint
Ġsail ors
auc r
Ġun int
Ġworld view
ug s
Ġperform s
Ġreact ive
Ġminor ity
Ġsust ained
Ġre bo
Ġsu nd
Ġaut op
Ġpol es
Ġ8 9
Ġresearch ing
id able
ative ly
Ġappro ve
Ġur ge
Ġrom ance
Ġoct ave
Ġcustom s
Ġsens ible
Ġphilosoph ers
Ġvend ors
Ġbure aucr
Ġp ard
Ġgr ades
Ġcaus al
Ġdetect or
Ġrefres hing
Ġorle ans
Ġpe nd
Ġgr avy
Ġfir ms
Ġinter rog
Ġpip elines
Ġl m
Ġse ga
Ġther most
Ġt ig
ea u
and y
Ġret ract
Ġmad ison
Ġpu ppy
Ġnucle us
Ġfont s
Ġalab ama
t les
Ġin ver
Ġstick er
Ġtroubles hoot
Ġreh ears
Ġbet ting
Ġmin ers
Ġhyp ocr
Ġrect ang
Ġeag les
3 4
Ġs way
Ġperson a
Ġpri x
Ġweb in
Ġtal es
Ġpill ar
Ġdys function
Ġlaure n
Ġacquis ition
Ġc em
ust er
Ġble ed
agon ist
Ġvit amins
Ġhem is
Ġdiff er
Ġbuy er
Ġdrag ons
Ġhypoth etical
Ġunhe alth
v ation
Ġb ikes
az a
Ġpen n
Ġdefend ant
nam ents
Ġwick ets
Ġp up
Ġsc ans
Ġsimilar ities
friend ly
Ġcraw l
Ġdisplay ing
Ġpist ol
Ġted dy
p ost
Ġso re
Ġk itty
Ġsh ane
op ed
Ġhit ch
Ġfre em
Ġdi ets
Ġsand ers
Ġnic ole
Ġobt ained
Ġgp us
Ġlength s
d rop
l ord
Ġsupp ress
Ġbish ops
Ġdivide nd
Ġathlet ic
Ġcultiv ate
l ift
Ġexp osing
Ġconf ession
Ġ7 4
Ġesc aping
Ġreb els
Ġbomb ard
Ġunder w
Ġtar iff
Ġobs idian
c ers
Ġon t
Ġdes erved
Ġlim e
Ġeffort lessly
Ġpredic ting
b ro
g on
at on
Ġsh ades
Ġup right
Ġbr ute
Ġprom ethe
Ġ17 0
Ġbend ing
Ġsh ack
Ġtrans itions
Ġgree ks
Ġremark ably
Ġapost les
b ly
Ġn ad
ig i
ul ent
Ġadv ancing
Ġreact ing
Ġtap es
Ġproxim ity
Ġmust ang
Ġrang ing
Ġp est
Ġthr ill
Ġind ent
Ġhead set
Ġemp ir
Ġsea f
Ġshop ify
Ġ194 1
Ġdisp atch
Ġinterf ere
Ġre lic
Ġapp rent
Ġher bs
Ġcra ving
Ġcook s
Ġdel ays
hy dr
Ġtermin ology
Ġmont ana
Ġignor ance
eto oth
americ an
l ah
it i
Ġtr inity
Ġco eff
Ġapprox im
Ġblu etooth
Ġeru pt
Ġt nt
ant ing
Ġend urance
Ġav atar
z i
ous es
Ġmagn es
wor thy
Ġn s
ut ive
ri el
Ġbr oth
Ġgu in
Ġstagger ing
Ġspag hett
Ġk its
Ġvis its
Ġsearch es
Ġeur o
Ġalt ered
Ġhelicop ters
Ġnarciss istic
Ġportug al
m al
Ġal p
ry pt
Ġwr aps
Ġpot ter
Ġpsych ed
Ġuncom mon
keep er
a ab
Ġpre he
Ġen for
Ġmil ky
Ġsubmar ines
Ġcancell ed
Ġargent ina
Ġfr an
Ġcomp lement
Ġsur pass
Ġdefin ite
Ġdi y
Ġjud ged
Ġcine ma
Ġsk ipping
pow ered
Ġgrandparent s
Ġpromethe us
Ġin ac
Ġplan k
Ġreg istry
Ġred o
Ġmet ic
Ġimmig rants
aby te
Ġunco vered
is ol
Ġ1 000
Ġbr av
Ġbook ed
Ġvis ions
Ġmal ware
pro f
Ġpent agon
Ġha mp
Ġmess enger
Ġep oxy
Ġdisc ern
Ġcontinu ation
Ġq r
Ġjen ny
Ġb our
Ġu pp
Ġdevelop s
Ġmid field
Ġdefend ers
Ġconsc ience
a o
ur ities
Ġman us
Ġdirect ors
Ġ194 3
Ġc um
Ġm t
Ġgr iff
Ġind irect
Ġdevelop ments
Ġconc at
Ġvari ants
Ġtrack ed
Ġswe ethe
Ġsmash ed
Ġprosec ution
Ġfor um
Ġbut ler
Ġapp lause
Ġjo ey
Ġbutter fly
Ġpump ed
o ft
Ġplace holder
Ġamazing ly
Ġmap le
Ġring ing
Ġgosp els
b ut
c orn
Ġf ount
Ġam ate
Ġser pent
Ġsl ipp
Ġred esign
Ġsle ek
Ġpark inson
Ġsurround ings
Ġremain der
Ġutil izing
Ġcyl ind
Ġbenj amin
Ġfo il
Ġteam mate
Ġdownload s
Ġbrush es
m ath
Ġl att
Ġpick le
Ġattack er
Ġorgan ism
Ġsubs et
Ġunhealth y
Ġl loy
Ġe co
Ġde ception
Ġad o
bo at
Ġauthentic ity
Ġshout ing
iped ia
Ġnewsp apers
Ġt et
ight y
Ġcheck list
Ġdi ary
Ġbal con
Ġmaster piece
Ġsig ma
Ġgramm ar
Ġre hab
Ġmar co
Ġ12 8
Ġstar ving
Ġreal istically
Ġsus an
Ġm v
Ġv ene
Ġinter connect
Ġadv ances
Ġener g
Ġsand y
Ġdemand ed
Ġcritic ized
9 5
Ġre nov
cept ions
Ġmet als
Ġrob lo
cl oud
o os
Ġn ike
Ġlo ans
Ġbu ys
Ġgod d
Ġmon o
Ġ9 1
Ġvill a
Ġkil os
Ġty r
Ġsanct uary
Ġcolumb ia
Ġhe els
ere rs
Ġtim eless
Ġcont our
Ġmon k
Ġcoll ins
Ġot t
Ġfoss ils
Ġnel son
ar io
Ġsh annon
Ġsc iences
Ġsl ipped
Ġcons ulting
Ġcounter part
Ġcompos ite
Ġbust ed
Ġpropell er
Ġroose velt
j ust
in um
Ġro gan
iv ia
Ġfront ier
eter min
Ġimpro v
Ġsmart phone
ob ile
Ġamb ig
Ġwhis k
Ġfib ers
Ġtwel ve
Ġret in
Ġgl owing
Ġren owned
Ġarchae ological
Ġm am
Ġbe et
Ġsur geon
Ġpres id
oh oo
Ġthe sis
ac o
ast ics
cess or
Ġdesign ated
Ġpol ite
Ġris en
Ġd ia
Ġk af
Ġsoc ially
Ġadjust able
Ġmand atory
Ġket o
Ġbats man
Ġriv als
er ce
Ġk u
el f
Ġun employ
Ġrid ers
Ġmagn ets
Ġwik ipedia
y es
Ġcomp ilation
ip se
Ġsm oked
Ġaccept s
Ġghost s
Ġbows er
Ġgr ains
Ġhuge ly
Ġbull s
Ġcritic ize
Ġastronom ers
Ġhemis phere
Ġm b
Ġresearch er
Ġflood ing
Ġbattles hip
Ġvp c
Ġcigaret tes
Ġwe nd
Ġident ification
Ġisol ate
m aker
Ġkill ers
Ġgrind er
Ġcharl ott
Ġjul ia
Ġinterrupt ed
Ġleban on
h em
is an
Ġhint s
Ġc ough
Ġun ix
Ġbreak out
Ġblack s
Ġcoup led
he arted
Ġsevere ly
Ġvolunte ers
Ġinsist ed
Ġtac o
Ġl ick
Ġr up
ir able
Ġam ino
Ġdism ant
Ġd ak
Ġe lo
ok ay
Ġcu c
Ġchamp agne
Ġbarbar a
Ġte aring
Ġtake away
Ġrequ iring
Ġdescri pt
Ġobs ession
Ġdemon ic
Ġblend ing
Ġsymm etry
f y
l ace
Ġres idence
Ġopt ical
Ġbar g
Ġyout ub
Ġforg iven
Ġcrowd s
Ġindo or
Ġn il
Ġha cks
Ġch ased
Ġtr act
Ġv enom
man n
Ġpersonal ized
Ġdin o
Ġelev ation
Ġii i
Ġme gan
Ġhead ache
Ġgl ued
Ġalm ighty
u pp
Ġf ict
Ġwe ars
Ġpop corn
Ġbeach es
Ġnom inal
Ġrebu ilt
u ana
Ġp t
Ġp ans
Ġgr ie
aster s
Ġlog istics
Ġgam ma
Ġ199 1
Ġox ford
Ġ194 2
Ġjere m
Ġaccus ations
l ar
Ġg ag
Ġdef lect
Ġform idable
Ġlow ered
Ġdark est
Ġprop ose
Ġemploy ment
Ġ36 5
Ġvinc ent
p aper
Ġb ury
Ġp itt
ri et
iv a
Ġdiff usion
Ġdist ress
Ġbar cel
Ġtool ing
Ġswe ating
Ġrob bed
Ġrob inson
Ġconscious ly
Ġcondem n
Ġadren aline
u ated
on ia
Ġch ats
Ġoff ended
Ġscand al
Ġh ed
Ġtr acing
qu et
Ġsn oop
Ġwilling ness
Ġwand ering
Ġsl ab
Ġchap el
Ġtransform s
Ġencour ages
Ġfrag ments
2 3
Ġm ing
Ġin gest
Ġr v
Ġas y
Ġsn ipp
Ġcy n
Ġcompl aints
Ġsatur ated
Ġneph ew
p ad
as her
Ġbo g
Ġcount down
Ġvol unt
Ġdream ed
Ġconstr aint
Ġten ant
osp her
Ġleak ed
Ġconfront ed
Ġgib son
Ġannoy ed
Ġambul ance
Ġb ip
ol f
ound ing
Ġsm iled
Ġisrael ites
Ġscr aping
Ġquant ities
Ġmig rate
Ġow ning
Ġdescend ants
Ġcort isol
Ġha il
Ġor bits
Ġkid ney
Ġhom o
Ġe zek
ab a
Ġblock chain
Ġactiv ation
Ġmel an
Ġcoast al
Ġspons ors
Ġcrowd ed
Ġadapt ation
Ġillust rate
Ġdelight ed
bu ilt
Ġmim ic
d est
iz ational
Ġke nd
Ġdep ri
Ġmet all
Ġcart el
Ġsoph ia
Ġp agan
Ġconf use
Ġexperiment ing
Ġcub s
Ġconqu est
Ġseam lessly
Ġendea vor
hydr ates
Ġr ipping
Ġimp rison
Ġfound ing
Ġcal ib
Ġfrank lin
Ġnether lands
Ġannot ation
Ġforb idden
hyd rate
Ġcl an
Ġpo etry
Ġmar ines
Ġrot or
part y
Ġprescri ption
Ġroblo x
Ġp oker
Ġfor wards
ri um
Ġanticip ate
Ġpropos ition
Ġrapp er
Ġn im
Ġwh ipped
Ġr ape
Ġke ith
Ġair p
bo b
Ġunp le
Ġinhabit ants
g ate
in ch
Ġev apor
Ġmar athon
Ġcomfort ably
Ġneut ron
Ġteen agers
Ġpsal ms
Ġanalyst s
Ġdipl om
Ġmagnes ium
l asting
Ġd ull
ad ers
Ġstrong hold
Ġcountry side
Ġroyal ty
Ġstur dy
Ġcroc od
Ġezek iel
Ġli am
Ġv a
Ġdis reg
Ġvill agers
Ġextract ed
Ġshield s
f ashion
Ġsh attered
Ġspirit ually
Ġjess ica
Ġsweethe art
Ġlloy d
on i
Ġfor ty
Ġover he
Ġwr ath
Ġoper a
Ġhot ter
Ġeur os
Ġ22 0
Ġfirm ware
Ġweigh ed
Ġbarcel ona
i ator
Ġcr an
Ġnorth east
Ġhost age
Ġmur ray
Ġalb ums
Ġjeff erson
Ġss d
Ġhebrew s
Ġpanc akes
b our
g ra
Ġgot cha
Ġbackground s
Ġlas ers
Ġoctop us
Ġjerem iah
in is
Ġor ph
Ġv ag
Ġad orable
Ġend uring
Ġlower ing
Ġpool s
Ġalloc ate
Ġsd k
Ġcorrid or
w elcome
Ġv ow
Ġcross es
Ġtraum atic
Ġroast ed
Ġyam l
as a
Ġhe ir
Ġdon ation
Ġimag ery
Ġterr itories
rel ated
Ġbapt ized
Ġgest ure
Ġawaken ing
t able
Ġa ids
Ġsub way
br ush
Ġcommand ed
Ġconserv ation
at able
st ore
Ġor al
per form
Ġcir cus
Ġbatt ling
Ġmer it
Ġban ner
Ġmart ial
Ġth rees
Ġun ch
Ġcr ude
gr aph
Ġpred e
Ġden ying
Ġexpand s
Ġintimid ating
Ġcarn iv
Ġgener als
Ġgener ators
Ġprop ulsion
Ġneur on
Ġ198 5
Ġbun ny
Ġf ah
ut able
Ġhe ap
Ġwill ie
Ġcr ater
Ġstu bb
Ġlea king
Ġfoot steps
Ġvl og
Ġpseud o
m ail
Ġa ster
Ġhe el
Ġph ar
Ġer r
Ġauthor ized
Ġje ep
Ġcow boys
Ġcarbo hydrates
Ġspaghett i
fashion ed
a ust
t w
Ġk w
Ġno isy
Ġdis place
Ġwa ist
Ġbre eding
Ġaut ism
Ġmet ro
Ġpath ways
Ġpec uli
Ġre e
op le
Ġno ises
Ġslow ed
Ġarch ive
Ġbeat les
Ġax e
Ġmanus cript
Ġd x
Ġl d
Ġ8 1
Ġmess i
Ġsens ory
Ġsweet ness
Ġcoco a
inform ation
Ġcarib bean
Ġe w
Ġr ider
iv able
Ġfl ashing
Ġrobot ic
Ġcul min
Ġi cy
Ġc i
Ġk art
Ġfil mm
Ġbetray ed
Ġtril ogy
Ġu l
Ġad ams
int e
Ġcur l
Ġcamer on
Ġcontinu ity
Ġjer k
Ġtail wind
Ġgig s
Ġjul ian
er ation
im ir
ater al
Ġguard ian
Ġcheap est
Ġcasual ties
Ġnarciss ist
ic o
Ġse b
Ġplat o
Ġplat inum
roll ed
Ġembed dings
Ġattend ing
Ġch ile
Ġbr ide
Ġkind a
Ġcons oles
Ġkil ow
Ġl anes
Ġde gr
Ġqu art
Ġun pl
Ġfl ask
Ġpol ished
Ġdestroy er
Ġcomprom ised
Ġrepet itive
Ġspat ial
Ġdisgu ise
Ġgoof y
Ġmcl aren
Ġcomm erce
Ġfore head
Ġtrou bled
Ġstret ches
Ġow en
Ġrepet ition
Ġfiref ight
Ġpengu in
Ġupp erc
Ġunple asant
Ġr ol
ch air
Ġpe as
Ġdiv iding
mon th
Ġthri ving
ospher ic
Ġ199 3
lin er
Ġbuddh ist
Ġsuspic ion
Ġreus able
m ar
Ġret rospect
Ġrac ial
Ġpivot al
Ġunbeliev ably
Ġprosec utors
Ġeph es
Ġcho oses
com pass
Ġbur ial
Ġwh ales
ot le
if iers
Ġrel ies
ash a
Ġwater mel
Ġspeed ing
Ġmic key
Ġrating s
Ġoblig ation
p in
Ġun in
Ġpress ur
ij uana
Ġpinea pple
Ġstubb orn
g ic
Ġe ug
Ġj ude
Ġenv y
Ġdynam ically
Ġatl as
Ġman go
Ġev an
Ġcu es
Ġsor row
Ġ18 6
Ġash ley
Ġprotest ant
Ġgra vel
Ġcraz iest
Ġmascul ine
Ġn ig
Ġv c
Ġtime out
Ġprob abilities
Ġvictor ious
Ġe f
app ropri
Ġnat al
Ġdraw ings
light s
aw a
Ġreferen cing
7 00
Ġper mit
Ġcur v
Ġdump ed
Ġgall on
Ġcorrespond s
Ġi l
Ġc ors
Ġok lah
Ġho nda
Ġconnect ors
Ġdiv isions
Ġsepar ating
Ġ199 2
dri ver
t t
Ġa y
od b
Ġcard board
Ġgas oline
Ġqual ifying
Ġreinfor ced
Ġthermost at
a ires
Ġl atch
Ġun ra
Ġ19 00
Ġkaf ka
Ġd um
Ġl ud
Ġup ward
Ġro gers
Ġdec oration
Ġfur ious
2 6
Ġw ield
Ġsuper star
Ġposs essed
Ġcance led
Ġreward ing
Ġritual s
pr ing
Ġviol ation
Ġcrunch y
Ġnegoti ations
t od
z el
Ġn es
it ious
Ġcr im
Ġhal t
Ġeurope ans
Ġintegr ating
Ġw an
Ġap ology
Ġbi os
Ġsmo other
Ġsimpl ified
Ġpir ates
Ġautop ilot
Ġa ld
Ġh ing
Ġhe ather
Ġwr ight
Ġsk ipped
Ġboard ing
Ġbudd ies
Ġinstruct or
1 50
Ġl ub
Ġpop ulated
Ġanim ate
Ġlin er
Ġign ition
Ġloun ge
d i
Ġind ul
Ġed en
Ġinf ilt
Ġhor ns
Ġjud a
Ġmolec ular
Ġbetray al
Ġsulf ur
Ġcelest ial
Ġoklah oma
Ġf uck
Ġcale b
Ġank le
Ġo c
Ġp unk
Ġher d
Ġplay book
Ġdet on
Ġfore ns
Ġengine ered
Ġgrand child
Ġct l
Ġyoutub ers
Ġout d
lo cks
Ġtrans ist
unt u
Ġborrow ed
Ġspac etime
Ġsh aw
Ġdef icit
Ġ10 5
Ġform ats
Ġmil an
Ġconv ict
Ġsex ually
Ġmort al
Ġcro s
Ġnom ine
Ġpresid ency
j ud
ic ular
Ġr gb
Ġk ab
Ġdet ach
Ġshort age
Ġble nder
Ġremind ing
Ġ196 7
Ġs es
Ġmis con
Ġvlad imir
Ġrebo ot
Ġpsyched el
Ġl ent
Ġfun ky
sh ad
Ġkat ie
Ġincent ive
Ġt ere
Ġbe ver
Ġrep airs
Ġmand ate
iot ics
os ph
Ġleg ion
c up
Ġy ak
Ġp es
Ġwork flows
Ġsquir rel
ows ki
Ġrad ically
Ġeduc ate
Ġmyth s
Ġrick y
Ġtup le
Ġparach ute
Ġpre acher
Ġtransform ers
Ġpr ism
Ġunder co
Ġener get
Ġmethod ology
Ġnames pace
Ġnik ki
Ġam mo
Ġsouth west
Ġben ny
Ġlon el
Ġrestr iction
Ġse ized
Ġint est
Ġmon op
Ġtext book
Ġmand al
Ġalloc ation
Ġpeculi ar
ish a
Ġemp ow
Ġmot ive
Ġcold er
Ġenh ancing
Ġacknowled ging
urp ose
Ġrober ts
Ġl bs
Ġno on
Ġside bar
Ġsug ars
Ġalex and
Ġex h
Ġsa ga
Ġoff sh
Ġmeth ane
Ġgraph ical
Ġtriang les
ar ms
Ġsl ows
Ġsuper market
Ġpod ium
Ġrook s
Ġrepresent atives
Ġembr aced
Ġdistract ion
Ġcompat ibility
Ġcatastroph e
Ġstair case
Ġfor s
Ġwork place
Ġfu els
Ġur ls
Ġgut s
Ġkar ma
Ġpla usible
Ġfemin ine
Ġjing le
Ġb g
Ġex ams
Ġafter math
Ġacceler ating
Ġinterpret ed
Ġcollab orate
Ġdelet ing
Ġobsc ure
Ġw agon
ant ine
Ġun con
ass y
Ġdisc ard
Ġhaun ted
Ġether net
Ġsof ter
Ġre loc
um n
Ġfin ale
Ġsl ick
Ġmar tha
Ġcolor ing
Ġtast ed
Ġais le
Ġk os
Ġsh im
Ġsp encer
Ġthem ed
Ġcl ones
Ġho bb
Ġra ft
Ġground breaking
Ġsurviv or
Ġlot tery
Ġstick ers
Ġrich ards
Ġimpact ful
Ġphysic ian
Ġpud ding
in als
Ġm apped
Ġp its
id al
Ġnot ch
Ġsim mons
Ġjag u
Ġsub ur
Ġsk ins
its u
Ġwo ohoo
Ġobject ion
Ġpat ent
Ġfit z
Ġpositive ly
Ġsper m
ri ans
Ġass ure
Ġtrack er
Ġrich er
Ġemer ges
Ġsamp ling
Ġbelong ed
Ġreson ate
Ġoverlo oked
Ġt rent
Ġsh ave
Ġac res
Ġland mark
Ġrecord er
Ġload er
Ġpersonal ities
Ġrout ines
Ġ198 6
Ġexhib it
Ġresent ment
Ġregul atory
re r
Ġh ath
Ġm ia
Ġin version
Ġmo jo
Ġro ver
Ġir s
Ġiran ian
Ġh iking
Ġn ate
Ġout right
Ġsp art
Ġbro cc
Ġmed itate
Ġcred ibility
Ġreview ing
Ġfel ix
Ġy ang
Ġst ero
Ġchat ting
Ġgang ster
Ġaccompan ied
Ġconn or
Ġnotic eable
r ot
Ġf ps
Ġk es
Ġqu in
Ġche ated
Ġsn ip
Ġfix es
Ġver ified
Ġseam less
Ġric ardo
Ġne ander
ri ages
Ġind ies
Ġsupp lier
Ġcoup ling
Ġbed rock
Ġfold ing
Ġcow boy
Ġkidna pped
c led
r h
Ġa we
Ġqu ark
Ġrem ake
Ġdep ict
Ġprompt ing
Ġprem i
Ġth ie
Ġis o
Ġcl ash
Ġweekend s
Ġvacc ine
8 8
Ġfr amed
Ġout lets
Ġdifferent iate
Ġcommand ers
Ġseason ed
Ġver ification
Ġinvestig ations
Ġdepart ments
Ġamb ush
Ġcru ising
Ġll ms
Ġeleph ants
Ġne v
Ġsell ers
Ġprivile ged
Ġbe acon
Ġst umbled
Ġam ish
Ġdep uty
bal ance
Ġdan a
Ġgang s
Ġtransl ates
Ġrul ers
Ġll ama
Ġdistingu ished
Ġcigaret te
in able
at us
Ġwel coming
Ġobs ess
Ġplanet ary
Ġsab ot
or th
Ġdown ward
Ġair borne
Ġdecl utter
osh i
Ġsandwich es
Ġreprod uce
ffff ff
Ġbisc uit
o ves
Ġh os
Ġf m
Ġqu int
Ġar d
Ġinter ch
Ġval ent
str uction
Ġmor ally
Ġbab ys
Ġener gies
Ġfut ur
Ġash es
Ġped est
Ġlob ster
Ġphill ips
d ling
Ġc isco
Ġsc i
ames e
Ġstrip es
Ġrib s
Ġbo iled
Ġem it
Ġflo ats
Ġnurs es
tod ay
Ġcan opy
Ġsh itty
Ġfuel ed
Ġlegis l
Ġin gress
Ġrece ip
Ġgreen house
Ġinequ ality
Ġn bc
ur able
Ġint ens
Ġdis like
Ġpa ired
ah u
Ġcam bridge
Ġradio active
Ġmart ine
Ġpurch asing
Ġspo oky
Ġpor ch
Ġapost le
Ġgo g
ose xual
Ġche ek
Ġopen ings
Ġref uel
Ġbusiness man
Ġorgan izational
Ġconst ell
Ġrapt or
le ading
Ġpar ade
Ġsoc iet
Ġbi ased
Ġmulti verse
Ġgreed y
Ġab ort
Ġout f
el ed
Ġev ans
Ġstuff ed
Ġpick ax
Ġcollect ors
Ġver dict
Ġparticip ating
Ġemb od
Ġillust ration
Ġholoc aust
Ġcharlott e
Ġrec apt
Ġpur se
Ġlog ically
Ġmass ac
Ġreward ed
Ġnin j
Ġaward ed
Ġme ow
Ġdon uts
if ically
Ġcar ve
Ġprev ail
etr ical
Ġkent ucky
Ġpard on
Ġkilow att
Ġd d
Ġse ab
ab il
Ġreal ities
Ġdef er
Ġkey boards
Ġlu igi
Ġproph etic
Ġmurd erer
Ġuran ium
ol ate
Ġmar ijuana
Ġmass age
Ġtermin als
Ġalloc ated
Ġdispos al
o bi
at ra
Ġd w
sh arp
Ġemp t
Ġdoub les
Ġrecon struct
Ġl ingu
Ġcl utter
Ġcentral ized
Ġbrows ers
Ġuns afe
Ġtens or
r hett
Ġcom ics
Ġle ase
Ġgot ti
Ġsoft ly
Ġautom otive
Ġunique ly
Ġdiet ary
Ġcurv ature
Ġwor ms
cri ption
Ġsynth esis
Ġsid ious
Ġfright ening
Ġsponge bob
Ġgodd ess
Ġs ak
Ġoff end
Ġsec uring
Ġspr ite
Ġdro ids
Ġanaly zed
Ġsav age
Ġcurt is
Ġacoust ic
Ġinv o
Ġwin ston
Ġspecial ty
Ġsun k
Ġadapt ive
Ġric o
n ote
Ġm g
Ġse iz
Ġar ithm
Ġfe as
Ġun ve
Ġres h
Ġpoint less
Ġwild ly
Ġund oub
Ġpsych ologist
Ġscan ner
Ġdiagram s
Ġsacrific ed
Ġl umber
Ġst aging
est ed
Ġ7 50
d led
g eable
Ġde ment
Ġinv aded
Ġlif el
Ġmultip lying
Ġtestim on
Ġmorm on
Ġl umin
Ġr ode
Ġant ich
Ġspread s
Ġatm ospheric
Ġvamp ire
Ġin appropri
Ġper ipher
Ġconcept ion
Ġsup ersonic
Ġsubsequ ently
ay a
Ġpre l
Ġext inction
Ġcurrent s
Ġident ities
Ġhair s
Ġdisp ute
Ġi ke
Ġright y
Ġam ber
Ġinter st
Ġscript ing
Ġsem antic
Ġhonor able
Ġinnov ations
Ġhack ed
Ġviet n
Ġpier ce
Ġa ur
Ġso ck
Ġch lor
ick y
Ġbr ac
Ġeng ra
Ġtrans mit
Ġden ial
Ġdoub ling
Ġplant ing
Ġ198 4
Ġconfident ial
Ġrefriger ant
Ġout look
Ġfell as
Ġneck lace
a ired
b ury
Ġh ast
Ġg ill
ct ica
Ġph osph
Ġz oe
Ġsun screen
Ġappropri ately
Ġprosec utor
Ġleon ard
Ġbern ie
Ġn iger
Ġref uses
Ġt us
Ġup t
Ġman a
Ġsc aff
Ġmod ifications
Ġind ie
Ġsuper man
Ġcost ly
Ġspecific ation
Ġdistrib utions
Ġdu o
Ġcub es
Ġpoll ution
Ġundoub ted
Ġc atherine
Ġp v
ut er
Ġat ion
Ġgr ape
uct ions
Ġcap it
Ġed ited
Ġhi jack
Ġsett ling
Ġlyn n
Ġe q
Ġr ation
Ġst ellar
Ġun ac
Ġbet s
Ġprevent ed
Ġmut ations
Ġfrag ment
Ġwrit ings
n n
Ġl ows
ant is
onna issance
Ġcoll agen
Ġwo ody
Ġom n
Ġmemor ial
Ġunic orn
Ġlifes pan
Ġs eth
Ġcompet ent
Ġtitan ium
Ġrh et
v ascular
Ġw ack
Ġrec onnaissance
iter ate
ram s
Ġcub a
Ġtrib ute
Ġrin se
Ġsl ipping
Ġsupp lied
Ġcourt room
Ġtang ible
Ġamend ment
Ġcoll ar
Ġpil gr
Ġpen ins
Ġpitch ed
Ġstro kes
Ġslipp ery
l iness
Ġt art
Ġd ile
Ġfe ather
Ġclean up
Ġlim b
Ġ25 5
Ġlift s
Ġspan ning
Ġacceler ated
Ġautonom y
Ġmartine z
Ġs ushi
Ġbut cher
Ġgl ut
Ġdry er
Ġ196 9
mans hip
Ġbast ard
Ġpupp et
Ġjuda ism
Ġ ?
Ġmur phy
Ġmis ery
Ġtour ing
Ġattract ing
Ġstake holders
Ġjas mine
Ġcataly st
Ġvietn amese
el p
Ġche ering
mm a
Ġhair cut
Ġdetermin ing
Ġrevers ed
Ġruth less
Ġbrocc oli
Ġt b
Ġth igh
Ġb ou
Ġd ud
Ġpo o
Ġmod s
Ġcase y
Ġed wards
Ġdecor ated
2 8
Ġco ats
Ġblond e
Ġconcat en
Ġi cing
Ġli by
Ġde co
Ġsuper nov
Ġinfect ed
Ġnurs ing
Ġhud son
Ġinterpre ter
Ġantar ctica
Ġcont end
Ġdr ifting
Ġhard en
ipp i
Ġhost ages
Ġchang er
Ġphot on
b ol
e le
ub s
Ġobject ively
ats on
Ġoffer ings
Ġsignal ing
Ġsymp athy
Ġven ue
Ġsingular ity
Ġpenet rate
Ġdissol ve
Ġstere otyp
Ġub untu
Ġbalcon y
Ġneander th
c ity
Ġgo ss
st ood
Ġcomp ost
Ġfil tered
Ġrespect ful
Ġoptim ism
af ter
Ġeru ption
Ġvoy age
Ġswall ow
Ġdeem ed
Ġprover bs
k ill
Ġst are
Ġwater proof
ank a
Ġ7 1
Ġgall ons
Ġdolph ins
Ġnostalg ia
Ġo y
Ġcell ular
Ġps i
Ġscal ed
Ġdial og
Ġhaw k
Ġcoal ition
Ġy all
is ers
al one
Ġcar son
Ġapplic able
Ġrum or
Ġneighb oring
Ġcp us
Ġstap le
Ġcem et
Ġ ern
at i
Ġh ott
Ġk al
lic t
Ġext inct
Ġrespect ive
Ġice berg
Ġwed ge
Ġencourage ment
Ġpall et
Ġfluct u
Ġe cc
Ġde cks
ens en
Ġrep ro
Ġport ions
Ġpist ons
Ġsufficient ly
5 5
f u
Ġc ot
br and
Ġtough er
Ġiron ic
Ġignor ant
Ġarithm etic
Ġ =
Ġr oses
Ġret ention
Ġve to
Ġge ography
Ġrich es
umb ing
Ġfold ed
Ġbat ting
Ġhabit at
Ġlouis iana
Ġc is
Ġis h
ec d
Ġho ckey
Ġsuccess or
Ġbow ls
Ġplug s
Ġstun ned
Ġcompens ate
Ġundoubted ly
Ġ 00
Ġfirst hand
Ġbar rels
Ġrespect s
Ġinvestig ated
Ġann ie
Ġstack ing
Ġoptim izing
Ġincon ven
Ġcemet ery
ut ical
Ġpr ag
Ġconf erences
pl us
Ġsuc c
Ġrecord ings
Ġlu a
Ġcabin ets
bl owing
Ġinquir y
Ġfacult y
Ġs ire
Ġdown hill
Ġfl ank
Ġnext js
Ġwel com
Ġcomment ed
Ġpsych o
Ġsustain ability
Ġambass ador
w ick
re c
Ġc ind
Ġsu cker
Ġtw eets
Ġbel ts
Ġimport s
Ġk az
Ġkn ot
Ġapp e
Ġsound track
Ġsubscri ptions
Ġburn er
Ġpsych opath
Ġscal able
Ġrobot ics
Ġhorizont ally
Ġpanc ake
Ġrejo ice
Ġmembr ane
Ġprovin ce
Ġwatermel on
Ġv ip
ist a
Ġpret t
Ġket ogenic
Ġcolomb ia
Ġrans om
Ġbicy cle
Ġc j
Ġsp urs
Ġ10 9
Ġsoc i
Ġartic ulate
Ġb il
as ive
Ġdisc ont
Ġtour s
Ġarchitect s
Ġincomp lete
le e
Ġj ug
un ing
Ġtre vor
Ġvib rations
Ġast ro
Ġstir ring
Ġamate ur
Ġunra vel
ig ma
ol ics
Ġimpress ions
Ġrust y
Ġted ious
Ġsettle ments
Ġscrut iny
Ġaut umn
Ġtre y
Ġ198 8
Ġchampionship s
Ġdock ing
Ġcardio vascular
Ġbl unt
Ġstat ues
Ġuns ure
Ġwhis p
Ġscar ce
h ell
l ay
z an
Ġcar rie
Ġrele v
Ġdecl ined
Ġacknowled ged
Ġsupervis or
Ġy en
Ġl ant
os a
Ġdr astically
Ġsupp liers
Ġmil estone
Ġge ograph
Ġtough est
Ġba iley
Ġarchae ology
Ġis is
Ġfor ge
Ġun set
Ġav oc
Ġdest ined
Ġsold er
Ġ194 8
Ġaver aging
Ġmiss ou
Ġcamp bell
Ġdeliver ies
Ġmort ality
Ġarrog ant
Ġsc atter
ach us
Ġfin s
Ġsw ings
Ġge opol
Ġber ries
Ġjum per
Ġobed ience
Ġscaff old
d ef
Ġin line
ere nt
Ġhang s
Ġintrod uces
Ġtab lets
Ġsymp athetic
Ġconduct or
Ġcompassion ate
Ġjust ification
Ġsp le
up beat
Ġdisc s
cl ick
Ġoppos ing
Ġnarr atives
rect ed
Ġdoom ed
Ġintrins ic
Ġa o
Ġr att
op ping
ab is
ist ine
Ġpun ct
Ġmyth ology
Ġconver ts
Ġswed ish
Ġpitt s
Ġpenins ula
e ys
p eter
Ġt ib
Ġd f
Ġfil ing
Ġabs ent
Ġcam ou
Ġden omin
Ġastero ids
ft y
Ġrel ied
Ġmiss iss
Ġfear ful
Ġgam b
Ġtelesc opes
Ġoscill ator
Ġresident ial
Ġinsec ure
Ġk etch
Ġtr ipping
ert o
Ġdist ortion
Ġindic ators
Ġrein vent
Ġutil ized
Ġ3 000
Ġdev iation
Ġconst ants
Ġpred omin
Ġvict ories
Ġvill ains
Ġpunch ing
Ġenthusi asts
Ġbapt ism
Ġdisadvant age
Ġnix on
Ġdement ia
l an
Ġh ank
Ġg iz
reat ed
Ġgam ers
Ġdomin ic
Ġamb ient
Ġpunch es
Ġiter ations
Ġbrazil ian
Ġcamou fl
Ġhe nd
if iable
el a
Ġpl ots
Ġapp ar
Ġcar ving
Ġdec isive
Ġsuccess es
Ġpow d
Ġspl its
Ġlin ea
Ġbelong ing
Ġtrend ing
Ġnev ada
! &
Ġn aught
ain ted
Ġsu ed
Ġser mon
Ġhand shake
Ġpat ron
Ġpunch ed
i ary
Ġres erves
Ġbro s
Ġconsec utive
Ġro c
Ġfire works
Ġeconom ies
Ġmillenn ium
Ġturk ish
Ġfah ren
i qu
l ong
Ġw w
Ġl ung
Ġval ves
Ġdep ot
Ġpat rons
Ġaud it
Ġinit iate
he it
greg ation
an th
Ġfe athers
Ġturn er
Ġdem os
Ġpot tery
Ġsimilar ity
Ġjud ah
Ġtravel ers
Ġtick ing
Ġmc g
Ġexam ination
Ġelimin ating
Ġbapt ist
Ġfount ain
at ivity
Ġstar bucks
Ġsecure ly
Ġh olog
Ġin h
Ġas c
Ġcustom ized
Ġtro y
Ġtreas ures
Ġwelcom ed
re al
Ġb b
Ġd ab
Ġf en
Ġcont ing
Ġbl aming
Ġrem ed
Ġunt ouch
Ġextra ordin
Ġdish w
Ġdisp ens
Ġhass le
Ġurg ency
ge nder
os ion
Ġstr ive
Ġop acity
ib al
Ġdraft ed
Ġproc rast
m ont
is a
ch i
Ġall ison
Ġde af
ace utical
Ġaggress ively
Ġmagaz ines
Ġlicens ed
Ġantich rist
en z
Ġafter life
Ġspec s
Ġquestion able
Ġpres idents
Ġadv ised
Ġtre k
Ġice land
Ġinqu is
b at
Ġd aring
Ġf ug
an ity
Ġgr acious
Ġcar pent
Ġsl ider
Ġinter mitt
sh a
Ġcor ona
Ġseason ing
Ġju an
Ġsacrific ing
Ġrug ged
Ġgren ade
2 7
y eah
Ġmo bs
Ġcru iser
Ġbelg ium
Ġp av
al yp
Ġj ade
Ġsuper power
Ġexpect s
Ġdom ino
Ġsand ing
Ġquot ed
v o
fore st
Ġsk ys
Ġbar on
Ġlam bor
Ġspell ing
Ġterror ism
dep th
es y
Ġair field
Ġpres erv
Ġcompan ions
Ġstud s
Ġsepar ates
Ġincent ives
Ġa ims
Ġf p
Ġcome back
Ġsk inc
Ġchar gers
Ġpat ty
Ġgent iles
Ġterror ists
Ġcann ons
Ġincrement al
Ġn our
qu er
Ġview point
Ġfahren heit
Ġt ensions
Ġw ander
Ġp uls
Ġk d
Ġfret board
vp n
Ġor land
Ġpre val
Ġple asing
Ġport land
Ġward en
Ġmos qu
Ġpione er
Ġfacil itate
Ġhumid ity
e an
Ġbl under
Ġmag ically
Ġcollect ively
Ġmaint ains
ino is
Ġbang ing
Ġdistract ions
Ġpepp ers
Ġstere o
Ġchees ec
inte gr
Ġsociet al
Ġlambor gh
op ing
Ġco herent
Ġwork force
Ġapp la
Ġplan ner
Ġproject ed
Ġcho ke
Ġfu zzy
Ġra is
Ġinitial ized
Ġip v
Ġdemonstr ating
Ġdrill ed
Ġweld ing
Ġp ag
ic ia
Ġr opes
Ġan ecd
Ġbus es
Ġgl ide
Ġprot ons
Ġant iox
Ġexce eding
Ġrelax ation
Ġmyst ical
Ġspell ed
Ġintim acy
Ġvary ing
Ġprol ong
Ġarp eg
Ġp g
Ġqu o
Ġstr um
Ġshowc asing
Ġbrac el
m ith
Ġre pt
Ġre run
Ġpres erving
ugg ets
Ġstation ary
Ġreinforce ment
Ġbrow se
Ġconcur rent
Ġwebin ar
Ġne ov
Ġsp un
Ġap ache
Ġdeter ior
Ġamb itions
Ġconduct ing
Ġoccup y
Ġantiox id
Ġl c
Ġp int
Ġwe eds
am iliar
Ġve il
Ġaccess ed
Ġattack ers
Ġwish ing
Ġnavig ator
Ġtrail s
Ġstab bed
Ġcarbo hydrate
Ġprost it
Ġoutrage ous
Ġt as
et ts
Ġcert ifications
l en
Ġt j
Ġcan cers
Ġdecl aring
Ġdiscip lined
Ġdict ator
Ġpharm aceutical
Ġinconsist ent
Ġadequ ate
Ġseb ast
Ġketch up
Ġs ib
Ġp arch
Ġk an
ill ions
Ġbr ist
Ġgr apes
Ġvar ieties
Ġtran qu
Ġmississ ippi
r ators
Ġl ush
Ġch is
Ġlay s
Ġinstrument al
Ġm mm
Ġr iff
ul u
ens ible
Ġsuper st
Ġparent ing
Ġstim ulate
Ġoccas ional
Ġl ugg
Ġsh ab
Ġpsych ic
Ġmisunder standing
Ġadvis or
p c
th ird
Ġhand ing
Ġdel ve
Ġbreat ht
Ġlun a
uls ive
Ġdv d
il ian
Ġday time
Ġmiddle ware
Ġ196 8
Ġexplos ions
Ġbump s
Ġnash ville
re ll
Ġbe ij
Ġst am
Ġtemp ting
Ġ198 7
Ġsight s
Ġlegit imately
Ġintrig ued
Ġchand ler
Ġapoc alyp
Ġo uch
Ġac ute
Ġmin if
Ġspec ulate
Ġpass ages
Ġx y
Ġill inois
Ġ197 2
Ġexam ined
Ġexcl amation
Ġcath olics
Ġmerch ant
Ġairp ods
Ġextraordin arily
Ġc f
Ġn ancy
Ġwe lf
Ġor ion
Ġsl ay
Ġmill imeters
Ġste vie
Ġeffect iveness
Ġmer lin
Ġsup rem
Ġvolcano es
Ġemo ji
Ġunpl ug
4 9
at is
Ġp ity
Ġwar ner
Ġsec re
Ġworth while
Ġprofess ors
Ġpink y
Ġdevast ated
Ġlut her
Ġasy mm
m od
Ġc aching
Ġsc ra
Ġdown stream
Ġcolon ies
Ġassass in
Ġmarvel ous
Ġk um
Ġsp iders
Ġpr isons
Ġdestro ys
Ġsmart est
Ġbob a
Ġdecor ate
sell ing
Ġskelet ons
Ġwend y
Ġbreatht aking
h ou
m ia
uct or
Ġequ il
Ġmad am
Ġgrav es
Ġdiscour se
Ġinexp ensive
Ġlonel iness
l ab
p ay
ig o
ear ing
Ġdeploy ments
Ġsynchron ous
Ġblaz e
Ġrelie ved
l ass
Ġp b
Ġp om
Ġcon ve
Ġover look
Ġbl oss
Ġmult itude
Ġsqu at
Ġstat istically
Ġgraph ql
Ġdu el
Ġconfront ation
Ġsu ms
Ġfe nder
Ġsin ister
Ġmass achus
Ġht t
Ġali as
Ġexcell ence
Ġcow ard
Ġnumer ical
Ġregret s
Ġnu ance
Ġhind sight
Ġpremi ere
Ġr ive
Ġtw ink
Ġtour ism
Ġspiritual ity
Ġquad rant
Ġcer amic
Ġp ens
Ġre el
Ġch imp
Ġar oma
Ġmu ll
Ġmod al
Ġvis itor
Ġmid way
Ġ18 5
Ġ18 8
Ġhom ie
Ġgro cer
Ġhes it
Ġspat ula
Ġseaf ood
Ġskys cr
Ġwelf are
Ġm ates
Ġunf amiliar
Ġpin point
Ġjournal ism
Ġtremend ously
Ġcraw ling
keep ing
Ġlugg age
en na
ress ive
Ġhand held
Ġmon arch
sh irts
Ġtur tles
Ġcla ire
Ġlos ers
Ġmob il
Ġcock tail
Ġt ant
Ġgr it
Ġsan ity
Ġtrib al
Ġrecover ing
h ai
s ided
Ġt iff
Ġv atic
app er
Ġlaunch er
Ġtransform ative
Ġtight er
Ġrub bish
Ġpowers hell
Ġhes itate
Ġendpoint s
Ġsh ove
Ġv ain
Ġdon ut
and s
Ġco bb
Ġass ists
Ġ18 9
Ġmax well
Ġ25 6
Ġeth i
Ġmathem atically
Ġhind u
Ġextr ater
Ġunderco ver
Ġorland o
w au
Ġcoup les
Ġmaster ing
Ġwig gle
bu ild
Ġmun ich
Ġalf red
Ġ ets
Ġto bac
Ġl ure
Ġref und
Ġmem o
Ġder ive
Ġneighborhood s
Ġr ains
Ġst ale
Ġexpl oding
Ġshort est
Ġinvestig ator
Ġexerc ising
Ġell en
Ġgreet ed
Ġtat um
Ġcaval ry
Ġupperc ase
Ġskinc are
Ġun stop
Ġfl int
Ġplay able
Ġah s
Ġprop riet
Ġdetect ing
Ġhier arch
Ġminif ig
Ġt ug
Ġc b
ac er
Ġsuper f
Ġmor oc
Ġcost co
Ġupgr ading
Ġcompreh end
et ta
Ġso fa
Ġme ad
Ġab y
Ġle is
Ġbl ush
ph em
Ġstem s
Ġorb iting
Ġoutdo ors
Ġdiscour aged
Ġaffirm ations
Ġcylind ers
Ġbeij ing
c os
Ġr anger
Ġimp ly
Ġfun k
Ġspec ially
Ġever lasting
Ġstep h
Ġstar ters
Ġvol atile
Ġbeginning s
ram atic
Ġneurosc ience
Ġmassachus etts
Ġab n
Ġsk ib
Ġfig ma
Ġaccess ibility
Ġpract ition
Ġ13 5
Ġdeliver ance
Ġalign ing
Ġvast ly
Ġcann abis
Ġtuck ed
Ġyol k
Ġrevis it
Ġse ize
av a
Ġmicro bes
Ġjud gments
Ġprem ises
Ġsubst ances
Ġvoc als
Ġbedroom s
Ġcrit ically
Ġsupernov a
et own
Ġtr uman
Ġheart beat
Ġsett lers
Ġreson ance
Ġjaw s
Ġhott est
c uff
Ġin ert
Ġexp end
Ġcur ric
Ġsol ves
Ġphot ographer
Ġaer osp
Ġdisord ers
roy ce
Ġeyebr ows
Ġunse en
Ġpitts burgh
Ġmosqu ito
wau kee
e er
ig a
qu ality
Ġsp ans
Ġrest rain
Ġbur gers
Ġpil es
Ġmac book
Ġvan ished
Ġprompt ed
Ġneut r
Ġrecon nect
Ġsemic ond
Ġmamm als
Ġdr ought
Ġlim bs
Ġbur r
Ġrev ival
Ġimmort al
Ġh s
Ġn uggets
ot on
Ġassoci ates
Ġdecent ral
Ġresc ued
Ġmonop oly
Ġre wind
Ġch i
Ġfr ying
cept ible
Ġhaw king
Ġcoord ination
Ġthie ves
Ġvatic an
v s
Ġse ating
Ġcomp r
Ġ198 2
Ġpitch ing
Ġmud dy
Ġasp ire
Ġwhisp ered
Ġtobac co
l ain
Ġwe ep
Ġab ol
Ġpl ural
Ġsa g
ass ic
Ġbl ower
Ġrem inis
Ġanticip ation
ed a
th ere
Ġcom r
Ġv enge
Ġrep s
Ġsl ug
Ġinv ade
Ġsw an
Ġmillion aire
Ġlack s
Ġbroad way
Ġtall est
Ġenh ances
Ġmetaph ys
Ġpenet ration
Ġkir k
Ġempower ing
Ġenerget ic
g ian
w i
Ġre think
Ġmil waukee
Ġsoc rates
ops y
Ġmatt ered
Ġlandsc apes
Ġrebuild ing
Ġcrit ique
Ġoffsh ore
r ical
Ġfr uct
Ġbook ing
Ġ12 00
Ġcustom ization
Ġspecif ying
Ġmat urity
Ġguard ing
Ġsport ing
Ġbear ings
Ġsuit case
Ġadop ting
Ġaug mented
Ġmong odb
Ġbure au
auth or
w ill
Ġde x
ich e
Ġins ur
Ġintern ation
Ġaust ria
head s
Ġrou ters
Ġmisunder stood
prof ile
Ġunstop pable
Ġm ul
Ġv iv
Ġsubscri ber
Ġcirc ulation
Ġclock s
Ġpc s
Ġdisappear ance
Ġpron oun
Ġiniti ated
Ġunl ucky
m all
s ize
Ġl ak
Ġn ft
Ġe isen
Ġu aps
un ciation
Ġcr ate
Ġvar ies
Ġmotiv ate
Ġadminist rative
Ġconsult ant
Ġrecy cling
Ġcondem ned
Ġdipl omatic
Ġrecurs ive
Ġlant ern
g io
Ġh art
Ġinc ap
Ġfresh man
Ġ197 9
Ġpurch ases
Ġinstruct ed
Ġsql ite
Ġsymm etric
Ġfright ened
Ġapprent ice
Ġinappropri ate
Ġinterst ellar
Ġhtt ps
Ġthe ological
Ġc un
Ġj ama
Ġear l
Ġel igible
Ġburn out
Ġrain y
Ġflu ent
Ġdwell ing
Ġcorrupt ed
Ġt ipping
Ġp am
Ġne c
ag s
Ġwait s
Ġtra vers
Ġsty lish
Ġgun ner
Ġcoff in
Ġloop ing
Ġcup c
Ġax le
Ġquot ing
Ġtoil ets
Ġdict ate
Ġsweep ing
Ġsebast ian
Ġthe aters
Ġm k
Ġbe z
Ġab u
Ġincl ined
Ġspecific s
ik a
Ġstrateg ically
Ġshr oud
uff icient
Ġrenew ed
Ġgrocer ies
Ġs ans
Ġsh ang
Ġmor ale
Ġra ids
Ġrain forest
Ġboom er
Ġalert s
Ġsurre al
Ġroast ing
Ġod ys
Ġoutd ated
b ows
k it
Ġz o
Ġbum per
Ġprospect s
Ġtreas ury
laug hs
Ġto by
Ġup br
Ġfl ips
Ġcam b
Ġsoft en
Ġrig orous
Ġrang ers
Ġref act
Ġgl aze
Ġbott lene
Ġhom etown
Ġox ide
Ġmanip ulating
found er
Ġt apped
Ġsh ines
Ġab ide
Ġv iny
Ġgr iev
Ġread ily
Ġmed io
Ġmaj esty
Ġtask ed
Ġdan i
Ġinj ust
Ġarab s
pro fit
Ġcord s
Ġdepos its
Ġcurt ains
Ġmirac ulous
Ġecl ipse
Ġst roll
Ġmo lly
Ġcl amps
Ġover coming
Ġtest ified
Ġpsych ologically
Ġcontract or
Ġedit ors
Ġlean ed
Ġgym n
Ġchef s
Ġobser vers
Ġapocalyp se
Ġn ano
Ġar n
Ġar ises
Ġcall back
pl ant
Ġhop ping
Ġchick s
Ġanti qu
Ġvoy ager
Ġtariff s
Ġc ou
Ġon wards
Ġen velop
gr oup
Ġdet ention
Ġx ml
Ġenc oding
Ġident ifier
Ġbatt al
Ġshut ting
Ġden mark
Ġprofession ally
Ġcontrad iction
quis ite
Ġdisplace ment
ect ed
Ġpe aches
Ġen compass
Ġhand cuff
Ġdep icted
Ġbro ck
Ġsqu ash
Ġwis cons
Ġastronom y
Ġlub ric
Ġs v
Ġag ility
ass ium
Ġsub mer
Ġbi om
asc ar
Ġcapital ist
Ġath ens
Ġner ds
Ġrud der
Ġpickax e
Ġsl og
Ġsub l
Ġrot ten
Ġpurs ued
Ġevalu ating
Ġstraw berries
Ġsilic one
Ġhorr ifying
Ġcrab s
Ġc ze
Ġv w
Ġey ew
Ġmid i
Ġdefault s
Ġluc id
Ġcru z
head ed
Ġspo iler
Ġconce ived
p ea
Ġc es
Ġhard ened
Ġbeh aving
Ġra iders
Ġpost gress
Ġcla ude
Ġq atar
Ġchee ks
Ġt int
Ġtr amp
Ġper u
Ġplay ful
Ġdes irable
Ġ40 1
Ġbow ler
Ġconfir ms
Ġscroll s
Ġconstitution al
is p
Ġover weight
Ġfin n
Ġread ings
Ġsun rise
Ġir ving
aw k
Ġexplos ives
Ġpear ls
Ġgran ite
Ġencl osure
Ġthirst y
speak ing
Ġneov im
; .
Ġmod ification
ump s
Ġsuccess ion
Ġdrive way
Ġsnow y
Ġfer gus
Ġbuff et
Ġworkload s
Ġd ens
op ause
Ġcomm its
Ġrec alled
arch ing
Ġbill ing
Ġauthentic ated
Ġdescend ed
Ġresid ual
Ġfiref ox
Ġgian nis
Ġimpul se
p urpose
Ġg ast
Ġu c
Ġthere by
Ġv om
Ġprocess ors
Ġprom o
Ġ198 3
Ġvert ex
Ġmort ar
Ġll c
Ġmong ol
Ġk as
Ġk rist
Ġimp ose
Ġfire place
Ġiron y
Ġflag ship
Ġtrench es
Ġholl and
Ġwiscons in
Ġd t
Ġis ab
Ġbet ty
Ġres in
Ġprot agonist
net t
Ġfresh ly
Ġdust y
Ġket ones
Ġsignature s
Ġfruct ose
Ġa pert
Ġo ath
Ġp anda
ar us
ch ool
Ġsub str
Ġpa used
Ġmac ros
Ġguard ed
Ġveget arian
Ġcosm ology
Ġrecru iter
Ġreserv oir
Ġequil ib
c ia
h ist
Ġt ing
er ick
Ġback bone
fore ign
Ġstr ay
Ġsl ate
Ġdec ode
Ġcent imeters
Ġmer ged
Ġkingdom s
onom ic
Ġcosm ological
Ġastronom ical
Ġgab riel
Ġearthqu akes
Ġmitig ate
Ġtox ins
c re
re et
Ġli ability
Ġset backs
Ġinv ites
Ġrecogn izes
Ġobserv able
Ġchop ping
Ġp ont
et tes
Ġse wing
ol ved
Ġright ly
Ġgener ational
Ġstand alone
Ġdirect ories
Ġmeaning less
Ġsneak y
Ġextensive ly
Ġspac ious
Ġgoss ip
4 8
re f
Ġp ension
Ġnum py
Ġdep let
Ġreg ain
Ġcra ppy
work ers
lin ing
Ġattrib uted
Ġcott age
re x
Ġin box
Ġab rupt
Ġsu d
Ġimp lements
Ġunder grad
Ġcar riage
Ġdep ressing
Ġcommun ism
Ġscrew driver
Ġscar city
Ġspark s
Ġportray ed
Ġrepent ance
Ġmathematic ian
Ġtere sa
Ġahs oka
Ġb achel
Ġco ated
Ġimm utable
Ġbull ying
Ġbrad ley
Ġredund ant
Ġephes ians
Ġlifel ong
y o
Ġt ul
ro be
Ġneed les
Ġdis charge
we h
Ġatt ain
Ġcent r
Ġer g
Ġord in
Ġfrag rance
Ġcollaps ing
prod uct
Ġunset t
d ale
h ol
u per
Ġt ying
Ġposs essions
Ġappre h
Ġupload ing
Ġalp ine
Ġh anger
im ated
el in
co st
Ġunder go
Ġcr inge
Ġdirect ing
Ġol ivia
Ġscott ish
Ġrecept ors
Ġprestig e
Ġm ound
Ġin ward
Ġu x
Ġj ars
Ġma ver
Ġref actor
Ġperiod ic
Ġpet ty
Ġveget ation
Ġancest or
Ġlocom otive
Ġgrandchild ren
h ar
Ġst ash
Ġk on
Ġhom osexual
Ġguard ians
Ġexception ally
Ġreck less
Ġfict ional
Ġrol and
Ġfutur istic
at ized
Ġgo ats
Ġne pt
Ġover time
Ġmin ions
Ġep s
Ġscient ifically
Ġboot str
Ġimper ative
Ġovers ight
Ġstabil ize
Ġperp lex
Ġc yp
Ġin ability
Ġsh aken
Ġno zzle
Ġhas ht
Ġkind ly
Ġleft over
Ġvers atility
Ġarch ives
Ġslight est
Ġ197 8
Ġguarant ees
asse mb
b ench
w ire
Ġw s
Ġw akes
or get
Ġback drop
Ġwork book
Ġsc ars
Ġwom b
Ġpur ity
Ġfac ade
Ġlad en
Ġsubt it
Ġt t
Ġto re
Ġd as
Ġjo an
Ġrep orters
Ġpres et
eter a
Ġpriv ately
Ġconv oy
Ġsaf ari
Ġepide mic
Ġrelev ance
Ġc ipher
Ġmod ulation
Ġconf ined
Ġref using
Ġaut oc
Ġmain land
Ġpay check
Ġeconom ically
Ġunc ont
Ġfellow ship
Ġfingerprint s
Ġcush ion
Ġmissou ri
st all
th est
Ġde eds
pp ers
Ġbl amed
ud s
Ġconc ord
Ġdun can
Ġupbr inging
Ġs ne
Ġout break
Ġbl as
Ġres ize
Ġdis ast
Ġsk irt
Ġapart ments
Ġvir uses
Ġauthentic ate
Ġinfer ior
Ġforens ic
Ġdile mma
Ġcan e
Ġpro state
Ġover arching
Ġ196 5
Ġdisappear ing
opl an
Ġvig il
Ġsixt y
Ġlamborgh ini
Ġodys sey
Ġf ift
Ġst umble
Ġwind y
Ġca f
Ġconsider ably
Ġemerg ence
Ġsuck ing
Ġlapt ops
Ġnightm ares
Ġtouchdown s
Ġcn n
Ġdak ota
Ġviny l
d ramatic
in fl
if i
her tz
ret ion
Ġpain ts
Ġfill er
Ġtransform ations
Ġ17 5
Ġassign ing
Ġjealous y
Ġsna pped
Ġhugh es
Ġorph an
Ġpos itivity
ention al
Ġund en
Ġri ot
Ġprofound ly
Ġpars ley
Ġtup ac
Ġprestig ious
Ġrecess ion
Ġoun ces
6 5
at ics
Ġl ope
Ġab usive
Ġv ort
Ġco ils
Ġsat uration
Ġda isy
Ġdish on
Ġcod ed
Ġflash light
Ġlinea ge
c row
n ets
Ġs ank
Ġs ift
Ġwhat s
ol an
Ġbas k
Ġbar r
Ġ25 00
Ġtro ph
Ġtail ored
Ġinject ed
Ġinflamm atory
Ġdor ian
Ġbrav o
Ġo at
Ġmo o
Ġgl itter
Ġdar ren
Ġpreach ed
Ġadvers ity
Ġclaw s
Ġs ri
Ġm ack
Ġj os
el ity
and ez
Ġby te
Ġgod father
aph r
Ġhol iness
Ġplug ging
Ġber ry
Ġjul ie
Ġthy roid
g ins
Ġall ig
Ġover h
Ġcont amin
ix ir
Ġform ally
Ġsweet ie
Ġtow els
Ġmarch ing
c ard
Ġi ow
Ġm ace
Ġin verted
Ġk le
ent ry
Ġkn it
Ġag n
Ġtw il
Ġrest ed
Ġconc ise
Ġtext ing
Ġpain s
Ġcop ilot
Ġground ing
Ġmarsh mall
Ġcertific ates
Ġaccum ulate
Ġrecru iting
Ġrebound s
Ġparan oid
Ġal on
Ġsc ares
Ġfl ats
Ġequ ator
Ġworth less
Ġdraw ers
Ġwitness ing
Ġfetch ing
Ġwithdraw al
Ġrena issance
Ġsecre cy
i otic
ab i
Ġbuild up
Ġmot ions
Ġrecogn izable
Ġsens ing
Ġrecur ring
Ġb ert
Ġhe ats
Ġre per
Ġk athy
Ġfin es
Ġind uction
Ġcommand ing
Ġheavy weight
Ġ198 1
Ġcliff s
Ġprophec ies
Ġoffs pring
n ia
Ġdis gr
Ġside walk
Ġfut ures
Ġment ors
Ġbull ied
Ġdisaster s
Ġdecre asing
Ġarrange ments
Ġascend ing
Ġtechnic ians
Ġfore ground
Ġplat eau
Ġgar rett
Ġpra ised
Ġintermitt ent
g ical
Ġr io
Ġgod ly
Ġcu is
Ġtv s
Ġprev ention
Ġinstinct s
Ġgor illa
Ġjur is
Ġinterconnect ed
sh ots
Ġmar it
Ġreg ulated
Ġvar ied
Ġreflect ions
Ġslic ed
Ġscholar ship
Ġripp le
Ġconstell ation
ch rist
Ġv od
Ġkind er
Ġac ne
Ġcre ase
Ġ6 50
Ġnorm s
Ġbal tim
Ġprepare s
Ġbug gy
Ġbuck le
Ġathe ism
Ġvene z
Ġfergus on
a ug
ch at
ul ators
Ġsl aughter
Ġinv inc
Ġpain ter
Ġgrad ual
Ġscratch ing
Ġtooth p
Ġnutri ent
Ġaddict ive
Ġremn ants
Ġempir ical
Ġets y
Ġcurric ulum
3 1
u er
Ġl ance
Ġind ict
Ġlim estone
ask et
Ġfinanc ing
Ġmal ik
Ġprototyp es
Ġampl ify
Ġtatt oos
Ġanat omy
Ġn g
Ġde form
Ġex ert
Ġho ff
Ġweird ly
Ġmis leading
Ġdemonstr ates
Ġrival ry
Ġwarrant y
Ġdani els
Ġre ich
Ġkn obs
Ġag i
iz zy
Ġcor vet
Ġfam ine
Ġemp ires
Ġimplement ations
Ġalex a
Ġvib r
Ġextract ing
Ġinac cur
Ġa ura
Ġn v
it ers
Ġbo ast
Ġsl ing
Ġcharacter ized
Ġhom icide
Ġresign ed
Ġm oth
Ġlo osen
Ġmod ifying
Ġpower point
Ġdomin ating
Ġneut rons
Ġgeom etric
Ġmerch and
Ġmetall ic
Ġnatal ie
Ġdenomin ator
g od
h ouses
Ġlo af
Ġde hyd
ol ar
Ġun sc
Ġaud ible
Ġrob bie
Ġtail or
Ġast roph
Ġped als
Ġbathroom s
Ġso aked
Ġwas her
Ġch ore
Ġ2 30
Ġsol itary
Ġincl usion
ond a
Ġeth ere
Ġconcur rency
Ġbaltim ore
f an
Ġf art
ot ics
Ġsp ies
Ġfl ap
Ġmark down
Ġsitu ated
Ġattract s
Ġdesper ation
Ġgreet ing
Ġaunt ie
Ġcoloss al
Ġperf ume
pea re
Ġlope z
r ans
Ġg and
Ġwe ave
Ġr aced
Ġle ia
Ġgen ome
Ġtrans cript
Ġsleep y
Ġneg ativity
Ġconsider ations
Ġunp ro
Ġdrown ing
Ġstead ily
Ġshakes peare
Ġimmun ity
Ġnot ify
og ene
Ġho b
Ġcour ty
Ġform ations
Ġx i
Ġtend ed
Ġwra pper
Ġ193 9
Ġflaw ed
Ġs igh
in av
Ġh ides
Ġn oun
are th
Ġher od
Ġfl am
Ġap ologies
Ġshr ine
Ġsee ks
Ġimp at
Ġimp osed
Ġbro kers
Ġrest room
Ġmet rop
Ġpot assium
Ġpost g
Ġident ifies
Ġadvance ments
Ġss l
Ġconstit u
Ġg g
Ġg in
ar med
Ġso oth
Ġk ane
Ġnot ices
Ġno v
Ġind ef
bs p
ipp y
Ġmer ging
Ġexch anged
Ġdict ators
Ġdisreg ard
Ġa ux
Ġp ik
Ġdon ations
ign ed
Ġ18 7
Ġevalu ated
Ġcompos er
Ġbeast s
Ġpoll s
Ġunexpected ly
Ġstitch es
Ġvenez uel
3 9
Ġne x
ul ence
Ġgu c
Ġdown fall
Ġper ish
Ġho over
Ġsm ashing
Ġpower ing
Ġsch iz
Ġfre s
aw ning
Ġwal t
Ġjam al
Ġyah weh
Ġb aff
Ġsh re
Ġins anity
Ġep stein
Ġemploy ers
Ġmal col
Ġrub bing
Ġeld ers
Ġenthusi astic
Ġd ame
ent ions
ht ml
Ġte ens
Ġnum eric
Ġev s
Ġword press
Ġsin ners
Ġimag ing
Ġhol mes
Ġprim er
Ġappl iances
Ġsymp h
Ġmanip ulated
Ġincorpor ating
Ġportug ues
Ġhik aru
Ġcheesec ake
Ġh ating
Ġto rah
Ġsh ah
Ġsun gl
Ġpen is
Ġbackst ory
Ġapproxim ation
Ġm ating
Ġsh amp
Ġtr illions
Ġal ib
Ġrec laim
Ġsn are
Ġhyp ers
Ġmel od
Ġadvance ment
Ġmonet ary
Ġguin ea
Ġs anch
ll i
Ġhe in
ir th
Ġexp ired
Ġbas in
Ġem bi
Ġmor ris
Ġstrange ly
Ġlayout s
Ġharvest ing
Ġcontinent al
Ġperse ver
Ġn ihil
Ġe ks
Ġqu itting
em a
fe ld
Ġfriend ships
Ġhor rend
Ġsquare space
Ġconfident ly
Ġwhis pers
Ġdisagree ment
Ġinver ter
Ġth orn
et yp
Ġun cond
pt ic
Ġcr am
Ġcur b
Ġfavor able
Ġrub ble
Ġjoy ful
Ġrod rig
Ġevangel ical
Ġparch ment
Ġcze ch
Ġb ins
Ġre yn
op en
Ġrel ating
Ġbehav es
Ġpi un
Ġdisp ers
Ġliber ation
Ġportugues e
el ia
Ġam mon
Ġbl izz
Ġimp ed
ater n
Ġlight house
Ġass urance
pl aced
Ġevent ual
Ġra j
Ġge ological
Ġange la
Ġcleans ing
Ġaspir ations
4 4
n ered
Ġl amps
it ations
Ġel ixir
Ġaustral ians
Ġ197 3
Ġschem es
Ġblend ed
Ġpars er
Ġlever aging
Ġguc ci
Ġh inge
Ġm ats
et on
Ġmultip lier
Ġquot ation
Ġineff icient
Ġcri pp
Ġprel imin
a ways
h r
y an
Ġw atson
or ian
Ġco y
Ġsa x
Ġserver less
Ġgam bit
Ġvill ager
Ġtort ured
Ġscand inav
Ġplun ge
Ġdishw asher
g ood
as al
Ġpe nding
Ġshow ers
oc ation
Ġridic ulously
Ġspark ed
Ġneat ly
Ġdelight ful
us er
Ġmanag eable
Ġnegative ly
vi ol
Ġcler k
Ġdisast rous
Ġs ally
Ġcar p
Ġfore front
Ġfine ly
Ġorigin ated
Ġspecific ations
Ġlimit less
Ġtal ib
Ġassum es
Ġwheel chair
Ġboost ing
Ġaccum ulated
Ġaerodynam ic
Ġlod ge
g ly
Ġs ard
Ġb bc
Ġex ile
Ġby z
Ġac ron
Ġmon aster
Ġbad ass
Ġgrand son
Ġcy cling
Ġunlock ing
Ġsed iment
Ġdiscr imin
Ġmalcol m
Ġl ac
Ġsh ady
ge ons
Ġz ack
Ġmon ks
Ġfour s
Ġauthor itarian
Ġund e
Ġresist or
Ġprec ip
Ġax i
Ġmelt s
Ġrevers al
Ġamid st
Ġf uss
Ġp ies
Ġp ong
Ġn ak
se arch
Ġex ting
Ġsub mission
Ġref lex
Ġpath etic
Ġstat istic
Ġaerosp ace
Ġfor ged
Ġsh i
Ġgr anny
Ġam ster
Ġmu nd
Ġsystem atic
Ġcoll ide
oid s
Ġconstruct ing
Ġpound ing
Ġpersist ence
Ġleon ardo
ĠĠĠĠĠĠĠĠĠĠĠĠĠĠĠĠ ĠĠĠĠĠĠĠĠĠĠĠĠĠĠĠĠ
Ġpowd ered
Ġeyew itness
Ġw ang
Ġme nd
Ġpos ed
Ġz inc
sh ield
enc ers
Ġmem es
Ġmag ma
Ġpu erto
Ġdecor ations
ett i
Ġawa iting
Ġpropriet ary
or ia
om i
Ġcar c
Ġsk im
Ġste als
Ġ196 4
Ġcompar isons
Ġacadem ia
Ġbould er
m outh
Ġwa ving
Ġred ef
Ġeye ball
Ġled s
Ġeffort less
Ġcontact or
Ġlam ar
Ġathe ists
Ġinstitution al
Ġgad get
Ġnept une
g al
Ġp omp
as i
Ġpro active
Ġlet t
Ġel f
Ġsw ipe
Ġtrans gender
Ġrepe ats
Ġarchitect ures
Ġow l
Ġmast ered
Ġtransf ers
Ġequilib rium
v ia
ce ll
Ġdis integr
Ġunder rated
Ġnor we
Ġsocial ist
Ġjud y
Ġtun a
Ġlift off
Ġworship ing
Ġhes itation
Ġfeas ible
Ġz im
Ġtechn o
Ġdeg ener
Ġwid ow
Ġ197 4
bel ief
Ġimplic ation
Ġcine matic
Ġyah oo
Ġdolph in
Ġoun ce
Ġbootstr ap
Ġamster dam
a an
om er
Ġdo ve
Ġhelp less
Ġsin ner
Ġlog os
ox ide
reg ular
Ġcompare s
Ġdump ing
esc ape
Ġrack s
Ġferr iss
Ġrud y
Ġmol ten
Ġanom aly
Ġscoot er
Ġott oman
Ġembi id
Ġl anc
ad en
oc ur
Ġagree ing
Ġfold s
Ġhyd ration
wr itten
Ġcourage ous
Ġsungl asses
Ġf are
an ing
Ġk urt
Ġse ctors
co gn
Ġph illy
Ġpass ions
Ġbi ases
Ġmi key
Ġq a
Ġknock s
Ġfro gs
Ġsem ant
Ġark ham
Ġbarg ain
y d
Ġp ts
Ġlive ly
Ġhun ted
Ġpig ment
Ġharmon ic
Ġscreensh ots
Ġapert ure
Ġc ic
Ġdon ated
Ġsuper b
Ġtit ans
Ġtrou bling
Ġsetup s
Ġcontr l
Ġpoison ing
Ġpersu ade
Ġsple nd
Ġpostg res
5 1
Ġc ited
Ġn ile
Ġre r
lo oking
Ġcost ing
Ġlock down
Ġshoot ers
Ġmel issa
wr iter
Ġirr ational
Ġbankrupt cy
m ies
Ġa on
ic ation
Ġpl umbing
Ġlook out
Ġjour neys
Ġtun es
Ġdistur bed
Ġmeg abytes
Ġchim ney
Ġsh ing
Ġsim ulations
Ġspec im
Ġstar link
Ġswe ater
Ġreact ed
Ġshout ed
Ġgri zz
Ġcasc ade
Ġtwil ight
2 50
Ġh ue
Ġf da
Ġl t
Ġbre tt
Ġsw ir
Ġmen opause
Ġvol atility
Ġcred ible
Ġgig a
Ġplot ting
Ġacceler ator
ig nt
Ġle vi
Ġmar a
Ġple a
Ġcontin ents
Ġrisk ing
Ġcomment ing
Ġsus ceptible
ocr acy
Ġflour ish
Ġblind fold
Ġbother ing
Ġslic ing
Ġrefuge es
Ġmonument al
Ġphysi ology
Ġbak ery
Ġschiz oph
Ġh ips
Ġto ad
Ġro ar
Ġpa w
Ġdeb ating
Ġhyp not
Ġalign s
Ġ197 7
Ġexhaust ing
Ġcollaps es
m akers
et to
Ġle opard
Ġred stone
Ġve ins
Ġcruc ified
Ġatl antis
Ġhug ging
Ġcongr ats
Ġbush es
Ġreferen ced
Ġaller gic
Ġme ats
Ġmar ie
ott o
eng ine
Ġdisco vers
Ġut ilities
Ġexcl ude
Ġsoph ie
Ġloose ly
Ġmillenn ia
Ġjagu ar
ignt y
f ar
Ġhe ath
Ġsuper vised
ne um
Ġcomb in
char ged
Ġced ar
Ġreluct ant
Ġschizoph ren
Ġc ured
Ġpo et
Ġind iff
Ġsw apped
Ġball istic
Ġ11 5
Ġincident ally
Ġcrypt ocur
Ġdrum mer
Ġdevast ation
Ġincomp et
Ġpsychiat rist
Ġiow a
Ġg w
Ġun check
Ġfl ipper
Ġacc using
Ġchance ll
Ġaccident al
Ġ197 5
Ġspee ches
Ġrank ings
Ġswift ly
Ġstump s
Ġextrater restrial
Ġm ish
Ġm ism
Ġli ken
Ġson ar
Ġdisc rete
Ġjan ice
Ġinnoc ence
Ġconvenient ly
Ġsketch y
Ġspit fire
Ġsovere ignty
Ġunderw ear
h ard
l ifting
Ġo val
Ġd ale
Ġin vert
ch ief
Ġor anges
Ġno va
Ġtim ed
Ġro bo
Ġrun escape
Ġdist ill
Ġce os
Ġpin n
Ġindex es
Ġecho es
Ġnegoti ating
b ab
n ell
at in
Ġlong time
Ġap ex
ern o
Ġposition al
Ġseason al
asc al
Ġhyper t
Ġspell s
Ġdissol ved
Ġunderest imate
Ġparaly zed
Ġm ashed
Ġn aut
ed d
Ġco ve
ord er
Ġcr amp
Ġem an
Ġstraight en
Ġdefe ating
Ġhill ary
Ġram en
Ġcas inos
Ġempow ered
Ġl ash
ig e
Ġal icia
Ġpr ow
Ġform atted
Ġguess es
Ġcontract ors
Ġconfir ming
Ġmanif old
Ġtrigger ing
Ġobl iv
Ġforb id
Ġavoc ado
Ġout post
Ġimp lied
Ġpop ul
fl ies
Ġconserv atives
Ġunw anted
Ġarist otle
Ġperp end
Ġsib ling
Ġa pt
ill es
Ġfl aming
Ġdem ise
Ġpresent ations
Ġur ine
Ġmal ays
Ġspect acle
Ġfool s
Ġmos que
Ġmicroserv ice
Ġreserv ation
Ġidi ots
Ġrhet oric
Ġcun ning
or i
Ġcon verse
Ġsm iles
Ġaut istic
Ġlar a
Ġpast ors
str ong
Ġenc ode
Ġagree ments
Ġeur opa
osaur us
Ġrefact oring
Ġmarit ime
n uts
Ġf ading
ic ting
Ġdo able
Ġmo sa
Ġup front
Ġthink ers
Ġpr istine
Ġreg iment
Ġcoll eg
Ġsqu ish
ob ic
Ġrectang ular
Ġperpend icular
c ube
Ġw ished
Ġmin isters
Ġlevel ing
Ġreact s
Ġdocument aries
Ġfret s
Ġperm itted
Ġcorp se
Ġji u
Ġjw t
Ġtroubleshoot ing
Ġc us
Ġin bound
Ġre ind
Ġr m
Ġsp ur
Ġsp okes
ect ive
Ġbl aster
Ġfl ore
Ġpower bi
Ġreg isters
Ġ16 00
Ġver bal
Ġ197 6
Ġanalyt ical
Ġtum ors
Ġschedul ing
aware ness
aver ing
Ġg im
Ġex oplan
Ġcon or
ack ing
Ġfoot er
Ġinitial ization
Ġcontrib utes
Ġunfold ing
Ġbenchmark s
Ġprelimin ary
u itive
ke ley
Ġcl am
Ġins ign
Ġinter sect
Ġmar riages
Ġpublic ation
Ġcart ridge
Ġpenal ties
Ġtiss ues
Ġcondens er
Ġb ounced
Ġh ord
Ġat roc
gr ade
anc ers
Ġlater al
Ġhar p
Ġcapt ive
Ġvan essa
Ġvalid ated
Ġscream s
Ġs ult
Ġbut ch
Ġsu ic
Ġro oft
Ġheart breaking
Ġlog ger
Ġcomplet es
Ġtrail ing
Ġkiss ing
Ġnutr itional
Ġnomine es
i antly
Ġf ren
us al
Ġha ha
Ġsh alt
Ġas yl
Ġv ents
Ġsc rib
ish ment
Ġdec rypt
Ġinflu encer
Ġ27 0
Ġcul inary
Ġpersec ution
Ġtig ers
Ġwhats app
Ġtroph ies
Ġli l
Ġover th
Ġbl iss
Ġbur gl
Ġax es
Ġmotiv ations
Ġnic o
Ġparticip ation
Ġsup ers
Ġconvey or
Ġmicrosc ope
c oded
w oman
Ġre nders
Ġun imag
Ġcr umb
Ġgener osity
Ġfire power
Ġdri pping
Ġgroup ing
Ġmig rations
Ġped ro
Ġmcc ar
Ġunac cept
Ġfift een
m eal
Ġn un
ro cket
est eem
Ġgot h
Ġel k
Ġold s
uc er
pl an
Ġarch etyp
Ġodd ly
Ġwreck age
Ġses ame
Ġeisen h
Ġm ri
us c
Ġst ool
Ġj ensen
Ġbo ils
Ġhold ers
Ġmen us
Ġsmell ing
Ġvall eys
Ġrent ed
Ġward robe
Ġkidna pping
Ġblizz ard
Ġy uan
ent ric
el and
Ġbo asts
Ġbit ing
Ġaff ir
Ġtow ering
Ġtrem bling
Ġabsor bing
Ġoverl ay
etr ack
Ġinterven e
Ġstero ids
Ġdiscont in
Ġt bsp
Ġo sw
Ġd ir
Ġp p
Ġab dom
Ġcall er
Ġenc oder
Ġadm iration
Ġdiss ip
Ġunw avering
Ġfier y
Ġcommod ity
Ġmuff in
Ġp neum
Ġsa h
Ġac ry
Ġimp osing
Ġsw apping
Ġspecial ists
Ġconvers ions
Ġrequest ing
Ġ17 7
Ġdestroy ers
Ġattach ments
Ġexperiment ation
Ġru ining
Ġoccur rence
Ġmini ature
Ġtrib ulation
Ġpron unciation
Ġune ven
Ġastroph ys
Ġtalib an
Ġexting u
Ġsome place
Ġdr ained
Ġatt ic
Ġpick ups
Ġ7 47
Ġrece ivers
Ġprogress ed
Ġjoy ce
Ġbul bs
Ġell ie
Ġmoistur izer
Ġannoun cing
Ġu ri
ill as
Ġby product
Ġdet r
Ġdist ort
Ġmult im
Ġda unting
Ġgar cia
Ġber keley
Ġpengu ins
Ġtiff any
Ġl sp
Ġpo nder
Ġend orse
Ġma ui
Ġdecre ases
Ġbitter ness
Ġradi ator
Ġresemb les
Ġld l
Ġt ut
Ġpre jud
Ġgen etically
Ġste in
Ġsal ute
Ġcustom izable
ob ia
Ġcomplic ations
Ġpip ing
Ġsar c
Ġdun geons
Ġd ancer
Ġtr uss
Ġunder world
wh en
Ġir regular
Ġpredict ive
Ġju ices
Ġcas ually
Ġparticip ated
Ġcave at
Ġkilom eter
Ġcommission ed
Ġadmitted ly
Ġtransm itted
Ġscor p
Ġaby ss
Ġblas phem
Ġr aging
Ġk ang
Ġmean ings
Ġcr ay
Ġmom s
Ġbox er
Ġfair ness
Ġlack ed
Ġpig eon
Ġdress es
Ġaesth etics
x y
Ġj ang
Ġtr io
Ġv ms
um a
Ġgive away
Ġlong ing
Ġz ed
Ġpay pal
Ġjew els
Ġphr asal
Ġscratch es
Ġaccomplish ment
Ġecosystem s
e ly
ar ium
Ġco ca
Ġser um
Ġche et
Ġstuff ing
Ġdep ort
Ġstate ful
Ġdist orted
Ġstri ving
Ġsumm on
Ġcomfort ing
Ġcapital ize
Ġhero ic
Ġoverwhel m
Ġjay len
Ġrecru ited
Ġproport ions
Ġeisenh ower
g art
l av
w es
Ġg av
Ġkn icks
Ġcom ets
lo e
Ġsn itch
Ġbag gage
Ġparam ount
Ġhall s
Ġdisrespect ful
Ġslop py
4 2
Ġc act
Ġf ang
Ġe a
Ġpl ush
Ġpl uck
Ġbr ink
Ġun ions
Ġnorm andy
Ġsun s
Ġdoor way
Ġcorrect ed
Ġfant as
Ġmis information
Ġpitch es
Ġwrest le
Ġnood le
Ġmaid en
Ġshre k
Ġpersever ance
Ġatt itudes
Ġche v
ah o
Ġtur mo
Ġaud i
Ġimpact ing
Ġfrank ie
Ġ197 1
Ġairport s
Ġblast ed
Ġcompreh ension
Ġcollabor ative
Ġdevot ion
Ġentang lement
Ġhorrend ous
Ġcan ned
Ġfr ig
Ġweird est
Ġje h
Ġreflect ive
Ġrevel ations
win ning
Ġdent ist
Ġfunn iest
Ġt ents
Ġy ung
Ġgr ac
Ġdr astic
Ġdiv es
ili ation
Ġbrows ing
Ġmaneu vers
Ġimmers ive
Ġnaught y
Ġpreval ent
Ġo led
Ġo ste
Ġf ent
Ġwh irl
ck ing
Ġquest s
Ġele ven
Ġplat oon
Ġ0 1
Ġtour naments
Ġcompl ained
Ġrab bi
Ġenterpr ises
Ġreconc ile
Ġleis ure
d ers
am us
Ġany how
Ġqu ake
Ġen och
Ġcla us
Ġproceed s
Ġcontemp t
Ġexpon ent
Ġelastic search
Ġcn c
Ġknuck le
Ġcharism atic
Ġp ess
Ġit ch
Ġco b
Ġcl og
Ġtravel er
Ġlength y
Ġsher man
Ġrecy cled
Ġoutf its
Ġcuis ine
k u
Ġthe at
in ished
Ġsh uffle
Ġbl ad
Ġfin land
Ġfif a
Ġlicens ing
Ġbeet le
Ġn l
Ġst agn
Ġjo ist
Ġ20 30
Ġnight time
Ġgir affe
Ġshut s
Ġbud s
Ġessential s
Ġsha ving
Ġscar let
Ġturb ines
Ġpatri ots
Ġvin ce
Ġantib iotics
m n
an im
Ġbe ers
se in
Ġall uded
Ġuh uh
Ġclean se
Ġesc apes
Ġviol ated
Ġadm ired
Ġtent h
Ġsuperior ity
Ġblur ry
Ġsubstant ially
Ġconceal ed
Ġturmo il
o a
Ġtr aced
Ġout law
em ark
Ġel imination
Ġopt ed
Ġhuman oid
Ġlay ered
Ġgre y
Ġtro oper
Ġremark s
Ġpromot es
Ġnom inated
Ġfaithful ness
Ġdl c
Ġenzy mes
Ġacry lic
f ight
Ġi vy
Ġc ud
Ġj al
Ġrec ount
Ġmon ica
Ġcu ff
Ġcoll isions
Ġdeb ts
Ġdecor ating
Ġsquee zing
Ġprotest s
Ġaid en
Ġpean uts
Ġunle ashed
Ġalar ming
Ġj f
Ġsh ores
Ġafter ward
Ġop rah
Ġbreak ers
Ġve in
Ġcal vin
Ġsal aries
Ġattach ing
Ġfed eration
Ġcuc umber
Ġc bs
ur ai
Ġsh ir
Ġjo g
Ġins ider
Ġel usive
Ġbre nt
Ġill um
Ġrepresent ations
Ġkilogram s
Ġc etera
Ġprob es
Ġadv iser
Ġtra verse
Ġpost ers
Ġtrad emark
Ġinflu encing
Ġfi ance
Ġvent ilation
Ġconver ter
Ġintuitive ly
Ġcondens ed
Ġkin etic
Ġentang led
Ġy ale
Ġg cp
Ġin gr
Ġwh opping
iv an
Ġsur plus
Ġx l
Ġscreen ing
Ġrese mble
Ġcamp er
Ġje opard
Ġscal ability
Ġassist ed
Ġblank ets
Ġfred erick
Ġt ink
Ġwh oles
Ġfl ak
Ġho op
Ġlea gues
Ġes ther
Ġwind shield
Ġblast ing
Ġnu anced
Ġexpon entially
Ġtuck er
Ġunaccept able
l ance
Ġtr u
Ġar ter
Ġun related
Ġsin ful
Ġsn ail
Ġperform er
Ġsan ctions
Ġpad dle
Ġfro ze
Ġbrief ing
Ġren amed
Ġexam ining
Ġalcoh olic
Ġapprox imate
Ġilleg ally
Ġbrut ally
Ġdub bed
Ġglor ified
Ġcyn ical
Ġn ie
Ġmo g
Ġhuman itarian
Ġenjo ys
Ġdisc laim
Ġforg iving
Ġly d
Ġharm less
Ġbump ed
arn ation
Ġhaz el
Ġmicrosc opic
Ġunemploy ment
om orph
Ġad ore
Ġcre st
Ġmodel ed
ape ut
Ġpack aged
Ġassign ments
Ġhover ing
Ġprehe ated
Ġa kin
our ce
Ġdev on
Ġrespect ively
Ġfer mentation
Ġpill ows
Ġmonit ored
Ġhood ie
Ġsurf ing
Ġtweet ed
Ġskate board
Ġinjust ice
Ġc ries
Ġk atherine
Ġex emp
Ġv ander
Ġfo cal
Ġmon uments
Ġwal nut
Ġdisney land
Ġunex pl
Ġquad r
Ġaur ora
p aces
Ġd ill
ur i
Ġknow led
Ġlo l
Ġclass ify
Ġcla ud
Ġweak est
Ġtransfer ring
Ġsquee zed
dr ive
Ġelectro ly
l ived
Ġd ante
Ġgo b
Ġpre hist
ue z
Ġnum b
Ġunt r
ma id
Ġdedic ate
Ġrefere e
Ġreplic ation
Ġiraq i
Ġcav ity
b ri
d b
Ġb ard
Ġconsist ed
Ġbrown s
Ġinterpret ations
Ġtempor al
Ġl ashes
ok o
Ġwork bench
Ġlot us
Ġunder mine
Ġpot ions
Ġresist ing
Ġflaw less
Ġraven s
Ġpant ry
Ġpredomin antly
Ġi ps
Ġg uru
am y
ud er
lic ted
ub a
Ġem ulate
Ġsk id
br ain
Ġcop ing
ray s
Ġstri ker
Ġsad dam
Ġhom er
Ġeth ic
Ġchunk y
Ġtroll ing
Ġfav ors
Ġchees y
Ġkes ha
Ġinternation ally
Ġindef in
c ht
al ted
Ġgo lem
Ġkn eel
co al
Ġfin er
Ġfront al
Ġmag gie
Ġver ge
Ġ196 6
Ġlaws uits
Ġcub an
Ġphar ise
Ġu bi
Ġj ill
Ġprob able
Ġprotect or
Ġdel usion
Ġtransition ing
Ġrepos itories
Ġmant le
Ġmathematic ians
Ġcourty ard
al ysis
Ġdis ruption
Ġem body
Ġbar b
Ġhus sein
Ġgig abytes
Ġbid ding
Ġcoordin ated
Ġworksh eet
Ġreson ates
Ġimmense ly
Ġcrocod ile
Ġbattal ion
j un
m il
Ġac re
ars on
oc y
Ġmill ig
Ġdem ographic
Ġfing ert
Ġyork ers
Ġtransl ating
Ġmccar thy
c ies
m c
Ġw art
Ġins erting
Ġim min
sh are
Ġpick les
Ġpress es
Ġprem ature
Ġsav annah
Ġod or
mit ism
Ġunsett ling
Ġt ina
Ġl int
Ġr osen
Ġgr illed
Ġsupp orter
az ing
Ġarch er
ili ary
Ġspin ner
Ġbright est
Ġconstant in
Ġdecre ased
Ġoverl apping
Ġgalile o
Ġgriff in
Ġreyn olds
Ġb age
Ġb ism
Ġp oking
Ġg imm
Ġn olan
st atic
Ġrem ix
Ġcamer aman
Ġsympt om
Ġuf os
Ġhans en
Ġnorwe gian
wes tern
se mitism
Ġsp illed
Ġwhere by
Ġsy l
Ġenc oded
Ġcounter fe
Ġtoss ed
Ġgran ular
Ġporn ography
Ġd otted
Ġdis par
Ġob ese
Ġsl ips
Ġ5 50
Ġacc ust
Ġchar coal
Ġstar vation
Ġselect ive
Ġjack ets
Ġgar land
Ġrot ates
Ġcreep ing
Ġreconc iliation
Ġcarniv ore
Ġmerchand ise
Ġpts d
Ġdetr iment
d os
Ġa ly
Ġp ab
Ġme lee
Ġ3 20
Ġma ul
Ġlevel ed
Ġhor ribly
Ġjun ction
Ġformer ly
Ġdecor ative
Ġemb ry
Ġre app
Ġstep han
uck er
Ġprec urs
Ġconstant ine
Ġaltern ating
Ġdece ive
Ġrig ged
Ġemphas ized
Ġskept icism
Ġprede cessor
Ġvenge ance
Ġreind eer
Ġpess im
Ġto pp
Ġg ta
Ġde ity
Ġcat ac
Ġstandard ized
Ġsand box
Ġann ihil
Ġstrand ed
Ġvalent ine
def ense
Ġcorvet te
d in
Ġj ugg
Ġmo ose
Ġpl ains
ak s
Ġbreak up
Ġcho ir
Ġpar ole
Ġlog ar
Ġvo ila
Ġsaf est
Ġviol ate
Ġviol ently
ha ul
ov an
Ġblend s
Ġmock ing
Ġproc laim
dri ven
Ġencl osed
Ġbrig ade
Ġbask ets
Ġn ug
ic ut
Ġper il
Ġsy rian
Ġim balance
Ġmil ton
Ġchall enger
Ġtrick ed
Ġsam urai
Ġinsp ir
Ġmouth s
Ġenorm ously
Ġcounsel or
Ġc asing
Ġwill power
Ġbr im
Ġlist ens
Ġeight y
Ġger ald
Ġign ite
Ġconstruct ive
Ġamp hib
Ġjournal ing
resp ons
Ġpoison ous
Ġneglect ed
Ġs ings
Ġb eng
se x
Ġev a
Ġdet ached
Ġvis cer
Ġwhite board
Ġenjoy ment
Ġconstr ained
Ġsad dle
Ġsequ ential
Ġow ed
Ġket tle
Ġadap ting
Ġproceed ed
Ġrecept or
Ġcoeff icient
Ġcros sover
Ġbachel or
Ġ %
Ġk ash
Ġthink er
Ġpos es
Ġdef iciency
Ġhard y
Ġdri es
Ġearth ly
Ġ11 9
Ġblood stream
Ġscal p
Ġstim ulus
b ons
t uning
Ġo ily
Ġm ma
Ġto pped
Ġis ot
Ġst acy
Ġle vy
Ġland lord
Ġpull back
Ġdev s
Ġsil ently
Ġray mond
Ġappoint ments
Ġsail or
Ġburst s
Ġs is
un ed
Ġoh ms
Ġpo ore
Ġhead lights
Ġbond ing
Ġtwist ing
Ġsurre ndered
Ġgad gets
Ġswall owed
Ġi van
Ġen list
reat ing
Ġstand by
Ġliter ary
Ġer osion
Ġca u
Ġpan ama
Ġther apeut
Ġexch anges
Ġrab bits
Ġextrem es
Ġm uted
Ġfor ums
co on
Ġnum bered
Ġgame cube
Ġland o
Ġmaj estic
Ġtre acher
Ġpark our
Ġrev ive
Ġ21 0
Ġhesit ant
s ky
Ġdan ish
Ġfer ry
Ġlip stick
Ġhobb ies
Ġniger ia
r aged
Ġh unch
Ġf iser
ad os
Ġout perform
Ġmust ache
Ġjour n
Ġmath s
Ġrandom ized
Ġbillion aires
Ġluc rative
Ġdece ived
Ġsav ory
Ġprivile ges
Ġrapt ure
Ġbackst age
Ġdiscr imination
n ik
en stein
ed ed
im ps
ol itan
Ġv anc
Ġtw os
Ġher tz
Ġaccess ory
Ġdam as
Ġflo yd
Ġdin er
ocr atic
Ġrap ed
Ġgri ps
Ġflood s
Ġpoison ed
Ġjs x
Ġabn ormal
b ility
Ġt ls
Ġb ane
Ġp ci
Ġin land
Ġr atch
st ro
Ġal be
Ġup hill
Ġbar ber
Ġswe ets
Ġmix es
Ġindex ing
Ġ194 7
Ġmatt e
Ġvalu ation
Ġmut able
Ġsink s
Ġcamoufl age
Ġo asis
Ġto pping
Ġin ade
Ġex its
Ġad here
Ġdet ox
Ġland ings
cuss ion
Ġsnow fl
Ġpars ing
Ġunw illing
Ġwrink les
Ġont ario
Ġarn old
l ie
Ġs ier
Ġde w
Ġal chem
Ġgr as
Ġboth ers
Ġrest oring
ank ing
Ġprom in
Ġcompet itions
Ġboost ers
Ġdefensive ly
Ġbuzz ing
Ġaccommod ation
Ġshrink ing
Ġproport ional
Ġdecentral ized
w ith
Ġr ut
Ġsp aced
Ġum p
ort on
Ġgot ham
Ġun av
xt ures
Ġsim mer
ock s
Ġprot o
Ġcryst all
Ġexplo itation
Ġlett uce
f ires
p aced
it ous
Ġen roll
Ġdis ability
Ġopen er
Ġcal am
Ġmorning s
Ġneg l
Ġweight ed
Ġsir i
Ġinflu encers
Ġvisual izing
Ġprepar ations
Ġiter ator
Ġmask ing
Ġinn ate
Ġtransp ose
Ġspawn ed
Ġcontemp l
Ġsurve ys
Ġhambur ger
Ġsuperchar ger
Ġpressur ized
om ination
Ġk s
Ġco bal
Ġgu i
Ġproject ing
Ġadm itting
Ġsen ators
Ġju ven
Ġwise ly
Ġbullet proof
Ġweld ed
dri ving
Ġchrom os
Ġquark s
ot ed
Ġv ouch
ak u
Ġcr ist
Ġsl ed
Ġpri zes
Ġcontext s
Ġsacr ament
Ġkiss ed
Ġtack ling
Ġreun ion
Ġliz ard
t ec
Ġm aced
om ial
Ġst unt
Ġk ur
Ġwas t
Ġback lash
Ġcomp iling
Ġun ite
Ġel ites
Ġspec ulative
Ġhar ley
Ġserious ness
Ġcart s
Ġ196 2
Ġairb us
Ġhospit ality
Ġinade qu
ou ver
Ġd ime
Ġr x
if ix
Ġev ap
Ġwa o
Ġopp ression
Ġmot ives
Ġide ological
Ġgovern ed
Ġunf orget
Ġ14 5
Ġevol ves
Ġital ians
Ġliqu or
Ġspo iled
Ġrecru its
Ġvacc ines
Ġjourn als
Ġ vern
Ġa rose
Ġh one
Ġup stream
el o
Ġcomp il
Ġthrough put
Ġ3 30
Ġph y
Ġreal ism
Ġche vy
Ġsch rod
Ġsn aps
Ġcond uit
Ġsyn ag
Ġbuff ett
Ġsight ings
oph ag
Ġmerch ants
Ġdimin ish
Ġlur king
Ġrene e
Ġuncon v
Ġsymph ony
Ġt d
Ġth rawn
or o
Ġin aug
th ey
Ġpe ep
Ġstu art
Ġfull ness
Ġdem ean
Ġfig ur
Ġhar old
Ġrecommend ing
sp oken
Ġtes ter
Ġmary land
Ġrevers ing
Ġinsec urity
Ġw ade
Ġb out
Ġp ave
Ġp ups
ack s
ber ty
Ġend ured
Ġcre ations
Ġred s
Ġcommun ion
com put
Ġge o
Ġprogress ing
Ġbelong ings
Ġconcl udes
Ġcritic izing
Ġkel vin
Ġbottlene ck
Ġ :
ed e
Ġst ared
Ġcon ject
Ġdr aining
Ġacc use
Ġclass ics
Ġgrand e
Ġviol et
Ġsnow ball
Ġast ounding
Ġhurric anes
Ġfertil izer
infl amm
Ġa ero
Ġm op
se cond
Ġins ulated
Ġmult ic
Ġelect rod
Ġcapt ion
Ġpair ing
Ġdecor ator
Ġexport s
Ġchancell or
Ġaccust omed
Ġw ink
Ġlo os
Ġus bc
Ġthr illing
Ġhand made
Ġwater ing
Ġcost a
Ġcult urally
Ġ196 3
wr ite
Ġukrain ians
Ġarchae ologist
Ġslee ves
Ġhaun ting
Ġbracel et
Ġshamp oo
Ġconstantin ople
Ġunforget table
3 7
Ġd ared
Ġf d
Ġgr ants
Ġed ible
Ġcollect s
Ġpal mer
Ġprinc eton
Ġens l
Ġfasc ist
Ġpropell ant
Ġblaz ing
Ġdaw kins
Ġwip ing
Ġasyl um
Ġh il
Ġk l
ich i
ire ction
Ġsim ulated
Ġsl id
Ġdec on
Ġexpl or
Ġemp ath
Ġfre aked
Ġpop ulate
Ġsn atch
Ġbi ome
Ġpredict s
Ġanti que
Ġrum ble
Ġnu ke
Ġuniform s
Ġdy e
Ġfav ored
Ġvanc ouver
d iction
Ġout n
Ġsu ction
Ġpoly g
Ġner f
Ġadh esive
Ġrenew able
Ġroc ke
enz ie
Ġt dd
Ġdisc iple
Ġbenef ited
Ġknock out
Ġchem otherapy
Ġtri ads
Ġweapon ry
Ġcoast line
Ġiniti atives
Ġpartnership s
Ġrapt ors
r ings
Ġsh u
Ġde uter
Ġdec oup
Ġopp ose
Ġhon ors
Ġpc b
Ġmig uel
Ġbowl ers
Ġdrill s
Ġmarry ing
* *
Ġf ul
Ġst amps
Ġse ag
Ġat ari
Ġcomp elled
Ġher m
Ġper ks
Ġmed als
Ġpan ther
Ġbrother hood
Ġrot ated
Ġjul ius
Ġjur assic
Ġcolumb us
Ġmassac re
t xt
Ġth ai
al on
Ġper ceptions
Ġobs ol
Ġtrail ers
Ġacqu iring
Ġfert ile
Ġcorrel ated
Ġwack y
Ġstam ina
b lo
ent er
Ġsh atter
op ot
Ġex or
Ġreal ms
Ġcr ouch
Ġsy ll
Ġem ulator
Ġsch m
Ġmount s
Ġscen ery
Ġadm ission
Ġyell ed
Ġlu ft
Ġflash es
Ġannounce ments
Ġandre a
Ġsemant ics
Ġschrod inger
Ġh ano
Ġfe ud
Ġad olf
Ġrep aired
Ġcons p
Ġpres ume
Ġinform ative
Ġx en
Ġhar per
Ġbal ances
Ġsuff ers
Ġconfig uring
Ġmat r
Ġnut shell
Ġbrill iantly
laug hing
Ġst ains
ro ve
Ġsh ard
ol o
Ġwar med
Ġsing ers
Ġsocial ism
cast le
Ġfed s
Ġvan ity
Ġmel on
Ġder mat
Ġdece ased
Ġchill ed
Ġdistract ing
Ġvictor ian
Ġmuse ums
Ġeve lyn
Ġworksh ops
Ġmaneuver ing
Ġbor is
Ġbern ard
Ġgog gles
Ġfluctu ations
Ġtib et
Ġpinn acle
Ġdamas cus
c am
j an
Ġo ve
ke es
Ġj ub
Ġnot ions
Ġout lined
Ġwho op
int uitive
Ġimp erson
Ġprob ation
Ġled ge
Ġtransport ing
Ġiter ating
Ġmanifest ed
Ġanoint ing
Ġdescript ive
Ġsabot age
Ġmedio cre
i ens
Ġt ad
Ġs als
ll ey
ge e
cri be
Ġopp ressed
ann is
Ġsour cing
Ġbrain storm
Ġsil hou
Ġaccomplish ments
Ġglam orous
Ġdividend s
bol t
Ġimpat ient
4 6
Ġf als
Ġn ip
ch an
Ġthing y
Ġte ase
Ġpre re
Ġpal er
Ġmus c
umb ered
Ġtherm odynam
Ġfest iv
Ġtooth brush
Ġdefect s
Ġdeleg ate
Ġbever ly
i i
Ġt il
Ġt and
Ġl g
le v
st ones
Ġlike e
ea bly
Ġco bra
Ġsupp er
Ġsub nets
Ġcoup on
Ġconv entions
Ġver bs
Ġactiv ates
Ġmal function
Ġmarch ed
Ġven ice
Ġnu ances
Ġrup ees
Ġcolleg es
Ġubi qu
p ret
Ġme mph
ol ation
Ġbec ky
act iv
Ġsl apped
Ġsurv ives
Ġfle eing
Ġpix ar
Ġdial ed
Ġmont real
Ġm ick
ar in
Ġe z
Ġmid west
ator ies
Ġsty l
Ġsmart phones
Ġactiv ists
Ġpu berty
Ġshock s
Ġquiet er
Ġreplic as
Ġts un
Ġcancell ation
Ġchimp an
Ġsuperf icial
Ġunde fe
p i
Ġmod ifier
Ġexpl odes
Ġbar ack
Ġstra pped
Ġcapac itors
Ġts x
Ġyield s
Ġcass ie
Ġeu ph
Ġaster isk
Ġprag matic
Ġreminis cent
Ġb h
Ġh ush
um ing
Ġad oles
ens on
Ġair space
Ġwo ven
Ġincl usive
Ġpet ro
Ġunle ash
Ġlatt e
Ġliby a
Ġappar atus
Ġmoroc co
m aster
om ic
Ġher c
Ġcal f
Ġwall paper
Ġexcl usion
Ġembarrass ment
Ġoverwhelming ly
Ġaccomp any
Ġgan ache
Ġwy oming
Ġpilgr im
Ġh ive
Ġmin ist
Ġcor ros
Ġtrust worthy
Ġdom ination
Ġskill share
Ġdeb unk
Ġfoll ower
Ġintimid ated
Ġincorrect ly
Ġwhit ney
Ġweaken ed
Ġmemph is
8 5
if ter
Ġtw ists
Ġbo og
gr ow
Ġwar ships
Ġarm strong
Ġbon nie
Ġsi ber
Ġanth em
Ġfid elity
Ġpupp ies
Ġcoh esive
Ġb ce
Ġn ab
Ġen act
Ġhand lers
Ġbound ed
Ġcruc ifix
Ġlegit im
Ġintellect ually
Ġsmugg ling
Ġnostalg ic
Ġf aking
se m
st art
Ġcan aan
ok s
Ġplay through
Ġind uced
Ġmon a
Ġsw ung
Ġinform ant
Ġdoll y
Ġtom bs
Ġcover t
Ġpet rol
Ġattract ions
Ġbell a
Ġgard ening
Ġreinforce ments
Ġadul tery
Ġspont aneous
Ġt xt
Ġt sp
Ġp uck
Ġsa una
Ġbl at
Ġunder min
Ġinc ar
Ġgroup ed
Ġjud as
Ġdecl ining
Ġfi xture
Ġscratch ed
Ġanch ored
Ġhawai ian
Ġhav oc
Ġobsol ete
Ġi ot
Ġv ance
Ġcr umble
Ġpres ets
Ġcoff ees
Ġcat ap
Ġq ing
Ġpip er
Ġmart ian
thr itis
Ġattor neys
Ġborrow ing
Ġincent iv
Ġsubstit ution
Ġdiscl osure
Ġnurt ure
Ġimprison ed
Ġdeclutter ing
Ġb ong
Ġf anc
Ġsc ams
Ġ10 80
Ġgl ider
Ġnight cl
Ġap es
Ġfre ud
Ġfa a
Ġcook book
Ġexec utes
Ġdeb ated
Ġalternative ly
Ġexhib ition
Ġhd mi
Ġperpet ual
Ġinsign ific
Ġd n
Ġyou ve
Ġg ummy
ot ion
am ination
Ġsl ur
ote ch
Ġserv o
Ġtruth ful
Ġstream er
Ġsevent y
Ġstir red
Ġaven gers
Ġtrag ically
Ġtroop ers
it ates
Ġgo li
Ġbl uff
bo ats
Ġspecial ize
Ġep ist
Ġshare holders
Ġstress es
Ġdetermin istic
Ġhaw ks
Ġcogn ition
Ġrocke fe
Ġ ers
Ġ ..
Ġh ump
Ġwe aving
Ġse ren
Ġcom a
Ġcl ippers
Ġsk ipper
Ġhal ves
Ġnor ris
Ġlat itude
Ġtermin ate
Ġbat ht
Ġpig gy
Ġnic est
Ġsweat y
Ġrif les
Ġingen ious
Ġninj ago
author ized
al ing
est ab
Ġro aring
ug h
Ġcre ed
Ġsl it
Ġpay roll
Ġship w
Ġcard inal
Ġbom bed
Ġdent al
6 1
j itsu
z ers
Ġs iding
Ġl eah
Ġk ara
st en
ail ing
Ġcool s
Ġsal on
Ġactiv ist
do or
Ġassemb ling
ici encies
Ġcarpent er
Ġpreserv ation
Ġbez os
Ġoverth row
Ġn ause
am ents
Ġwhere in
Ġnew born
olog ic
Ġexpect ancy
ik i
Ġfer ment
Ġxia o
Ġf ett
Ġg ul
Ġst ained
uc cess
Ġrespect able
Ġsky rocket
Ġshad er
Ġacadem ics
Ġunre ason
Ġaver aged
Ġliv est
Ġhing es
Ġhasht ag
i ar
l est
Ġsl aught
Ġsin ned
Ġmark ings
Ġpast ing
Ġsqu eak
Ġunf inished
Ġchat bot
Ġcirc ulating
Ġmur m
Ġ17 00
aur us
Ġpsych e
Ġens ured
Ġlav ish
Ġgradu ation
Ġze us
Ġinfect ions
Ġpier re
Ġgeopol itical
Ġrodrig uez
Ġmism atch
Ġimmin ent
Ġs izing
en ers
Ġun used
Ġam use
Ġapp ra
Ġcar ne
Ġent rust
Ġem ac
Ġ10 4
Ġcool ant
Ġcommand ment
Ġones elf
ery l
Ġ195 9
Ġsneak ing
Ġboun ces
Ġvw ap
Ġaux iliary
g ot
t ight
Ġup hold
Ġconnect icut
Ġbar nes
Ġscr aper
cript ions
Ġron nie
Ġrh ino
c ola
m ax
ind a
Ġtim est
Ġpe p
Ġdr owned
Ġsl o
Ġblock b
Ġorgan izer
Ġdoll s
Ġrepl ies
Ġfear less
Ġjun o
Ġcondition er
ga e
Ġminim izing
ogen esis
Ġcad ence
Ġunreal istic
Ġpic nic
Ġsult an
Ġdisclaim er
Ġd agger
Ġf itt
Ġe erie
os phere
Ġpe ll
Ġfun gus
Ġneur ot
onom y
Ġpizz as
Ġsimpl istic
Ġhorm onal
Ġharass ment
Ġsubmer ged
% .
9 00
? "
ll ah
ar ians
all ing
ab outs
Ġwell ness
Ġdr ac
Ġpers ia
Ġbre th
Ġret al
Ġfollow up
Ġopt ics
Ġhar lem
Ġarg ues
Ġhop per
Ġassoci ations
Ġsubject ed
Ġcrack ers
Ġdomin ion
Ġbrill iance
Ġdash boards
Ġmanifest ing
Ġsab er
Ġearn est
Ġresid ency
Ġtranscend ent
bour ne
Ġike a
Ġinvinc ible
Ġgoli ath
Ġl ace
Ġst s
Ġpl aza
Ġinto xic
Ġad verse
Ġnew castle
Ġacc ents
Ġfer mented
Ġemphas izes
Ġextr as
Ġorchest ra
Ġyan kees
Ġcoral ine
t ra
Ġc ider
em en
Ġcar o
Ġsl opes
we ek
Ġce il
Ġrain fall
Ġhall mark
Ġkitch ens
Ġuns ur
Ġfool ed
Ġadvert ised
Ġell iot
Ġexplo ited
Ġgil bert
Ġdia lect
Ġso ckets
Ġdepend ence
Ġtrust s
Ġled ger
Ġpitch er
Ġsched ules
Ġspray ing
Ġlyn ch
Ġbe vel
Ġthere after
Ġdon ovan
Ġsa iled
Ġcar av
Ġfull er
Ġperform ers
Ġrent ing
Ġcomed ians
Ġemphas izing
Ġmisunder stand
Ġmant ra
Ġcompart ments
Ġknowled geable
7 1
r im
Ġs ach
Ġr ipe
ir us
Ġthere of
op ian
Ġde ll
Ġde ed
Ġv ant
Ġle vers
Ġcomp ly
Ġimp lying
Ġinter vent
Ġdest inations
Ġinstall er
Ġround ing
Ġmad ame
Ġspin ach
Ġgro oves
Ġreli ably
Ġparall els
Ġexagger ated
Ġsic ilian
Ġt resp
st ock
Ġcom fy
un ts
Ġover think
Ġbl and
Ġstr aps
Ġcr m
Ġcr umbs
Ġcloud y
Ġbrand ed
Ġcirc ling
Ġdocument ing
Ġcontext ual
Ġhom ies
Ġattend ance
Ġbroadcast ing
Ġsymm etrical
Ġchew y
Ġbureaucr acy
Ġmetic ulously
r in
Ġc g
Ġsu v
Ġcl iche
Ġun authorized
Ġid ols
Ġteam work
Ġdev ils
Ġhy gi
Ġyellow stone
Ġsem ester
Ġell ip
Ġadvers ary
Ġtorpedo es
Ġendea v
b ach
c aster
Ġst oked
Ġbr is
Ġyear ly
Ġmist ress
Ġzoom ing
bl own
Ġ195 8
Ġscram ble
Ġdilig ence
Ġmiscon ception
Ġrecapt ure
Ġincar cer
Ġintervent ions
Ġt p
Ġfor c
Ġde cept
ident ified
Ġrob bers
Ġunf org
Ġskill et
Ġmagic ian
Ġemb assy
Ġextr ap
Ġviscer al
Ġy oshi
Ġl inger
Ġman ny
Ġplan ks
Ġbody guard
Ġdi pping
Ġdisc reet
Ġtar a
Ġinteract s
Ġski ing
Ġcaptiv ating
Ġp imp
as ia
Ġj ol
Ġdo ses
Ġsp awning
Ġopen ness
ren cies
Ġquick est
Ġfil thy
Ġav a
Ġtext ed
Ġstar ve
Ġsteel ers
Ġspons orship
Ġrecy cle
Ġsier ra
Ġceil ings
Ġc ory
Ġco ar
Ġlist ings
Ġmill s
Ġmc d
Ġuns uccess
Ġrod ney
Ġsto ic
Ġpenn ies
Ġagn ostic
Ġvenezuel a
Ġb p
Ġl anka
Ġhe als
Ġch atter
Ġwho o
Ġen lar
ag a
ath om
Ġinv alu
Ġmon archy
Ġsur gical
Ġdep re
Ġste ward
erv ice
Ġinvent or
Ġcooper ative
Ġabsor ption
Ġpropell ers
Ġpatri arch
Ġindent ation
Ġbreth ren
b lock
Ġm x
Ġall an
Ġsn ag
Ġthreat ens
Ġactiv ating
Ġnational ism
Ġcart oons
Ġflav ored
Ġarrog ance
ur ous
il on
Ġrec omp
Ġpower house
Ġmon str
att i
Ġcomplex ities
Ġtrump et
Ġcondition ed
Ġtherap ies
Ġinterch ang
if ty
Ġwait er
Ġconf ine
Ġpost man
Ġrele g
Ġeconom ist
Ġfer oc
Ġexport ed
Ġrecre ation
Ġosw ald
Ġmatr ices
; ,
d ens
Ġhe fty
Ġan ible
Ġad rian
Ġhapp iest
Ġsing les
Ġchr omatic
Ġvo icing
Ġperiod ically
unk y
Ġkick er
Ġol ives
Ġlic enses
Ġsexual ity
Ġrhyth ms
Ġprescri bed
Ġl ena
Ġpr ic
Ġgen ie
Ġgen res
Ġ5 000
Ġsk et
Ġmem oir
pl ate
Ġer adic
Ġsens ational
Ġunivers ally
Ġvision ary
Ġscrew ing
Ġbranch ing
Ġdor othy
Ġscram bled
Ġrelie ve
Ġinvalu able
h ave
Ġh ms
qu al
our ing
Ġpr y
Ġchar ter
Ġmar vin
Ġstand out
Ġcommunic ated
Ġht m
Ġfell a
Ġconce ive
Ġreson ated
ih ad
Ġunconv entional
Ġcatap ult
Ġshipw re
Ġt m
Ġo min
Ġsa uces
Ġjo jo
Ġinst ability
Ġtop ology
Ġturn around
Ġhome own
com mun
Ġaction able
Ġphil anth
Ġpeace fully
Ġtotal itarian
Ġamp le
Ġrat ios
Ġcarol ine
Ġcommission er
Ġcultiv ating
Ġsna pping
Ġclo ak
Ġfootprint s
Ġprolong ed
Ġrockefe ller
Ġl fo
ac ci
Ġli mp
Ġdo oku
Ġab bre
ol er
Ġser oton
cond uct
Ġhigh quality
Ġstate less
Ġproduct ions
Ġshort en
Ġvari ability
Ġlock h
Ġcred ited
Ġhabit able
Ġfert ility
Ġflop py
Ġreceip t
Ġkinder gart
Ġp ouch
Ġe rect
Ġsp raw
os i
Ġcheck er
Ġpa j
res ent
Ġshare point
Ġextra v
Ġtor ment
Ġstation ed
Ġken ya
Ġsurround s
Ġpra ising
Ġnin ety
Ġprosper ous
Ġmitochond rial
Ġallig ator
Ġy un
Ġl p
Ġha h
Ġst ag
ect ion
Ġfe aring
Ġadd itions
Ġinv ari
Ġhard ship
Ġkey note
Ġhous ed
Ġnovel ty
Ġtheor ists
inflamm atory
r imin
Ġre ap
Ġco vet
Ġhead aches
Ġmen ace
Ġhoriz ons
Ġdump ster
Ġminimal ist
Ġsophistic ation
Ġcitizens hip
Ġbra very
Ġshang hai
7 7
o ys
w ife
Ġw it
Ġl itter
Ġan esth
est ones
lo ys
Ġem ission
ump y
Ġreact ors
Ġthread ed
ov ah
Ġrecon struction
Ġgreet ings
bro ok
Ġalbe it
Ġid aho
Ġsl abs
Ġreg gie
Ġsal ish
Ġmatch up
Ġprop osing
Ġtick s
Ġgro ve
Ġpleas ures
Ġtac os
Ġsnipp et
Ġjuris diction
Ġvod ka
h elp
at ron
ll o
am as
Ġv u
way ne
Ġcont ender
Ġcr ad
Ġtyp h
Ġem ir
Ġprogress ively
Ġbull ish
Ġlin en
Ġinvent ions
Ġ196 1
Ġampl ifier
Ġreprod uctive
Ġneanderth als
Ġtherapeut ic
Ġd ian
Ġp ascal
Ġdo cks
ear th
Ġrep ay
Ġinter tw
Ġed ison
Ġx u
Ġcore y
Ġsequ encer
Ġlabel ing
Ġmaxim izing
Ġnickn amed
Ġmamm oth
Ġcens orship
c ation
st icks
Ġbig gie
Ġmar ina
Ġap e
Ġrepl en
Ġpsych ologists
Ġconsist ing
ov a
Ġfault s
Ġancest ry
Ġaccum ulation
Ġannot ations
Ġcompli ant
Ġshak y
Ġbg p
Ġempt iness
Ġsemicond uctor
Ġjf k
f ig
t ical
Ġt aps
Ġv id
Ġv and
Ġsp her
Ġbr ushing
Ġimp art
Ġturn over
Ġret iring
Ġsix es
Ġeye balls
Ġrecip roc
Ġadvoc ating
Ġnurs ery
Ġstink y
Ġredund ancy
Ġeug ene
Ġatroc ities
Ġexemp l
Ġ xt
Ġg us
Ġne br
Ġtr ays
Ġsu ll
Ġfo st
ann ers
Ġport als
no x
Ġstream lined
Ġstrength ening
Ġban quet
Ġ28 0
Ġbubb ling
Ġjeh ovah
Ġfingert ips
Ġt iers
Ġk ow
Ġam elia
Ġtyp o
Ġel vis
Ġvo lley
Ġmel bourne
Ġgear box
Ġvolunt ary
z u
Ġwe ary
Ġli ll
Ġpl ow
Ġqu er
Ġche wing
Ġpan or
Ġhy ster
Ġsever ity
Ġhyp ed
Ġsnow man
Ġken obi
Ġfarm house
Ġphysi ological
Ġquir ky
Ġindict ment
Ġpharise es
Ġsket ches
t own
Ġh ound
en berg
Ġn ib
Ġha g
ick ers
Ġsc anned
Ġpo etic
oc cup
Ġproject ions
Ġameric as
Ġmot if
Ġide als
Ġrich ie
Ġgar ment
Ġpriorit izing
Ġunfold s
Ġvort ex
r ina
Ġis t
ag i
Ġoptim izations
Ġdynam ite
Ġjan et
Ġnom ination
Ġhelm ets
Ġfran co
Ġsuprem acy
Ġlockh eed
Ġd azz
al ia
Ġso aking
Ġtr if
Ġimp rint
Ġdis belief
Ġsystem ic
Ġ202 6
Ġeconom ists
Ġ22 5
Ġheav iest
Ġblog s
Ġmatthew s
Ġga ug
Ġunimag inable
Ġseroton in
Ġb ah
Ġwe as
Ġsp ik
ass ing
ult ure
Ġ4 80
Ġfree ing
li ance
Ġfront s
Ġproud ly
Ġconsequ ently
Ġretrie ved
Ġimmig rant
Ġskull s
Ġappet it
Ġeleg ance
Ġrichards on
Ġ nd
Ġt uring
Ġthe od
Ġb is
Ġr ift
Ġus her
Ġman g
cess ors
Ġla under
Ġ10 2
Ġtur f
Ġautom obile
Ġpropos als
Ġderiv atives
Ġwreck ed
Ġobed ient
Ġsincere ly
Ġerupt ed
Ġquin n
Ġs f
Ġh eter
Ġp oked
Ġp ng
Ġbe ads
Ġr ant
Ġr ory
Ġtr uffle
Ġpe ac
Ġco exist
Ġsa ith
Ġwork outs
Ġun equ
Ġunder dog
Ġhun ts
Ġsupply ing
Ġexcl uded
Ġnotebook s
Ġblaz er
Ġgest ures
Ġconceal er
Ġconfeder ate
opot am
Ġnebr aska
h ad
Ġf is
Ġg eared
Ġwh ipping
Ġsc aven
Ġdi or
Ġdi ar
Ġcapt ivity
Ġcoun ters
Ġboot y
Ġchest s
Ġphysic ians
Ġros a
Ġsphere s
Ġm ummy
om o
Ġwith er
Ġsh uff
Ġend lessly
Ġthank ing
Ġsuper p
Ġwin ters
Ġwonder fully
Ġrich ness
Ġnormal ized
anch e
Ġdepart ed
tr ans
Ġcorrespond ence
Ġjelly fish
Ġambig uous
Ġre iterate
Ġse rene
Ġcon gregation
Ġpart ying
sh ark
Ġsw orn
Ġrest s
Ġtool kit
Ġrad ial
Ġyork er
Ġshar per
d aughter
s ay
at ur
Ġr as
Ġfor ks
Ġgood will
we et
Ġded uction
Ġvul can
Ġexpans ive
Ġbreakthrough s
Ġresid ue
Ġspar se
Ġbry ant
Ġtransist or
Ġb ice
Ġto fu
Ġp ane
Ġbr aking
Ġste aming
Ġhon oring
Ġbrain w
Ġcab ins
Ġcalm ly
Ġbul ky
Ġcro oked
Ġancest ral
Ġpeel ing
pow ers
Ġexceed ed
Ġcharism a
h orn
Ġe iff
Ġis m
Ġno str
ort s
Ġhis pan
Ġchar itable
Ġret aining
Ġopt ic
Ġdead pool
Ġforward ing
Ġsafe guard
Ġcorner stone
Ġdefend s
Ġip od
Ġproph es
Ġspray ed
Ġdj ango
Ġsuspic ions
Ġmonaster y
t ops
Ġlo ft
Ġdon g
Ġem ble
cri bed
Ġsw ish
Ġblack mail
Ġfire ball
Ġfire arms
par all
Ġadm its
Ġsyn onymous
Ġstim ulating
Ġpsychiat ric
Ġrelic s
Ġmetic ulous
Ġenerg ized
Ġincap able
Ġpab lo
Ġstephan ie
Ġeiff el
n ew
Ġd wayne
ic an
Ġas ht
Ġsimp son
Ġconf essed
Ġmind ed
Ġpast ed
Ġsumm oned
Ġpoly ph
Ġwol ver
Ġsynchron ized
Ġtweak ing
Ġlor i
Ġantioxid ants
Ġcobal t
Ġin mate
Ġre ese
Ġr ah
ac ulate
Ġtr acy
ul k
Ġsol itude
Ġadapt able
Ġresur rected
Ġbacks lash
Ġdigest ive
Ġyol ks
Ġanne x
Ġtet ris
Ġmelod ic
b ian
v als
Ġm umb
Ġme yer
Ġsh ards
Ġall ev
Ġgu ate
Ġdis li
Ġcle ars
ph r
Ġpol o
Ġav al
Ġbrand y
Ġdiagn ostic
aly ptic
Ġrevol t
Ġmes opotam
Ġreinfor cing
Ġalar ms
Ġbod ily
Ġmund ane
Ġbatht ub
ing ham
Ġd us
Ġgo ver
Ġst int
Ġch edd
Ġqu id
Ġun think
Ġem itted
Ġdirect ive
Ġdam ages
Ġjack s
Ġmac ar
Ġexhaust ion
Ġcongress man
Ġdebug ger
Ġmeg al
Ġorb iter
Ġentrepreneur ship
Ġparas ite
vol ent
Ġcounterpart s
Ġinsignific ant
Ġas cent
Ġun not
Ġun box
Ġcar ly
Ġcr umbling
Ġel m
Ġz od
Ġla x
Ġrob bing
itor ial
Ġdry wall
Ġreb irth
Ġnaz areth
Ġcongress ional
Ġnaut ical
on acci
Ġdo x
our se
Ġad orn
Ġimp ost
Ġel i
Ġlea ps
Ġprop on
Ġ40 4
Ġstream line
Ġpet ers
Ġclim ax
Ġscal ar
Ġtang led
Ġinhab ited
Ġcraz ier
exist ent
Ġwaff le
Ġeps ilon
Ġratch et
Ġmonstr ous
Ġf ences
en es
Ġal gae
int erest
Ġfind er
Ġfact ion
Ġfact ual
Ġthird s
Ġpan icked
Ġbank er
Ġroot ing
Ġ26 0
Ġtraum atized
Ġslam med
Ġtechnic ian
Ġprehist oric
Ġunreason able
Ġthe olog
Ġh iv
Ġm av
Ġf y
Ġp att
Ġj n
Ġj ihad
Ġsh al
Ġsh ea
Ġup lift
Ġbr aw
uct ed
ell er
Ġsn ug
Ġlocal host
Ġheight ened
Ġhung ary
Ġscar f
Ġcommercial s
Ġsalv age
Ġcatholic ism
Ġstim ulation
Ġturb ulence
Ġrelat able
Ġaver ages
Ġinterpre ting
Ġfreel ance
Ġgroom ing
Ġunden iable
ogene ous
st yle
Ġse ism
Ġover re
Ġshe ila
Ġmar i
Ġ16 5
Ġunc ore
Ġdu ff
Ġinnov ate
Ġmanifest s
Ġgeograph ical
f light
n ish
Ġre used
Ġins cription
Ġprop ane
Ġvisual izations
Ġcrack er
Ġkore ans
Ġdiscip lines
Ġestim ation
Ġanticip ating
Ġdownt ime
Ġdisrupt ed
Ġwiz ards
Ġaffirm ation
Ġlaz arus
Ġpere z
i en
Ġt ah
Ġw im
Ġl act
et a
Ġr all
th ood
ure ka
are l
Ġrome o
Ġsel ena
imm une
Ġindirect ly
Ġembod ied
Ġsubl ime
a wn
s ite
Ġt ipped
Ġb anger
Ġd ms
Ġf ades
Ġn t
Ġv ind
Ġint rospect
Ġcl apping
az ed
Ġple ad
Ġhyp n
Ġdar ius
gu ards
Ġattend ant
Ġampl itude
Ġconj unction
Ġingen uity
Ġquart z
Ġrefuel ing
Ġfare well
Ġcrist iano
Ġdrac ula
f ill
Ġl ath
Ġst umbling
Ġex e
Ġout going
Ġun anim
Ġsc all
Ġinv aders
Ġlow ers
Ġcost umes
Ġpil ate
Ġmedic are
Ġblind ly
Ġliber als
Ġalert ed
Ġ195 7
Ġpas sover
Ġbour bon
Ġsubur bs
sha ft
Ġtoothp aste
Ġmalays ia
g one
Ġh ilton
Ġto aster
Ġd yson
is ans
Ġbe verage
Ġsa ff
Ġad ri
Ġun parall
Ġtop ical
Ġang led
Ġdirection al
Ġsharp en
Ġbud gets
Ġrapp ers
Ġanoint ed
Ġalexand ria
Ġcind y
Ġwholes ale
Ġchedd ar
b id
Ġto ri
Ġd izzy
st ory
il ia
un ken
Ġar thritis
Ġcar lo
az i
Ġdeb bie
Ġconflic ting
Ġauto immune
Ġinsert s
Ġcit rus
Ġbum mer
Ġchains aw
Ġfib onacci
Ġunhe ard
Ġsuperhero es
Ġenzy me
Ġcryptocur rency
Ġunsur pr
Ġe ch
Ġk ib
Ġed its
Ġinform al
Ġdisc rep
Ġexplore rs
ov ich
Ġveg gies
Ġfrost ing
Ġemerald s
Ġecc entric
Ġappe als
Ġcact us
n ap
u ard
Ġi zzy
Ġre y
Ġj b
Ġal ber
ak ia
Ġfl atter
Ġset back
Ġma ven
Ġtrans gress
Ġobject ions
Ġgar rison
Ġgrad ing
Ġvert ices
Ġhub s
Ġmemor ized
Ġabsor bs
Ġlit ers
Ġduplic ates
Ġreprod uction
Ġfract ure
Ġcelt ic
Ġhumili ation
Ġsap iens
Ġflore nce
Ġl ug
Ġr und
Ġch ir
Ġsp ed
Ġpl ed
Ġsa pp
Ġbl air
Ġfund ra
Ġconsid ers
Ġbond age
Ġscream ed
Ġcig ar
Ġginger bread
Ġcounsel ing
Ġdiplom acy
Ġdictators hip
h oles
m other
p ill
Ġs ut
Ġm iter
Ġd to
Ġad ject
co ck
gr own
Ġret ained
Ġrandom ness
Ġcritic isms
Ġcooper ating
Ġutil ization
Ġassault ed
Ġirr itation
Ġgren ades
n as
Ġg ur
Ġn ud
Ġhe z
Ġab by
Ġsp itting
onna ise
Ġbeg s
Ġblack out
Ġmad ag
Ġrot ary
Ġsam ar
Ġpet ition
Ġjon ah
Ġpsychedel ic
Ġcoar se
8 9
w ave
Ġy d
Ġd ary
Ġg c
Ġwe ir
ro st
ain able
Ġcon gest
ab out
Ġsp ong
Ġjo lly
Ġcheck box
Ġroom mate
Ġpublic ity
fl ower
Ġtend encies
Ġdetect s
Ġmedic ines
Ġcub ed
Ġstrand s
Ġstead fast
Ġmosa ic
Ġlivest ock
f illed
Ġt f
Ġthe ss
ou l
Ġc inc
ust ers
Ġtw eaks
Ġexp iration
sel ess
Ġsystem atically
Ġstand up
Ġdet ained
Ġwo bb
Ġprov isions
Ġblock ade
Ġcourt esy
Ġmurder ing
Ġeu char
Ġnurt uring
Ġbattleship s
Ġconject ure
Ġin ad
Ġdo od
Ġmay onnaise
Ġdes erving
Ġcar a
Ġla ve
Ġinv ading
Ġpop up
Ġfifth s
Ġbatch es
Ġbabylon ian
r ows
Ġt ides
Ġc ds
Ġse nder
Ġch loe
Ġv ish
are lla
Ġtra itor
Ġrad ios
Ġcontinu um
Ġpurpose ly
Ġsales man
Ġlad s
Ġfasc ination
Ġaugust ine
Ġsquad rons
Ġmile age
Ġassess ing
Ġorch id
Ġreform s
Ġflatten ed
b able
Ġr b
Ġcon go
Ġsp ool
our s
Ġop io
Ġdec ipher
Ġcapt ains
Ġcontrib utor
Ġdiscour age
Ġpla que
Ġpersu aded
Ġturret s
Ġww w
Ġacron ym
Ġp acing
Ġbe ad
Ġch u
Ġtr it
Ġback ups
ach u
Ġins ufficient
Ġel ves
Ġtrans plant
Ġste fan
Ġband it
Ġdiagn ose
Ġtherm ometer
Ġbust ing
Ġvolunt arily
Ġmillig rams
Ġa es
Ġw ines
Ġg ist
Ġpl ut
Ġfact ions
com p
Ġflo oring
te en
Ġdecl ares
Ġmel odies
Ġhorse y
Ġabstract ions
Ġexplo its
Ġglor ia
Ġescal ate
Ġunderest imated
Ġseiz ure
c ount
g om
t ro
Ġc ach
Ġf c
Ġmo ody
Ġpl aster
Ġtime ly
Ġhas hing
Ġshe ath
Ġoff side
Ġfl akes
gr and
Ġcor k
Ġbi ography
Ġtank er
Ġextern ally
Ġscot ch
Ġmasc ara
Ġnp c
Ġregener ate
Ġsuic idal
Ġgover ning
Ġmadag ascar
m us
w affe
Ġh ick
Ġun locks
Ġcont ag
Ġnew found
Ġdef y
Ġbook mark
Ġhusband s
Ġfleet ing
Ġgreg ory
Ġcoinc ident
Ġcul pr
Ġworm hole
Ġf and
Ġch ant
Ġqu i
Ġneed less
Ġover shad
Ġpart nered
Ġmar row
Ġstory line
Ġcommun ists
Ġpack ers
Ġprogress es
Ġreject ing
Ġcreep er
Ġbend s
Ġ193 3
Ġouts k
Ġark ansas
Ġpuff y
wa it
Ġdowns ides
Ġanom al
Ġprism a
Ġha ley
id ences
Ġab el
Ġgod am
Ġstr ide
Ġatt ent
Ġdetect ors
Ġclim bs
Ġalt itudes
Ġram sey
Ġmut ant
Ġaug ment
Ġharvest ed
Ġalumin ium
Ġpropag ate
Ġirr itating
Ġprol ifer
Ġjig s
Ġknuck les
Ġdiab etic
l ane
Ġth re
ro e
ill ac
Ġun god
Ġspec ulated
Ġref r
Ġfront line
Ġsn uck
Ġpat ents
Ġvi enna
Ġprim es
Ġ195 3
Ġmont gom
Ġdisgr ace
Ġinaccur ate
Ġblad der
6 6
j son
Ġch oking
Ġcl ipping
Ġper k
Ġsub ordin
Ġed gar
Ġciv ic
Ġviol ations
Ġped oph
Ġench ant
etermin ed
Ġrooft op
Ġjuven ile
m ler
Ġsh ay
Ġmo zz
ol ph
pt on
Ġgl and
ah an
Ġge ographic
Ġinsp ires
Ġcontract ion
Ġblind ed
Ġom ar
Ġsteven s
Ġawa its
Ġbio chem
Ġescal ation
Ġovert urn
Ġvague ly
Ġluft waffe
Ġs q
Ġo vere
Ġy ug
Ġl f
Ġl itt
Ġon set
Ġan s
Ġtr ipped
Ġle m
wh y
Ġmor als
Ġhor rors
Ġvib rating
Ġmerc en
Ġrein v
Ġeld est
Ġdessert s
Ġshred ded
Ġsynthes izer
Ġadul thood
Ġenum er
Ġethi opia
Ġindefin itely
Ġmontgom ery
l ow
m ary
Ġc rib
Ġre vert
Ġfl ares
Ġop a
Ġsw ag
Ġret r
air craft
Ġmain e
put ed
Ġfuel ing
Ġtap ed
Ġscar iest
bur st
Ġremn ant
Ġgrapp ling
Ġcamb od
Ġcinc in
j et
Ġt ame
Ġbe aver
Ġan a
Ġcr anes
Ġbook sh
Ġsch ne
Ġpar mes
Ġinstall ations
Ġmaster mind
Ġdefe ats
Ġspin al
ic ate
Ġdis sect
Ġforeign ers
Ġcy an
ades h
Ġreve rence
Ġdu ch
pro cess
Ġcollabor ating
Ġpatri ot
Ġiv ory
Ġsham eless
Ġjd k
Ġlump s
Ġhul k
Ġcors air
Ġuntouch ed
Ġoutsk irts
c or
Ġch eryl
Ġal am
ign ant
Ġrad iant
Ġpy th
Ġ14 4
Ġ13 00
Ġdel hi
Ġrev ision
Ġlat ent
Ġslic er
Ġgrave yard
Ġpreced ent
Ġimmort ality
Ġfreem an
Ġnug get
Ġm unch
ly s
Ġcon es
os ures
Ġover write
Ġun identified
Ġbu oy
Ġsy ner
Ġind ices
att ack
Ġhor net
Ġspeed y
Ġcamp fire
und ers
Ġdemonstr ations
Ġcrypt ography
Ġecho ed
Ġdiction aries
cont rol
Ġles lie
Ġcarb ure
Ġripp les
Ġcarne gie
Ġunparall eled
, "
Ġa ure
Ġc ay
Ġto l
Ġre yes
Ġnot ep
Ġtr in
Ġex quisite
ge l
Ġun just
Ġhim mler
oc ative
Ġfil ip
Ġaccount ant
Ġhol istic
Ġsand ra
Ġterr itorial
Ġpin ning
Ġinsert ion
Ġgather ings
isc ip
Ġunre li
nat i
Ġvin ci
Ġplum met
m illion
Ġw ary
Ġs g
Ġb ibles
Ġu ip
Ġpl edge
Ġpe pt
Ġrem orse
etim es
Ġquant itative
Ġintegr ations
Ġclock wise
Ġaz tec
Ġexport ing
Ġmold s
Ġrational ity
Ġcad illac
Ġintercept ed
cont inent
Ġez ra
Ġkindergart en
Ġd ances
id o
Ġch ing
ip h
Ġher man
Ġper oxide
Ġang lo
Ġcy rus
Ġill usions
Ġcounter intuitive
Ġdu h
Ġmotiv ating
Ġmut ually
Ġow es
Ġadvoc ates
Ġshaft s
Ġunsurpr ising
m ount
Ġg ret
ig ans
Ġk ud
Ġkn itting
Ġsh aved
Ġlo oming
Ġover haul
ass ed
Ġdiff use
other mal
Ġproject or
Ġpost p
Ġresearch ed
Ġ11 1
Ġhi ro
Ġinvestig ative
Ġvan ish
Ġsubm itting
Ġbang s
Ġhypoth etically
Ġcann ibal
Ġmandal orian
Ġl ama
ic ients
Ġtr apping
Ġsupp ressed
Ġsk ating
Ġmult it
Ġprogram m
Ġ15 5
Ġtable au
Ġtur nt
Ġden ies
Ġsolid arity
Ġgrad ients
Ġconstruct s
Ġcanad ians
Ġhousehold s
Ġpione ers
Ġcater pill
Ġperipher al
h dad
Ġi ons
Ġw ilt
Ġy ank
Ġk aw
Ġen zo
Ġgr pc
Ġdec oding
Ġstri pping
sc ape
Ġwood working
Ġstrength ens
Ġec u
Ġexch anging
Ġcruc ially
Ġpoly m
Ġnord vpn
Ġtilt ed
Ġhalluc inations
Ġunb ear
Ġassy rian
Ġblockb uster
Ġch ores
ger ald
ph ase
Ġbro om
Ġsing h
Ġpur ge
Ġemerg ent
Ġ193 6
Ġcanon ical
Ġreserv ations
Ġkai ju
Ġrehears al
Ġarter ies
Ġtreacher ous
Ġcincin nati
n ick
Ġy ikes
en o
Ġbr at
Ġimp oster
Ġz ie
Ġpick er
Ġconvers ational
Ġsens ations
amm ers
Ġacid ic
Ġunders ide
Ġstall s
Ġdoctr ines
Ġreun ited
Ġambig uity
mod ern
Ġhierarch ical
Ġhandcuff s
c ases
h awk
r ition
z ero
Ġtim elines
Ġam ar
og ical
Ġhigh ways
Ġcal ming
Ġbur dens
Ġsleep er
Ġmist y
Ġten ure
Ġmoon light
Ġmotiv ational
Ġbond ed
Ġmes mer
Ġprol ific
Ġcategor ical
Ġimplicit ly
Ġsanch ez
Ġb az
Ġy emen
ic er
Ġsp ind
Ġman ning
Ġhand writing
Ġvis ibly
Ġmess es
Ġge ology
Ġspr out
Ġelement al
Ġgal at
Ġshel ters
Ġinstrument ation
Ġovers ized
Ġretail ers
Ġki wi
Ġtamp a
Ġdemol ition
Ġinvo ice
Ġisab ella
at form
Ġb d
Ġh ann
Ġd ips
Ġre char
Ġexp elled
Ġmin ut
Ġcle op
Ġold fashioned
Ġball ot
Ġdisc retion
Ġten ants
Ġviol in
Ġtight ening
Ġwave form
Ġuncle an
road s
Ġconver ge
Ġturb ulent
Ġthrust ers
Ġteasp oons
Ġblink ing
Ġrecurs ion
Ġdysfunction al
Ġrehab il
Ġsnipp ets
Ġdex ter
uper vised
Ġunnot iced
Ġb j
Ġp w
Ġk ale
Ġal as
Ġar ous
Ġcl ipped
Ġun natural
ath ered
Ġcol ts
Ġclass mates
Ġfil ament
Ġbal tic
yn th
Ġviol ating
Ġtransl ations
Ġillust rates
Ġhes itated
Ġfern andez
Ġcoeff icients
Ġethere um
Ġuncond itional
Ġcrucifix ion
Ġextrav ag
Ġg at
Ġr d
id i
Ġfr inge
um ed
Ġpre qu
Ġnew com
sel s
Ġcre s
Ġpower less
Ġ12 7
Ġsou ven
Ġsent in
Ġspot ting
Ġscr aps
Ġtax able
Ġri ots
Ġshar ps
Ġdangerous ly
Ġdu per
Ġobserv atory
Ġ193 8
Ġlag ging
Ġredirect ed
Ġvic inity
Ġcruel ty
Ġfitz gerald
Ġcomr ades
Ġjama ica
Ġwart ime
Ġlave nder
y ards
en heimer
Ġan onym
Ġch ilies
Ġag on
Ġfl etch
Ġins om
Ġcust ard
Ġbur g
Ġbur row
Ġshut down
Ġmis f
Ġsusp ense
Ġparticip ant
Ġvl an
Ġnit ro
Ġglitch es
Ġassert ion
Ġenlight ened
Ġimmers ed
Ġud p
Ġpv c
Ġanomal ies
m eg
Ġn fc
Ġst igma
Ġco hen
Ġcl ara
Ġho ist
Ġreal time
Ġz ap
ank y
Ġdri zzle
Ġdead lines
Ġcommit ments
Ġsimpl ifying
Ġexter min
Ġimmers ion
Ġoverlo oking
Ġpsychedel ics
Ġdemean or
v ic
Ġp ian
Ġp ores
Ġin iqu
Ġbe ak
if a
Ġle nding
itt ens
bo llah
Ġrepl aces
Ġprim ates
Ġsolid ified
Ġtap est
Ġfault y
Ġdod ging
Ġgee k
Ġzion ist
Ġzion ism
Ġspher ical
Ġmumb ai
Ġhez bollah
y st
Ġc to
Ġch urn
Ġfe ma
Ġgl en
Ġpar able
Ġnon profit
Ġprin ces
Ġhyd rated
Ġpatient ly
Ġrac er
Ġelimin ates
Ġnovel s
Ġpenc ils
Ġling ering
Ġcompliment ary
Ġspoil ers
Ġtestimon ies
Ġprow ess
Ġthermodynam ics
Ġcleop atra
Ġt c
Ġst on
Ġwork ings
Ġmin ion
Ġdi vert
ron ting
Ġdetermin ant
Ġdisp rop
Ġzoom ed
Ġsav vy
Ġrecip ient
Ġexplo iting
Ġscam med
Ġcorp us
Ġenvision ed
Ġdisturb ance
Ġt ou
Ġf isc
Ġsp iel
Ġpre ston
Ġcomm em
Ġconf ronting
Ġnet any
Ġmic rom
Ġimm aculate
Ġtele gram
Ġintense ly
Ġsid eline
Ġdisrupt ive
Ġswell ing
Ġmanuscript s
Ġpik achu
Ġwolver ine
y r
Ġs asha
at ical
Ġm ous
ig r
Ġsh un
ill o
Ġag gra
Ġsl ain
Ġinf used
pl ot
Ġstar ring
Ġgold man
Ġgun pow
Ġtan ner
Ġnest ing
Ġgab e
de ath
Ġjum bo
Ġkend all
Ġgymn astics
brain er
Ġunthink able
Ġsouven ir
b ag
c ream
j is
v ac
on ian
Ġbr ah
Ġgu ild
Ġsw arm
rop ic
Ġrid dle
Ġest eem
Ġfort ified
Ġboom ing
Ġgang sters
Ġfi xtures
Ġinsight ful
Ġunbel ie
Ġsalv ador
Ġorch ids
Ġbast ion
Ġslog an
i ates
Ġwith hold
Ġsqu ig
Ġaccount ed
Ġdeb ian
rench ed
Ġnucle i
Ġgig abyte
Ġultra viol
Ġneurosc ient
Ġnetany ahu
o cus
Ġf f
Ġp ang
Ġen se
Ġback track
Ġro am
Ġend ors
Ġbad ges
Ġfur thest
Ġ11 2
Ġhang ers
Ġintegr ates
Ġsusp end
Ġbol ted
Ġdur ant
Ġbust ling
Ġclo ves
Ġprohib ited
Ġmg m
Ġinconven ient
Ġtwink le
f ied
Ġch ops
Ġlo om
ab it
Ġpar ish
Ġpar ody
Ġmarsh al
Ġsel ves
Ġlind say
Ġhay den
Ġgee z
Ġn c
ar ius
Ġal v
Ġco ined
Ġsm oky
ful ness
Ġred isco
Ġbur ke
Ġunp op
Ġcro at
Ġoccup ying
Ġstab bing
Ġdub lin
Ġpeel ed
Ġoblig ations
Ġrefuge e
Ġexcav ated
Ġmirac ulously
Ġimperfect ions
Ġree ves
Ġflak y
Ġamuse ment
Ġomin ous
p ark
Ġc ac
or ay
Ġab ram
Ġv ang
are z
Ġam using
Ġself ie
Ġep it
Ġbed time
cuss ions
Ġsuff oc
Ġben nett
Ġcart els
Ġneur o
Ġflash y
Ġcommerc ially
Ġvent ures
gb t
Ġale c
Ġspont aneously
Ġcrim son
Ġfuck ing
Ġubiqu itous
Ġunreli able
w o
ut ation
Ġli vel
Ġj ak
op ers
Ġtim my
Ġwork station
Ġgu er
Ġche ater
Ġeng ulf
Ġsuper powers
Ġple x
Ġmet ron
Ġesp n
Ġreco ll
Ġant im
Ġtemper ament
Ġund es
Ġshar on
Ġtele graph
Ġglad iator
Ġec ological
Ġrefresh ed
Ġscam mer
Ġorchest ration
Ġparagraph s
Ġartic ulated
Ġstalk er
Ġunsuccess ful
Ġgunpow der
9 8
f elt
Ġc gi
Ġun att
Ġ5 12
Ġbelie vable
Ġkid neys
Ġchrist ine
Ġton ic
Ġmicro phones
Ġir rig
Ġbehav ed
Ġsmell ed
Ġsan it
Ġexpress ive
Ġhung arian
bel ie
Ġcro iss
Ġfunctional ities
Ġwig s
Ġouts ider
Ġtriv ia
Ġscra pped
Ġgriev ous
Ġdeplet ed
Ġschizophren ia
Ġcompil ers
Ġdisprop ortion
Ġor naments
Ġde activ
Ġv ase
Ġunderstand ably
Ġair liner
Ġpar cel
Ġart em
Ġmot el
Ġpublic ations
Ġsil va
Ġhair y
Ġann ually
Ġrot ations
Ġclust ering
Ġbrush ed
Ġunus ually
Ġanalog ous
Ġ195 4
Ġsher ry
Ġtrim med
Ġgrapp le
Ġunve iled
Ġconting ent
Ġerg onomic
Ġparmes an
9 2
f ed
f il
Ġy ada
Ġst ard
Ġk fc
Ġas m
Ġgr ail
Ġdis o
Ġref ining
Ġaut opsy
anc ies
Ġbar ren
Ġtool box
Ġer ased
Ġ12 3
Ġincre ments
Ġdetail ing
Ġnormal ize
Ġprim ord
Ġcraft y
Ġast rol
Ġrear range
Ġarc s
Ġencounter ing
Ġpul ses
Ġblur red
Ġchron icles
Ġshowc ased
Ġwhisper ing
Ġmascul inity
Ġtransist ors
Ġxy z
Ġfestiv als
Ġhygi ene
Ġi onic
Ġd ors
Ġg ator
Ġn gin
Ġse ams
ea p
Ġcr ates
Ġmon roe
Ġx code
Ġsoft ened
Ġdevelopment al
Ġremind ers
Ġbread th
Ġnation wide
Ġrevolution ize
Ġamen ities
Ġrac etrack
Ġcher ish
Ġdiscount s
Ġfirefight ers
Ġsnip ers
Ġundergrad uate
Ġuip ath
Ġngin x
h ome
Ġe ureka
ver ts
Ġcan va
Ġlo bb
Ġno ob
Ġar tery
Ġback side
Ġsc o
Ġdiff ers
Ġfo o
Ġmar gar
Ġball ast
umb les
Ġbag hdad
Ġadminist rators
Ġbump ing
Ġbind ings
Ġrepair ing
Ġcm ake
Ġemo jis
Ġtread mill
Ġcum ulative
Ġoutn umbered
m oon
Ġp to
Ġj aden
Ġan to
Ġsp ew
Ġover run
Ġho oray
Ġind uce
Ġel bows
Ġsleep s
Ġmechan ically
Ġinteract ed
Ġquant ify
Ġsymp ath
Ġrac coon
Ġacid ity
Ġsi iz
Ġastronom er
Ġalter ing
Ġindo ctr
Ġcheer le
Ġfisher men
Ġaccus ation
Ġsubur ban
Ġtsun ami
Ġo str
Ġh ic
Ġk ub
Ġex ited
Ġpos itives
Ġz ade
Ġsw at
Ġgl anced
Ġfore shad
Ġopp enheimer
Ġblue berry
Ġflow ed
Ġgoal keeper
Ġchem o
lin ers
Ġbreath s
Ġsha q
Ġsimpl ifies
Ġbul gar
Ġbron x
Ġrebell ious
Ġportra its
Ġw er
Ġb f
Ġp um
Ġk any
Ġsp out
Ġbl anks
Ġbig foot
Ġsl ayer
Ġbeg ged
Ġfree way
Ġview port
Ġdi pped
Ġfu zz
Ġir is
Ġ194 6
Ġobserv ability
Ġecho ing
Ġthumbn ails
Ġstap les
Ġanthrop ic
Ġfern ando
Ġcease fire
Ġabrupt ly
4 3
f erence
l estone
Ġan arch
Ġde a
Ġfr u
Ġv t
Ġsu mer
be e
Ġrec ons
Ġcra ve
Ġ8 50
Ġsent encing
inc y
Ġtermin ated
Ġsharp ly
Ġpun t
Ġliquid ity
Ġlemon ade
Ġcarn ival
Ġsooth ing
Ġtand em
Ġconfine ment
) ,
9 6
Ġw oken
on ium
Ġu ric
Ġtrain ers
Ġmach ining
Ġdiv inity
Ġpil ed
Ġstrength ened
Ġterr ace
Ġcounter top
Ġtag ged
Ġder ail
Ġupset ting
Ġpier cing
Ġaqu atic
Ġsack s
Ġ73 7
Ġpersec uted
Ġimprov ise
Ġtranqu ility
Ġpractition er
Ġcontamin ated
Ġlanc aster
Ġmusc ular
Ġultraviol et
d em
u ating
Ġd ag
Ġe ater
Ġpop py
Ġbar ge
Ġsat a
Ġautom ating
Ġbank ers
Ġaust rian
Ġign ited
Ġbutter flies
Ġstress ing
Ġrose mary
Ġna omi
Ġkar l
Ġtransact ional
Ġtid al
Ġench anted
Ġcoord inating
Ġmarin ers
Ġunch anged
Ġboomer ang
Ġsilhou ette
Ġst aged
Ġk v
Ġcont ention
Ġshow down
ia o
Ġcent ric
com m
Ġca iro
Ġarch es
Ġsumm ers
Ġdel ux
Ġq in
Ġble ach
Ġprompt ly
Ġfactor ial
Ġdistrict s
Ġexcav ation
Ġchee ky
Ġhamp shire
Ġretin ol
Ġdepri ved
Ġgamb ino
Ġchis el
Ġschne ider
Ġprimord ial
Ġe e
Ġgo re
Ġk gb
Ġan v
Ġal ps
Ġcom bs
Ġhim al
Ġmay o
Ġsw oop
Ġheal er
Ġpat io
Ġcompet ence
Ġcat fish
Ġappreci ating
Ġsky line
Ġcivil ized
Ġquarter backs
Ġkiss es
Ġinject ing
Ġconce ivable
Ġfreak y
Ġdrain age
Ġhorr ified
Ġfisher man
Ġcrafts manship
Ġdealers hip
Ġpend ulum
Ġvant age
Ġnotep ad
Ġst omp
Ġdon ating
Ġsp ared
Ġpe ps
Ġel ong
Ġaut ograph
Ġcook er
Ġaud itor
Ġheat ers
Ġinvent ing
Ġpun ishing
Ġfab rics
Ġspawn s
Ġglac iers
Ġsic ily
Ġfilmm aker
Ġeug en
Ġsnowfl ake
Ġt ether
Ġc app
Ġp ea
or f
it os
Ġmo j
Ġout we
Ġsp ying
ri v
Ġpo ised
cess ion
Ġel sa
Ġart ific
line ar
Ġtax ed
Ġben ed
ograph ics
Ġafric ans
Ġconduct ors
Ġmemor izing
Ġskelet al
Ġredeem ed
Ġsubd iv
third s
Ġgoth ic
Ġingr ained
Ġdiso bed
m und
Ġd ax
Ġn anny
ot en
Ġk ant
Ġall oy
Ġper me
Ġob struct
Ġpos it
Ġmod em
Ġmed itating
Ġtext books
astic ity
Ġimm oral
Ġsmooth ie
Ġboost ed
Ġflavor ful
da fi
Ġworship ed
Ġhint ed
Ġpersist ed
Ġsack ed
Ġgel atin
Ġspe ck
Ġnie ce
mil k
Ġsapp h
Ġgodam n
Ġmozz arella
l it
ar an
Ġgr aff
ail able
Ġsupp ression
Ġsch war
Ġhist ories
Ġlog istic
Ġmeth yl
Ġaff lict
Ġmarket ed
Ġneg atives
Ġdraw backs
Ġblue berries
Ġquar antine
Ġdece it
Ġsurger ies
Ġawa ited
Ġorchest rated
Ġaggreg ation
Ġindo ors
Ġrober to
Ġdismant le
Ġprecurs or
Ġw ad
Ġo st
Ġn ess
Ġn map
Ġon c
st age
Ġun kn
Ġread iness
Ġtool bar
Ġarg o
Ġdest in
Ġfair ies
Ġpolice man
bal anced
Ġnut meg
Ġelev ators
Ġspark ling
Ġtent acles
Ġperm its
Ġfilmm akers
Ġcompr ised
Ġincompet ent
Ġt ect
Ġal o
Ġte al
Ġher ds
Ġcor le
Ġgas light
Ġdistinct ly
Ġcel ery
Ġovert ake
Ġevident ly
Ġbabys itter
Ġprett ier
Ġfren zy
Ġslaught ered
u ino
Ġe igen
ans w
og ly
uc c
Ġhum ming
Ġeff ic
Ġimag in
Ġcult s
uss ian
Ġfamiliar ity
Ġflour ishing
Ġlou ie
Ġrust ic
Ġhamm ered
Ġramp s
Ġenthusi ast
Ġcrank shaft
Ġzh ou
0 1
f am
t ank
Ġr ained
st ri
Ġdown wards
Ġhim ler
ix el
Ġhand ic
Ġreg ulating
Ġcoll ateral
Ġ14 00
Ġhom est
Ġsan ction
Ġloud ly
Ġobserv ational
Ġtrim ming
Ġga unt
Ġtyr anny
Ġnl p
Ġmog ul
Ġcatac lys
Ġsull ivan
p oke
Ġa ot
Ġm q
Ġse ct
Ġch ry
Ġcon nie
Ġfe nd
Ġgr um
Ġfl irt
Ġend ang
Ġpers ians
Ġ10 99
ne al
Ġer as
Ġdev ote
Ġbill board
[...]
