#version: 0.2
Ġ t
Ġt h
Ġ a
Ġ i
Ġth e
Ġ w
Ġ s
r e
i n
Ġ o
a t
o u
e r
Ġ b
n d
Ġ c
in g
Ġ y
Ġ m
Ġ h
o n
Ġ p
Ġ l
Ġt o
Ġ d
Ġa nd
Ġ f
Ġy ou
l l
e n
a n
e s
Ġ g
Ġth at
o r
Ġi t
Ġo f
i s
i t
Ġi n
Ġ n
' s
u s
Ġs o
o w
Ġw h
e d
Ġi s
a r
v e
a s
l e
u t
i c
Ġ e
Ġw e
Ġb e
k e
o t
a y
m e
Ġth is
a l
Ġo n
i on
Ġl i
r o
Ġ re
c t
a ll
g h
e t
Ġh a
Ġ k
v er
Ġli ke
č Ċ
l y
Ġg o
Ġc o
r i
Ġs t
en t
l d
Ġ j
Ġd o
Ġh e
all y
s t
Ġf or
s e
gh t
t h
i d
Ġb ut
us t
c h
' t
Ġk n
Ġha ve
m p
Ġa n
r a
Ġ u
Ġwh at
it h
Ġj ust
Ġc an
c e
Ġm o
Ġkn ow
Ġn ot
Ġw ith
e a
Ġthe y
' re
Ġm e
Ġthe re
Ġs e
Ġa s
Ġso me
o p
Ġw as
u r
ou ld
us e
Ġi f
Ġa b
Ġa re
c k
e re
Ġa ll
Ġp ro
i r
Ġa t
Ġn e
Ġm a
t er
ou t
an t
Ġe x
Ġo r
Ġc h
Ġ ri
in k
Ġl o
q u
ver y
Ġon e
Ġa l
c a
i ll
at ion
Ġri ght
Ġd e
p p
Ġs h
in d
Ġth ink
Ġc on
Ġth ing
Ġ v
Ġab out
es s
Ġg et
o k
Ġw or
o d
u n
u l
g e
Ġthe n
Ġd on
i l
Ġ -
ca use
at e
' m
f f
a b
o l
Ġgo ing
es t
Ġn ow
Ġyou r
Ġbe cause
Ġp l
a d
Ġ r
Ġm y
Ġin t
i m
ar t
er s
Ġs u
p e
Ġo ut
i g
Ġu p
ic h
i ve
th ing
ea h
Ġy eah
ct u
u m
Ġs a
Ġhe re
Ġwh ich
ro m
e l
Ġco mp
Ġh ow
a ck
Ġre ally
Ġ us
Ġse e
is t
or t
o s
Ġf rom
n t
Ġs ay
Ġp e
i ght
Ġt r
op le
a m
Ġpe ople
Ġ qu
Ġa ctu
Ġw ant
Ġw ould
ar d
Ġd i
id e
Ġwh en
Ġmo re
in e
on e
Ġ 1
Ġw ay
d e
Ġthe se
a in
it y
Ġn o
Ġt i
Ġt a
re s
c o
v en
a nd
Ġ very
' ve
Ġactu ally
Ġme an
Ġlo ok
s o
Ġk ind
m ent
c i
Ġl e
r ou
Ġb y
e ct
Ġan y
Ġti me
it e
Ġwe ll
as t
Ġh as
Ġo k
ou r
p t
Ġok ay
k ing
Ġw ill
Ġl et
Ġwh o
ou s
Ġt e
b le
Ġthe m
Ġthing s
Ġ čĊ
Ġ en
Ġf e
Ġg ot
a ct
h er
p er
Ġsome thing
Ġe very
Ġco m
i e
Ġal so
o se
a re
Ġwh ere
Ġs p
Ġd id
Ġdo es
Ġt w
u re
o m
it t
th er
Ġo ur
Ġgo od
Ġint o
Ġc ould
Ġth an
in t
a ge
Ġl ot
a me
i z
Ġm an
Ġdi ff
Ġ 2
Ġp re
b e
Ġp o
Ġa g
Ġc l
' ll
Ġe ven
Ġpl ay
Ġo ther
Ġ Ġ
0 0
Ġb u
Ġne ed
Ġb ack
n a
o re
i es
m s
Ġu n
Ġwor k
ic e
on g
Ġma ke
Ġo h
ct ion
Ġa d
Ġ ro
Ġha d
Ġo ver
re at
Ġtw o
Ġ use
Ġm u
w ay
Ġmu ch
re e
Ġf ir
nd er
Ġdiff ere
Ġwe re
Ġp h
b er
a g
ab le
Ġst art
i p
itt le
Ġthe ir
Ġfir st
Ġbe t
ow n
u e
Ġl ittle
e ar
Ġb l
Ġp er
Ġp art
Ġa pp
Ġi mp
Ġg u
i f
Ġta ke
Ġm ay
Ġt al
a ce
e p
ic k
an g
en s
Ġcon t
ion s
is h
Ġth ose
Ġtr y
v ing
on na
as s
Ġb it
Ġa m
as e
Ġst u
ic ally
Ġg onna
Ġbe en
ul t
or y
Ġne w
Ġb o
Ġwh y
ou gh
Ġha pp
en ce
Ġc all
p l
Ġdiffere nt
Ġa r
w n
or m
ic al
ve l
e m
t ing
t y
o g
n ing
Ġd own
r y
an s
Ġs y
Ġon ly
Ġof f
c ess
Ġsa me
Ġf un
Ġs pe
Ġa c
Ġpo int
Ġd is
Ġmo st
Ġp ut
Ġb as
v es
k es
c re
Ġsh ould
se l
Ġ ke
Ġy ear
Ġp os
Ġag ain
Ġre s
p h
res s
Ġ [
x t
Ġu nder
a ch
i le
at ed
Ġwor ld
e en
Ġdo ing
Ġv ide
an ce
it ion
ver s
Ġw r
Ġmay be
Ġst ill
rou nd
Ġt ra
Ġm at
ow er
Ġh i
Ġp a
Ġbe ing
Ġb ig
y s
mp le
r u
nd s
Ġre al
ig n
i ous
f e
Ġr un
rou gh
Ġ ra
Ġn um
a p
Ġd es
t e
Ġh is
Ġi d
Ġfe el
i ld
d u
i re
Ġo b
Ġth rough
ation s
ab ly
Ġp r
Ġm ight
ea d
Ġg en
Ġin st
Ġg ame
Ġin ter
Ġs ort
s i
Ġpro b
Ġf o
f orm
j ect
Ġs i
t ty
u ll
Ġ 3
Ġg reat
f t
Ġtal k
ot her
c es
Ġpre tty
Ġdoes n
Ġe nd
ou nt
Ġvide o
Ġt y
Ġpro ble
sel f
Ġs m
Ġw at
Ġsa id
Ġh o
Ġf l
Ġs et
ar y
Ġman y
c ri
Ġsy st
od y
Ġf a
Ġp ers
im es
f ore
or s
ere st
Ġd at
Ġprob ably
Ġbet ter
Ġs l
f ul
Ġstu ff
Ġmo ve
ra m
at ing
Ġi m
i al
Ġint erest
e ver
way s
Ġhi gh
k s
Ġde f
Ġa round
Ġb ot
Ġd ay
Ġl ong
ur n
i v
Ġp ower
Ġcom m
Ġh ard
Ġth ree
Ġad d
Ġh um
Ġhapp en
or d
Ġle ar
Ġqu est
ic s
Ġco de
g et
ou nd
Ġf ind
Ġdid n
Ġte ch
Ġa f
m o
l es
Ġbe fore
Ġus ing
re ad
Ġy es
Ġto o
Ġunder st
Ġi nd
en se
Ġfun ction
Ġj o
Ġc our
Ġo p
Ġs er
Ġyear s
Ġco me
iz e
Ġex a
Ġse co
Ġv al
an ge
Ġnum ber
Ġsu re
Ġc ar
Ġch e
Ġ2 0
re d
Ġg ive
Ġid ea
Ġevery thing
Ġcon s
Ġpro g
Ġgen er
Ġmo d
Ġne xt
Ġbu ild
Ġdat a
Ġli fe
Ġ z
Ġe v
on s
ut e
Ġunderst and
er t
Ġab le
l i
Ġpers on
pe ct
Ġf act
Ġan other
Ġal ways
l ic
Ġte ll
Ġsh ow
Ġl a
Ġin s
Ġm in
Ġh im
b o
Ġbe l
Ġproble m
Ġcomp le
Ġtry ing
Ġaf ter
Ġt er
Ġg ra
ou ght
b ody
Ġcour se
Ġsu pp
r ing
Ġen g
Ġre ad
ol og
Ġbas ically
Ġexa mple
Ġsyst em
o ck
Ġm ar
is e
d i
Ġcomp ut
Ġ (
Ġre as
w h
Ġit s
Ġex per
Ġe as
Ġma de
ul ar
Ġg i
Ġo wn
c l
Ġco ol
Ġ1 0
Ġinterest ing
Ġsh e
Ġne ver
Ġ ent
co m
w ard
Ġcall ed
i a
Ġ 4
Ġkn ight
Ġe l
Ġdon e
Ġe ar
Ġhe l
Ġ 5
Ġget ting
u al
Ġche ck
Ġw a
d ay
' d
Ġh u
r on
ar i
Ġop en
Ġto p
Ġimp ort
v ed
v ious
c y
Ġf in
Ġlo ve
Ġsu b
Ġex act
Ġpro du
r ow
il ity
Ġhel p
w een
e ll
at es
Ġc ase
a v
Ġe ach
c ent
Ġcomp an
Ġwho le
Ġke ep
Ġus ed
ent s
Ġb est
ie w
Ġbet ween
Ġso l
th e
Ġc a
Ġph one
Ġquest ion
Ġseco nd
Ġt est
Ġs c
g n
Ġe qu
Ġth ought
Ġpa wn
Ġany thing
g er
Ġtr ans
Ġre l
at h
Ġmean s
Ġprog ram
Ġb ish
Ġbish op
Ġs ide
Ġpl us
Ġbl ack
Ġpos si
Ġl ast
g in
Ġbot h
w are
Ġg am
Ġc le
Ġspe ci
Ġat t
Ġf our
Ġm et
Ġs ense
Ġhum an
Ġe ff
ce pt
Ġm on
read y
Ġlook ing
Ġro ok
at ive
Ġqu een
Ġe le
Ġd ri
Ġal ready
Ġtech n
Ġwhat ever
ic t
Ġsay ing
Ġex p
i x
Ġth ough
Ġ vers
Ġex t
Ġreas on
Ġc re
Ġt ri
Ġb ad
Ġc or
Ġma kes
Ġle vel
n ess
Ġl ist
ment s
u b
t o
Ġwat ch
vel op
Ġt imes
h ing
us ic
a il
Ġfe w
Ġin v
Ġdef in
Ġs ur
Ġe m
Ġwh ile
ke t
Ġb ra
ang u
Ġ x
Ġe ver
Ġpro cess
at ter
one y
ert ain
Ġn ice
Ġimport ant
Ġch ar
Ġl angu
c ed
un ch
Ġty pe
a k
Ġde velop
ent ion
Ġgu ys
Ġt urn
Ġs cre
Ġc reat
Ġqu ite
Ġen ough
Ġc am
re ct
Ġsu per
Ġeng ine
u p
Ġha nd
Ġsm all
op e
Ġs w
al s
Ġlear n
Ġtal king
ut ion
Ġw in
Ġgo d
Ġexact ly
Ġm oney
u d
Ġre p
cri pt
Ġl ess
Ġgo es
Ġme m
Ġp ri
Ġlook s
in es
l o
Ġst and
it s
Ġcont ro
Ġto day
n ce
Ġl ine
Ġta kes
is s
Ġf ar
Ġ ed
Ġha ving
Ġf ull
Ġo pt
ar s
Ġcomple te
n ect
i an
Ġli ght
Ġc ou
Ġex pl
Ġc ur
Ġexper i
Ġob vious
Ġas k
ir d
Ġcam er
Ġde c
Ġon ce
Ġwh ite
Ġ 6
s s
Ġc ertain
Ġpos ition
it ing
Ġp ass
Ġbel ie
Ġcom es
Ġhe ad
w or
mo st
Ġf u
it er
Ġke y
c us
. .
Ġcre ate
ate ly
Ġf ive
Ġre f
Ġc are
Ġsp ace
Ġa way
co me
u ally
is m
Ġm ill
Ġma king
Ġre g
Ġpl ace
Ġin cre
Ġk ing
Ġwor king
Ġpart ic
Ġval ue
Ġs ing
00 0
Ġch ange
Ġst r
iz ed
p le
Ġfor m
Ġt ea
Ġel se
Ġcon f
Ġo pp
Ġwork s
Ġad v
Ġgu ess
ow s
Ġcon nect
ra ct
Ġs ign
Ġto get
Ġtoget her
Ġc ent
Ġa ut
a c
m ber
er ing
Ġcl ass
Ġn ame
Ġcomput er
it ed
h ip
u mp
at ure
Ġal most
Ġc ra
Ġwor d
Ġab s
Ġdes ign
Ġm ult
Ġstart ed
Ġlangu age
Ġpossi ble
g g
c on
Ġas s
at er
ri e
Ġqu ick
Ġ es
Ġjo b
Ġco l
t en
i ally
o f
Ġmod el
u res
ag es
Ġpro ject
Ġsome one
Ġre t
Ġac c
as h
k en
olog y
Ġor d
ere d
Ġc r
Ġs ci
Ġle ast
Ġl ar
Ġo ld
Ġp ie
Ġun i
ar ch
Ġcon st
Ġ1 9
Ġty p
Ġre me
Ġst ate
l ed
u es
Ġl ea
Ġs im
l ess
Ġn et
Ġ "
Ġm ind
Ġin f
Ġst ory
ot e
i ly
Ġsay s
Ġwant ed
Ġw ent
Ġd et
Ġh ope
Ġd ra
Ġget s
Ġma ch
Ġsu ch
Ġf ound
Ġbo ok
as ter
Ġwith out
Ġcom ing
if ic
it ies
Ġinst ead
y ing
Ġsing le
ite ly
Ġl iter
Ġreme mber
Ġob ject
on es
a z
Ġp ar
Ġbe h
er o
Ġper form
Ġs qu
b ers
Ġst ru
Ġis n
Ġcompan y
Ġins ide
s w
Ġtr ue
Ġcomm un
Ġco ll
Ġexperi ence
Ġcomplete ly
Ġh our
Ġwa it
Ġar t
al ity
Ġnot hing
at her
Ġb re
Ġhe y
Ġf ree
Ġsp ea
Ġpl an
Ġse en
Ġobvious ly
er n
Ġ 9
ol ute
Ġthink ing
ph one
Ġre c
Ġd ist
Ġan sw
Ġcamer a
ter s
Ġc ount
Ġsome t
Ġwr ite
Ġabs olute
Ġbelie ve
Ġcle ar
Ġsi mple
Ġs in
form ation
Ġst op
Ġc ame
Ġway s
Ġb ring
Ġs k
Ġex ist
Ġso ft
Ġdefin itely
Ġch ang
Ġo per
nd ing
Ġle ft
Ġspeci f
Ġlear ning
Ġw ar
n er
it ch
Ġsomet imes
Ġa i
Ġeas y
ctu re
Ġde v
Ġthan k
m ing
Ġma gn
Ġsee ms
ic es
Ġi de
Ġc ap
p s
ron t
Ġ 8
wh ere
Ġprodu ct
Ġa ct
Ġwr ong
os ed
Ġ ve
Ġf il
ci ally
Ġscre en
ith er
Ġhapp ens
Ġp ress
Ġf ast
t s
Ġa ir
i ent
p ut
m usic
Ġdo ll
p u
pl ay
Ġgu y
Ġsupp ort
Ġst re
Ġf ig
Ġ 7
ci al
Ġho ld
Ġch r
Ġent ire
Ġv is
Ġph ys
Ġre qu
Ġevery one
ro ss
Ġst ep
et her
er g
m in
Ġcontro l
Ġord er
ur ing
Ġh al
Ġinter n
l t
us h
i me
Ġl ead
Ġf rie
Ġ $
Ġp ol
Ġmem ory
Ġf ine
l ing
e ms
o c
Ġgam es
p r
m ed
Ġit self
Ġrun ning
Ġm ed
Ġpartic ular
ent ially
at or
pe cially
il t
Ġmult ip
Ġf ront
Ġs it
Ġv iew
Ġw o
u de
Ġyour self
b r
Ġliter ally
Ġcur re
Ġa p
Ġy et
Ġl ater
Ġwat er
Ġs ch
Ġeff ect
Ġes pecially
n e
a ke
Ġl ink
Ġp res
are d
Ġ1 2
Ġsi mp
c le
Ġim ag
Ġter ms
Ġsin ce
Ġwe b
Ġin formation
Ġh er
Ġmat h
Ġplay s
Ġe ither
Ġz ero
Ġcou ple
Ġf ra
iz ation
Ġf am
l er
Ġp y
Ġto ol
Ġm ess
Ġto t
Ġar g
Ġsoft ware
a ut
Ġh it
Ġsi x
wor k
an n
v iew
Ġwh ether
le x
Ġb unch
d d
Ġagain st
Ġch o
Ġcl ose
ar k
Ġw on
Ġres ult
Ġ er
Ġis s
bo ard
ll ow
th at
Ġwas n
Ġma in
Ġf ut
i er
Ġh ist
Ġabsolute ly
a ve
f or
Ġam ount
Ġhal f
Ġw ind
Ġplay ing
Ġmo ment
m an
n ot
Ġam az
Ġansw er
f ect
Ġb ri
Ġp ay
it ive
Ġm ention
z y
c ing
Ġf ile
Ġv ari
Ġu lt
Ġhu ge
Ġres p
in ess
Ġin cl
Ġm ic
Ġperform ance
u ck
Ġta king
o me
Ġu nt
th on
Ġmon th
ic ult
l a
Ġev ent
s ide
Ġp op
Ġnum bers
Ġfut ure
Ġde al
Ġo ri
Ġele ct
Ġcurre nt
Ġb r
Ġh on
Ġall ow
Ġmach ine
an k
il ar
ward s
Ġ ess
Ġa h
Ġvers ion
Ġfig ure
b ly
ou se
Ġbe aut
ur al
Ġcont in
Ġac cess
Ġof ten
l f
Ġto ok
Ġbe come
Ġb us
at ch
Ġch ess
Ġplay ed
Ġper fect
Ġre st
Ġa v
l ine
Ġs ca
Ġbuild ing
r ic
Ġg l
Ġmat ter
Ġn orm
um ent
Ġfo llow
Ġex pect
Ġex c
Ġhappen ed
Ġe mp
Ġl ow
Ġf re
Ġre m
Ġapp ro
ut es
Ġon es
Ġdiff icult
Ġmill ion
id d
ct or
ous and
Ġb ro
Ġret urn
ation al
Ġde ep
o y
Ġstu d
Ġint ell
Ġpy thon
Ġb atter
Ġco st
Ġpr ot
Ġth ousand
Ġstand ard
Ġday s
Ġdi rect
o nd
Ġunt il
o ot
Ġrec ord
Ġlo g
Ġp ub
Ġbe gin
sel ves
Ġ3 0
Ġchr ist
et y
Ġdiffere nce
Ġwe ird
Ġdis play
Ġbl ock
Ġbu ilt
Ġde pe
Ġs ou
Ġspe ed
Ġapp le
Ġbu y
ie ld
en e
u be
Ġbas ed
Ġli ve
Ġ1 00
Ġfo cus
Ġwith in
am ent
Ġp ick
Ġc ard
Ġatt ack
Ġlar ge
o od
at ic
as es
c ur
en cy
Ġb i
Ġw al
Ġwe e
Ġte mp
Ġpro f
u g
Ġgener al
Ġag o
Ġse lf
Ġevery body
Ġcon vers
Ġsm art
Ġc al
e x
Ġmagn us
Ġm iss
Ġp ur
Ġp s
Ġdra w
Ġfa ir
ver se
Ġli m
Ġp ast
Ġint e
Ġte xt
c ul
Ġcra zy
Ġthan ks
ull y
Ġho me
g an
en g
Ġactu al
qu e
Ġsa w
Ġsim ilar
Ġa w
Ġproble ms
Ġsh ort
er ic
Ġlist en
Ġro b
v id
Ġm ass
Ġbre ak
Ġcons id
Ġdoll ars
Ġsyst ems
Ġpro per
Ġear ly
Ġsome body
g or
Ġquest ions
Ġtra in
Ġh y
el s
Ġha ven
Ġmean ing
e w
Ġcompan ies
t on
Ġhon est
Ġhappen ing
Ġimag ine
Ġsu c
Ġincre di
Ġvide os
Ġfeel s
Ġwatch ing
t a
Ġmic ro
Ġbo x
re me
itt ing
ol ution
Ġori gin
ot s
Ġl ay
ist s
m m
ort un
ab ility
Ġmet h
Ġst ring
Ġimp ro
Ġp ort
Ġtechn ology
Ġbo ard
Ġide as
Ġwould n
od e
Ġf ace
f ully
Ġim age
un g
Ġst or
s h
nd red
Ġhe ar
Ġquick ly
Ġw ow
u gh
Ġlo c
Ġmin utes
Ġs our
Ġcent er
le ment
Ġcor rect
Ġequ al
Ġ20 1
Ġp ull
Ġtea m
Ġbra in
Ġk id
on ent
Ġf ight
Ġhu ndred
Ġbatter y
y ou
Ġi phone
.. .
Ġmy self
Ġhigh er
i ed
Ġs ize
l ish
Ġhour s
p y
Ġhist ory
Ġintell ig
Ġmeth od
Ġsub s
at t
Ġcomp et
p ar
Ġp atter
Ġsw itch
Ġess entially
Ġst ra
Ġle g
Ġper cent
Ġbeaut if
Ġc ir
Ġam eric
Ġprogram ming
c ket
Ġc u
Ġhe ll
Ġpo st
li ke
Ġm ot
Ġbus iness
Ġp le
y n
Ġ1 5
Ġp ot
Ġg rou
Ġspea k
ri b
Ġpatter n
Ġb ill
d ing
Ġbot t
Ġgi ves
ver n
an e
it al
Ġch ip
Ġro om
Ġch all
Ġal ong
Ġch ann
Ġsci ence
ci ous
Ġre d
i ble
Ġgo og
Ġamaz ing
ion al
Ġbe com
Ġe ight
Ġr ather
Ġfra me
are nt
Ġgi ven
Ġs or
Ġyou t
Ġind ust
Ġen j
w e
Ġwo nder
Ġbeh ind
Ġgra ph
Ġfu nd
Ġc ut
f ace
Ġma x
Ġgo vern
Ġ '
Ġm usic
at ures
Ġmar ket
Ġimp lement
ust om
Ġneed s
Ġtyp es
Ġf all
g est
Ġgoog le
Ġp ack
Ġvers us
Ġcom b
Ġra nd
Ġdri ve
Ġst e
if y
Ġpoint s
Ġen erg
Ġsor ry
Ġd ou
Ġg row
a x
Ġbeautif ul
Ġph ot
Ġsl ow
Ġbel ow
ck s
r ay
Ġext ra
Ġus ually
Ġpie ce
id ent
et s
Ġtalk ed
Ġrep res
u me
Ġp ush
Ġpr int
r or
Ġf aster
is ion
Ġstart ing
Ġcomple x
ive ly
Ġhum ans
Ġc ustom
Ġd ro
Ġfa il
Ġlea ve
pp ed
Ġfor ward
ter n
Ġout side
b it
Ġchar act
Ġv ir
pp ing
Ġre le
Ġword s
Ġsuc cess
Ġsur pr
Ġenerg y
o ol
Ġan al
Ġg re
ction s
Ġexpl ain
m b
Ġspecif ic
Ġsit u
Ġopt im
Ġmo ving
Ġ5 0
Ġne cess
Ġac ross
Ġany way
an na
le ct
Ġd ig
Ġst ore
ver t
n g
Ġw all
Ġp c
Ġincl ud
Ġcon cept
b ility
Ġwor th
Ġcol or
Ġfrie nds
Ġp ath
Ġsimp ly
Ġrand om
n y
it or
Ġj av
id es
Ġstr ong
Ġmention ed
Ġh or
Ġc y
Ġ20 2
n o
a ces
Ġseco nds
Ġn ight
Ġde g
Ġs ound
Ġsl ight
Ġg ig
h ow
Ġm il
Ġf ix
Ġspeci al
Ġext reme
Ġup d
Ġcan not
Ġlo se
Ġpr ice
Ġ 0
Ġpub lic
Ġf ore
Ġbig ger
Ġk ill
Ġinst all
e e
Ġc pu
Ġp ract
Ġph ones
i or
ll ing
Ġyout ube
Ġlo ad
as ed
Ġus er
Ġco nd
Ġso cial
ire d
Ġmat ch
ens ive
a h
Ġenj oy
m ore
in s
Ġresp on
Ġapp lic
Ġinv est
ist ic
ou ch
Ġchann el
Ġne g
Ġpie ces
c ast
iv id
Ġn on
in ed
Ġwr iting
Ġ2 00
Ġst ay
Ġs ens
ing s
Ġen v
Ġnet work
Ġex cept
Ġma c
Ġen c
ap s
Ġthe ory
v or
Ġpower ful
Ġuse ful
u di
Ġdet ail
Ġmo de
Ġde p
Ġlong er
Ġtra d
er ial
Ġreal ity
u ght
ari ly
Ġre cent
j or
lo ad
. "
at i
Ġlo st
Ġag ree
Ġkind s
Ġfin ally
s er
Ġto ld
Ġde m
Ġsour ce
Ġre mo
Ġmo ves
Ġlo op
Ġser v
Ġl and
Ġcomm on
Ġear th
gor ith
Ġn at
Ġmultip le
g r
Ġre se
Ġtra ck
Ġal gorith
Ġ1 1
Ġnorm al
Ġd ot
Ġconvers ation
bo ok
Ġe y
Ġfund ament
ch an
ent ial
Ġma jor
Ġind ivid
Ġsh a
i um
Ġstra ight
ir on
ere nce
Ġpre d
Ġli br
it ions
Ġsch ool
Ġsci ent
Ġb ody
Ġl ab
idd le
Ġqu ality
Ġf r
Ġf ield
Ġch a
Ġsee ing
Ġre pl
Ġhow ever
Ġappro ach
med i
Ġcommun ity
Ġr us
Ġre act
Ġse ven
Ġse nd
Ġf an
Ġhapp y
Ġri d
Ġpress ure
ic ient
cri be
Ġbott om
Ġcreat ed
Ġpr in
Ġco re
Ġv ol
Ġmonth s
Ġb ase
Ġgam ing
Ġd am
Ġtra de
Ġgovern ment
Ġpa per
Ġult im
Ġp od
Ġadv ant
Ġt ouch
Ġch ild
cript ion
Ġm iddle
Ġcons cious
Ġrel ations
Ġt ur
ab les
iz ing
Ġstre am
Ġfe atures
Ġdo c
Ġtot ally
5 0
Ġp ix
Ġv i
Ġme chan
Ġg r
Ġw anna
Ġin it
Ġa udi
Ġaut om
Ġenv iron
ab y
Ġintern et
pt op
Ġrese arch
Ġstru cture
Ġinter act
re n
Ġid ent
Ġla w
Ġtri ed
Ġrepres ent
Ġr ust
Ġsupp osed
Ġmath em
Ġb ar
Ġwork ed
Ġmat erial
Ġin put
Ġto wards
p ro
g ra
Ġth ird
it ical
Ġj ump
p o
Ġbut ton
Ġnot ice
Ġkn ew
Ġeas ier
Ġse par
Ġp ain
Ġst ates
m y
Ġm ust
ry pt
Ġser ies
Ġunderstand ing
Ġthem selves
Ġt able
Ġgrou p
Ġla ptop
er y
Ġpart s
al th
Ġfa vor
ate g
Ġcl ick
ant ly
Ġindivid ual
p id
Ġwind ows
a pp
Ġpro m
Ġread y
Ġg one
Ġindust ry
Ġd uring
Ġsou nds
Ġgi ving
Ġso on
e c
Ġcont e
Ġbas ic
at s
b ed
Ġsk ill
Ġslight ly
Ġare n
Ġth row
ver age
is ing
a ust
ri es
Ġne ar
Ġpl at
Ġwant s
Ġah ead
Ġare a
Ġgot ta
ic le
con om
t ime
Ġrelations hip
Ġexp ress
Ġcomp il
t ed
Ġd est
Ġdi re
b y
Ġ1 6
Ġmod ern
Ġcal cul
th ers
Ġcle an
Ġiss ue
ant s
Ġser ver
Ġre ach
Ġsee m
Ġlot s
Ġcould n
Ġd ark
Ġpro p
Ġo thers
Ġfin ish
g o
as c
Ġany one
Ġme et
f er
Ġc ult
Ġp i
Ġhe ard
ul es
Ġd ude
Ġm or
Ġme as
Ġwal k
g ing
Ġa ff
Ġintellig ence
Ġcomp lic
Ġor gan
Ġinv ol
Ġcertain ly
Ġs ent
Ġl ines
Ġman ag
Ġpawn s
Ġas pect
Ġun f
Ġe conom
Ġtea ch
Ġacc ount
Ġb ene
Ġcl os
Ġ4 0
Ġsqu are
Ġple ase
um b
is ed
Ġf ire
Ġn am
Ġser ious
Ġsp ons
Ġl ower
Ġput ting
Ġtool s
Ġpod cast
Ġsa ve
Ġpre vious
Ġimp ress
Ġma g
or ing
Ġknow s
Ġsca le
Ġprot ect
Ġc ell
y ch
Ġfe ature
Ġval ues
Ġsh are
Ġbig gest
Ġimpro ve
Ġneed ed
Ġco py
Ġr ange
Ġcont ent
Ġfun ny
Ġhard ware
Ġrus si
m ic
re am
Ġre co
Ġsitu ation
Ġincredi ble
Ġbecom es
Ġenviron ment
u c
ar ing
Ġf ur
cus s
ul ation
og ra
Ġhonest ly
id ed
Ġsmall er
o ld
Ġter ri
Ġh ouse
Ġsh oot
Ġuni vers
Ġre du
Ġcl a
ou d
Ġreal ize
Ġstart s
ition al
Ġse arch
m a
Ġcount ry
Ġset ting
ot h
Ġnew s
Ġdevelop ment
Ġcoll ect
Ġm ist
Ġfunction s
Ġc ases
Ġps ych
Ġde fe
Ġsa ms
Ġab ility
Ġg round
p re
Ġp ict
ast ic
en ces
Ġevent ually
im ens
Ġsol ution
led ge
Ġwe ight
Ġbene f
Ġcon c
Ġsams ung
Ġde b
itt en
Ġdis cuss
Ġim medi
Ġta ken
Ġsome how
Ġfin al
Ġe p
Ġinterest ed
Ġwee k
r al
Ġg ave
as k
Ġsol ve
Ġr is
Ġcomplic ated
Ġso ci
v ide
Ġpers pect
Ġweb s
Ġknow n
el t
Ġkid s
Ġbegin ning
Ġd r
Ġadvant age
Ġav ail
Ġuni verse
th is
Ġon line
it ter
Ġdis co
Ġc ast
Ġn ature
Ġturn s
Ġfor ce
Ġdes cription
Ġask ed
Ġlearn ed
Ġan t
Ġ6 0
Ġex ec
ut h
iv ity
dd en
Ġh ot
Ġsome where
Ġspe nd
co mp
h ere
Ġf asc
i ans
Ġmin ute
Ġconst ru
j ust
Ġout put
ro du
Ġtr ick
Ġs il
Ġla ugh
Ġch ea
Ġall ows
Ġt ar
Ġan g
Ġcreat ing
in a
Ġpri v
Ġfeel ing
Ġchang es
Ġst ick
nd ed
Ġorigin al
o id
Ġg e
Ġfo ld
u le
Ġfam ily
Ġcharact er
Ġextreme ly
Ġtr ust
Ġch ance
Ġopp onent
Ġfo ot
in y
Ġl in
Ġo c
Ġsu dden
Ġreas ons
li er
Ġer ror
Ġre com
Ġfl o
Ġmed ia
Ġspea king
Ġinte gr
Ġany more
Ġan im
Ġd a
om en
Ġatt ention
w ise
ly ing
Ġd ang
Ġkey board
Ġca pt
es ome
s et
Ġr ate
8 0
Ġmass ive
Ġla unch
Ġf elt
Ġfasc in
Ġsa fe
Ġengine ering
Ġavail able
ain s
ri ght
g s
co re
ict ion
Ġlibr ary
Ġphys ical
Ġu h
Ġrecom me
Ġ1 4
Ġprin ci
n ter
Ġcommun ic
Ġus b
Ġlook ed
Ġs le
Ġg pu
Ġwor se
Ġdev ice
re es
Ġconsid er
Ġperspect ive
as cript
Ġadd ress
Ġplay er
b al
Ġp an
Ġ1 3
Ġfrie nd
Ġclear ly
Ġaw esome
Ġneg ative
s es
Ġnot e
Ġrob ot
Ġconte xt
Ġfur ther
Ġch at
Ġjav ascript
Ġwr itten
Ġph il
b ack
z e
Ġtot al
Ġiss ues
Ġve h
th ough
Ġs at
Ġdire ction
l ight
Ġre view
Ġcontin ue
Ġno body
k ar
Ġmathem at
bo x
Ġsu ff
Ġto r
h aps
Ġarg ument
o ve
Ġman age
Ġm other
ea k
wh at
h e
an ces
Ġc e
Ġpur p
Ġh ar
if t
Ġper haps
Ġsy mb
ph ones
il ities
olog ical
Ġinter view
Ġ est
ri ed
Ġf it
Ġtw itter
Ġbill ion
t es
Ġtar get
g round
Ġlike ly
Ġtr uth
i res
ve red
d o
Ġal though
b ra
Ġsign ific
Ġaut h
a king
Ġh ate
Ġgra nd
Ġmess age
Ġsymb ol
Ġsp ent
Ġyou ng
Ġdirect ly
Ġus es
Ġpri m
Ġcir c
us ion
Ġdat ab
a ult
Ġgo al
Ġfavor ite
Ġopen ing
Ġpres ent
Ġst ock
Ġs cript
Ġst y
Ġexp ensive
or n
Ġde ath
Ġeas ily
u ro
Ġr ot
Ġg ri
Ġperson al
n ow
Ġequ als
Ġnecess arily
et ic
Ġwh e
Ġchang ed
Ġwor ry
Ġbe at
Ġknow ledge
Ġfor get
Ġphys ics
Ġpl ug
ogra ph
Ġs itting
d es
at ors
Ġfull y
Ġexc ited
Ġhe av
Ġcho ose
if ied
v i
Ġset up
Ġwin ning
Ġst ar
cur ity
Ġ 000
Ġro ad
Ġopp ortun
Ġd yn
Ġprof ess
f ort
Ġimmedi ately
im ent
Ġfl ow
Ġear lier
Ġ2 5
Ġar ch
Ġread ing
Ġwr ote
Ġst ack
si ble
Ġth reat
Ġhope fully
Ġmar k
Ġc able
op h
Ġcon v
on y
Ġpo in
Ġwebs ite
en ge
Ġrecent ly
Ġultim ately
Ġs al
res h
Ġa verage
Ġh ang
Ġbeh av
Ġlo ck
Ġfascin ating
Ġscre w
Ġsh ot
l s
Ġnat ural
Ġdoc ument
Ġha nds
Ġed ge
Ġgener ally
Ġsp ot
Ġinst ance
Ġun ited
Ġn u
Ġj our
Ġqu ant
il i
Ġinst ru
Ġon to
cri f
a ir
Ġf ill
Ġar ray
w ord
Ġc atch
Ġan n
Ġhe alth
Ġb al
Ġtell ing
Ġt en
Ġdou ble
Ġconc ern
Ġmo v
Ġsur face
Ġpix el
Ġli ving
Ġab ove
Ġapp re
Ġd ead
ut ions
Ġu nd
Ġse curity
Ġter m
Ġm aster
Ġcontro ll
Ġre v
Ġtest ing
ll i
Ġg ear
Ġelect ric
Ġint rodu
Ġc ross
Ġc iv
es e
Ġserv ice
Ġve ctor
Ġinclud ing
Ġra m
Ġfu el
Ġf ab
Ġult ra
Ġcar s
Ġse ver
Ġmeas ure
Ġbl ue
Ġi p
Ġp age
Ġconscious ness
Ġm ount
Ġpos itive
Ġint el
in ation
Ġchall enge
Ġhi kar
m er
Ġco ver
Ġhe art
Ġpl aces
Ġpop ular
Ġsha pe
Ġresult s
Ġr ules
Ġsa crif
ur y
Ġsoci ety
Ġv ar
Ġdyn am
Ġn or
Ġas king
Ġfe ed
Ġse ll
Ġpro vid
e nd
ca me
Ġreco gn
l and
Ġcamer as
Ġmost ly
Ġunf ortun
Ġdis c
Ġt v
Ġse qu
Ġem ail
Ġvari able
id ence
Ġuni que
Ġth read
Ġgener ation
Ġdi e
Ġg lo
Ġn ar
Ġcla im
Ġprog ress
Ġinf l
i od
Ġa ch
Ġdec ided
Ġappre ci
Ġsever al
rou ght
w ith
Ġcurrent ly
Ġt it
Ġac cept
o st
us ed
Ġal i
Ġw ire
or ies
Ġre ce
Ġdesign ed
Ġcu ri
is on
Ġup gra
Ġtrain ing
mp les
Ġsol id
Ġpict ure
Ġco ding
Ġvis ion
y ond
Ġi ll
Ġproject s
Ġstr ateg
Ġreg ular
Ġsepar ate
eng th
Ġl uck
Ġv o
g ed
u f
Ġfundament al
g es
Ġbe yond
Ġse lect
Ġind e
Ġother wise
Ġstor age
Ġstu pid
p ing
Ġameric an
Ġciv il
Ġt iny
Ġrecomme nd
Ġeff icient
Ġdri ving
Ġcare er
e et
Ġgo ld
Ġapplic ation
Ġinf in
Ġper iod
Ġdef ault
Ġte nd
Ġrel ative
Ġl ed
v ent
Ġach ie
Ġapp ear
Ġt on
Ġm en
Ġmodel s
Ġhe at
Ġloc al
Ġy ep
Ġvir t
an ced
Ġcou nter
Ġlangu ages
as ing
Ġany ways
Ġchrist ian
Ġdatab ase
Ġdes k
ru pt
Ġop in
Ġshould n
Ġlar ger
Ġsle ep
Ġm is
Ġst at
Ġr ich
Ġz o
Ġele ments
Ġbo y
Ġobject s
Ġinvol ved
f l
on ents
Ġallow ed
Ġc rypt
Ġplay ers
Ġc ity
Ġwe l
Ġbehav ior
s ing
Ġspecif ically
Ġe th
Ġwe ak
d y
Ġcomput ers
Ġ9 0
Ġbe came
Ġj ud
Ġtra vel
Ġinit ial
Ġb rought
Ġris k
i o
Ġcomm and
Ġdef ine
Ġa ge
it es
Ġdro p
Ġimp act
s p
Ġra di
Ġn ine
Ġapp arent
er v
Ġw i
Ġwor st
Ġfo od
Ġres pect
Ġhand le
Ġst ri
Ġconnect ion
Ġcap ac
Ġsp ir
Ġn one
Ġb all
Ġme ant
Ġst age
ur ch
ic ed
Ġind ex
t le
in ary
Ġvis ual
Ġlisten ing
m iss
Ġdepe nd
Ġw ide
Ġshow s
Ġres our
Ġm ent
Ġch ina
Ġbri lli
i gh
Ġproduct s
Ġdang er
Ġbri ght
ous ly
Ġpred ict
Ġw ish
Ġgre en
Ġphil os
Ġt im
co in
Ġvar ious
Ġme g
Ġcho ice
Ġchall eng
Ġap art
Ġalgorith m
Ġt our
ic king
Ġdist ance
Ġd ream
u ly
Ġma p
im ate
Ġ2 4
Ġc at
Ġrun s
Ġstor ies
Ġc red
me t
Ġsupp ly
Ġlim it
Ġp at
Ġupd ate
Ġd imens
Ġro le
un k
le t
ort s
Ġprodu ction
Ġman uf
Ġadd ing
Ġdist rib
Ġmax im
Ġp in
Ġele ment
Ġtechn ical
Ġchar ge
Ġrel ig
Ġpot ential
Ġtemp er
Ġhell o
Ġf ing
Ġ q
Ġopt ions
Ġmon itor
Ġrequ est
Ġbra nd
Ġturn ed
mp t
Ġcom ments
Ġopt ion
ca de
Ġback ground
Ġcontin u
Ġremo ve
ic ul
Ġro ll
Ġg al
Ġch urch
Ġmin us
Ġat te
Ġadd ed
Ġwel come
Ġe t
ro id
Ġplat form
g en
Ġ ver
Ġdec ision
um ents
Ġcom ment
Ġent er
Ġrequ ire
Ġh ur
Ġcult ure
o h
Ġconnect ed
Ġb en
Ġu k
Ġun less
Ġexc iting
Ġl at
Ġl ength
at ically
Ġpar ame
aust in
Ġus ers
Ġrespon se
s hip
6 0
Ġfollow ing
if e
Ġcl ock
Ġmin im
Ġdev ices
ens ion
ne y
Ġar m
Ġt reat
Ġma int
Ġw ild
Ġgl ass
Ġca use
Ġpurp ose
b b
Ġhim self
Ġbit s
Ġsp l
Ġpa ir
Ġ ut
ar ies
Ġunfortun ately
Ġsty le
Ġg as
Ġreal ized
o ff
Ġn ode
wor ks
Ġab st
Ġin c
Ġdeg ree
n ces
Ġh op
Ġcu z
Ġcompil er
Ġcomp ared
it ic
Ġg er
pp er
Ġsc en
u x
Ġdig ital
Ġob ser
p ed
Ġapparent ly
t t
Ġs us
Ġpri me
Ġaudi o
oot h
Ġap i
Ġlay er
Ġse cre
Ġr ule
ent ly
Ġed uc
Ġapp ly
Ġa ction
Ġdo or
Ġparticular ly
Ġbrilli ant
Ġdet er
Ġm ine
Ġgot ten
Ġe nds
Ġover all
n ers
Ġstate ment
Ġend ed
Ġbit coin
Ġint u
Ġim m
Ġand roid
Ġfact or
Ġincredi bly
1 0
st er
Ġh d
Ġm ouse
ce ler
Ġt ough
Ġr out
Ġterri ble
Ġp ure
Ġ8 0
Ġfil es
g ot
z z
Ġopp os
Ġey es
Ġshow ing
Ġexa mples
Ġt es
Ġdevelop er
re st
Ġjo h
Ġwee ks
Ġbook s
Ġde li
Ġdest ro
Ġs na
ap an
Ġso ld
2 0
so ft
Ġour selves
us ing
Ġphilos oph
Ġun it
Ġdet ect
Ġr ough
pe nd
Ġcom fort
y st
Ġwho a
Ġav oid
Ġsubs cribe
Ġno ise
Ġli ves
Ġfl ag
Ġref erence
ra cy
Ġzo om
Ġmil es
Ġde mo
ci es
Ġplan et
Ġin ch
po int
Ġrepl ace
a res
Ġcont ain
Ġgraph ics
gg est
Ġperson ally
Ġreg ard
Ġr an
Ġexper iment
Ġopportun ity
Ġdoll ar
Ġhikar u
c ise
Ġsu ggest
Ġstru gg
u gg
la ugh
Ġpol itical
Ġb ought
Ġl ate
Ġit er
in ing
Ġpro vide
ou nds
g ress
Ġt ask
Ġdi v
Ġthe ore
Ġany where
Ġdetail s
Ġsign al
cle ar
Ġem ot
Ġdo m
Ġconf ig
Ġdown load
Ġg ar
Ġchea p
Ġany body
Ġcap ital
Ġj apan
se m
Ġstu di
Ġjoh n
Ġcl oud
Ġjob s
Ġs un
u nder
Ġlevel s
Ġe at
Ġhard er
Ġne ural
l ate
ific ation
Ġf ant
Ġchar ging
ou n
Ġm id
k ed
Ġtest s
Ġca mp
Ġmet a
lo y
Ġlim ited
v al
Ġam d
Ġde le
Ġdes cri
Ġpart y
iv al
Ġ1 7
Ġi gn
Ġdepe nding
Ġchild ren
Ġcomp onents
Ġgener ate
Ġmag ic
Ġim ages
Ġsub ject
Ġspons or
r ast
Ġappreci ate
Ġwill ing
Ġtr uly
is ions
Ġhelp s
Ġi r
Ġm ix
ul ate
Ġmach ines
Ġstud y
Ġb ank
Ġveh icle
s u
Ġpoin ter
Ġcuri ous
Ġcapac ity
Ġprodu ce
Ġcapt ure
Ġm i
Ġp en
Ġpa id
Ġsh ut
Ġsa f
Ġrid icul
Ġbro ad
so ci
Ġcall ing
ut ed
Ġoper ating
Ġclos er
Ġapp s
Ġrel ated
re w
Ġac celer
s c
Ġw omen
m l
Ġskill s
Ġa ust
Ġthousand s
Ġthrough out
Ġgra b
Ġwhere as
Ġli f
Ġquant um
Ġm r
Ġchang ing
o v
Ġbu cks
Ġey e
Ġauth or
is ter
Ġinter face
Ġopin ion
Ġins p
Ġincre ase
p ers
Ġr ound
ore d
Ġres ist
Ġe uro
Ġex ce
Ġpract ice
Ġcir cle
Ġm er
Ġimpress ive
Ġgal ax
s on
Ġp arent
Ġadv ice
Ġimp os
Ġpot entially
Ġmist ake
Ġspir it
Ġde l
Ġcar ry
Ġwind ow
o x
Ġbu d
Ġtes la
i ves
Ġsu mm
Ġs ad
Ġtyp ically
Ġc and
Ġlo sing
Ġep is
Ġbl ah
c er
ctu res
Ġperfect ly
Ġev olution
Ġfor th
s m
Ġf al
Ġcard s
a cy
Ġcons ist
Ġass ume
Ġm us
Ġdo g
Ġpack age
Ġengine er
so me
Ġstr ange
Ġa ware
m i
li ed
Ġameric a
s d
Ġheav y
Ġdou b
Ġmicro soft
Ġglo bal
Ġv ac
Ġpriv ate
Ġb an
Ġtrans form
Ġpattern s
ili ar
Ġf ol
se qu
ol es
Ġgood ness
Ġfl at
Ġconst ant
p us
Ġfl ip
Ġmo ved
Ġwere n
Ġmiss ing
Ġsuccess ful
h ave
Ġexp and
ra el
Ġnear ly
Ġqu ote
Ġfre ed
Ġdec ide
Ġsy n
ain ing
Ġinfl u
iv ed
ag ing
ra ms
Ġres olution
Ġprocess ing
Ġw id
Ġdeg rees
d ed
Ġfair ly
Ġexist s
Ġwhen ever
Ġmother board
Ġoff er
Ġb ur
Ġro ck
Ġaff ect
Ġl ens
Ġc ash
Ġre pe
Ġse x
Ġsecre t
Ġas soci
Ġk ick
Ġ19 9
Ġbu ll
Ġse c
Ġlo ss
Ġcall s
Ġr ati
Ġsudden ly
ic i
Ġa lex
Ġtell s
Ġemp loy
Ġem erg
Ġdevelop ers
Ġelect ron
Ġo il
Ġoff ic
Ġch em
Ġbe e
Ġk il
Ġpossi bly
ograph y
Ġstep s
Ġbo om
Ġvo ice
Ġeffect ively
t ion
Ġmo b
Ġfil m
Ġpol ic
Ġger man
k y
Ġmov ie
ch ar
Ġsh ad
Ġde cent
Ġp ea
Ġacc ord
Ġdem and
Ġvi ol
Ġstu ck
Ġt ree
Ġmanage ment
Ġgalax y
Ġfind ing
Ġdes cribe
Ġsmart phone
d ge
ro ll
Ġtechn ically
ic les
Ġval id
m ar
Ġth r
Ġis rael
l in
Ġho st
Ġsc al
Ġmult i
Ġphot os
Ġsurpr ising
Ġtop ic
os s
Ġins ane
Ġsetting s
Ġrep ort
Ġs n
Ġsh ip
Ġold er
Ġphot o
Ġw ra
ea m
Ġwhe el
Ġit em
Ġcomp ress
Ġtechn i
Ġdi ag
Ġr ow
Ġb aby
Ġshow ed
Ġd er
Ġimplement ation
b ut
Ġsh op
so le
Ġdes p
Ġchip s
r ation
Ġconstru ct
Ġsaf ety
ent ed
Ġho le
Ġnorm ally
Ġfam iliar
Ġimpos sible
Ġex h
Ġcent ury
Ġd u
Ġridicul ous
Ġtr ou
m att
ent y
Ġoc cur
Ġp u
ines e
Ġbring s
Ġincl ude
Ġcor ner
Ġconst antly
Ġcha mp
Ġd en
Ġwa iting
us es
Ġenjoy ed
Ġsequ ence
is es
Ġthere fore
Ġsur v
Ġspe c
Ġev ents
Ġsqu ares
Ġchr is
Ġfreed om
Ġal one
Ġcomp ar
ir ing
Ġtr uck
Ġcons um
Ġbal ance
p ort
Ġachie ve
Ġse mic
Ġoff ice
Ġeff ort
Ġal tern
Ġmove ment
Ġnu clear
Ġdepe nds
Ġoper ation
Ġbenef it
v ant
Ġb and
Ġch inese
Ġoppos ite
Ġco p
Ġdefin ition
Ġproper ly
Ġrelative ly
d a
ic on
Ġb row
Ġdra g
Ġt re
Ġare as
d own
Ġp et
Ġcomplex ity
Ġalgorith ms
Ġd ru
Ġgreat er
Ġmill ions
Ġt un
Ġup on
Ġpo or
Ġfol ks
um n
Ġhigh est
Ġanal y
Ġpass word
Ġevery where
iz es
Ġeuro pe
Ġfre qu
e ff
Ġh t
Ġha ck
Ġal right
us hing
Ġb le
Ġdevelop ed
Ġf ans
Ġinter pre
Ġs ides
lish ed
c r
olog ies
Ġvirt ual
ca pe
im my
Ġamaz on
Ġapplic ations
Ġdestro y
Ġ5 00
Ġsh ar
Ġev ol
Ġdri ver
Ġenc ou
Ġant i
a w
Ġcent ral
Ġsp in
Ġunivers ity
Ġj ack
Ġfin an
Ġlog ic
c an
Ġke pt
Ġgreat est
Ġx box
b ing
Ġcare ful
Ġresour ces
Ġl u
ic ing
Ġf ather
Ġmot iv
Ġthought s
Ġpres ident
Ġtalk s
cket s
Ġstrateg y
Ġcred it
an ch
Ġnam es
Ġknow ing
the y
Ġev al
Ġintern al
e ch
b el
Ġp ow
Ġe c
Ġmo du
Ġun like
ok ing
Ġmet al
Ġnam ed
Ġ rom
int s
Ġstud ents
Ġet c
Ġc ru
Ġart icle
Ġmodu le
b s
Ġsp read
Ġcont act
Ġpri or
ond u
Ġbecom ing
Ġfe et
Ġconv in
Ġip ad
Ġcap able
m it
p ower
Ġco ld
Ġhist or
Ġl am
Ġso vi
Ġnot iced
Ġde cl
ind er
Ġbu ying
Ġ7 0
Ġcol umn
Ġm ate
Ġaccord ing
op s
i pping
ad e
Ġro ot
Ġlead ers
Ġse g
Ġatt ach
Ġjour ney
Ġsignific ant
Ġexpect ed
Ġthe r
or k
Ġengine ers
as ks
Ġref er
Ġsqu ared
ct ors
Ġcomp are
Ġf ram
Ġcol ors
itt ed
Ġadv anced
Ġprog rams
Ġd ue
+ +
Ġrequ ired
Ġcompet ition
Ġang le
Ġfant astic
Ġepis ode
Ġclass es
Ġdec isions
Ġupgra de
Ġrussi a
as on
Ġsh ift
Ġfal se
Ġev il
Ġfing er
Ġall oc
Ġdef ense
Ġhold ing
Ġdeep ly
Ġp ad
Ġex ch
Ġeffect s
Ġbud get
Ġautom atically
Ġcon sequ
Ġ3 2
Ġpartic ip
on om
Ġtrad itional
Ġfore ver
Ġra re
Ġhundred s
Ġpea ce
Ġsm ooth
Ġl ack
Ġas sem
Ġpre vent
av id
Ġemp ty
ang le
Ġacc ur
t x
Ġcond ition
miss ion
Ġtemper ature
Ġgi ant
Ġrati o
en ing
Ġcontroll er
Ġpre p
7 0
Ġu r
Ġdis app
p m
Ġfor t
Ġsil icon
Ġspl it
Ġsu m
pl es
Ġbeing s
Ġtor que
Ġdesp ite
Ġto m
Ġsemic ondu
b all
Ġw es
Ġcon sole
Ġrussi an
Ġdanger ous
Ġte le
e per
Ġf lex
Ġdem on
Ġs sd
it ary
Ġse ction
Ġpro of
Ġp ump
Ġmy st
Ġhigh ly
Ġsimp l
Ġd ad
Ġdynam ic
g b
Ġtr ump
Ġin no
Ġcharact ers
Ġhe ight
Ġat om
Ġch ain
Ġuk ra
le y
Ġrele ase
Ġwire less
Ġdam n
Ġcount ries
ar ant
le ction
Ġtw ice
ay s
ab out
Ġfor got
t ies
ar ter
Ġcomp ile
c ut
Ġad just
Ġscient ific
r is
Ġinst it
Ġhy d
Ġcreat es
Ġrequ ires
ab or
Ġlaugh ing
Ġmethod s
Ġcr itical
Ġexper t
Ġw est
Ġmor ning
ici ency
Ġn ational
Ġscen ari
m on
Ġg pt
and ler
Ġsacrif ice
Ġgrow ing
Ġsurpr ised
Ġeval u
Ġkeep s
Ġslow ly
a kes
Ġfe ar
Ġbo ot
a i
Ġd ram
Ġcon vert
Ġkeep ing
Ġnot ion
Ġst ars
Ġdo min
Ġcl ient
Ġpar all
i est
Ġb att
th ere
Ġev idence
Ġdri ves
b u
Ġ vert
b l
Ġprob ability
Ġbro ken
Ġcost s
Ġoper ations
Ġhor se
Ġra ce
Ġvol ume
Ġmathemat ics
Ġs on
it ude
Ġfocus ed
Ġc ri
Ġsc r
Ġnet works
Ġfore ign
a ced
Ġloc ation
v ation
ys is
Ġass um
Ġarg uments
Ġwin s
or row
Ġhas n
Ġcoll e
Ġdisco vered
Ġform at
b on
Ġnar r
it ors
Ġmechan ism
Ġmanag ed
ra g
Ġcomp onent
Ġd ual
Ġnecess ary
Ġsens or
c ra
le m
Ġbut t
Ġcont rib
Ġact iv
Ġarch ite
fl ow
Ġaspect s
Ġrob ots
Ġcomput ing
Ġre nder
ng th
Ġo dd
Ġsh ock
Ġgig s
Ġarg ue
Ġrele ased
o ke
Ġart ific
Ġsort s
ra id
Ġm al
Ġcool ing
Ġframe work
Ġpre m
Ġserious ly
Ġa x
ant ic
p or
Ġman if
ro om
Ġre ar
Ġadd itional
Ġexh aust
Ġbring ing
Ġpay ing
w r
Ġp al
Ġd umb
Ġex te
Ġthink s
Ġben ch
s a
Ġf i
Ġpi pe
Ġcand id
Ġb ound
ord an
Ġs core
Ġjav a
Ġho ly
Ġke ys
Ġtit le
Ġco in
Ġwe ap
Ġprinci ple
Ġwonder ful
Ġy ork
Ġgra v
Ġact ive
Ġam ong
Ġstre ngth
Ġident ity
c ons
Ġn an
Ġtheore t
ught er
es h
Ġex cl
Ġmob ile
t op
Ġspe ech
cre te
li x
Ġrev olution
id ing
Ġcast le
Ġproper ty
Ġdiscuss ion
Ġb inary
Ġcrypt o
3 0
l ies
pl us
Ġther m
ur ation
Ġsub st
Ġreason able
Ġcomfort able
Ġ12 0
Ġdefe nd
Ġaudi ence
b ar
r ate
Ġj ordan
Ġmil itary
Ġqu e
Ġag gress
Ġexpl ore
Ġmaint ain
Ġth in
es is
Ġvari ables
Ġp ushing
ign ed
Ġjo in
Ġrem ote
Ġli e
Ġcomp l
Ġmin i
Ġcur ve
Ġcr itic
Ġinde pend
Ġmanuf a
Ġassem bly
Ġdep th
Ġpre fer
Ġel on
en cies
Ġbo ost
Ġfam ous
Ġa st
Ġentire ly
Ġlam b
Ġanal og
Ġhor ri
f i
e al
Ġgu arant
Ġcolle ge
Ġdis ag
Ġeng lish
Ġbu ff
Ġeff iciency
Ġcond itions
u ine
Ġ6 4
Ġsc ene
Ġpossi bility
Ġfil ter
Ġj ew
Ġeffect ive
Ġanal ysis
u ff
Ġset s
Ġtour n
d om
Ġd an
a pt
Ġshar p
in st
Ġbeaut y
Ġst ress
Ġhelp ful
for ce
Ġput s
Ġs ong
Ġb ag
Ġle x
u nd
Ġse lling
ag ed
Ġdefin ed
Ġnor th
ur ally
h am
Ġtrans fer
Ġy ell
Ġtrad ition
Ġc ach
Ġval u
Ġstru ctures
Ġexpress ion
Ġw ife
ri x
Ġgen uine
Ġpan el
Ġaf raid
Ġco ff
Ġcr ash
Ġsy nt
Ġg ain
Ġpro ve
Ġplan e
Ġs ite
il s
Ġtrou ble
Ġkn ock
Ġpre cise
Ġre li
Ġlight s
Ġbe ast
Ġintellig ent
Ġit ems
Ġcl ip
Ġwal king
Ġind ic
Ġconst ra
Ġcell s
Ġg ir
Ġleg it
r ors
z en
Ġtechn ologies
Ġed itor
Ġexcept ion
od es
Ġcustom ers
ter m
Ġin ject
Ġpolic y
Ġn av
Ġcont ract
Ġfight ing
Ġpract ical
vid ia
Ġfinan cial
ck ing
Ġrespon si
ord in
h as
Ġp unch
Ġstudi o
Ġartific ial
Ġter min
Ġtrans l
Ġparall el
Ġre ve
Ġserv ices
Ġhang ing
w as
Ġfa c
Ġcool er
Ġmaxim um
ut or
_ _
Ġconsid ered
Ġun ion
Ġacc ident
iz ations
Ġopp osed
Ġblock s
Ġda ily
Ġl ad
le br
ic it
Ġsubs cri
d er
Ġhelp ed
Ġcivil ization
laugh s
Ġsh ared
Ġhy p
Ġview s
Ġb ed
Ġd ate
Ġsovi et
m ers
p a
Ġcreat ive
Ġ202 0
Ġs ick
Ġprocess or
Ġn vidia
Ġde eper
Ġfix ed
Ġem bed
Ġfunction al
ch e
y ear
Ġcan ad
Ġdam age
n ed
Ġaut o
Ġgrou ps
Ġsa nd
in ct
Ġun l
Ġvers ions
Ġscr atch
Ġcon cl
Ġspe nding
Ġdr ink
ab ilities
Ġlead s
Ġcy cle
Ġsemicondu ctor
Ġc ry
Ġsupp ose
Ġdele te
Ġoc c
Ġchalleng es
ome t
Ġce lebr
ci ent
Ġar ri
Ġcorrect ly
tern al
Ġmac book
Ġra d
Ġmot ion
m met
Ġ2 1
Ġexce ll
Ġlin us
Ġmeet ing
Ġeconom y
ul a
ert z
oc ol
for ms
ateg ory
Ġo s
Ġto w
Ġcirc u
Ġrecogn ize
Ġinfin ite
Ġeduc ation
Ġhi er
Ġsuff ering
Ġk en
il ing
Ġjo e
Ġh ertz
et h
Ġmat ters
Ġmat rix
Ġmem bers
Ġconsid ering
g y
ra ction
Ġsurpr ise
o le
Ġfram es
Ġfa ke
Ġc ables
Ġaccur ate
Ġ3 00
Ġcomput ation
Ġsol utions
Ġequ ival
Ġlin ux
Ġd ed
an y
Ġr ub
Ġfinish ed
ati ves
Ġd ing
ra ge
Ġwor ried
Ġtrans act
Ġtur bo
Ġc ategory
Ġn ut
Ġbr anch
un e
d ri
Ġrough ly
ce ed
Ġdisco ver
Ġhier arch
Ġpl astic
Ġb are
Ġfundament ally
Ġb orn
Ġf ly
Ġcl osed
Ġprofess ional
Ġd avid
Ġsh o
Ġlead ing
Ġeconom ic
Ġb urn
Ġmess ages
Ġarchite cture
i w
Ġjo ke
h ood
Ġmajor ity
Ġfigure d
Ġra pid
Ġmo m
Ġhead phones
Ġaut onom
Ġresp ond
Ġface book
Ġgu ard
Ġch andler
? "
Ġv ict
Ġexperi ences
Ġscient ists
Ġexist ing
Ġlay ers
Ġconcept s
Ġest ab
Ġtur ning
i et
Ġk ar
i pped
ir t
Ġpass ed
Ġinstall ed
Ġcoff ee
Ġan no
Ġincre asing
Ġtemp late
Ġdisag ree
om b
Ġpix els
Ġt asks
Ġpl enty
Ġpo ly
Ġcomm er
Ġh un
Ġph en
Ġspeak ers
Ġredu ce
Ġwonder ing
Ġultim ate
Ġst atic
Ġmem ber
Ġsynt ax
Ġequ ation
Ġlink ed
Ġm art
Ġexperi en
Ġtri es
Ġmo on
Ġbl ow
Ġstre et
m as
is f
Ġeng ines
Ġgri d
Ġmathemat ical
Ġm it
Ġinte ger
Ġclass ic
Ġpol it
Ġreturn s
qu es
Ġins ight
rie f
Ġph ase
o b
Ġl as
Ġst eam
Ġmanufa cture
e v
om an
Ġdevelop ing
Ġparame ters
ro me
Ġsl ash
Ġmot or
Ġi con
Ġco vered
ur s
Ġman ual
Ġsignific antly
Ġconcern ed
re g
Ġspe ct
Ġmanag er
Ġparent s
Ġaust in
ist ics
Ġqu al
Ġfeed back
f lix
Ġg ent
Ġmo le
Ġfl u
Ġal ph
el ess
be at
Ġhur t
Ġhas h
Ġse nding
Ġbre aking
os es
Ġprinci ples
yst em
aby tes
Ġmyst ery
p ri
on t
oun ced
Ġnet flix
Ġt ight
re l
an a
Ġrelig ious
Ġa cade
Ġs ony
Ġprom ise
Ġcommunic ation
Ġsk y
Ġanno ying
ro s
Ġr ating
Ġca ught
Ġexpl icit
Ġund ers
Ġspeak er
Ġg ap
Ġcan ce
Ġsc an
Ġbenef its
Ġinstru ction
g ers
Ġta x
b i
at ory
Ġlead er
Ġsk in
9 9
Ġl oud
Ġtw eet
ump tion
Ġchea per
Ġide al
Ġt ens
Ġne ur
con nect
Ġsl ide
Ġexch ange
Ġinstru ctions
is ms
Ġadd ition
Ġconf lic
Ġmanif est
Ġm ir
Ġi ron
ic ated
Ġr y
Ġwat ts
Ġproper ties
il ot
e es
Ġp ounds
Ġfail ed
ke y
Ġcomp ute
Ġhigh light
Ġcompar ison
i k
Ġfr ank
Ġflo or
et ime
Ġline ar
Ġwa ve
Ġflag ship
Ġpur ch
Ġphen omen
4 0
ke ting
Ġrem ind
Ġfor ces
on al
ri al
Ġti res
Ġbatt le
Ġone plus
Ġatt rib
Ġ19 8
Ġman ip
Ġad op
Ġm ut
Ġaff ord
Ġcour ses
Ġlo ved
v able
Ġst a
Ġstand ing
b ri
Ġhelp ing
p art
Ġt utor
Ġsome what
Ġth ick
ne ath
Ġwe ar
Ġcon ver
Ġshoot ing
Ġabst ract
Ġli ber
o ver
Ġmo ments
ou nce
Ġdi vid
Ġhy per
Ġpop ulation
Ġt ab
Ġass ist
Ġgrow th
Ġexcell ent
Ġli ked
ru cture
Ġf ish
Ġtrans ition
idd en
Ġbrow ser
Ġv ia
am es
Ġma d
Ġra w
Ġstart up
id er
Ġbu g
Ġport s
Ġlab el
ctu ally
Ġsw eet
Ġbro ke
Ġr ing
Ġnat urally
iw an
Ġoper ator
j o
igh b
Ġukra ine
w ell
Ġunder neath
Ġi ce
con t
a ven
m ark
Ġb rief
Ġbo ys
Ġmist akes
Ġto ken
Ġco gn
n al
Ġpu zz
s pe
Ġli qu
Ġtutor ial
Ġp eak
Ġun ity
Ġtourn ament
p i
Ġfail ure
it able
cept ion
Ġj on
Ġequival ent
Ġhe ld
Ġcon crete
Ġ4 00
Ġpa ul
i bility
Ġfa ith
Ġdesk top
st and
Ġas ide
Ġequ ip
Ġmultip ly
Ġlat est
Ġst able
Ġsat isf
Ġhor iz
Ġnarr ative
Ġvalu able
Ġcollect ion
h ead
Ġbelie f
Ġinclud ed
Ġintu ition
Ġho ok
Ġth umb
ul ations
Ġne ighb
Ġr gb
Ġterri f
Ġw oman
Ġp and
Ġac comp
Ġdeal ing
Ġtherm al
Ġg un
Ġcheck ing
Ġment al
co nd
Ġsh ap
Ġansw ers
Ġf resh
Ġbas is
Ġcra p
Ġp ed
Ġta iwan
Ġbo b
Ġpick ed
Ġco res
Ġde ca
Ġbutt ons
Ġsee med
Ġtri p
e in
st ation
Ġsu ck
Ġfl ash
r un
Ġpar ad
Ġfor ms
Ġr pm
Ġhuman ity
Ġelect r
Ġcomb ination
Ġsl ot
Ġwatch ed
Ġtyp ing
Ġimportant ly
Ġk ore
Ġcoll abor
Ġmaterial s
st ream
Ġjapan ese
b ased
m ate
Ġcy ber
Ġveh icles
Ġcy l
Ġh itting
Ġgo sh
Ġfour th
for ward
th rough
ord er
Ġhyd ro
Ġpos itions
Ġer rors
Ġfoot age
Ġsp here
Ġlink s
Ġcustom er
Ġdimens ions
Ġassoci ated
Ġdemon st
Ġtrans p
ig ning
os ing
Ġen s
Ġmat t
Ġconvers ations
Ġwas te
Ġcalcul ate
Ġb oss
Ġre in
Ġleg al
Ġple as
Ġdiffere nces
Ġsim ulation
Ġun its
Ġbr other
ure d
Ġsitu ations
Ġassum ing
Ġprogram mer
Ġref lect
cra ft
Ġco ok
Ġhe aven
Ġlea ving
Ġexist ence
Ġht ml
Ġmiss ed
Ġliqu id
Ġenc rypt
Ġcha ir
Ġvol t
go ing
Ġdom ain
k a
Ġl it
if ying
- -
f rom
Ġ2 3
Ġcomm it
Ġprem ium
Ġde pl
z a
Ġcar bon
Ġsal es
Ġstop ped
pr int
Ġcommunic ate
al y
Ġti re
Ġequip ment
Ġspeci es
Ġref resh
Ġdistrib ution
Ġ vel
Ġnot es
Ġsa ving
Ġcr is
Ġwhe els
ul ated
Ġsol ving
Ġteach ing
Ġj an
Ġl ic
bra dy
os ition
Ġluck y
ari an
Ġdeter min
a ks
r s
Ġrele vant
Ġli kes
Ġsy mmet
Ġanim als
Ġmar keting
er ve
Ġunderst ood
Ġmill ime
Ġsch ed
Ġvac c
Ġreve al
ere nces
Ġh oles
ro p
Ġgra du
m os
Ġjo y
Ġsol ar
d s
Ġbri dge
Ġparame ter
d r
n et
ut ch
aby te
Ġh idden
ac ing
Ġaltern ative
Ġdraw ing
Ġback wards
Ġrecord ing
Ġtypes cript
Ġintegr ated
Ġ __
Ġexpl an
Ġresponsi bility
Ġm ich
Ġcheck s
Ġstud ent
Ġimprove ment
Ġprim ary
Ġh ans
Ġconsist ent
Ġcle ver
Ġt ons
Ġ2 2
Ġpass ing
Ġor th
Ġfield s
Ġinteract ion
Ġhop ing
Ġbe gan
ish ed
Ġpass ion
Ġorgan ization
Ġec os
b ilities
Ġex ternal
Ġad apt
ag ram
Ġsou th
Ġsna p
Ġo x
Ġdi ed
Ġ2 7
Ġdescri bed
ill y
Ġsh aring
Ġcl i
Ġunivers al
Ġhyp oth
rou d
Ġcon ven
Ġcont ains
Ġbu mp
Ġunders core
Ġj es
Ġ4 5
Ġre verse
ap ter
Ġsl ower
Ġdri ven
Ġs ea
r ated
Ġo led
Ġco ordin
Ġcre ation
Ġf ed
Ġen em
Ġhorri ble
o int
a f
are n
Ġdeli ver
Ġcor res
Ġdeca des
Ġha ir
Ġins ert
Ġscre ens
Ġstand s
Ġattack ing
b age
nd on
d imens
Ġfe ll
Ġconf ident
Ġb ir
Ġlaugh s
Ġas yn
Ġpl ant
act uring
Ġlet ter
rast ructure
y our
Ġw rest
b m
Ġinter f
Ġwat t
9 0
n am
Ġkind a
Ġdifferent ly
Ġprocess es
Ġgo als
Ġsh if
Ġsh ots
Ġste el
Ġscenari o
k i
Ġsp an
Ġchristian ity
Ġac qu
ic ate
Ġspeed s
Ġmar s
ian o
Ġdep art
Ġmor al
Ġjour nal
Ġta ught
Ġapp lied
Ġintern ational
Ġstraight forward
Ġh ide
Ġminim um
Ġj ake
Ġal ive
Ġtop ics
Ġgre w
Ġsc ary
i us
Ġid i
Ġallow ing
Ġs an
ess ion
Ġaggress ive
im in
Ġinc or
Ġan cient
Ġes cape
h and
Ġin her
Ġ ]
Ġb oring
Ġexec ute
Ġform ula
Ġgrav ity
Ġattack s
bel ie
Ġde ck
Ġta p
Ġupd ates
Ġstream ing
Ġn ic
Ġpl ugg
Ġmechan ical
Ġdoub t
ea ble
Ġlibr aries
ens ity
re ally
Ġbi ology
Ġali en
Ġinde ed
Ġlet s
Ġinf rastructure
Ġstrugg le
Ġsec ure
Ġli ft
Ġex er
Ġed ges
Ġlaw s
Ġqu iet
x im
ist ry
Ġexpect ing
Ġann ounced
Ġhead s
Ġlar gest
Ġa ctions
Ġpre te
Ġfact ory
Ġbr it
Ġfold er
p n
Ġorigin ally
Ġ10 80
us ive
ap ix
Ġgl ad
k now
Ġkill ed
Ġprom ot
Ġdest ru
Ġo ct
Ġm esh
Ġu m
Ġfunction ality
g u
il es
Ġta ct
Ġmanuf acturing
Ġatte mp
Ġint ention
Ġimpro ved
Ġexec ut
Ġrepresent ation
Ġinterpre t
Ġr ise
Ġa im
Ġh all
Ġsa m
Ġfa ult
Ġtea ms
Ġbl ind
Ġphilosoph y
m ine
Ġbl ood
Ġed it
Ġse es
Ġal t
Ġtrans mission
Ġext ent
1 00
Ġcommer cial
Ġpolit ics
ct ive
Ġprot ocol
Ġis ol
Ġgenuine ly
dimens ional
Ġsh it
Ġinst agram
Ġreg ion
Ġhierarch y
c les
Ġf ru
Ġrelig ion
Ġbuff er
Ġh ero
Ġcons erv
Ġpartic les
Ġgerman y
Ġb id
Ġad m
Ġopen ed
Ġreg ister
Ġconf erence
Ġpull ing
Ġfall ing
Ġnav ig
? )
Ġwo od
h a
i b
Ġsh out
Ġthread s
od ox
Ġmy th
Ġfr ust
1 2
Ġs me
Ġgener ated
Ġconf used
Ġr tx
f ish
Ġb reat
Ġcut ting
Ġbatter ies
Ġar bit
it ory
Ġdes ire
ctu al
Ġ2 000
Ġsu cks
ath an
Ġli ved
Ġval ve
, "
Ġge omet
Ġwes tern
Ġecos ystem
m od
all ed
pe ople
Ġcor por
Ġtyp ical
Ġplan ning
Ġinvest ment
Ġa th
Ġf if
od ing
Ġeng age
Ġgar bage
Ġra ise
Ġu i
Ġfollow ed
Ġfre aking
Ġmathem atic
Ġv ul
Ġbl og
Ġwa ke
i mp
Ġimplement ed
Ġcirc um
Ġresist ance
Ġpo ol
Ġvari ety
Ġl ith
Ġed iting
Ġar c
Ġfound ation
Ġright s
Ġfil mm
Ġwho se
Ġmeg apix
Ġri g
Ġbare ly
Ġp roud
en ed
Ġg ate
Ġin cent
Ġf at
Ġhorse power
Ġstore d
Ġe ast
Ġsp aces
Ġtrain ed
q l
r ange
Ġa mp
Ġs en
Ġc art
Ġri ver
Ġinit ially
a ctually
ca p
Ġb on
un t
Ġmiss ion
Ġcompet itive
Ġvel oc
Ġimp lic
Ġpull ed
ur d
Ġdi vide
Ġ2 6
in o
Ġb es
Ġn a
Ġv ast
Ġpro s
os h
Ġsens ors
Ġbir th
ith ub
Ġappear s
Ġregard less
g a
k er
Ġcor rupt
Ġreach ed
t ch
Ġcandid ates
Ġp ci
Ġtra ff
Ġchalleng ing
Ġbu dd
Ġsur round
wh ich
Ġrelationship s
Ġmar io
Ġrook s
Ġlim its
Ġk it
Ġvir us
Ġindepend ent
Ġqu ot
Ġpr ices
Ġmar gin
Ġdepl oy
Ġg ithub
Ġstru ct
Ġchem ical
Ġsurv ive
Ġmod ules
so red
wh en
Ġcha os
Ġrem ain
Ġinvest ig
Ġflo at
Ġi bm
Ġj immy
Ġsh own
Ġfir m
Ġass ign
Ġis land
Ġz ig
at a
Ġti p
Ġarg u
Ġsh all
Ġprogram mers
Ġtri angle
Ġsk ip
Ġphys ically
Ġby tes
ph ere
Ġcomb ined
up beat
Ġconnect ions
Ġalph a
Ġjes us
Ġthe ra
Ġ202 1
Ġintrodu ced
c al
Ġl tt
Ġlo ndon
lo ok
Ġlif etime
Ġtechni que
Ġlight ing
Ġt ic
l ad
Ġmir ror
Ġorth odox
c ase
Ġso ph
Ġman ner
Ġign ore
ch ron
Ġprodu ced
Ġsur ve
e y
Ġco s
Ġst o
Ġviol ence
Ġoper ate
Ġstring s
Ġcont rast
Ġc up
Ġta pe
Ġ19 7
Ġscient ist
Ġdru g
th ink
Ġph r
Ġindividual s
Ġmount ain
Ġh om
Ġh its
Ġr ank
Ġprop ag
Ġconsum er
Ġtom orrow
Ġc ub
ab il
a lex
Ġp un
Ġspirit ual
Ġb ang
Ġqu it
Ġoffic ial
Ġi i
Ġse lection
Ġcl ar
Ġcontrol s
Ġsca m
Ġconflic t
Ġs illy
Ġo oh
Ġsa mple
Ġconstru ction
Ġatt ract
Ġcircu it
d on
e very
Ġadv ance
Ġarbit r
ol t
Ġste al
Ġchamp ions
Ġno vel
Ġpal est
Ġlamb da
Ġs now
Ġc as
Ġup load
Ġdro pped
Ġcompl ain
Ġmin or
Ġmov ies
Ġe ating
um in
or ge
Ġint ake
Ġtechni ques
Ġcach e
Ġw is
Ġcra ck
Ġpush ed
Ġremo ved
sm c
b re
h ouse
ul f
Ġsp orts
Ġfre n
Ġshort cut
Ġc ate
ip ed
Ġprof ile
Ġf lying
Ġres ol
Ġact ivity
Ġgri p
Ġdis e
Ġsol ved
k n
r ict
Ġqu ad
Ġtest ed
ll s
Ġsp ort
Ġsus p
Ġr ated
Ġconf using
Ġstat us
a el
Ġsub t
Ġfast est
Ġrepres ents
Ġpa use
com ing
Ġyell ow
Ġl ord
Ġfor ced
ce nd
Ġtrick y
Ġfl aw
Ġatte mpt
Ġen orm
Ġmed ium
b es
Ġan ge
gg ing
Ġemot ion
Ġn ope
Ġcomb ust
Ġdimens ion
Ġc ube
Ġsp on
Ġsuc ceed
sp eak
p ack
Ġfact ors
Ġlaptop s
Ġd iction
Ġcheck mate
ome ter
Ġthr ot
pl ace
Ġbre aks
Ġveloc ity
Ġam b
Ġstud ying
Ġvul ner
Ġchar ger
Ġpand em
r um
Ġinst ant
Ġgener ator
Ġlock ed
Ġprovid es
Ġr ay
Ġle an
Ġle ge
Ġpre f
be cause
Ġconf idence
Ġt smc
Ġf ps
Ġbe ar
Ġpr ote
Ġhe ck
Ġd ive
it ation
ot y
im ents
Ġgra de
Ġland s
Ġdocument ary
Ġtraff ic
os ity
Ġmultip lic
Ġpast e
Ġst ation
iz er
Ġreact ion
Ġc pus
Ġy o
Ġsymbol ic
Ġse m
Ġser vers
lem en
Ġrun time
x ic
Ġad min
Ġn erv
Ġgent lemen
Ġyes ter
Ġpain t
Ġind ia
Ġexperien ced
Ġv im
Ġrece ive
lin us
i ate
Ġth us
Ġcontin ues
Ġinclud es
Ġaw ful
Ġfan cy
Ġrece i
Ġque ens
Ġr ates
Ġsa ved
Ġpossi bilities
Ġoptim ize
Ġinput s
Ġconfig uration
Ġcanad a
Ġ3 5
Ġlas er
Ġdeb ate
Ġunl ock
Ġg pus
r ant
Ġ9 9
Ġrespon sible
Ġinflu ence
Ġne uro
Ġde cade
Ġen able
idd ing
Ġsa int
Ġdivid ed
it z
Ġdi es
Ġce o
Ġyester day
Ġcomput ational
Ġre ward
Ġprevious ly
Ġb ind
Ġd ust
Ġ202 2
t r
Ġc ert
Ġrepe at
Ġyour s
Ġdisplay s
or ter
Ġne at
Ġoff ers
Ġobject ive
Ġplat forms
Ġweap ons
h old
Ġh ol
ir ty
Ġpr ay
Ġt ro
Ġch rome
Ġto k
Ġad vert
Ġbl ur
Ġintrodu ce
Ġu pper
Ġintell e
Ġsour ces
Ġfren ch
ch ain
Ġmar ch
Ġphys ic
g ment
Ġtemp or
ou th
Ġdi al
Ġcate gor
Ġri de
Ġyou n
Ġfrequ ency
Ġcho ices
w ater
Ġspons oring
Ġdocument ation
Ġre ven
Ġqu ery
Ġput in
Ġprodu cing
gg ed
Ġmind s
ash ion
Ġhear ing
Ġlab or
Ġp ages
Ġj son
Ġdel ay
Ġwe aring
Ġ202 3
Ġlaunch ed
Ġlo ses
Ġstandard s
Ġnerv ous
Ġs ke
Ġto wn
Ġpo cket
Ġpure ly
Ġh at
Ġtrack ing
Ġconsequ ences
Ġj er
Ġar row
Ġanim al
e g
Ġro lling
Ġgra di
Ġjon athan
Ġp ill
Ġbl o
Ġpict ures
Ġweak ness
Ġabst raction
Ġc ute
Ġl l
Ġlet ting
Ġent ry
Ġsupport s
Ġpoin ters
Ġa es
Ġd in
ent ure
Ġoff ering
Ġlay out
Ġc ine
am ing
Ġro cket
Ġkey word
Ġext ension
Ġameric ans
Ġprofess or
op er
Ġv s
Ġinv ent
Ġder iv
Ġr u
Ġad am
Ġspons ors
Ġsw e
Ġflu id
ic ation
Ġded icated
Ġsoph istic
Ġra in
Ġfl ood
Ġ201 9
Ġpl ate
g ue
Ġdeb ug
Ġhar m
Ġwra p
ang es
Ġstre tch
ra ble
Ġsh ipping
int end
ot ic
Ġindust rial
Ġcompress ion
Ġm ort
Ġpub lished
1 1
Ġb ab
Ġun belie
Ġsub tle
Ġupd ated
Ġmich ael
Ġm ile
Ġflo ating
i ation
i pp
Ġta g
Ġhad n
Ġcurre n
Ġdisapp oint
Ġsh el
l og
Ġwe ather
Ġbl u
Ġcar ls
Ġexec ution
at ible
Ġat mos
Ġany time
Ġdep ress
Ġpriv acy
Ġt ast
Ġfor k
Ġta il
wor king
Ġexplan ation
Ġn ation
Ġfact s
Ġload s
intend o
Ġp rag
Ġn ative
ber t
Ġdri vers
Ġspec s
Ġtrans ist
Ġstock fish
Ġt ick
Ġcombust ion
Ġd ar
th etic
Ġcol on
Ġh ung
ip s
Ġlarge ly
Ġwid th
Ġvert ical
k ind
Ġho od
Ġtrans formation
Ġoptim ization
Ġ2 8
Ġspon sored
Ġres ume
Ġsimp ler
Ġappro pri
u ct
Ġa ug
Ġv ot
Ġun s
Ġpa pers
Ġimpress ed
Ġdistrib uted
Ġb ird
ist ically
Ġcyl inder
Ġe gg
Ġun c
Ġunder lying
Ġtra ding
here nt
Ġt all
Ġn er
Ġe u
Ġintu itive
Ġs co
la ughter
Ġsent ence
g ger
in ian
Ġdru gs
Ġembed ded
b ble
Ġsupport ed
Ġdepart ment
ve re
Ġplay station
Ġresour ce
Ġcl imate
r ating
Ġch unk
Ġfall s
Ġrout e
speak er
Ġre ct
laugh ing
Ġneg ot
Ġscrew s
Ġg ree
Ġse ed
Ġident ify
Ġd ry
le vel
Ġk idding
Ġappro xim
Ġca used
Ġdeter mine
Ġacceler ation
Ġmegapix el
Ġgu ide
Ġhu a
ll y
Ġpro mpt
Ġelectron ics
Ġt ang
Ġp ip
Ġwe alth
Ġad s
p ace
Ġg y
Ġpl ot
Ġwant ing
Ġwho ever
Ġcour t
Ġexc use
Ġse ason
Ġsc ope
Ġpuzz le
Ġqu arter
Ġstop s
Ġmechan ics
kn own
cl ock
Ġhu h
Ġsign als
Ġfab iano
l ines
Ġgener ic
Ġcreat or
Ġattach ed
Ġrobot ics
Ġf its
Ġless on
Ġhd mi
t ra
Ġd ump
Ġbi ological
Ġrece ived
Ġwis dom
j immy
ic ious
ri er
Ġmed ical
Ġo ce
Ġconf ir
Ġstud ies
Ġhydro gen
c ol
Ġper ce
Ġper ception
Ġpoint ing
Ġfl ight
Ġfocus ing
5 00
v in
Ġs ql
ne w
Ġn intendo
Ġhon or
Ġmeaning ful
Ġfill ed
Ġtic ket
Ġp icking
Ġwe igh
Ġsca red
Ġnut s
we i
Ġbright ness
w ill
Ġt ension
Ġh ous
Ġg ray
Ġob s
Ġop ens
Ġlat ency
Ġry zen
t z
Ġr h
wh ile
Ġc row
Ġde cre
Ġthrow ing
Ġ15 0
Ġrot ate
Ġint ense
Ġinst r
Ġgen ius
Ġpercent age
Ġsuff icient
Ġut il
Ġal ign
Ġ201 8
Ġgr ant
ren cy
Ġopportun ities
Ġconven ient
as ion
Ġclass ical
Ġauthor ity
Ġpandem ic
Ġhealth y
Ġdiction ary
re al
et er
Ġdo ck
Ġa in
Ġconcl usion
j ake
Ġer a
Ġne ither
its u
Ġenorm ous
Ġdis k
Ġpol ice
Ġchrist mas
Ġchann els
Ġm ask
Ġwar m
Ġemot ional
Ġste ve
ul ating
Ġbox es
Ġhua wei
Ġag ent
Ġexp ans
Ġcontro vers
Ġpurp oses
Ġexper iments
Ġre ly
Ġexpl o
Ġinflu en
Ġch ose
Ġfind s
Ġinterview s
g i
Ġcom ed
Ġimprove ments
Ġw ars
Ġn odes
Ġpre par
Ġfa ces
Ġdynam ics
Ġclaim s
th ese
Ġdemo cr
Ġbe z
Ġprovid ed
Ġadd s
Ġmet ers
Ġess ential
se e
Ġcris is
a way
Ġt rees
Ġs ust
Ġdis ci
Ġind ian
ak ed
Ġguarant ee
os ure
Ġbu gs
ub lic
Ġpar k
Ġrecord s
Ġse al
Ġti ps
Ġfa cing
Ġown ers
Ġcircum st
Ġapp lying
Ġexp ort
Ġhand ling
Ġlea p
Ġdiv ision
some thing
Ġautonom ous
Ġm outh
Ġst ood
Ġj i
Ġwhere ver
Ġup set
Ġed ition
Ġopt ical
inst ein
Ġm c
Ġti ed
Ġradi o
Ġp ound
Ġcomp rom
Ġti e
Ġsc roll
Ġsw ap
ific ations
Ġemp has
Ġcontroll ed
Ġv an
ip her
Ġnar row
a ur
m r
Ġel imin
Ġpow ered
Ġthe ories
Ġz one
Ġnice ly
Ġw ise
Ġg a
Ġin ner
Ġest im
Ġpr ison
Ġblock chain
u racy
Ġrook ie
Ġphilosoph ical
il er
Ġcl ust
Ġpow ers
Ġens ure
Ġd ance
ap se
z er
Ġl g
Ġma ps
her tz
Ġstate ments
Ġpub lish
air s
Ġaccident ally
Ġvis it
Ġmeta ph
Ġinher it
p od
Ġconcern s
Ġth under
Ġas us
thing s
Ġident ical
Ġp itch
Ġshad ow
Ġf ri
be ast
Ġ6 00
Ġprep ared
Ġt ank
Ġsu it
Ġcompet e
or ation
Ġad ult
Ġshe ll
Ġbill ions
Ġsp ark
Ġlea ves
Ġhd r
Ġspect rum
Ġcarls on
Ġv r
Ġsp ring
Ġvi br
ar m
Ġwin ner
Ġmagn etic
Ġadvant ages
Ġrepresent ed
Ġtim ing
Ġand rew
Ġbas ics
Ġin ev
Ġnow here
Ġen ab
Ġrem aining
Ġarbitr ary
er al
Ġtow er
Ġthrot tle
e me
Ġm m
Ġaccomp lish
Ġ #
Ġspecif y
Ġsymbol ism
Ġelectric ity
Ġtok ens
Ġu g
di ff
Ġauth ent
Ġc ities
Ġpoint ed
Ġtemp l
Ġra ised
Ġaf ric
Ġsumm er
Ġchamp ion
Ġtermin al
Ġsophistic ated
b ling
Ġb ul
Ġhar v
p al
Ġent ertain
Ġwa ves
Ġtheoret ically
Ġestab lish
Ġfru it
Ġch am
Ġinv ented
Ġwall et
p ass
Ġser ve
Ġem bar
Ġrest rict
Ġdisc ount
Ġexer cise
g onna
Ġto y
Ġin form
Ġre ject
Ġoptim ized
Ġkill ing
Ġneur ons
Ġprete nd
Ġag ency
Ġswitch es
Ġmus k
Ġa ck
Ġg all
Ġk ern
Ġequ ations
Ġprotect ion
Ġconsequ ence
Ġser ial
a le
Ġf usion
ur ning
Ġsl ides
Ġgener ating
Ġcomb ine
Ġphr ase
Ġcl ub
ro g
ie f
Ġmatch es
f in
o o
Ġthe me
Ġh ilar
ll ed
Ġj ames
Ġan x
Ġhi re
te ch
Ġca uses
Ġcorres po
Ġchampions hip
g ame
re t
ut ation
Ġcomp atible
Ġpart ner
Ġinter rupt
ill a
Ġsch eme
Ġdig its
Ġinstit utions
Ġbrit ish
Ġnot ch
Ġlo ose
Ġl ying
Ġtw itch
ish ing
Ġemploy ees
Ġdrag on
Ġb omb
Ġne ut
od ies
Ġcap abilities
Ġhold s
Ġfriend ly
Ġsp o
Ġun com
Ġproduct ive
ony m
Ġinfin ity
Ġscen es
ly mp
Ġcl utch
wh el
Ġem b
pre ne
Ġyoun ger
k ers
re ed
Ġpri ze
j s
Ġbishop s
Ġincre ment
ol ic
Ġus ual
Ġres et
Ġtri al
b et
Ġf et
Ġwork ers
Ġrequire ments
Ġfort un
re prene
Ġinf ect
Ġreli able
j ared
Ġp ars
Ġche ating
Ġtri ple
Ġcoll ea
Ġhit ler
Ġprovid ing
Ġlet ters
Ġbra dy
Ġbr ut
Ġcri min
Ġplugg ed
Ġse at
Ġman ually
cl ass
Ġtext ure
Ġhilar ious
w ould
Ġb ow
pp y
Ġte x
Ġdig it
Ġtre nd
er os
Ġf ashion
ers on
Ġy ield
Ġn ich
Ġre wr
Ġbuild s
Ġang ry
Ġve ctors
Ġ201 6
Ġn ft
Ġprint ing
Ġs ession
Ġc s
we ight
Ġmeg a
Ġmix ed
z ing
Ġresp ons
Ġfinger print
Ġcogn itive
Ġdise ase
Ġexper ts
Ġ19 6
Ġwall s
Ġenter pr
Ġvolt age
Ġo lymp
Ġj u
ome ters
Ġdefe nding
Ġtrick s
Ġhistor ical
co nds
Ġent reprene
ak er
Ġremo ving
Ġinno vation
olog ically
Ġaccount s
Ġjud ge
ven ess
Ġinter medi
Ġmill ise
force ment
y le
Ġi os
m ake
Ġpl ans
Ġhead set
cul es
Ġstrong er
Ġevol ved
Ġleaders hip
Ġsust ain
wh o
Ġleg s
Ġloop s
Ġfing ers
Ġvict im
Ġbrain s
c alled
Ġc ath
if i
Ġwi k
o ying
ro ad
Ġchem istry
Ġexpans ion
Ġform er
Ġc el
ok es
Ġsur f
Ġsupport ing
Ġinno v
th an
Ġout come
ctu red
Ġd ensity
Ġbi ble
g reg
it arian
id s
Ġrep ublic
Ġhead phone
Ġs ir
Ġm ur
Ġfo ol
up s
Ġelectr ical
Ġus age
et ooth
Ġca res
Ġsou l
Ġkore a
Ġwrest ling
Ġt ill
st ru
Ġdesign s
Ġlog ical
Ġstrugg ling
n el
r ink
ou nder
ere nt
Ġeas iest
Ġhead er
Ġreview s
Ġur l
h ell
p ie
in ch
Ġexist ed
Ġpsych ology
Ġanaly ze
Ġst al
Ġste ering
Ġshap es
Ġdra wn
l ittle
Ġfra ction
Ġconvin ced
iped ia
as p
Ġ4 8
Ġless ons
Ġevolution ary
Ġg ro
or ph
Ġexpl os
uck les
Ġconstru ctor
Ġrequest s
Ġd ash
Ġco des
ol ine
Ġext ract
Ġtemper atures
Ġsurprising ly
Ġmotiv ation
Ġwar ning
u ary
Ġgold en
m u
ir ation
Ġpl ants
Ġar ms
Ġcompet ing
c ar
n is
ad ays
Ġmac ro
Ġg ather
ur ance
ul ator
Ġ7 5
Ġamount s
Ġsens itive
Ġassist ant
Ġbudd y
Ġadmin ist
Ġimpro ving
Ġcategor ies
" .
ea red
Ġbelie ved
Ġbr own
Ġali ens
Ġdestroy ed
Ġtheoret ical
ok en
Ġset t
Ġafter wards
bu ild
Ġnow adays
om s
Ġshe et
la use
Ġconvin ce
Ġconstra ints
Ġack now
Ġp atch
om i
Ġperson ality
Ġtri gger
Ġdo ctor
int o
Ġmen u
ing u
Ġhard est
Ġinte gers
reme nd
Ġoce an
Ġcare fully
Ġparticip ate
Ġ# #
Ġoptim al
Ġdepend ency
Ġbench mark
Ġpurch ase
Ġem iss
Ġann ounce
Ġblu etooth
Ġbid en
Ġsm arter
Ġcre w
Ġprot oty
Ġpain ful
Ġcli ents
w o
Ġch ances
Ġti red
ell ing
Ġ9 5
Ġprof it
Ġaust ral
Ġhoriz ont
Ġgir l
Ġoff ered
Ġrepl aced
Ġcurren cy
h an
r ass
Ġbe ll
Ġre ci
Ġco ach
od ed
itt y
Ġconnect or
as hing
Ġlight ning
Ġact ing
Ġdescri bing
Ġexplicit ly
s l
Ġfig uring
Ġori ent
eff icient
Ġv ote
Ġenem y
Ġwik ipedia
w ide
Ġbl ame
Ġsign ed
j a
Ġ2 50
Ġgradi ent
Ġrout ine
Ġmillime ter
Ġpart ly
Ġsmart phones
Ġpack aging
Ġpleas ure
Ġb er
id el
Ġlo ves
Ġtable t
Ġappropri ate
v ial
ra d
os p
Ġknight s
v ision
Ġt remend
Ġemp ath
Ġa ra
Ġcount ing
w id
w ind
Ġcan cer
Ġsa le
ang les
Ġintegr ation
Ġseg ment
Ġsho es
Ġb other
Ġma le
i ff
Ġp ins
Ġst abil
Ġprof ound
Ġso cket
Ġr ational
Ġover whel
Ġmechan isms
Ġlaw y
Ġd ying
Ġg ift
Ġover l
Ġass ets
Ġplan ets
book s
Ġprop os
Ġembar rass
Ġpart ners
get s
Ġencou nter
Ġ8 00
Ġfra ud
Ġmarket s
Ġc it
Ġl ag
Ġtr ash
Ġexp onent
Ġabs urd
Ġprot est
Ġweap on
Ġneighb or
Ġlege nd
Ġj s
Ġmanufacture rs
Ġintelle ctual
2 00
m es
o ber
Ġb a
Ġad mit
pro du
Ġr ou
ort ion
os en
Ġsl a
Ġfu ck
Ġmed ic
Ġtravel ing
Ġmole cules
Ġb order
Ġme at
Ġlic ense
s cre
Ġte nds
Ġdis s
Ġcheck ed
Ġdirect ory
Ġinsp ired
Ġacade mic
c ers
d is
k in
Ġcoll apse
Ġinte nded
Ġsuccess fully
Ġprecise ly
Ġd dr
Ġjew ish
Ġbr ick
ane ously
Ġcon cur
Ġret urning
Ġacc uracy
Ġord ers
Ġliter ature
Ġasyn c
Ġgeomet ry
ic ial
ol f
Ġheav ily
Ġanalog y
h ost
Ġl en
ro ph
Ġmo ses
Ġrem ains
Ġpack ages
Ġi phones
Ġc d
st ore
Ġx ia
Ġdire ctions
Ġdepend encies
Ġencou rage
Ġdisci pl
et ary
Ġgener ations
Ġbusiness es
Ġbull et
Ġjan uary
wid th
Ġart icles
Ġkern el
Ġre dd
Ġj un
Ġr ows
pt ic
Ġper man
Ġbus y
Ġde ce
Ġart ist
Ġto ward
Ġg ram
Ġdi vers
Ġmon ster
Ġex it
Ġ201 7
Ġcolumn s
Ġread er
n s
in ction
en er
Ġreal istic
Ġclose ly
Ġlog o
app lause
p her
as y
ic ip
Ġpred iction
Ġwalk ed
Ġminim al
Ġstudi ed
Ġcomp act
Ġhapp iness
Ġsl ots
Ġel o
Ġfu cking
Ġir an
Ġoffic ially
Ġrom an
Ġexte nd
Ġsubt ract
u ed
Ġcl im
Ġreason ing
Ġproduct ivity
Ġill eg
Ġcontinu ed
Ġspin ning
Ġsto res
Ġreven ue
us i
Ġrec urs
Ġbegin s
Ġlab s
Ġh ill
ber g
pro cess
se mb
ag er
Ġbel ong
Ġpur su
h d
Ġter r
Ġtrans port
Ġtransact ion
Ġb un
Ġdis p
Ġhum or
Ġconnect ing
Ġmag ical
Ġthreat ening
Ġnan ometer
Ġexcl usive
u ous
Ġb orrow
Ġsp a
ire ct
Ġselect ed
Ġbur ning
Ġoct ober
Ġt ub
Ġb at
Ġg ard
Ġcomp re
Ġmem or
Ġopt ional
Ġcast les
Ġapproach es
Ġenterpr ise
com m
Ġbra ke
Ġelectron ic
Ġderiv ative
Ġm ig
ch o
Ġint ent
Ġeff orts
Ġlea k
Ġ202 4
Ġpres ence
Ġtw ist
Ġtri ll
Ġform al
Ġcommun ities
i ence
ke nd
Ġworld s
Ġmod ify
Ġp ace
Ġj eff
ess ed
Ġla id
Ġap olog
Ġmath s
Ġshock ing
Ġe ther
Ġeurope an
Ġs ink
Ġh osp
am a
Ġswitch ing
Ġtheore m
Ġunc ertain
Ġcircumst ances
ur b
Ġmem ories
Ġstop ping
re nt
Ġinter se
Ġ3 6
Ġbott le
Ġge orge
fort able
Ġji u
Ġsh ield
Ġti er
ci f
Ġro les
Ġacc um
Ġcontinu ous
2 5
l im
p ad
Ġbl itz
Ġtrans late
Ġconserv ative
ch ris
Ġal umin
Ġca ve
Ġxia omi
Ġsh orter
Ġpo ke
Ġrandom ly
Ġmatch ing
Ġconv ention
Ġsim ult
Ġatom ic
Ġevalu ate
Ġfif th
Ġt an
Ġag reed
Ġ3 60
Ġcons umption
Ġart s
Ġsex ual
Ġband width
Ġcri me
Ġh iring
Ġby e
Ġdis connect
Ġcreat ors
ati bility
Ġpsych ed
Ġstri p
Ġsus pect
Ġdisapp ear
rag on
gy pt
Ġharv ard
ra cle
Ġincre ases
Ġvis ible
Ġbi os
Ġautom atic
Ġinteract ing
1 6
Ġbe am
Ġco verage
Ġch art
Ġcontro lling
Ġbon us
Ġme me
and er
Ġca us
ann ed
h um
Ġt el
ing er
Ġcamp a
Ġterrif ying
e el
Ġf er
Ġsp oke
Ġcor ners
Ġpol itic
Ġprotect ed
r ics
Ġcomm itted
Ġrep air
Ġincre ased
Ġfr an
Ġemail s
Ġp ist
oc ur
mm er
Ġs d
Ġd ice
st on
Ġbas ket
Ġjump ing
Ġcru cial
Ġtransl ation
Ġbes ides
Ġf ulf
Ġanim ation
off s
Ġlu cy
Ġstal in
Ġp d
Ġdifferent ial
Ġgam bit
Ġleg acy
Ġrot ation
Ġflex ible
Ġfulf ill
re on
Ġb odies
is ible
Ġun us
Ġar my
Ġpresent ed
Ġath le
Ġpsyched el
c c
Ġn as
Ġweight s
Ġrich ard
b a
m atic
Ġd na
Ġe gypt
if orn
Ġfin ite
Ġestab lished
m at
Ġtrad es
Ġsil ver
Ġcrypt ocur
w ood
Ġdisco very
Ġpan els
Ġinject ion
Ġfrank ly
an es
ar on
th em
Ġrem ark
Ġbi as
Ġsymbol s
Ġcover ing
e ven
w in
Ġc ort
Ġv ary
Ġcomp elling
Ġexplain ed
Ġax is
Ġatmos phere
Ġtex as
c ision
se y
Ġse mi
Ġ201 5
Ġmi ke
Ġent h
Ġfr iction
Ġincor rect
Ġbrut al
1 5
y al
Ġre nd
um ber
less ly
Ġtransact ions
Ġn est
Ġexplain ing
Ġpublic ly
d ragon
u um
Ġre nt
Ġapp lies
Ġfo ll
Ġcons pi
com es
Ġequ ally
Ġfig ures
Ġwes ley
Ġmart in
Ġv all
Ġfeel ings
Ġpartic le
Ġaccess ible
Ġsubst ant
t ure
Ġhe x
Ġr ush
Ġinvol ves
Ġill ust
Ġpat reon
an cing
Ġwe t
Ġca using
Ġexp osed
Ġstrateg ies
Ġg ates
Ġinf o
Ġcho osing
Ġdisc ord
Ġradi us
Ġgas oline
Ġcontain er
iforn ia
Ġe instein
Ġst ability
Ġban ks
Ġattemp ts
or g
Ġcor rel
Ġwebs ites
Ġsuff er
ugg ing
ok ay
Ġstr ict
Ġcult ural
Ġnews let
Ġlow est
Ġdep os
Ġep ic
Ġsen ior
Ġunbelie vable
Ġcham ber
d en
Ġd ict
Ġn ail
si us
Ġport ra
Ġanaly t
Ġevol ve
Ġco oper
Ġ4 2
Ġer ic
Ġload ed
Ġprim arily
Ġb ath
Ġsure ly
Ġconst it
char ger
Ġi o
Ġend ing
Ġimmedi ate
Ġcritic ism
Ġsched ule
c s
g ues
l ist
m ind
in ter
Ġan onym
Ġemp ire
Ġintermedi ate
Ġcampa ign
Ġ `
Ġn in
il ian
Ġrep rodu
rie nd
Ġvacc ine
Ġsp i
Ġmar x
Ġdefin ing
Ġref erences
Ġprim es
Ġrecogn ition
Ġinch es
Ġox y
Ġmultip lied
Ġport ion
Ġvac uum
Ġug ly
Ġcel sius
Ġcit iz
Ġenth usi
Ġst ages
Ġsh rink
Ġhy bri
Ġdepend ent
c racy
Ġdo gs
Ġch osen
Ġjo ined
Ġill usion
Ġtempl ates
g ar
Ġg ut
Ġmain ly
c il
v y
im al
Ġcomm itt
Ġ6 5
Ġgy m
ci ence
Ġ3 3
Ġatom s
nd a
Ġpro ced
Ġlist s
Ġcal ifornia
Ġeconom ics
Ġp ul
Ġstr ang
Ġ19 80
Ġdist inct
cons cious
Ġmole c
Ġ .
re ction
Ġn it
Ġn ons
Ġmon itors
Ġsubs cription
Ġgrand m
Ġrom antic
Ġhypoth esis
f un
Ġh tt
Ġn az
ab it
Ġbu bble
Ġref lection
Ġdetail ed
Ġocc up
Ġsnap dragon
u ber
Ġc ab
Ġstat istics
Ġd irty
Ġbe ats
if ies
Ġcons oles
Ġview ers
Ġrepe ated
ot o
Ġst ro
Ġcomp aring
Ġcar l
Ġcirc les
Ġopin ions
Ġf ro
Ġe b
Ġra c
Ġenj oying
Ġfu nding
Ġstri ke
Ġmillise conds
Ġs izes
Ġh mm
Ġn ull
ra in
Ġreal izing
Ġlight er
Ġinvest ing
Ġcuri osity
Ġf le
Ġcl oth
Ġapp eal
Ġhikar o
Ġrad ical
Ġuncom fortable
i ety
Ġsh ame
cre d
Ġdeli very
pod s
Ġl ap
Ġag es
Ġant icip
Ġintegr ate
Ġtransp arent
Ġcy cles
Ġrapid ly
Ġattrib ute
Ġe go
Ġwor ship
Ġdoc uments
so ever
Ġcomb in
Ġpsych ological
Ġcop ies
Ġliter al
Ġpol ar
Ġfold ing
e k
j i
p ress
at o
ve mber
Ġco sm
Ġnew er
Ġstand point
Ġpass es
Ġprint ed
Ġad apter
Ġz eros
Ġmin ing
Ġsc ra
Ġdeb t
Ġdemo cracy
Ġlens es
Ġscal ing
f ined
Ġscenari os
hell o
Ġg it
Ġin herent
Ġwhat soever
Ġout er
Ġover flow
Ġtra p
Ġpost ed
Ġunivers ities
Ġthr own
Ġprep are
b and
Ġex cess
Ġcomp atibility
co mple
Ġtra ject
Ġown ed
Ġrec all
Ġtouch ing
h app
is ters
Ġde als
Ġbot s
Ġfi ber
Ġ2 9
Ġem bra
Ġjud o
Ġsurve y
t ions
t ake
Ġa ward
ag ger
Ġmar ried
Ġs ar
Ġcl icking
Ġtra pped
Ġquick er
Ġgig abytes
Ġstay s
Ġclos est
n ight
al d
Ġun known
Ġpain ting
Ġodd s
) .
u ri
Ġcr it
Ġthank fully
Ġbench mar
b les
Ġin come
st art
Ġsa ke
ag on
Ġenviron ments
Ġcommand s
Ġut ility
et ics
Ġres erv
Ġnet working
Ġbegin ner
Ġfet ch
Ġbe ating
ri l
Ġme xic
Ġr it
Ġprocess ors
Ġsimpl est
Ġsta ff
Ġcontrovers ial
b olt
Ġl ux
Ġcry st
Ġprote in
Ġmy ster
Ġag i
Ġhi red
Ġload ing
Ġclos ing
Ġth or
Ġal ert
ok er
Ġbo at
Ġprodu ces
Ġrecord ed
Ġprofess ion
Ġton ight
. )
Ġj une
qu ote
Ġno vember
Ġdis aster
wor ld
Ġrender ing
f ord
Ġst one
il ed
im ately
Ġcou n
Ġass umption
Ġgig a
Ġexcept ions
he y
Ġdom est
Ġu na
Ġintern ally
Ġcalcul ation
Ġs its
Ġreal m
Ġ12 8
Ġwin ter
Ġmind set
Ġbeh ave
Ġvari ation
Ġrein forcement
Ġco ins
Ġne ck
Ġdes per
Ġfil ming
Ġcal m
Ġdiscuss ed
Ġang les
Ġintrodu ction
Ġtast e
Ġoxy gen
Ġt uring
Ġfew er
Ġrep os
Ġdec ides
Ġreach ing
Ġb ite
ur g
Ġchrist ians
Ġpath s
Ġeth ical
Ġ199 0
Ġkil ow
Ġanx iety
Ġpl ain
Ġact ively
ex pect
do es
Ġnic er
Ġteach er
Ġda ughter
Ġidi ot
diff erent
g l
p et
ic a
Ġv ill
Ġinst antly
Ġdist inction
Ġstay ing
Ġprom ote
Ġaccept ed
Ġin j
Ġj ail
Ġsimilar ly
Ġschool s
Ġsyn chron
Ġgree k
o ch
ut ing
Ġwas hing
Ġen h
Ġla zy
Ġrec ru
Ġreplace ment
Ġinherit ance
Ġconspi racy
Ġvall ey
pl ane
wh eel
Ġexpl oration
Ġpresent ation
Ġefficient ly
Ġball s
Ġwid er
Ġt ables
Ġfab ric
Ġcarry ing
Ġlegit imate
Ġnewslet ter
ir st
Ġra il
Ġinteract ions
pa per
Ġbrief ly
Ġfoll ows
Ġtra um
Ġexpl oring
Ġreturn ed
Ġmicro phone
Ġpipe line
Ġag ents
Ġreg ret
Ġfrequ ently
Ġexte nded
b ot
Ġh p
Ġst an
Ġche at
Ġgr ind
dri ver
Ġenab led
Ġemiss ions
k b
Ġor ange
Ġfir ing
Ġdes igning
Ġwar rant
Ġmain stream
Ġdirect or
Ġenc oding
Ġre con
Ġpl aced
Ġnum er
Ġmeet ings
Ġcapital ism
w ant
Ġth ri
Ġn i
Ġre n
ens es
Ġrel ax
Ġtri vial
Ġord ered
Ġtreat ment
b its
Ġas p
Ġup s
Ġdi et
Ġexp osure
met ic
Ġiter ation
Ġbroad ly
Ġrefer ring
Ġredd it
Ġalumin um
Ġw it
Ġc ss
Ġh iding
Ġch est
Ġv id
Ġup side
Ġmod ular
Ġsn eak
Ġhorizont al
Ġportra it
Ġb atch
Ġf ired
Ġpat ient
Ġb in
Ġch apter
Ġag greg
Ġsmall est
Ġart ists
Ġ201 4
Ġgard en
Ġha bit
Ġfor cing
Ġg ee
Ġan ch
Ġtor ch
pers on
Ġvert ices
Ġnons ense
l am
int erest
Ġrest aur
Ġsyn c
Ġattrib utes
Ġowners hip
h ol
Ġus able
Ġph p
Ġdro pping
Ġcollect ive
Ġdetect ion
Ġdiag onal
Ġy an
Ġdi am
co ol
Ġover load
Ġgovern ments
Ġdro ps
Ġfail s
Ġinvest ors
Ġinvol ve
Ġris ks
Ġcontinu ing
Ġprior ity
Ġp ent
Ġn ations
Ġrep utation
Ġcalcul us
Ġpair s
Ġsymmet ry
Ġtremend ous
b by
Ġli es
Ġco pper
Ġse pt
Ġwr iter
Ġdev il
Ġport able
sa fe
Ġrit ual
Ġsh irt
Ġbel t
Ġext ens
Ġscript ure
Ġlimit ations
Ġinsp iration
Ġjew s
Ġterr itory
Ġb read
Ġr um
Ġpre cision
Ġsch em
ograph ic
Ġhistor ically
l ife
o ir
Ġcomp ass
Ġact s
Ġthreat s
Ġluck ily
d ie
w ing
Ġdo om
ca m
Ġtw enty
Ġpo et
olog ists
Ġtechn ological
Ġocc asion
Ġarri ve
Ġrub ber
Ġro gan
Ġter ror
Ġpet er
Ġilleg al
h u
er ved
Ġgu est
Ġcap ability
Ġredu cing
Ġmultiplic ation
c d
p es
Ġin g
Ġch ill
Ġcomm a
Ġter abyte
olog ist
Ġframe works
Ġest imate
Ġdream s
d id
ed ge
Ġco vers
xt ure
Ġca ke
Ġsign ature
Ġblock ing
8 00
Ġf ried
Ġe cho
Ġnew ton
Ġimport ance
Ġcra ft
Ġcount s
Ġsimult aneously
6 00
e ed
id ents
Ġgood s
Ġover come
Ġmod es
Ġz en
Ġbra cket
Ġ7 00
ne cess
Ġdifficult y
Ġloc ations
Ġcapture d
Ġinterf aces
Ġpci e
Ġt ent
ge bra
Ġair pods
Ġmathematic ians
in ians
ow ing
ot a
Ġse nds
ag ue
Ġtra ce
Ġcons ult
Ġvari ant
Ġtur b
resh old
Ġspot ify
Ġemot ions
Ġcollea gues
Ġt ube
th en
ther n
Ġlove ly
Ġconnect s
Ġmanag ing
Ġredu ction
Ġkar l
f o
Ġs ight
nd ay
Ġj et
Ġnot ic
ca le
ok ed
our se
Ġbu nd
Ġhybri d
Ġco al
Ġco vid
Ġevery day
Ġsign s
Ġinfin itely
Ġjud gment
Ġast ron
Ġliber al
Ġimplic it
Ġcrow d
u ce
Ġt et
Ġc ow
Ġd im
em ber
Ġline up
Ġgraph s
Ġmeas uring
Ġgear s
Ġsacrif ices
l ig
it ate
Ġde ar
il ies
ad ing
Ġmer ge
Ġinstr ument
act er
Ġback up
ber ry
Ġgam ers
Ġre vel
Ġent ity
Ġear s
Ġadv enture
Ġredu ced
Ġstick s
Ġmer ch
Ġcommitt ee
g ive
v on
Ġt ed
Ġto ler
Ġso il
Ġv pn
ard s
Ġele v
Ġconte mp
Ġachie ved
Ġlands cape
th eless
Ġle e
if ier
Ġjo int
Ġking dom
Ġori ented
Ġlad ies
be ing
Ġun ix
Ġele ction
Ġform ed
Ġsumm ar
Ġmetaph or
Ġthunder bolt
8 6
b oth
m itted
Ġs ic
Ġresearch ers
Ġoutput s
Ġimm ers
Ġaug ust
Ġ19 5
Ġstrong ly
Ġprag ue
Ġclust er
Ġsept ember
f all
y eah
Ġp iz
Ġk ong
Ġch ick
ate ful
ol a
Ġpo ll
Ġuse less
ang ing
Ġperform ing
Ġagree ment
Ġ +
Ġte en
Ġnever theless
Ġmon st
Ġsme ll
Ġlith ography
v is
Ġas semb
Ġide ally
Ġfil ters
Ġsearch ing
v pn
er ation
er ge
Ġbl ank
Ġencou ra
Ġprototy pe
is co
ump tions
Ġtit an
Ġcorpor ate
e lect
w ere
z es
Ġth reshold
Ġc ree
Ġd ots
mp s
Ġr ul
rou s
Ġ25 6
Ġdece mber
Ġapolog ize
h ot
Ġf itting
Ġha mmer
um s
Ġsub mit
Ġsw im
Ġsch ol
Ġbri an
Ġstream s
Ġtarget s
Ġhtt p
Ġcon gr
Ġout s
Ġ9 8
Ġdeb ugging
Ġund e
Ġexpand ing
Ġnich e
Ġf iction
Ġsp oken
ming ly
Ġorgan ized
Ġdiv ine
Ġsched ul
m ill
t al
Ġd b
Ġand re
Ġun box
Ġpr icing
Ġhu b
Ġfin ance
Ġstay ed
Ġdram atic
mu ch
hum an
Ġw olf
Ġp ati
be ll
te lling
the ir
Ġbra kes
Ġbra ckets
Ġ19 70
Ġmagn et
Ġhoriz on
Ġtempor ary
9 00
Ġcomp os
Ġcomple ted
Ġneuro s
Ġaes thetic
c ould
ist an
Ġac cus
Ġalong side
Ġphenomen a
1 4
es c
Ġz e
Ġgod s
Ġmagn itude
Ġelect ro
Ġcut s
Ġenvironment al
Ġcat al
Ġcandid ate
Ġcelebr ate
stand ing
Ġdin ner
Ġspe cul
Ġsl ope
Ġap ril
ann y
Ġdu pl
Ġo w
oth ers
Ġble nder
Ġincreasing ly
h ad
in i
Ġri gor
Ġcon j
Ġdon ald
pl ed
Ġunderstand s
cl a
Ġorgan izations
Ġtens or
b ru
Ġb ay
Ġh int
Ġadv oc
Ġinstall ing
Ġmanip ulate
Ġtang ent
Ġreserv oir
Ġde lic
Ġres ign
Ġabs or
Ġoptim istic
Ġgir ls
Ġnavig ate
Ġafric a
p ol
Ġdown side
ud es
Ġaw k
pro f
Ġpassword s
Ġencrypt ion
g ood
Ġp ors
ar ound
Ġal co
Ġpress ing
Ġexpress ions
Ġether net
at ivity
an cy
Ġg t
Ġcomp ens
Ġph d
ys on
ak ers
Ġconvers ion
Ġsoci et
Ġeth ere
bru ary
e qu
f ers
k ill
Ġj ose
Ġjust ice
op ath
Ġsh uff
Ġra b
Ġgen etic
Ġaccess ories
Ġsca nd
Ġdatab ases
Ġarri ved
Ġthera py
Ġan not
Ġal gebra
Ġar rest
Ġfam ilies
Ġgr own
Ġscrew ed
Ġrefer red
Ġevalu ation
Ġdram atically
Ġmedic ine
Ġg im
Ġinterest s
Ġem erge
Ġpres um
Ġvir al
Ġunlike ly
bu ilt
Ġguarant eed
7 00
Ġty ler
Ġz ip
Ġ5 5
Ġmass ively
Ġtouch ed
Ġrepresent ing
Ġpolic ies
Ġcompre h
Ġex am
Ġopen ings
Ġconnect ors
Ġwal ks
Ġbreak through
Ġcompet itors
Ġinsp iring
Ġmexic o
z ed
Ġor bit
Ġfe bruary
ap ore
Ġautonom y
Ġdepress ion
st op
Ġma nd
Ġr anges
ag o
ph ile
Ġsm oke
Ġdec or
Ġsim ulate
Ġdiag ram
Ġtun nel
Ġdetermin ed
Ġme l
Ġover clock
Ġel ite
Ġsw ift
Ġsqu eal
Ġap is
Ġstor ing
Ġ201 3
Ġdimens ional
Ġdeli ber
Ġjo ining
Ġchar ged
Ġbuilding s
Ġrob ust
Ġpract ices
Ġest ate
Ġloss es
Ġsubscri bed
Ġp oker
op ia
ate ll
Ġsp ots
Ġpart ies
Ġmess y
Ġ201 0
Ġfrust rating
Ġperce ive
f old
u ries
Ġma pping
ast roph
Ġmat te
Ġass umptions
Ġtreat ed
Ġafford able
b an
Ġri p
Ġti es
Ġcur ves
Ġpass ive
Ġsit es
Ġpost s
Ġcond uct
Ġrussi ans
Ġsubscri bers
Ġtransist ors
Ġcrimin al
Ġrewr ite
Ġa ud
Ġo ops
Ġp ink
Ġf ounder
Ġk im
Ġma kers
Ġcon cent
Ġwa fer
Ġtri angles
Ġcra z
Ġinfl ation
Ġcryptocur rency
p ilot
Ġb ass
Ġwo ke
Ġpc s
eth eless
Ġuncertain ty
Ġover head
ag an
Ġfl av
Ġnon etheless
comp ut
Ġtit les
Ġkick ed
Ġmanufacture r
Ġconfir m
Ġunus ual
expect ed
f ield
s ay
Ġt one
Ġb one
on ic
Ġgen esis
Ġfu nds
ne ed
Ġscal es
Ġclip s
t wo
Ġa aron
Ġwr ites
Ġ9 00
Ġresp o
Ġmeas ures
Ġrou ter
ro py
Ġjust ify
Ġlo ving
iz able
kes h
Ġmar ks
Ġgr ateful
Ġcoordin ates
h en
Ġf ract
Ġpre v
Ġlea gue
Ġswitch ed
Ġcomb at
Ġexec uted
Ġmotiv ated
Ġdrink ing
Ġbreat h
Ġl unch
Ġal igned
ag n
Ġtri gg
Ġsubs id
Ġcat astroph
Ġforgot ten
Ġcance l
Ġisol ated
Ġc ens
Ġd rew
be en
Ġrep orts
Ġmillime ters
3 00
it ect
Ġent ered
Ġsing apore
Ġmot ors
Ġpors che
b ud
Ġ ...
Ġse an
Ġv oid
Ġusb c
Ġmart ial
Ġst orm
Ġfor d
Ġbl ink
Ġsl ip
Ġsupp lies
Ġtyp ed
Ġland ing
Ġgrant ed
ri age
Ġread s
Ġ19 4
Ġoper ators
Ġfundament als
Ġscrew driver
Ġacceler ate
Ġexpect ations
Ġprom ising
Ġsal t
1 9
i pe
Ġi cons
Ġdo ors
Ġte mple
Ġdis rupt
Ġinvest ed
Ġmeasure d
Ġmonitor ing
Ġver ify
Ġkil ometers
Ġdemonst rate
Ġacknow ledge
Ġara b
Ġgiga hertz
Ġs atell
Ġl is
it ers
Ġn ick
Ġme al
os is
ress ed
Ġimag ination
Ġflex ibility
Ġinsight s
scre en
d p
Ġm ute
th es
Ġv in
Ġexist ential
Ġbri d
Ġincor por
Ġamp l
Ġw ired
and a
Ġsqu ee
Ġgrow s
Ġinit i
Ġprom ised
Ġdecl ar
Ġacade m
Ġtrill ion
o on
Ġdist ract
Ġwo o
Ġbroad er
Ġdomin ant
Ġmathematic ian
Ġdomest ic
i veness
ed ing
Ġhe ap
Ġbo ld
Ġrep et
Ġpri de
Ġmodel ing
Ġsic ilian
Ġethere um
b t
h al
h op
ve t
Ġas ian
Ġreg ions
Ġautom ated
Ġcompil ers
Ġeth i
Ġaffect ed
ass is
Ġsc ot
Ġhalf way
Ġmaster s
Ġrequire ment
Ġit al
Ġme re
ia mp
Ġsing ular
Ġspecial ized
Ġcos mic
Ġbenchmar ks
Ġpiz za
en ess
ad vant
Ġ1 000
Ġra zer
Ġeng land
ma le
Ġdram a
Ġdial og
Ġmort ality
Ġk af
Ġpro ven
Ġoff line
Ġreason ably
Ġrot ating
Ġconsist ently
Ġexpert ise
Ġcoordin ate
u ra
Ġc v
op her
Ġca le
Ġstru ck
Ġcompil ed
Ġhur ts
Ġsumm ary
Ġinstit ution
Ġweakness es
Ġeb ay
Ġre de
Ġst em
Ġj am
Ġsa cred
ang ed
Ġinst ances
Ġself ie
Ġarray s
Ġcontroll ers
Ġregular ly
Ġorient ation
Ġwit ness
h ed
v ol
ar n
Ġne ov
Ġour s
Ġtrans cend
Ġmet er
Ġlight weight
Ġ201 2
Ġgram mar
m ade
n umber
st ep
Ġbut ter
Ġpr on
Ġrel ate
Ġgam er
Ġmet ric
Ġref act
Ġord inary
Ġhot el
Ġreport ed
Ġlegit imately
Ġexponent ial
r ist
Ġsa ves
Ġen ables
Ġins urance
Ġtim er
Ġobser vation
oun cing
Ġrare ly
part y
Ġsem ant
b as
Ġst icking
st ra
Ġimp er
Ġsw ord
Ġfight s
Ġobser ve
Ġdecent ral
Ġcomed y
Ġas ks
Ġreal istically
Ġelse where
Ġcr ush
Ġ8 5
Ġmoment um
Ġpract ically
by e
Ġcalcul ated
Ġsal ary
Ġspan ish
m x
Ġg ad
per form
Ġun expected
Ġcont est
Ġkill s
su pp
Ġlu ke
Ġrevel ation
Ġawk ward
Ġd ish
Ġand y
en n
Ġgot ham
Ġhand y
Ġfail ing
Ġvir uses
Ġbound ary
Ġcontract s
w ar
Ġw ires
Ġb ure
Ġneed ing
ph oto
ord ers
Ġmill iamp
Ġarch itect
Ġresol ve
kb hd
Ġun necess
if orm
Ġdist ingu
Ġconcept ual
Ġmaxim ize
Ġconstruct ed
Ġtun ed
Ġdestru ction
Ġtel esc
f ree
Ġh ing
Ġd c
Ġchar ges
Ġbr others
Ġsacrif icing
Ġsurv ival
Ġcircu its
Ġparad ig
Ġkaf ka
f s
r ical
ra me
Ġpers ist
ors hip
Ġcontrib ute
Ġun p
Ġbl under
Ġele g
Ġsuggest ions
Ġphenomen on
on ly
en ance
Ġin verse
Ġch assis
Ġla ke
Ġship s
Ġcanad ian
c p
Ġf ought
Ġsw ear
Ġfr ance
Ġclean er
Ġclean ing
Ġbal anced
Ġrect angle
Ġstro ke
comple te
Ġbure a
Ġg ang
Ġnot ation
ast y
ody nam
Ġinteresting ly
Ġass ert
Ġpop s
Ġfore st
Ġbar rier
Ġwide ly
m en
Ġh ong
Ġd ut
Ġis lam
ch uckles
Ġhum ility
ath ers
Ġ200 8
Ġminim ize
Ġmi xture
o ly
Ġp ile
Ġpl a
Ġ19 60
Ġhy pe
Ġpassion ate
Ġneut ral
Ġpist on
d ra
i ors
Ġthe ater
Ġo sc
Ġj okes
Ġpl u
Ġdes ert
te x
Ġmanag ers
Ġtarget ing
Ġdescri bes
Ġoccur s
Ġfran c
Ġth rew
Ġo d
Ġe ve
Ġper ipher
Ġsl ice
lic ity
Ġhand les
Ġfound ed
lad ies
Ġdivers ity
d le
Ġj e
