{"!":0,"\"":1,"#":2,"$":3,"%":4,"&":5,"'":6,"(":7,")":8,"*":9,"+":10,",":11,"-":12,".":13,"/":14,"0":15,"1":16,"2":17,"3":18,"4":19,"5":20,"6":21,"7":22,"8":23,"9":24,":":25,";":26,"<":27,"=":28,">":29,"?":30,"@":31,"A":32,"B":33,"C":34,"D":35,"E":36,"F":37,"G":38,"H":39,"I":40,"J":41,"K":42,"L":43,"M":44,"N":45,"O":46,"P":47,"Q":48,"R":49,"S":50,"T":51,"U":52,"V":53,"W":54,"X":55,"Y":56,"Z":57,"[":58,"\\":59,"]":60,"^":61,"_":62,"`":63,"a":64,"b":65,"c":66,"d":67,"e":68,"f":69,"g":70,"h":71,"i":72,"j":73,"k":74,"l":75,"m":76,"n":77,"o":78,"p":79,"q":80,"r":81,"s":82,"t":83,"u":84,"v":85,"w":86,"x":87,"y":88,"z":89,"{":90,"|":91,"}":92,"~":93,"¡":94,"¢":95,"£":96,"¤":97,"¥":98,"¦":99,"§":100,"¨":101,"©":102,"ª":103,"«":104,"¬":105,"®":106,"¯":107,"°":108,"±":109,"²":110,"³":111,"´":112,"µ":113,"¶":114,"·":115,"¸":116,"¹":117,"º":118,"»":119,"¼":120,"½":121,"¾":122,"¿":123,"À":124,"Á":125,"Â":126,"Ã":127,"Ä":128,"Å":129,"Æ":130,"Ç":131,"È":132,"É":133,"Ê":134,"Ë":135,"Ì":136,"Í":137,"Î":138,"Ï":139,"Ð":140,"Ñ":141,"Ò":142,"Ó":143,"Ô":144,"Õ":145,"Ö":146,"×":147,"Ø":148,"Ù":149,"Ú":150,"Û":151,"Ü":152,"Ý":153,"Þ":154,"ß":155,"à":156,"á":157,"â":158,"ã":159,"ä":160,"å":161,"æ":162,"ç":163,"è":164,"é":165,"ê":166,"ë":167,"ì":168,"í":169,"î":170,"ï":171,"ð":172,"ñ":173,"ò":174,"ó":175,"ô":176,"õ":177,"ö":178,"÷":179,"ø":180,"ù":181,"ú":182,"û":183,"ü":184,"ý":185,"þ":186,"ÿ":187,"Ā":188,"ā":189,"Ă":190,"ă":191,"Ą":192,"ą":193,"Ć":194,"ć":195,"Ĉ":196,"ĉ":197,"Ċ":198,"ċ":199,"Č":200,"č":201,"Ď":202,"ď":203,"Đ":204,"đ":205,"Ē":206,"ē":207,"Ĕ":208,"ĕ":209,"Ė":210,"ė":211,"Ę":212,"ę":213,"Ě":214,"ě":215,"Ĝ":216,"ĝ":217,"Ğ":218,"ğ":219,"Ġ":220,"ġ":221,"Ģ":222,"ģ":223,"Ĥ":224,"ĥ":225,"Ħ":226,"ħ":227,"Ĩ":228,"ĩ":229,"Ī":230,"ī":231,"Ĭ":232,"ĭ":233,"Į":234,"į":235,"İ":236,"ı":237,"Ĳ":238,"ĳ":239,"Ĵ":240,"ĵ":241,"Ķ":242,"ķ":243,"ĸ":244,"Ĺ":245,"ĺ":246,"Ļ":247,"ļ":248,"Ľ":249,"ľ":250,"Ŀ":251,"ŀ":252,"Ł":253,"ł":254,"Ń":255,"Ġt":256,"Ġth":257,"Ġa":258,"in":259,"Ġthe":260,"Ġw":261,"re":262,"Ġs":263,"Ġi":264,"Ġo":265,"at":266,"ou":267,"er":268,"nd":269,"Ġb":270,"Ġc":271,"ing":272,"Ġy":273,"on":274,"Ġh":275,"Ġm":276,"Ġto":277,"Ġp":278,"Ġl":279,"Ġd":280,"Ġyou":281,"Ġand":282,"en":283,"ll":284,"Ġf":285,"an":286,"es":287,"or":288,"Ġthat":289,"Ġof":290,"Ġg":291,"is":292,"Ġit":293,"Ġin":294,"it":295,"Ġn":296,"'s":297,"ĠI":298,"us":299,"ow":300,"ed":301,"Ġso":302,"Ġis":303,"Ġwh":304,"ar":305,"ve":306,"le":307,"as":308,"ut":309,"ic":310,"Ġwe":311,"et":312,"Ġe":313,"ke":314,"ay":315,"Ġbe":316,"ot":317,"Ġu":318,"čĊ":319,"al":320,"ion":321,"om":322,"Ġthis":323,"Ġon":324,"Ġre":325,"Ġli":326,"ct":327,"ig":328,"all":329,"Ġha":330,"Ġk":331,"ver":332,"ĠĠ":333,"me":334,"Ġlike":335,"ly":336,"Ġr":337,"ent":338,"ld":339,"st":340,"se":341,"Ġgo":342,"Ġdo":343,"Ġst":344,"Ġfor":345,"Ġhe":346,"ht":347,"ally":348,"id":349,"ch":350,"Ġj":351,"ro":352,"ust":353,"'t":354,"ight":355,"Ġhave":356,"Ġbut":357,"Ġkn":358,"Ġan":359,"ith":360,"Ġknow":361,"Ġwhat":362,"ce":363,"Ġcan":364,"Ġjust":365,"od":366,"th":367,"ea":368,"ra":369,"Ġnot":370,"op":371,"'re":372,"Ġwith":373,"Ġme":374,"Ġthere":375,"ur":376,"Ġse":377,"Ġthey":378,"Ġas":379,"ere":380,"use":381,"Ġwas":382,"ould":383,"ck":384,"Ġare":385,"Ġif":386,"Ġcom":387,"Ġab":388,"Ġuh":389,"Ġall":390,"Ġmo":391,"ir":392,"Ġpro":393,"Ġor":394,"Ġat":395,"out":396,"Ġex":397,"ant":398,"ation":399,"im":400,"ter":401,"ink":402,"Ġne":403,"oo":404,"ca":405,"ill":406,"very":407,"qu":408,"Ġma":409,"Ġal":410,"Ġright":411,"Ġthink":412,"Ġone":413,"ind":414,"Ġcon":415,"Ġde":416,"ul":417,"pp":418,"ess":419,"ĠĠĠĠ":420,"ge":421,"Ġabout":422,"ĠA":423,"Ġwor":424,"un":425,"Ġthing":426,"Ġthen":427,"Ġch":428,"Ġsh":429,"um":430,"ate":431,"Ġdon":432,"Ġget":433,"cause":434,"Ġv":435,"if":436,"il":437,"am":438,"Ġgoing":439,"ers":440,"Âł":441,"ad":442,"ab":443,"Ġbecause":444,"'m":445,"est":446,"ĠT":447,"Ġpl":448,"Ġyour":449,"Ġsome":450,"Ġfr":451,"Ġint":452,"pe":453,"ive":454,"Ġ-":455,"ook":456,"art":457,"ure":458,"Ġmy":459,"Ġnow":460,"eah":461,"ol":462,"ĠS":463,"Ġum":464,"Ġout":465,"ich":466,"Ġtr":467,"os":468,"ist":469,"eth":470,"nt":471,"ack":472,"el":473,"Ġup":474,"ort":475,"Ġsay":476,"Ġhere":477,"Ġwhich":478,"Ġcomp":479,"ĠC":480,"Ġhow":481,"Ġpe":482,"Ġfrom":483,"ople":484,"ame":485,"Ġus":486,"Ġact":487,"Ġyeah":488,"Ġreally":489,"Ġpeople":490,"oug":491,"and":492,"Ġsee":493,"ain":494,"Ġwant":495,"Ġ1":496,"ually":497,"ine":498,"Ġwould":499,"ard":500,"ity":501,"Ġway":502,"ime":503,"Ġwhen":504,"Ġsu":505,"ect":506,"ie":507,"Ġmean":508,"Ġmore":509,"Ġvery":510,"Ġthese":511,"ĠB":512,"Ġby":513,"pt":514,"ven":515,"Ġta":516,"Ġkind":517,"ide":518,"Ġqu":519,"ĠTh":520,"ri":521,"Ġle":522,"Ġsom":523,"'ve":524,"ble":525,"Ġno":526,"res":527,"Ġactually":528,"ment":529,"Ġtime":530,"Ġany":531,"Ġlook":532,"Ġwill":533,"our":534,"Ġim":535,"per":536,"ite":537,"ĠW":538,"act":539,"kay":540,"so":541,"king":542,"ough":543,"Ġhas":544,"ast":545,"ous":546,"ci":547,"Ġthings":548,"Ġthem":549,"em":550,"ose":551,"00":552,"ething":553,"Ġwell":554,"Ġen":555,"Ġsomething":556,"ple":557,"Ġar":558,"Ġwho":559,"Ġlet":560,"iz":561,"ff":562,"ue":563,"ore":564,"one":565,"int":566,"Ġwhere":567,"are":568,"age":569,"pl":570,"Ġevery":571,"Ġokay":572,"Ġour":573,"ound":574,"ther":575,"iff":576,"Ġgot":577,"Ġdid":578,"Ġdoes":579,"Ġcould":580,"Ġfe":581,"Ġplay":582,"de":583,"Ġinto":584,"Ġalso":585,"Ġtw":586,"ions":587,"ĠM":588,"ĠG":589,"Ġdiff":590,"Ġ2":591,"ĠP":592,"ag":593,"Ġlo":594,"Ġneed":595,"ies":596,"Ġgood":597,"Ġpo":598,"Ġother":599,"Ġcl":600,"Ġman":601,"be":602,"itt":603,"Ġlot":604,"Ġsp":605,"Ġag":606,"Ġsa":607,"Ġthan":608,"Ġte":609,"ĠH":610,"'ll":611,"ĠR":612,"oth":613,"Ġwork":614,"Ġmake":615,"ong":616,"ree":617,"ĠD":618,"Ġback":619,"Ġeven":620,"reat":621,"Ġpre":622,"Ġuse":623,"Ġad":624,"Ġtwo":625,"na":626,"iv":627,"ber":628,"nder":629,"ice":630,"Ġhad":631,"ĠY":632,"Ġdiffere":633,"Ġover":634,"Ġun":635,"lf":636,"way":637,"Ġco":638,"able":639,"Ġbu":640,"Ġwere":641,"ang":642,"ĠAnd":643,"ep":644,"ĠL":645,"ĠF":646,"ction":647,"uch":648,"Ġstart":649,"ace":650,"ĠčĊ":651,"irst":652,"ult":653,"ire":654,"own":655,"Ġpart":656,"Ġtal":657,"Ġmuch":658,"ory":659,"ish":660,"ms":661,"Ġmay":662,"Ġbet":663,"Ġcont":664,"ence":665,"Ġtake":666,"Ġfirst":667,"ass":668,"Ġgu":669,"Ġper":670,"ase":671,"ĠO":672,"ode":673,"Ġtry":674,"ĠE":675,"Ġtheir":676,"ear":677,"Ġbl":678,"Ġpr":679,"co":680,"ick":681,"ens":682,"ning":683,"for":684,"vel":685,"Ġthose":686,"Ġhapp":687,"ach":688,"Ġcall":689,"Ġdifferent":690,"ath":691,"ical":692,"cess":693,"wn":694,"ĠN":695,"thing":696,"Ġbit":697,"ittle":698,"ÂłčĊ":699,"ip":700,"ically":701,"Ġstu":702,"onna":703,"Ġpos":704,"ans":705,"ĠĠĠĠĠĠĠĠ":706,"Ġlittle":707,"Ġwhy":708,"Ġfun":709,"Ġbeen":710,"Ġsy":711,"ĠSo":712,"com":713,"Ġapp":714,"Ġgonna":715,"ition":716,"xt":717,"ÂłÂł":718,"Ġwr":719,"kes":720,"Ġworld":721,"ru":722,"Ġthr":723,"ile":724,"ress":725,"Ġpoint":726,"Ġunder":727,"ĠK":728,"ry":729,"Ġshould":730,"og":731,"ving":732,"Ġdown":733,"Ġres":734,"Ġonly":735,"ting":736,"Ġsame":737,"ated":738,"Ġdoing":739,"Ġac":740,"Ġbas":741,"Ġnum":742,"Ġagain":743,"vers":744,"Ġspe":745,"Ġoh":746,"Ġput":747,"Ġ(":748,"ap":749,"Ġimp":750,"Ġoff":751,"ance":752,"Ġtra":753,"ys":754,"Ġdis":755,"ations":756,"ious":757,"Ġke":758,"self":759,"Ġam":760,"ign":761,"Ġmost":762,"Ġmaybe":763,"Ġnew":764,"Ġbeing":765,"Ġrun":766,"ĠThe":767,"Ġhis":768,"te":769,"fe":770,"Ġob":771,"Ġsc":772,"ty":773,"ild":774,"Ġdat":775,"Ġreal":776,"ject":777,"Ġsim":778,"Ġdes":779,"ual":780,"ĠJ":781,"Ġproble":782,"Ġid":783,"ower":784,"ĠĠĠ":785,"ces":786,"Ġend":787,"Ġstill":788,"Ġinst":789,"ary":790,"ead":791,"Ġyear":792,"Ġinter":793,"Ġsort":794,"form":795,"si":796,"Ġthrough":797,"ial":798,"Ġty":799,"stem":800,"Ġtoo":801,"ram":802,"Ġset":803,"Ġgame":804,"Ġ3":805,"Ġtalk":806,"Ġmight":807,"Ġ.":808,"ody":809,"other":810,"atch":811,"ably":812,"Ġbig":813,"Ġsaid":814,"Ġbr":815,"Ġgen":816,"Ġ[":817,"Ġro":818,"ount":819,"Ġdoesn":820,"Ġmove":821,"Ġmany":822,"Ġcode":823,"urn":824,"Ġprob":825,"Ġvide":826,"Ġsystem":827,"Ġval":828,"Ġfeel":829,"Ġpers":830,"du":831,"Ġgreat":832,"ĠIt":833,"Ġadd":834,"Ġlear":835,"erest":836,"ves":837,"ize":838,"ating":839,"we":840,"ft":841,"ever":842,"ull":843,"ord":844,"Ġfo":845,"imes":846,"red":847,"Ġdata":848,"Ġexam":849,"Ġhum":850,"ful":851,"igh":852,"fore":853,"ph":854,"Ġinterest":855,"ors":856,"ool":857,"ell":858,"Ġprog":859,"Ġph":860,"Ġmod":861,"ways":862,"ks":863,"Ġquest":864,"mo":865,"Ġdef":866,"Ġunderst":867,"Ġhappen":868,"av":869,"Ġcomm":870,"Ġfind":871,"ics":872,"Ġstuff":873,"Ġprobably":874,"Ġnumber":875,"Ġinc":876,"cond":877,"ense":878,"Ġlong":879,"Ġpa":880,"Ġdidn":881,"Ġbetter":882,"Ġunderstand":883,"read":884,"Ġday":885,"Ġusing":886,"ange":887,"Ġthree":888,"Ġproblem":889,"ought":890,"ether":891,"Ġfl":892,"Ġaround":893,"Ġhard":894,"ert":895,"Ġexample":896,"ock":897,"Ġidea":898,"ute":899,"Ġem":900,"ĠYou":901,"tty":902,"ons":903,"Ġcour":904,"Ġsl":905,"ix":906,"Ġvideo":907,"body":908,"pect":909,"Ġop":910,"Ġbefore":911,"Ġgr":912,"Ġhim":913,"Ġpretty":914,"Ġhigh":915,"Ġbo":916,"Ġperson":917,"ac":918,"Ġcons":919,"Ġaf":920,"Ġlife":921,"ari":922,"Ġgive":923,"ĠWh":924,"Ġgener":925,"Ġev":926,"Ġable":927,"Ġcome":928,"Ġsecond":929,"Ġalways":930,"Ġjo":931,"Ġcomple":932,"Ġfunction":933,"Ġpower":934,"ail":935,"Ġter":936,"Ġche":937,"Ġeverything":938,"atter":939,"Ġshow":940,"Ġread":941,"Ġanother":942,"ater":943,"Ġsure":944,"Ġyears":945,"Ġbuild":946,"Ġtrying":947,"Ġser":948,"Ġtell":949,"cri":950,"Ġcomput":951,"ĠCh":952,"ents":953,"lic":954,"ise":955,"Ġbel":956,"Ġstr":957,"Ġyes":958,"ĠU":959,"Ġnext":960,"Ġ=":961,"olog":962,"Ġeach":963,"Ġprogram":964,"ud":965,"Ġcourse":966,"ular":967,"Ġrel":968,"Ġins":969,"Ġgra":970,"les":971,"Ġfact":972,"Ġmin":973,"ug":974,"Ġ4":975,"Ġreas":976,"Ġexper":977,"ward":978,"Ġatt":979,"Ġafter":980,"Ġ20":981,"Ġinteresting":982,"ruct":983,"wh":984,"..":985,"Ġsupp":986,"Ġeas":987,"ific":988,"Ġsm":989,"Ġbasically":990,"night":991,"ishop":992,"ility":993,"Ġdec":994,"Ġcalled":995,"Ġ5":996,"ict":997,"Ġdone":998,"ates":999,"Ġimport":1000,"Ġhel":1001,"Ġown":1002,"ĠKnight":1003,"Ġnever":1004,"ĠWe":1005,"Ġshe":1006,"Ġlist":1007,"ween":1008,"Ġeng":1009,"Ġpossi":1010,"ark":1011,"Ġcar":1012,"Ġequ":1013,"ub":1014,"ved":1015,"cept":1016,"'d":1017,"Ġrec":1018,"Ġel":1019,"Ġlove":1020,"Ġ10":1021,"Ġquestion":1022,"Ġsol":1023,"Ġcase":1024,"iew":1025,"Ġused":1026,"the":1027,"Ġent":1028,"vious":1029,"angu":1030,"Ġhelp":1031,"Ġmade":1032,"Ġsub":1033,"Ġopen":1034,"Ġbetween":1035,"Ġcheck":1036,"Ġhuman":1037,"ature":1038,"Ġexact":1039,"Ġtech":1040,"ative":1041,"Ġsense":1042,"Ġlangu":1043,"Ġthought":1044,"Ġgetting":1045,"day":1046,"Ġits":1047,"Ġeff":1048,"li":1049,"Ġanything":1050,"Ġsaying":1051,"ĠYeah":1052,"Ġz":1053,"velop":1054,"Ġprocess":1055,"Ġcre":1056,"Ġtest":1057,"Ġmeans":1058,"Ġboth":1059,"Ġhand":1060,"Ġtrans":1061,"Ġlevel":1062,"Ġwhole":1063,"Ġkeep":1064,"ows":1065,"Ġtype":1066,"Ġtop":1067,"Ġwhatever":1068,"Ġbest":1069,"wor":1070,"Ġho":1071,"Ġmem":1072,"Ġcool":1073,"Ġcur":1074,"Ġfin":1075,"ia":1076,"Ġfour":1077,"hing":1078,"ness":1079,"Ġele":1080,"Ġreason":1081,"Ġblack":1082,"to":1083,"ak":1084,"Ġcor":1085,"Ġ\"":1086,"ger":1087,"Ġlearn":1088,"Ġvalue":1089,"cy":1090,"Ġdevelop":1091,"ution":1092,"put":1093,"ĠBut":1094,"ied":1095,"und":1096,"Ġla":1097,"ments":1098,"ertain":1099,"ome":1100,"Ġplus":1101,"Ġlooking":1102,"Ġside":1103,"Ġbad":1104,"Ġext":1105,"ĠRook":1106,"Ġinv":1107,"ention":1108,"Ġposition":1109,"cial":1110,"ready":1111,"Ġvers":1112,"ware":1113,"Ġear":1114,"Ġtakes":1115,"Ġprodu":1116,"Ġimportant":1117,"ope":1118,"Ġmakes":1119,"Ġtalking":1120,"Ġcreat":1121,"Ġalready":1122,"Ġlast":1123,"nce":1124,"ĠV":1125,"Ġcle":1126,"ĠQ":1127,"Ġreg":1128,"Ġwin":1129,"Ġbecom":1130,"ĠĠĠĠĠĠĠ":1131,"Ġdefin":1132,"Ġexp":1133,"arch":1134,"Ġrep":1135,"oney":1136,"Ġexpl":1137,"Ġmon":1138,"als":1139,"Ġgoes":1140,"Ġfew":1141,"ars":1142,"ian":1143,"Ġexactly":1144,"Ġthough":1145,"nect":1146,"Ġcreate":1147,"ract":1148,"its":1149,"Ġtimes":1150,"Ġtechn":1151,"iss":1152,"ism":1153,"Ġask":1154,"Ġguys":1155,"Ġenough":1156,"Ġclass":1157,"Ġ6":1158,"ages":1159,"Ġmoney":1160,"Ġquite":1161,"Ġpass":1162,"ĠThat":1163,"ont":1164,"Ġbelie":1165,"Ġline":1166,"Ġret":1167,"Ġlanguage":1168,"Ġcertain":1169,"Ġwa":1170,"Ġopt":1171,"Ġengine":1172,"Ġca":1173,"Ġcomplete":1174,"ĠOh":1175,"iting":1176,"cus":1177,"Ġed":1178,"ines":1179,"Ġturn":1180,"Ġform":1181,"ues":1182,"Ġelse":1183,"Ġsur":1184,"Ġless":1185,"up":1186,"Ġwhile":1187,"Ġexperi":1188,"Ġhaving":1189,"Ġass":1190,"Ġstand":1191,"Ġpartic":1192,"ately":1193,"Ġpossible":1194,"Ġtoday":1195,"Ġcare":1196,"Ġever":1197,"Ġonce":1198,"000":1199,"Ġind":1200,"Ġmodel":1201,"Ġkey":1202,"unch":1203,"bo":1204,"igure":1205,"ient":1206,"Ġnice":1207,"der":1208,"ĠThis":1209,"Ġobvious":1210,"Ġsmall":1211,"Ġcontro":1212,"Ġmult":1213,"Ġself":1214,"Ġword":1215,"Ġcr":1216,"ames":1217,"Ġconf":1218,"Ġchar":1219,"Ġspace":1220,"nds":1221,"Ġbra":1222,"Ġopp":1223,"ne":1224,"Ġchange":1225,"Ġcompan":1226,"oy":1227,"Ġworking":1228,"Ġtyp":1229,"Ġplace":1230,"Ġtea":1231,"Ġcomputer":1232,"Ġconnect":1233,"ros":1234,"Ġwatch":1235,"Ġobject":1236,"Ġtog":1237,"iter":1238,"ized":1239,"Ġaway":1240,"Ġref":1241,"Ġcou":1242,"ird":1243,"Ġsuper":1244,"ĠBishop":1245,"Ġname":1246,"Ġbook":1247,"oc":1248,"Ġjob":1249,"##":1250,"Ġsuch":1251,"Ġwhite":1252,"Ġfive":1253,"ote":1254,"ced":1255,"Ġtogether":1256,"Ġoper":1257,"Ġmaking":1258,"gor":1259,"most":1260,"Ġfar":1261,"ĠIn":1262,"Ġdire":1263,"Ġfull":1264,"ake":1265,"ten":1266,"mem":1267,"Ġcomes":1268,"Ġacc":1269,"of":1270,"ero":1271,"Ġconst":1272,"ially":1273,"Ġsign":1274,"ities":1275,"Ġdesign":1276,"Ġwrite":1277,"Ġsing":1278,"ash":1279,"bers":1280,"get":1281,"Ġleast":1282,"Ġguess":1283,"Ġstory":1284,"Ġspec":1285,"cript":1286,"Ġpie":1287,"Ġproject":1288,"Ġaut":1289,"Ġsays":1290,"lo":1291,"hip":1292,"Ġsomeone":1293,"ĠQue":1294,"ĠSt":1295,"Ġpawn":1296,"Ġsci":1297,"usic":1298,"ern":1299,"Ġmach":1300,"Ġworks":1301,"Ġstate":1302,"ible":1303,"Ġstarted":1304,"Ġrequ":1305,"Ġlooks":1306,"ology":1307,"sw":1308,"ering":1309,"ited":1310,"Ġdet":1311,"Ġlearning":1312,"ier":1313,"Ġ0":1314,"Ġabs":1315,"ex":1316,"ings":1317,"Ġmom":1318,"Ġquick":1319,"Ġtrue":1320,"ered":1321,"Ġcra":1322,"Ġwent":1323,"ib":1324,"Ġlar":1325,"formation":1326,"ming":1327,"aster":1328,"Ġorder":1329,"Ġlea":1330,"Ġdra":1331,"Ġmemory":1332,"orm":1333,"Ġgets":1334,"Ġremem":1335,"con":1336,"Ġcent":1337,"Ġhope":1338,"az":1339,"gorith":1340,"Ġmind":1341,"Ġart":1342,"Ġansw":1343,"Ġsimple":1344,"air":1345,"Ġinf":1346,"Ġalmost":1347,"Ġhead":1348,"ily":1349,"Ġwanted":1350,"Ġways":1351,"Ġthinking":1352,"Ġcoll":1353,"Ġwithout":1354,"Ġgiv":1355,"Ġdist":1356,"ĠQueen":1357,"resent":1358,"pr":1359,"Ġexist":1360,"Ġuni":1361,"Ġcommun":1362,"ather":1363,"Ġadv":1364,"Ġlig":1365,"Ġsingle":1366,"gin":1367,"Ġpar":1368,"Ġcoming":1369,"led":1370,"Ġbelieve":1371,"Ġperform":1372,"etimes":1373,"Ġmill":1374,"Ġes":1375,"Ġremember":1376,"Ġold":1377,"Ġnet":1378,"Ġfound":1379,"Ġlight":1380,"Ġscre":1381,"Ġisn":1382,"gn":1383,"Ġfoll":1384,"ump":1385,"Ġfree":1386,"Ġinstead":1387,"Ġ9":1388,"Ġexperience":1389,"Ġcompletely":1390,"ator":1391,"Ġleft":1392,"cl":1393,"ew":1394,"Ġbeh":1395,"Ġcol":1396,"Ġfile":1397,"Ġbre":1398,"Ġide":1399,"Ġmulti":1400,"Ġstop":1401,"olute":1402,"Ġreturn":1403,"Ġplan":1404,"ince":1405,"Ġresult":1406,"owing":1407,"Ġeasy":1408,"ither":1409,"Ġsk":1410,"ify":1411,"Ġnothing":1412,"Ġwrong":1413,"Ġhappens":1414,"Ġ7":1415,"work":1416,"Ġchang":1417,"Ġfil":1418,"ner":1419,"Ġsometimes":1420,"ĠWhat":1421,"Ġobviously":1422,"Ġstud":1423,"Ġphys":1424,"Ġliter":1425,"Ġguy":1426,"less":1427,"nding":1428,"ality":1429,"Ġcount":1430,"ank":1431,"osed":1432,"where":1433,"Ġhour":1434,"Ġ8":1435,"Ġparticular":1436,"Ġplays":1437,"ĉĉ":1438,"Ġabsolute":1439,"rent":1440,"ood":1441,"Ġvari":1442,"Ġstep":1443,"Ġterms":1444,"ave":1445,"Ġarg":1446,"Ġinformation":1447,"Ġseems":1448,"ush":1449,"Ġview":1450,"ructure":1451,"ision":1452,"yth":1453,"Ġsqu":1454,"Ġalgorith":1455,"Ġmatter":1456,"Ġclear":1457,"Ġrunning":1458,"uck":1459,"Ġdr":1460,"ization":1461,"Ġsw":1462,"ross":1463,"itely":1464,"Ġx":1465,"ren":1466,"ices":1467,"Ġcame":1468,"ude":1469,"gy":1470,"Ġinside":1471,"Ġcontrol":1472,"Ġwhether":1473,"gr":1474,"Ġweb":1475,"Ġsupport":1476,"Ġyourself":1477,"Ġpress":1478,"Ġspea":1479,"Ġseen":1480,"ets":1481,"Ġeffect":1482,"po":1483,"Ġlead":1484,"ĠGod":1485,"line":1486,"he":1487,"Ġsch":1488,"Ġsit":1489,"Ġdri":1490,"Ġher":1491,"Ġmath":1492,"Ġzero":1493,"Ġmet":1494,"med":1495,"Ġfigure":1496,"Ġmess":1497,"entially":1498,"cially":1499,"ural":1500,"rist":1501,"ken":1502,"ument":1503,"Ġappro":1504,"br":1505,"Ġque":1506,"Ġfrie":1507,"Ġtool":1508,"agn":1509,"irt":1510,"ream":1511,"Ġnumbers":1512,"ython":1513,"Ġgi":1514,"Ġeveryone":1515,"not":1516,"Ġmed":1517,"cle":1518,"Ġpol":1519,"itive":1520,"Ġanswer":1521,"plement":1522,"Ġeither":1523,"aut":1524,"Ġagainst":1525,"Ġve":1526,"Ġcap":1527,"Ġhist":1528,"ĠĠĠĠĠĠĠĠĠĠĠ":1529,"uring":1530,"Ġcam":1531,"Ġsoft":1532,"Ġlog":1533,"ĠPa":1534,"io":1535,"icult":1536,"Ġdirect":1537,"ĠHe":1538,"Ġmachine":1539,"Ġfast":1540,"Ġimag":1541,"Ġer":1542,"ling":1543,"Ġintern":1544,"Ġitself":1545,"PU":1546,"Ġblock":1547,"Ġtot":1548,"Ġplayed":1549,"ps":1550,"Ġmoment":1551,"rect":1552,"ler":1553,"Ġamount":1554,"dd":1555,"Ġlink":1556,"Ġwasn":1557,"Ġaccess":1558,"Ġplaying":1559,"cur":1560,"itch":1561,"Ġgames":1562,"man":1563,"Ġiss":1564,"Ġdefinitely":1565,"Ġwon":1566,"Ġfra":1567,"Ġhold":1568,"Ġbecome":1569,"mb":1570,"Ġcurrent":1571,"Ġfam":1572,"Ġyet":1573,"ĠIf":1574,"Ġentire":1575,"alf":1576,"Ġdifficult":1577,"mer":1578,"Ġintell":1579,"Ġ19":1580,"Ġwar":1581,"ilar":1582,"Ġdev":1583,"Ġmention":1584,"ĠAI":1585,"pecially":1586,"Ġoften":1587,"view":1588,"that":1589,"Ġlater":1590,"Ġbegin":1591,"Ġthank":1592,"ethod":1593,"Ġhu":1594,"Ġrecord":1595,"Ġtext":1596,"Ġbunch":1597,"uture":1598,"Ġfront":1599,"fect":1600,"Ġsound":1601,"ts":1602,"Ġbeaut":1603,"Ġtrain":1604,"Ġsince":1605,"Ġstructure":1606,"Ġhappened":1607,").":1608,"Ġchess":1609,"Ġabsolutely":1610,"Ġbring":1611,"wards":1612,"Ġproblems":1613,"Ġdeep":1614,"Ġespecially":1615,"),":1616,"Ġunt":1617,"ament":1618,"Ġattack":1619,"sel":1620,"Ġhit":1621,"ĠThere":1622,"ilt":1623,"Ġclose":1624,"zy":1625,"Ġtaking":1626,"Ġfine":1627,"verse":1628,"iness":1629,"Ġtem":1630,"Ġdepe":1631,"que":1632,"Ġimplement":1633,"Ġav":1634,"Ġbus":1635,"ann":1636,"Ġess":1637,"Ġhey":1638,"board":1639,"Ġfuture":1640,"ational":1641,"ray":1642,"Ġconvers":1643,"Ġsix":1644,"ield":1645,"ott":1646,"Ġequal":1647,"Ġmethod":1648,"Ġincl":1649,"Ġfeature":1650,"Ġpay":1651,"Ġcontin":1652,"Ġliterally":1653,"eng":1654,"utes":1655,"Ġkid":1656,"Ġcop":1657,"Ġwait":1658,"ety":1659,"Ġevent":1660,"Ġones":1661,"Ġeverybody":1662,"Ġ12":1663,"atic":1664,"Ġdoll":1665,"ec":1666,"ins":1667,"ĠMagn":1668,"ared":1669,"Ġcompany":1670,"ĠPawn":1671,"Ġhalf":1672,"Ġbased":1673,"Ġinte":1674,"Ġproduct":1675,"ĠOkay":1676,"Ġwithin":1677,"Ġpop":1678,"Ġprint":1679,"Ġqueen":1680,"ĠMagnus":1681,"cent":1682,"Ġlarge":1683,"Ġpri":1684,"ouse":1685,"Ġsoftware":1686,"attern":1687,"Ġdeal":1688,"Ġsca":1689,"ists":1690,"ots":1691,"Ġsomebody":1692,"Ġcharact":1693,"els":1694,"Ġcouple":1695,"ases":1696,"Ġrem":1697,"par":1698,"Ġmark":1699,"Ġtook":1700,"Ġgeneral":1701,"ax":1702,"Ġrest":1703,"ret":1704,"ency":1705,"Ġmain":1706,"gg":1707,"Ġmonth":1708,"selves":1709,"Ġversion":1710,"Ġdraw":1711,"Ġprogramming":1712,"Ġquestions":1713,"Ġlive":1714,"Ġfund":1715,"rib":1716,"Ġconsid":1717,"play":1718,"Ġperfect":1719,"Ġair":1720,"Ġdays":1721,"ivid":1722,"ability":1723,"ene":1724,"Ġsystems":1725,"onent":1726,"ik":1727,"ĠThey":1728,"Ġexc":1729,"Ġpub":1730,"Ġpattern":1731,"Ġproper":1732,"Ġperformance":1733,"Ġuntil":1734,"ric":1735,"Ġpath":1736,"ortun":1737,"Ġstandard":1738,"Ġloc":1739,"Ġhuge":1740,"Ġimage":1741,"Ġcorrect":1742,"ĠNo":1743,"side":1744,"Ġprov":1745,"Ġ100":1746,"ource":1747,"Ġallow":1748,"Ġcost":1749,"Ġexpect":1750,"Ġideas":1751,"ousand":1752,"Ġwo":1753,"Ġsize":1754,"ron":1755,"Ġspeed":1756,"Ġlow":1757,"Ġintellig":1758,"aces":1759,"Ġbreak":1760,"Ġbuilding":1761,"Ġprot":1762,"Ġmeaning":1763,"andom":1764,"ng":1765,"Ġlisten":1766,"Ġsimilar":1767,"Music":1768,"Ġthousand":1769,"ror":1770,"Ġgiven":1771,"Ġinde":1772,"gan":1773,"ĠKing":1774,"Ġshort":1775,"Ġbuy":1776,"Ġwee":1777,"Ġdifference":1778,"ully":1779,"Ġsuc":1780,"cul":1781,"ters":1782,"Ġfight":1783,"ired":1784,"cing":1785,"yn":1786,"Ġbro":1787,"lt":1788,"lect":1789,"Ġhappening":1790,"ee":1791,"pro":1792,"Ġnorm":1793,"Ġago":1794,"Ġhaven":1795,"Ġpick":1796,"ike":1797,"Ġmiss":1798,"Ġ30":1799,"ule":1800,"cious":1801,"Ġweird":1802,"Ġpur":1803,"Ġfre":1804,"Ġoptim":1805,"Ġhon":1806,"ply":1807,"Ġgraph":1808,"Ġtypes":1809,"idd":1810,"min":1811,"ides":1812,"Ġboard":1813,"Ġlay":1814,"sh":1815,"Ġincre":1816,"Ġtor":1817,"ah":1818,"Ġking":1819,"olution":1820,"Ġmillion":1821,"Ġwouldn":1822,"Ġresp":1823,"Ġimagine":1824,"Ġ'":1825,"Ġwal":1826,"app":1827,"Ġpoints":1828,"Ġpast":1829,"Ġlim":1830,"Ġprof":1831,"Ġbishop":1832,"Ġearly":1833,"reme":1834,"Ġsaw":1835,"Ġcrazy":1836,"Ġrandom":1837,"Ġrob":1838,"Ġfocus":1839,"Ġrather":1840,"Ġbeautif":1841,"Ġah":1842,"Ġhistory":1843,"Ġamaz":1844,"tern":1845,"Ġcal":1846,"ny":1847,"ional":1848,"Ġstring":1849,"Ġanal":1850,"Ġhy":1851,"Ġscience":1852,"ĠUn":1853,"Ġvis":1854,"itting":1855,"ĠX":1856,"ube":1857,"10":1858,"Ġteam":1859,"Ġmyself":1860,"Ġinput":1861,"Ġstor":1862,"Ġcomplex":1863,"ĠIs":1864,"Ġneeds":1865,"Ġquickly":1866,"ĠBe":1867,"fully":1868,"arent":1869,"Ġrepresent":1870,"Ġalgorithm":1871,"Ġbuilt":1872,"Ġ$":1873,"Ġlos":1874,"Ġhumans":1875,"Ġactual":1876,"Ġgives":1877,"ume":1878,"bit":1879,"Ġpost":1880,"ently":1881,"Ġapplic":1882,"Ġpack":1883,"Ġsimply":1884,"igin":1885,"lease":1886,"orry":1887,"Ġgrou":1888,"ctions":1889,"Ġhear":1890,"ples":1891,"Ġminutes":1892,"ava":1893,"Ġenc":1894,"ĠWell":1895,"Ġwords":1896,"Ġwater":1897,"irtual":1898,"Ġstore":1899,"ĠAll":1900,"ĠĠĠĠĠĠĠĠĠĠĠĠĠĠĠĠ":1901,"Ġmust":1902,"cr":1903,"Ġprom":1904,"ane":1905,"att":1906,"Ġnecess":1907,"Ġfair":1908,"undred":1909,"()":1910,"Ġscreen":1911,"Ġbrain":1912,"ively":1913,"####":1914,"Ġbeautiful":1915,"Ġcomb":1916,"Ġvalues":1917,"Ġtrad":1918,"Ġmatch":1919,"Ġessentially":1920,"Ġincred":1921,"load":1922,"ential":1923,"Ġgl":1924,"vert":1925,"Ġcard":1926,"Ġchall":1927,"ĠNow":1928,"Ġcannot":1929,"sy":1930,"Ġforward":1931,"Ġhundred":1932,"itions":1933,"Ġelect":1934,"Ġamazing":1935,"Ġnon":1936,"Ġ15":1937,"Ġpot":1938,"ta":1939,"Ġalong":1940,"aps":1941,"Ġexplain":1942,"Ġspecific":1943,"Ġpush":1944,"Ġpull":1945,"Ġorigin":1946,"erence":1947,"Ġcir":1948,"Ġtalked":1949,"Ġuser":1950,"Ġhours":1951,"Ġwonder":1952,"Ġaw":1953,"Ġchild":1954,"how":1955,"joy":1956,"Ġversus":1957,"Ġwriting":1958,"time":1959,"face":1960,"set":1961,"lish":1962,"Ġframe":1963,"ures":1964,"ior":1965,"Ġhigher":1966,"icient":1967,"Ġleave":1968,"Ġload":1969,"Ġgod":1970,"Ġapproach":1971,"Ġsitu":1972,"Ġmoves":1973,"Ġdi":1974,"Ġhell":1975,"Ġimpro":1976,"Ġpiece":1977,"Ġsorry":1978,"Ġbusiness":1979,"Ġpieces":1980,"Ġenjoy":1981,"Ġrespon":1982,"Ġmultiple":1983,"Ġhonest":1984,"istic":1985,"Ġusually":1986,"la":1987,"Ġ#":1988,"arily":1989,"Ġroom":1990,"gle":1991,"Ġsuccess":1992,"Ġmentioned":1993,"ton":1994,"Ġap":1995,"Ġlose":1996,"Ġcommon":1997,"Ġpred":1998,"...":1999,"Ġreality":2000,"ital":2001,"Ġcenter":2002,"Ġhome":2003,"Ġexcept":2004,"Ġfix":2005,"Ġcy":2006,"Ġuseful":2007,"ires":2008,"Ġtechnology":2009,"Ġult":2010,"Ġcontain":2011,"cast":2012,"Ġpython":2013,"Ġcamer":2014,"Ġeight":2015,"Ġsocial":2016,"Ġsearch":2017,"Ġwatching":2018,"Ġconversation":2019,"Ġseconds":2020,"Ġener":2021,"Ġremo":2022,"Ġindivid":2023,"Ġstarting":2024,"Ġkinds":2025,"like":2026,"Ġpract":2027,"Ġstrong":2028,"Ġdollars":2029,".\"":2030,"Ġdeg":2031,"Ġarray":2032,"Ġfundament":2033,"Ġstra":2034,"Ġcompet":2035,"Ġfail":2036,"Ġfall":2037,"Ġbehind":2038,"rad":2039,"Ġmass":2040,"ond":2041,"ĠLet":2042,"Ġcompil":2043,"ined":2044,"Ġfaster":2045,"ext":2046,"old":2047,"cuss":2048,"Ġagree":2049,"Ġleg":2050,"ught":2051,"Ġmoving":2052,"Ġkill":2053,"ident":2054,"medi":2055,"Ġrelations":2056,"Ġident":2057,"Ġnode":2058,"Ġ+":2059,"Ġinit":2060,"raph":2061,"Ġoutside":2062,"Ġcond":2063,"Ġnetwork":2064,"Ġspecial":2065,"Ġacross":2066,"Ġinteract":2067,"Ġdou":2068,"Ġneg":2069,"itor":2070,"Ġbasic":2071,"ased":2072,"you":2073,"Ġbi":2074,"Ġenv":2075,"Ġ50":2076,"Ġtrack":2077,"Ġcreated":2078,"Ġbott":2079,"Ġfriends":2080,"Ġtold":2081,"Ġdoc":2082,"ables":2083,"Ġdig":2084,"ĠHow":2085,"Ġspeak":2086,"Ġpres":2087,"iron":2088,"Ġmot":2089,"Ġfollow":2090,"Ġpercent":2091,"Ġvideos":2092,"search":2093,"chan":2094,"ruction":2095,"Ġextreme":2096,"oud":2097,"ĠJava":2098,"Ġpublic":2099,"Ġhor":2100,"Ġconcept":2101,"Ġskill":2102,"Ġsource":2103,"come":2104,"Ġaddress":2105,"Ġenergy":2106,"izing":2107,"Ġlost":2108,"Ġdiscuss":2109,"Ġcopy":2110,"Ġfeels":2111,"Ġbelow":2112,"Ġmathem":2113,"Ġcod":2114,"lex":2115,"ech":2116,"lling":2117,"Ġcompanies":2118,"Ġdescri":2119,"Ġunderstanding":2120,"Ġdetail":2121,"Ġindividual":2122,"plic":2123,"Ġwind":2124,"Ġlab":2125,"Ġred":2126,"icro":2127,"Ġslow":2128,"Ġdrive":2129,"more":2130,"Ġdot":2131,"Ġface":2132,"ĠAl":2133,"arr":2134,"ĠFor":2135,"Ġtheory":2136,"Ġlonger":2137,"Ġupd":2138,"Ġrelationship":2139,"oice":2140,"eter":2141,"Ġvirtual":2142,"Ġbody":2143,"Ġanyway":2144,"Ġconc":2145,"Ġcut":2146,"ules":2147,"fl":2148,"Ġ11":2149,"mm":2150,"Ġfield":2151,"ression":2152,"ĠPro":2153,"Ġ?":2154,"Ġprin":2155,"Ġthanks":2156,"Ġpossib":2157,"Ġserver":2158,"Ġsurpr":2159,"Ġbox":2160,"Ġextra":2161,"ided":2162,"ences":2163,"Ġenviron":2164,"Ġexec":2165,"Ġdep":2166,"bed":2167,"rom":2168,"Ġmechan":2169,"Ġnight":2170,"Ġsend":2171,"Ġra":2172,"Ġworth":2173,"ipp":2174,"nter":2175,"Ġconstant":2176,"rypt":2177,"Ġsolution":2178,"Ġreact":2179,"xim":2180,"ĠDe":2181,"Ġintelligence":2182,"Ġpod":2183,"Ġorgan":2184,"Ġsho":2185,"Ġbase":2186,"Ġcharacter":2187,"ussi":2188,"Ġnat":2189,"ault":2190,"uth":2191,"Ġeasier":2192,"Ġschool":2193,"ĠCom":2194,"Ġ201":2195,"ustom":2196,"Ġautom":2197,"Ġinclud":2198,"ĠLike":2199,"Ġdem":2200,"Ġresearch":2201,"iddle":2202,"Ġdest":2203,"oose":2204,"Ġtrade":2205,"Ġstay":2206,"rop":2207,"Ġswitch":2208,"Ġpaper":2209,"end":2210,"Ġfore":2211,"ery":2212,"Ġmil":2213,"port":2214,"Ġrange":2215,"Ġhappy":2216,"Ġport":2217,"Ġscient":2218,"ging":2219,"Ġpowerful":2220,"Ġfunctions":2221,"Ġpolit":2222,"Ġknew":2223,"ats":2224,"Ġbill":2225,"Ġconscious":2226,"Ġteach":2227,"Ġplayers":2228,"Ġgre":2229,"uz":2230,"Ġinvest":2231,"Ġultim":2232,"vern":2233,"ged":2234,"Ġaspect":2235,"ĠCPU":2236,"ctor":2237,"Ġwants":2238,"Ġpain":2239,"iction":2240,"Ġcult":2241,"Ġsum":2242,"ified":2243,"Ġinstall":2244,"Ġ200":2245,"by":2246,"vice":2247,"Ġlaw":2248,"thers":2249,"cin":2250,"itten":2251,"Ġaud":2252,"Ġtowards":2253,"Ġstream":2254,"Ġtable":2255,"ĠZ":2256,"Ġcommunity":2257,"alth":2258,"Ġ16":2259,"Ġsupposed":2260,"Ġinvol":2261,"my":2262,"Ġwall":2263,"Ġsubs":2264,"Ġbecomes":2265,"ift":2266,"Ġlibr":2267,"Ġthemselves":2268,"Ġcustom":2269,"Ġknown":2270,"sych":2271,"Ġothers":2272,"ledge":2273,"icle":2274,"Ġsepar":2275,"Ġissue":2276,"Ġmar":2277,"Ġseeing":2278,"verage":2279,"oring":2280,"Ġworked":2281,"Ġsolve":2282,"Ġsent":2283,"0000":2284,"Ġsave":2285,"Ġrid":2286,"Ġpressure":2287,"Ġcomplic":2288,"Ġtotally":2289,"Ġconsider":2290,"Ġcalcul":2291,"aking":2292,"Ġmeet":2293,"cription":2294,"Ġgam":2295,"Ġmusic":2296,"Ġrust":2297,"Ġpodcast":2298,"jor":2299,"ulation":2300,"Ġloop":2301,"Ġgiving":2302,"Ġseven":2303,"Ġfinally":2304,"ask":2305,"Ġreach":2306,"Ġoutput":2307,"Ġcollect":2308,"Ġplayer":2309,"Ġgovern":2310,"Ġgroup":2311,"Ġaccount":2312,"Ġey":2313,"gest":2314,"Ġcouldn":2315,"Ġerror":2316,"Ġwow":2317,"avor":2318,"Ġjump":2319,"Ġtools":2320,"oid":2321,"Ġlines":2322,"Ġpoin":2323,"Ġmonths":2324,"asure":2325,"Ġsequ":2326,"Ġcolor":2327,"ĠRe":2328,"here":2329,"pective":2330,"Ġgone":2331,"aterial":2332,"Ġredu":2333,"Ġchann":2334,"ĠChrist":2335,"Ġmist":2336,"Ġlower":2337,"itional":2338,"Ġbigger":2339,"Ġcamera":2340,"Ġaren":2341,"Ġcontent":2342,"Ġstraight":2343,"Ġdefe":2344,"Ġlots":2345,"wise":2346,"ove":2347,"Ġknows":2348,"ised":2349,"rodu":2350,"Ġnormal":2351,"ser":2352,"Ġsec":2353,"mbol":2354,"Ġopponent":2355,"ying":2356,"Ġnature":2357,"Ġpsych":2358,"Ġtried":2359,"imens":2360,"Ġslight":2361,"Ġprevious":2362,"Ġthird":2363,"Ġmajor":2364,"ov":2365,"Ġtree":2366,"ob":2367,"Ġdevelopment":2368,"Ġuniverse":2369,"Ġenvironment":2370,"ris":2371,"Ġweight":2372,"Ġdiv":2373,"ensive":2374,"pos":2375,"Ġclick":2376,"Ġwalk":2377,"Ġstack":2378,"Ġplat":2379,"Ġreco":2380,"Ġsituation":2381,"Ġseem":2382,"Ġinternet":2383,"Ġinterested":2384,"val":2385,"Ġbeginning":2386,"Ġcell":2387,"anna":2388,"Ġcertainly":2389,"Ġprinci":2390,"Ġmodern":2391,"Ġlearned":2392,"Ġanyone":2393,"oph":2394,"20":2395,"Ġmiddle":2396,"Ġfunny":2397,"Ġkids":2398,"aby":2399,"Ġahead":2400,"Ġste":2401,"Ġpawns":2402,"ising":2403,"Ġscale":2404,"Ġduring":2405,"Ġaff":2406,"Ġsomehow":2407,"Ġ40":2408,"Ġallows":2409,"ges":2410,"ips":2411,"Ġwritten":2412,"ives":2413,"Ġmaterial":2414,"50":2415,"ians":2416,"Ġneeded":2417,"Ġargument":2418,"ium":2419,"Ġsymbol":2420,"ailable":2421,"Ġmanag":2422,"11":2423,"Ġmor":2424,"Ġwom":2425,"Ġwebs":2426,"Ġputting":2427,"Ġcreating":2428,"Ġcases":2429,"Ġland":2430,"Ġdisco":2431,"Ġcomplicated":2432,"Ġability":2433,"ivity":2434,"Ġrealize":2435,"Ġfas":2436,"Ġmarket":2437,"Ġnotice":2438,"Ġhowever":2439,"Ġdatab":2440,"Ġimmedi":2441,"uc":2442,"Ġbene":2443,"Ġoc":2444,"gs":2445,"Ġparts":2446,"ouch":2447,"Ġdark":2448,"Ġready":2449,"rees":2450,"Ġcommunic":2451,"fer":2452,"Ġtur":2453,"Ġclos":2454,"Ġfollowing":2455,"aring":2456,"etic":2457,"Ġdeb":2458,"umb":2459,"ants":2460,"Ġheard":2461,"go":2462,"Ġcontext":2463,"Ġunf":2464,"Ġfinish":2465,"Ġvol":2466,"Ġpict":2467,"Ġsoon":2468,"antage":2469,"haps":2470,"Ġsha":2471,"Ġmathemat":2472,"cies":2473,"Ġfan":2474,"tes":2475,"Ġhouse":2476,"arget":2477,"Ġfeatures":2478,"Ġplease":2479,"Ġstarts":2480,"Ġcrit":2481,"Ġcore":2482,"Ġserious":2483,"Ġasked":2484,"amp":2485,"place":2486,"Ġflo":2487,"):":2488,"Ġfavor":2489,"Ġplug":2490,"Ġspons":2491,"Ġperspective":2492,"Ġsounds":2493,"ances":2494,"cks":2495,"Ġgotta":2496,"lying":2497,"Ġgave":2498,"Ġsuff":2499,"conom":2500,"Ġtrick":2501,"Ġfu":2502,"ological":2503,"ĠSh":2504,"Ġtaken":2505,"Ġrad":2506,"Ġbottom":2507,"Ġmessage":2508,"Ġonline":2509,"Ġfur":2510,"Ġweek":2511,"Ġchanges":2512,"The":2513,"dden":2514,"Ġfascin":2515,"inary":2516,"ĠDo":2517,"Ġsoci":2518,"though":2519,"Ġelements":2520,"Ġsudden":2521,"Ġitem":2522,"Ġincredible":2523,"Ġsomewhere":2524,"itter":2525,"Ġchat":2526,"Ġbar":2527,"Ġdom":2528,"Ġavailable":2529,"ister":2530,"Ġ{":2531,"Ġphysical":2532,"word":2533,"Ġarea":2534,"Ġreasons":2535,"Ġwanna":2536,"Ġfinal":2537,"Ġfamily":2538,"elt":2539,"Ġdisplay":2540,"Ġknowledge":2541,"Ġattention":2542,"Ġextremely":2543,"back":2544,"Ġsetting":2545,"ilities":2546,"Ġpriv":2547,"Ġcla":2548,"Ġdang":2549,"Ġyoung":2550,"Ġchance":2551,"Ġperhaps":2552,"Ġpresent":2553,"Ġtrust":2554,"Ġscri":2555,"Ġminute":2556,"Ġsmart":2557,"Ġinterview":2558,"Ġbenef":2559,"Ġtraining":2560,"Ġtotal":2561,"pose":2562,"utions":2563,"Ġchrist":2564,"Ġris":2565,"Ġscript":2566,"Ġvariable":2567,"Ġelement":2568,"Ġanymore":2569,"Ġdescription":2570,"ones":2571,"ength":2572,"Ġshare":2573,"ĠPC":2574,"Ġbits":2575,"Ġcontinue":2576,"ries":2577,"Ġclean":2578,"Ġnear":2579,"Ġdeath":2580,"Ġrecom":2581,"Ġphone":2582,"Ġphysics":2583,"Ġdocument":2584,"Ġant":2585,"Ġtruth":2586,"Ġearli":2587,"ploy":2588,"Ġdam":2589,"Ġnobody":2590,"ese":2591,"Ġeconom":2592,"Ġwinning":2593,"ral":2594,"ĠBl":2595,"lay":2596,"Ġturns":2597,"Ġselect":2598,"Ġedge":2599,"Ġchoose":2600,"eters":2601,"vered":2602,"Ġpage":2603,"Ġprotect":2604,"Ġparam":2605,"odes":2606,"rible":2607,"Ġnegative":2608,"ikar":2609,"vent":2610,"Ġwrote":2611,"Ġsafe":2612,"sible":2613,"Ġslightly":2614,"iment":2615,"Ġgoal":2616,"Ġtouch":2617,"Ġfriend":2618,"Ġresults":2619,"orn":2620,"Ġmag":2621,"Ġopening":2622,"__":2623,"Ġthread":2624,"Ġfeeling":2625,"Ġnecessarily":2626,"oh":2627,"Script":2628,"Ġfire":2629,"Ġep":2630,"Ġanim":2631,"Ġlooked":2632,"Ġground":2633,"Ġindex":2634,"now":2635,"Ġhate":2636,"row":2637,"Ġsens":2638,"Ġrequest":2639,"Ġmode":2640,"ynam":2641,"Ġcapt":2642,"Ġreading":2643,"Ġequals":2644,"Ġfelt":2645,"Ġarch":2646,"ators":2647,"Ġthreat":2648,"Ġrobot":2649,"Ġcountry":2650,"usion":2651,"ĠEx":2652,"Ġuses":2653,"Ġissues":2654,"Ġimprove":2655,"Ġmedia":2656,"ĠTr":2657,"Ġlikely":2658,"mod":2659,"works":2660,"Ġobjects":2661,"12":2662,"Ġund":2663,"Ġgig":2664,"Ġrules":2665,"ĠUS":2666,"Ġefficient":2667,"ĠYouT":2668,"Ġeventually":2669,"nded":2670,"Ġindust":2671,"ĠJavaScript":2672,"Ġgrow":2673,"Ġlanguages":2674,"....":2675,"meric":2676,"Ġpersonal":2677,"Ġdirectly":2678,"Ġveh":2679,"ls":2680,"Ġworse":2681,"ze":2682,"Ġspend":2683,"esome":2684,"Ġultimately":2685,"ĠCon":2686,"Ġfurther":2687,"Ġoriginal":2688,"Ġworry":2689,"Ġchannel":2690,"Ġopportun":2691,"Ġauth":2692,"Ġdatabase":2693,"Ġinstance":2694,"Ġrot":2695,"ograph":2696,"Ġdude":2697,"Ġterm":2698,"Ġrecomme":2699,"ata":2700,"Ġforce":2701,"ĠAs":2702,"Ġpositive":2703,"yle":2704,"Ġ25":2705,"Ġbutton":2706,"avior":2707,"curity":2708,"Ġfascinating":2709,"ourn":2710,"Ġcoding":2711,"Ġrele":2712,"Ġsquare":2713,"Ġspeaking":2714,"Ġbeat":2715,"Ġapplication":2716,".,":2717,"do":2718,"Ġann":2719,"Ġcirc":2720,"Ġtorch":2721,"Ġwebsite":2722,"Ġconv":2723,"Ġminim":2724,"Ġrout":2725,"Ġfoot":2726,"Ġgovernment":2727,"Ġsle":2728,"Ġchanged":2729,"Ġmanage":2730,"Ġprice":2731,"Ġphil":2732,"just":2733,"Ġ60":2734,"Ġaccept":2735,"Ġearlier":2736,"Ġappear":2737,"cket":2738,"ife":2739,"ressive":2740,"ĠGPU":2741,"Ġmodels":2742,"Ġnatural":2743,"bal":2744,"Ġabove":2745,"Ġsacr":2746,"book":2747,"Ġliving":2748,"ination":2749,"Ġ13":2750,"Ġforget":2751,"astic":2752,"Ġdirection":2753,"Ġest":2754,"Ġquality":2755,"pid":2756,"âĢ":2757,"enge":2758,"Ġawesome":2759,"ĠAmeric":2760,"Ġhot":2761,"Ġfundamental":2762,"Ġhonestly":2763,"Ġplaces":2764,"Ġhang":2765,"Ġtelling":2766,"Ġsubscri":2767,"ground":2768,"Ġengineering":2769,"rain":2770,"this":2771,"Ġnews":2772,"Ġmov":2773,"ĠAn":2774,"Ġfuel":2775,"Ġshoot":2776,"Ġsever":2777,"Ġeasily":2778,"ses":2779,"Ġpi":2780,"Ġinitial":2781,"Ġmother":2782,"Ġiter":2783,"Ġrecogn":2784,"Ġinstruct":2785,"Ġclearly":2786,"Ġaverage":2787,"Ġintrodu":2788,"pped":2789,"ĠTw":2790,"Ġintegr":2791,"Ġsignific":2792,"ĠCan":2793,"idence":2794,"ĠWor":2795,"Ġimmediately":2796,"ost":2797,"chie":2798,"illi":2799,"ĠYes":2800,"alse":2801,"Ġcareer":2802,"Ġearth":2803,"Ġquant":2804,"Ġseries":2805,"Ġconcern":2806,"Ġrole":2807,"Ġill":2808,"ĠĠĠĠĠĠĠĠĠĠĠĠĠĠĠ":2809,"ĠAr":2810,"Ġcover":2811,"Ġdisc":2812,"Ġspent":2813,"Ġrequire":2814,"Ġstick":2815,"Ġ14":2816,"Ġinfl":2817,"str":2818,"Ġshows":2819,"Ġlocal":2820,"Ġalthough":2821,"Ġthrow":2822,"right":2823,"Ġinstruction":2824,"Ġver":2825,"Ġunivers":2826,"Ġclaim":2827,"Ġge":2828,"semb":2829,"Ġcommand":2830,"Ġseveral":2831,"ĠYouTube":2832,"Ġlibrary":2833,"Ġcurrently":2834,"with":2835,"Ġmicro":2836,"Ġsitting":2837,"Ġmeasure":2838,"Ġprofess":2839,"Ġotherwise":2840,"Ġstrate":2841,"aries":2842,"Lex":2843,"rams":2844,"Ġflow":2845,"Ġsmaller":2846,"Ġrespect":2847,"Ġpredict":2848,"Ġstock":2849,"ky":2850,"Ġbal":2851,"osoph":2852,"Ġbiggest":2853,"Ġcompiler":2854,"Ġcross":2855,"Ġrate":2856,"ha":2857,"Ġgear":2858,"Ġachie":2859,"Ġlength":2860,"urch":2861,"Ġrelig":2862,"Ġrelative":2863,"por":2864,"Ġfeed":2865,"ury":2866,"ivil":2867,"Ġalgorithms":2868,"Ġmap":2869,"Ġvi":2870,"Ġexcited":2871,"Ġmaxim":2872,"Ġ202":2873,"Ġassum":2874,"Ġasking":2875,"Ġdepend":2876,"Ġfill":2877,"iod":2878,"Ġsat":2879,"ĠAd":2880,"Ġtesting":2881,"Ġworst":2882,"Ġdead":2883,"Ġpointer":2884,"light":2885,"Ġheart":2886,"Ġimages":2887,"ison":2888,"miss":2889,"Ġstupid":2890,"Ġpopular":2891,"Ġrecently":2892,"yond":2893,"gen":2894,"Ġrece":2895,"Ġdefault":2896,"ĠGoo":2897,"Ġhopefully":2898,"Ġinvolved":2899,"Ġstage":2900,"Ġdele":2901,"Ġcounter":2902,"Ġpicture":2903,"Ġbatter":2904,"ĠPython":2905,"Ġdeter":2906,"ping":2907,"Ġstat":2908,"Ġphilosoph":2909,"Ġfit":2910,"Ġprojects":2911,"Ġdouble":2912,"Ġmen":2913,"Ġtend":2914,"Ġwhe":2915,"Ġshape":2916,"ites":2917,"Ġfully":2918,"Ġdie":2919,"anch":2920,"apter":2921,"ĠInt":2922,"Ġsimpl":2923,"uments":2924,"Ġchallenge":2925,"Ġabst":2926,"Ġconnected":2927,"Ġopin":2928,"Ġcast":2929,"used":2930,"80":2931,"Ġremove":2932,"erv":2933,"rupt":2934,"Ġperiod":2935,"Ġstatement":2936,"fort":2937,"arious":2938,"Ġmaint":2939,"Ġcrypt":2940,"ortunately":2941,"Ġsecurity":2942,"Ġexamples":2943,"Ġunique":2944,"what":2945,"Ġsignificant":2946,"Ġhealth":2947,"Ġruns":2948,"Ġadvantage":2949,",\"":2950,"Ġeth":2951,"))":2952,"ops":2953,"ried":2954,"Ġstories":2955,"Ġcivil":2956,"iny":2957,"Ġrook":2958,"Ġgenerally":2959,"ience":2960,"Ġdecision":2961,"Ġweak":2962,"Ġconnection":2963,"Ġobser":2964,"Ġanyways":2965,"pre":2966,"ources":2967,"Ġlock":2968,"Ġlaug":2969,"Ġfavorite":2970,"Ġservice":2971,"Ġprim":2972,"Ġimplementation":2973,"Ġsociety":2974,"Ġregular":2975,"point":2976,"Ġculture":2977,"ĠGoogle":2978,"Ġluck":2979,"cad":2980,"coin":2981,"eric":2982,"resh":2983,"Ġhandle":2984,"Ġscrew":2985,"uit":2986,"reci":2987,"Ġshouldn":2988,"Ġdistance":2989,"Ġemail":2990,"Ġsequence":2991,"fact":2992,"ony":2993,"Ġdanger":2994,"Ġ000":2995,"itect":2996,"asing":2997,"Ġbound":2998,"Ġment":2999,"Ġconsciousness":3000,"anced":3001,"Ġet":3002,"Ġdriving":3003,"cise":3004,"Ġseparate":3005,"Ġconstruct":3006,"sequ":3007,"Ġdevice":3008,"Ġnu":3009,"Ġcomputers":3010,"Ġallowed":3011,"Ġlistening":3012,"########":3013,"ked":3014,"came":3015,"onents":3016,"ĠJust":3017,"Ġrule":3018,"empt":3019,"ival":3020,"Ġdistrib":3021,"sc":3022,"Ġresponse":3023,"Ġage":3024,"ikaru":3025,"Ġapply":3026,"ĠTech":3027,"Ġcomment":3028,"Ġten":3029,"pend":3030,"Ġgaming":3031,"Ġonto":3032,"Ġchildren":3033,"Ġfiles":3034,"ney":3035,"ev":3036,"illiant":3037,"ously":3038,"Ġtri":3039,"Ġneural":3040,"Ġpurpose":3041,"Ġfood":3042,"Ġmis":3043,"Ġda":3044,"Ġclock":3045,"Ġpan":3046,"Ġminus":3047,"Ġstar":3048,"Ġbooks":3049,"Ġdegree":3050,"Ġimpact":3051,"ĠOr":3052,"Ġmassive":3053,"ulate":3054,"Ġprovide":3055,"ories":3056,"Ġspir":3057,"Ġunit":3058,"Ġpat":3059,"Ġdecided":3060,"uly":3061,"Ġhimself":3062,"Ġsleep":3063,"ares":3064,"Ġround":3065,"Ġrecommend":3066,"Ġdeveloper":3067,"idth":3068,"rew":3069,"nces":3070,"Ġdesigned":3071,"Ġchurch":3072,"inus":3073,"Ġvarious":3074,"Ġmat":3075,"ĠSe":3076,"Ġinfin":3077,"Ġinterface":3078,"Ġadding":3079,"Ġvisual":3080,"Ġspl":3081,"rest":3082,"ains":3083,"Ġchalleng":3084,"racy":3085,"Ġbrought":3086,"ension":3087,"Ġcred":3088,"Ġtravel":3089,"Ġmostly":3090,"Ġlimit":3091,"Ġtit":3092,"Ġappreci":3093,"Ġbehavior":3094,"Ġnone":3095,"her":3096,"Ġplatform":3097,"Ġoperation":3098,"ux":3099,"Ġemot":3100,"Ġassume":3101,"Ġindustry":3102,"ted":3103,"Ġinstructions":3104,"Ġut":3105,"Ġreference":3106,"Ġupdate":3107,"Ġends":3108,"Ġball":3109,"ĠOne":3110,"Ġemer":3111,"Ġstru":3112,"Ġrev":3113,"PT":3114,"Ġcomments":3115,"Ġvector":3116,"ma":3117,"Ġnarr":3118,"Ġusers":3119,"Ġhur":3120,"Ġnine":3121,"iring":3122,"Ġchoice":3123,"oss":3124,"Ġsugg":3125,"Ġphot":3126,"Ġgrand":3127,"Ġsuggest":3128,"soci":3129,"Ġtarget":3130,"Ġ24":3131,"Ġskills":3132,"Ġbecame":3133,"Ġavoid":3134,"Ġmount":3135,"Ġlaunch":3136,"Ġcach":3137,"Ġcars":3138,"Ġdestro":3139,"Ġincluding":3140,"Ġunless":3141,"Ġstyle":3142,"off":3143,"ample":3144,"ifically":3145,"Ġtechnical":3146,"Ġheav":3147,"Ġadded":3148,"ring":3149,"Ġjud":3150,"Ġtreat":3151,"atically":3152,"Ġshot":3153,"Ġprogress":3154,"Ġtask":3155,"Ġgenerate":3156,"Ġce":3157,"Ġpatterns":3158,"Ġdream":3159,"umn":3160,"Ġsetup":3161,"Ġtempl":3162,"Ġoppos":3163,"Ġpotential":3164,"rand":3165,"Ġvision":3166,"Ġaction":3167,"Ġexpress":3168,"imin":3169,"ili":3170,"imate":3171,"Ġapart":3172,"Ġkeyboard":3173,"Ġroad":3174,"Ġparent":3175,"ina":3176,"Ġ18":3177,"Ġcapac":3178,"land":3179,"aining":3180,"Ġexperiment":3181,"Ġstates":3182,"Ġanybody":3183,"PI":3184,"ĠTo":3185,"Ġlayer":3186,"Ġblue":3187,"Ġregard":3188,"Ġintu":3189,"Ġnodes":3190,"Ġrelated":3191,"Ġdimens":3192,"Ġroll":3193,"Ch":3194,"Ġdefine":3195,"Ġtypically":3196,"Ġlarger":3197,"icking":3198,"Ġbillion":3199,"Ġstudy":3200,"Ġhands":3201,"Ġcuz":3202,"iet":3203,"ster":3204,"add":3205,"ĠHere":3206,"ox":3207,"Ġ17":3208,"Ġpractice":3209,"Ġexciting":3210,"Ġpair":3211,"Ġlevels":3212,"Ġwomen":3213,"bs":3214,"Ġoptions":3215,"uted":3216,"Ġign":3217,"Ġcharacters":3218,"ored":3219,"Ġ90":3220,"Ġsell":3221,"Ġeffort":3222,"uff":3223,"oles":3224,"Ġscen":3225,"ped":3226,"Ġdynam":3227,"Ġbeyond":3228,"Ġimm":3229,"Ġvir":3230,"ification":3231,"Ġassemb":3232,"Ġreview":3233,"Ġrisk":3234,"Ġglo":3235,"Ġdetails":3236,"Ġnote":3237,"Ġarchitect":3238,"celer":3239,"Ġeduc":3240,"Ġspot":3241,"Ġdetect":3242,"amed":3243,"Ġhardware":3244,"ĠWorld":3245,"Ġroot":3246,"Ġpix":3247,"Ġsal":3248,"Ġdoor":3249,"Ġknight":3250,"Ġgrad":3251,"Ġcat":3252,"ĠNew":3253,"iding":3254,"acy":3255,"ĠCar":3256,"Ġreport":3257,"Ġlives":3258,"Ġstorage":3259,"Ġwish":3260,"Ġgold":3261,"ĠHikaru":3262,"Ġbrilliant":3263,"pping":3264,"Ġvalid":3265,"Ġopportunity":3266,"isions":3267,"Ġpolitical":3268,"Ġmeant":3269,"Ġlapt":3270,"Ġincrease":3271,"Ġrealized":3272,"Ġmer":3273,"Ġanaly":3274,"Ġshowing":3275,"Ġprop":3276,"Ġexpensive":3277,"Ġsurface":3278,"Ġjobs":3279,"Ġheat":3280,"Ġoperations":3281,"Ġdesk":3282,"Ġbackground":3283,"py":3284,"Ġchea":3285,"++":3286,"Ġtests":3287,"Ġcontinu":3288,"Ġwel":3289,"Ġoption":3290,"Ġpea":3291,"Ġparticularly":3292,"Ġtherefore":3293,"Ġeat":3294,"Ġreplace":3295,"Ġtough":3296,"Ġmistake":3297,"aw":3298,"Ġadvice":3299,"ysis":3300,"unk":3301,"using":3302,"indows":3303,"Ġapparent":3304,"Ġpin":3305,"amb":3306,"Ġtemper":3307,"ale":3308,"Ġfold":3309,"Ġeval":3310,"ĠApp":3311,"ĠBecause":3312,"Ġourselves":3313,"Ġconsist":3314,"ĠEng":3315,"Ġworlds":3316,"Ġunfortunately":3317,"Ġbinary":3318,"Ġtechni":3319,"Ġ/":3320,"ceed":3321,"Ġsex":3322,"Ġplanet":3323,"Ġended":3324,"from":3325,"Ġmachines":3326,"ifying":3327,"\")":3328,"Ġharder":3329,"Ġenter":3330,"rary":3331,"uro":3332,"Th":3333,"Ġaware":3334,"Ġtruly":3335,"Ġbattery":3336,"under":3337,"Ġblah":3338,"ining":3339,"Ġregister":3340,"Ġwilling":3341,"Ġ,":3342,"Ġsignal":3343,"Ġsteps":3344,"Ġdefinition":3345,"rael":3346,"Ġtransl":3347,"Ġturned":3348,"Ġprograms":3349,"Ġshift":3350,"Ġcontroll":3351,"icul":3352,"ĠSp":3353,"Ġoperating":3354,"Ġmiles":3355,"Ġexists":3356,"Ġrepe":3357,"Ġ32":3358,"Ġcause":3359,"oint":3360,"Ġsus":3361,"Ġproduction":3362,"Ġmagn":3363,"Ġdecide":3364,"Ġpure":3365,"Ġdepending":3366,"Ġfol":3367,"Ġfant":3368,"ĠWindows":3369,"ĠRussi":3370,"mar":3371,"urs":3372,"Ġgreen":3373,"Ġsurv":3374,"Ġhello":3375,"Ġforth":3376,"Ġterrible":3377,"Ġdro":3378,"Ġopinion":3379,"Ġwild":3380,"ĠAPI":3381,"Ġoccur":3382,"Ġrich":3383,"Ġelectric":3384,"Ġsubject":3385,"ibly":3386,"path":3387,"Ġdrop":3388,"Ġrow":3389,"Ġgoodness":3390,"Ġ80":3391,"Ġcand":3392,"Ġbroad":3393,"Ġvehicle":3394,"Ġwindow":3395,"Ġinflu":3396,"Ġcable":3397,"Ġcalling":3398,"ider":3399,"Ġhelps":3400,"Ġtheore":3401,"Ġdownload":3402,"Ġproduce":3403,"Ġcatch":3404,"Ġcalls":3405,"Ġapplications":3406,"Ġton":3407,"Ġwelcome":3408,"etry":3409,"Ġgreater":3410,"andler":3411,"Ġimpos":3412,"Ġfactor":3413,"Ġinsp":3414,"],":3415,"son":3416,"Ġmonitor":3417,"âĢ¢":3418,"Ġsil":3419,"Ġprocessing":3420,"Ġspecifically":3421,"arm":3422,"Ġcomplexity":3423,"can":3424,"Ġsem":3425,"Ġstri":3426,"Ġsubt":3427,"Ġconsum":3428,"Ġsuccessful":3429,"Ġviol":3430,"Ġchanging":3431,"Ġdog":3432,"Ġsyn":3433,"Ġevolution":3434,"ĠHey":3435,"nn":3436,"Ġnetworks":3437,"ĠCl":3438,"Ġweeks":3439,"ners":3440,"Ġtim":3441,"Ġhop":3442,"Ġeyes":3443,"Ġdescribe":3444,"Ġsmo":3445,"Ġpersonally":3446,"Ġlif":3447,"Ġdevelopers":3448,"Ġfinding":3449,"ario":3450,"Ġthousands":3451,"Ġrough":3452,"Ġstrugg":3453,"Ġfac":3454,"Ġcate":3455,"edom":3456,"Ġsolid":3457,"Ġlat":3458,"Ġacceler":3459,"ises":3460,"Ġempt":3461,"Ġanywhere":3462,"Ġbitcoin":3463,"Ġspirit":3464,"Ġlate":3465,"ived":3466,"inst":3467,"Ġengineer":3468,"Ġlosing":3469,"Ġdevices":3470,"In":3471,"Ġsponsor":3472,"Ġtemperature":3473,"Ġwhenever":3474,"Ġagg":3475,"Ġyep":3476,"Ġpotentially":3477,"Ġameric":3478,"Ġnotic":3479,"Ġdeli":3480,"Ġevents":3481,"Ġmaster":3482,"Ġalloc":3483,"Ġcomponents":3484,"ĠNet":3485,"Ġconfig":3486,"Ġprivate":3487,"Ġtiny":3488,"bb":3489,"uses":3490,"got":3491,"Ġgotten":3492,"Ġai":3493,"Ġcapture":3494,"Ġbee":3495,"Ġmoved":3496,"Ġeffectively":3497,"Ġvac":3498,"anks":3499,"Ġauthor":3500,"mit":3501,"Ġlimited":3502,"ĠGen":3503,"Ġcompar":3504,"clear":3505,"Ġaffect":3506,"Ġdigital":3507,"Ġtells":3508,"cer":3509,"eg":3510,"Ġmethods":3511,"Ġali":3512,"wr":3513,"ief":3514,"Ġcompared":3515,"Ġbur":3516,"Ġattempt":3517,"Ġweren":3518,"Ġgeneration":3519,"eff":3520,"cient":3521,"Ġsets":3522,"Ġwhereas":3523,"Ġassoci":3524,"Ġapparently":3525,"Ġmine":3526,"Ġrat":3527,"Ġassign":3528,"Ġrequired":3529,"Ġinclude":3530,"Ġcity":3531,"Ġ*":3532,"Ġmix":3533,"Ġmagic":3534,"Ġcapacity":3535,"Ġrefer":3536,"Ġprime":3537,"Ġquantum":3538,"Ġfalse":3539,"Ġsuddenly":3540,"ĠTwitter":3541,"Ġencou":3542,"eck":3543,"Ġgas":3544,"60":3545,"Ġstrange":3546,"Ġempty":3547,"gment":3548,"ĠWhen":3549,"Ġevalu":3550,"Ġhost":3551,"Ġvariables":3552,"Ġclasses":3553,"Ġanalysis":3554,"ustr":3555,"pu":3556,"Ġarm":3557,"Ġrequires":3558,"Ġproof":3559,"soft":3560,"Ġdepends":3561,"Ġfolks":3562,"ung":3563,"Ġmotiv":3564,"Ġclient":3565,"Ġinteger":3566,"Ġsaf":3567,"Ġnames":3568,"Ġcapital":3569,"Ġbull":3570,"tt":3571,"akes":3572,"Ġsection":3573,"Ġridicul":3574,"Ġmissing":3575,"lock":3576,"Ġpaid":3577,"Ġdoub":3578,"icles":3579,"ici":3580,"Ġrussi":3581,"immy":3582,"Ġcomfort":3583,"Ġthroughout":3584,"roll":3585,"Ġtrou":3586,"Ġcloud":3587,"have":3588,"izes":3589,"Ġoffer":3590,"Ġappreciate":3591,"ĠNot":3592,"Ġinternal":3593,"tend":3594,"Ġopposite":3595,"Ġstuck":3596,"ording":3597,"Ġcarry":3598,"Ġtopic":3599,"Ġmovie":3600,"Ġupon":3601,"Ġemploy":3602,"Ġimpossible":3603,"reg":3604,"char":3605,"Ġboo":3606,"ĠInd":3607,"Ġformat":3608,"pper":3609,"Ġperfectly":3610,"rix":3611,"game":3612,"ties":3613,"ĠIsrael":3614,"Ġtransform":3615,"Ġoverall":3616,"Ġboy":3617,"avid":3618,"Ġpackage":3619,"ourney":3620,"ressed":3621,"ade":3622,"Ġbuff":3623,"Ġpolic":3624,"Ġmovement":3625,"Ġdestroy":3626,"bel":3627,"Ġnotion":3628,"Ġemb":3629,"Ġcentury":3630,"Ġcompare":3631,"Ġnecessary":3632,"Ġcolumn":3633,"Ġpossibly":3634,"Ġgar":3635,"erman":3636,"Ġnoise":3637,"Ġcurious":3638,"ĠRight":3639,"rady":3640,"Ġbought":3641,"ifice":3642,"ĠWhite":3643,"Ġexpand":3644,"Ġarguments":3645,"Ġbeings":3646,"Ġquote":3647,"Ġcontains":3648,"iliar":3649,"Ġtalks":3650,"Ġcloser":3651,"ĠBr":3652,"Ġran":3653,"Ġpassword":3654,"Ġdegrees":3655,"Ġconsequ":3656,"Ġparticip":3657,"ege":3658,"onom":3659,"Ġsupply":3660,"Ġcash":3661,"model":3662,"Ġevol":3663,"Ġstudents":3664,"core":3665,"size":3666,"Ġmultip":3667,"ey":3668,"Ġshut":3669,"Ġarticle":3670,"Ġincredibly":3671,"Ġsad":3672,"Ġfreedom":3673,"Ġcards":3674,"Ġstrategy":3675,"ĠChris":3676,"down":3677,"Ġcompile":3678,"Ġparty":3679,"Ġaudio":3680,"Ġâ":3681,"Ġscal":3682,"oll":3683,"Ġpound":3684,"Ġachieve":3685,"let":3686,"Ġdiscussion":3687,"Ġlogic":3688,"comp":3689,"asks":3690,"Ġrespo":3691,"Ġprior":3692,"flow":3693,"Ġepis":3694,"cape":3695,"ĠMay":3696,"Ġbaby":3697,"ait":3698,"Ġsn":3699,"Ġwra":3700,"ushing":3701,"ĠStates":3702,"allel":3703,"Ġcareful":3704,"da":3705,"Ġinsane":3706,"hs":3707,"power":3708,"ork":3709,"Ġprove":3710,"Ġhack":3711,"Ġbranch":3712,"Ġhistor":3713,"19":3714,"Ġ<":3715,"angle":3716,"Ġrelatively":3717,"inder":3718,"Ġ199":3719,"Ġfairly":3720,"Ġconstantly":3721,"Ġeye":3722,"ĠPr":3723,"Ġdefined":3724,"Ġbalance":3725,"Ġassembly":3726,"tor":3727,"Ġaltern":3728,"Ġpoor":3729,"Ġgreatest":3730,"Ġdecisions":3731,"Ġdollar":3732,"top":3733,"Ġchem":3734,"arant":3735,"Ġbrings":3736,"Ġknowing":3737,"ĠWhy":3738,"ificial":3739,"Ġsafety":3740,"Ġconvert":3741,"Ġfilm":3742,"mission":3743,"Ġprobability":3744,"Ġsubscribe":3745,"rame":3746,"Ġtorque":3747,"Ġsecret":3748,"lection":3749,"def":3750,"ibility":3751,"Ġevil":3752,"Ġupg":3753,"Ġshowed":3754,"Ġfrequ":3755,"Ġpublish":3756,"Ġmodule":3757,"opt":3758,"Ġdemo":3759,"Ġalone":3760,"Ġsquares":3761,"Ġdru":3762,"ench":3763,"Ġpipe":3764,"Ġ64":3765,"Ġdeeply":3766,"vant":3767,"Ġproperty":3768,"Ġmaximum":3769,"Ġdeveloped":3770,"Ġresources":3771,"Ġproperly":3772,"Ġbecoming":3773,"Ġenjoyed":3774,"Ġidentity":3775,"Ġnormally":3776,"Ġmathematics":3777,"ening":3778,"Ġfather":3779,"Ġcycle":3780,"Ġexpression":3781,"Ġmaintain":3782,"Ġspo":3783,"Ġgrab":3784,"Ġindic":3785,"Ġdriver":3786,"Ġloss":3787,"Ġden":3788,"Ġsold":3789,"oms":3790,"ĠHT":3791,"Ġaspects":3792,"ER":3793,"aging":3794,"Ġprocessor":3795,"ĠFr":3796,"ĠIm":3797,"Ġax":3798,"Ġleaders":3799,"Ġlocation":3800,"Ġterr":3801,"Ġbenefit":3802,"Ġabstract":3803,"Ġsplit":3804,"ierarch":3805,"Ġsport":3806,"sib":3807,"Ġlabel":3808,"Ġframework":3809,"Ġswe":3810,"Ġkick":3811,"ocol":3812,"ius":3813,"Ġedges":3814,"Ġexch":3815,"apt":3816,"Ġcircle":3817,"cut":3818,"abor":3819,"itted":3820,"Ġaccording":3821,"Ġlaptop":3822,"Ġled":3823,"Ġsacrifice":3824,"Ġcompute":3825,"haust":3826,"Ġder":3827,"Ġkeys":3828,"ordan":3829,"Ġwheel":3830,"Ġwire":3831,"Ġcharge":3832,"Ġwide":3833,"Ġnamed":3834,"Ġmechanism":3835,"Ġmanagement":3836,"onal":3837,"Ġprep":3838,"Ġevidence":3839,"Ġfantastic":3840,"Ġfamiliar":3841,"Ġwins":3842,"Ġscientific":3843,"Ġprinciple":3844,"eam":3845,"Ġcandid":3846,"gers":3847,"Ġblocks":3848,"Ġthoughts":3849,"Ġhash":3850,"esis":3851,"Ġexpected":3852,"Ġwaiting":3853,"any":3854,"une":3855,"Ġfear":3856,"Ġspread":3857,"Ġexpert":3858,"print":3859,"Ġcomponent":3860,"Ġeverywhere":3861,"Ġridiculous":3862,"bing":3863,"Ġchip":3864,"Ġhighest":3865,"Ġbank":3866,"Ġmanif":3867,"Ġprevent":3868,"Ġdangerous":3869,"rast":3870,"ients":3871,"Ġple":3872,"Ġcache":3873,"ball":3874,"ivers":3875,"ĠIntel":3876,"antic":3877,"Ġmillions":3878,"Ġsurprising":3879,"Ġcredit":3880,"Ġmouse":3881,"uration":3882,"Ġdrag":3883,"icit":3884,"Ġcru":3885,"Ġpen":3886,"Ġmotherboard":3887,"ufact":3888,"class":3889,"Ġvoice":3890,"Ġcamp":3891,"Ġkept":3892,"oom":3893,"Ġfa":3894,"ding":3895,"Ġexhaust":3896,"Ġang":3897,"Ġdemon":3898,"Ġdiscovered":3899,"itude":3900,"Ġdemand":3901,"rel":3902,"ĠID":3903,"ĠThen":3904,"Ġcreates":3905,"torch":3906,"Ġoil":3907,"Ġpoly":3908,"Ġinsert":3909,"Ġautomatically":3910,"Ġcontact":3911,"they":3912,"mp":3913,"ley":3914,"Ġeffects":3915,"Ġhorse":3916,"Ġkil":3917,"Ġord":3918,"import":3919,"Ġtermin":3920,"Ġstructures":3921,"Ġhierarch":3922,"ĠThese":3923,"Ġforever":3924,"Ġoffic":3925,"Ġinterp":3926,"Ġproducts":3927,"Ġactiv":3928,"Ġadditional":3929,"Ġdrives":3930,"Ġsuppose":3931,"Ġcondition":3932,"Ġeffective":3933,"forms":3934,"Ġoffice":3935,"eless":3936,"Ġparallel":3937,"arth":3938,"Ġrender":3939,"Ġrig":3940,"Ġheight":3941,"ĠAt":3942,"Ġsorts":3943,"Ġhyp":3944,"Ġtitle":3945,"ĠUSB":3946,"respo":3947,"Ġnor":3948,"Ġbrows":3949,"Ġglobal":3950,"esla":3951,"Ġgir":3952,"Ġscore":3953,"Ġcomputation":3954,"rors":3955,"key":3956,"Ġguarant":3957,"Ġsynt":3958,"Ġjourney":3959,"Ġprecise":3960,"Ġhole":3961,"Ġband":3962,"raid":3963,"box":3964,"outh":3965,"Ġmate":3966,"ĠUnited":3967,"Ġpossibility":3968,"Ġ70":3969,"emic":3970,"Ġanti":3971,"ays":3972,"Ġdisag":3973,"Ġsun":3974,"Ġcold":3975,"Ġnuclear":3976,"iciency":3977,"Ġvert":3978,"Ġthinks":3979,"ĠAm":3980,"Ġtraditional":3981,"ĠEl":3982,"Ġamong":3983,"Ġrobots":3984,"Ġdefend":3985,"eper":3986,"TX":3987,"Ġolder":3988,"raction":3989,"list":3990,"izations":3991,"Ġhighly":3992,"Ġchristian":3993,"Ġjoin":3994,"Ġhundreds":3995,"Ġchain":3996,"Ġinvent":3997,"Ġaccur":3998,"Ġspeech":3999,"ĠTV":4000,"arter":4001,"ason":4002,"ughter":4003,"Ġnearly":4004,"Ġdelete":4005,"Ġarchitecture":4006,"100":4007,"ologies":4008,"Ġmanufact":4009,"there":4010,"Ġcontrib":4011,"Ġflat":4012,"Ġindepend":4013,"Ġparameters":4014,"Ġdefense":4015,"cont":4016,"Ġdue":4017,"ĠLo":4018,"Ġinn":4019,"Ġsettings":4020,"aced":4021,"Ġ500":4022,"ipping":4023,"Ġmid":4024,"Ġtourn":4025,"Ġdebug":4026,"gue":4027,"aly":4028,"Ġshared":4029,"Ġminimum":4030,"Ġdesp":4031,"Ġtoken":4032,"enty":4033,"ĠMy":4034,"Ġcritic":4035,"Ġintelligent":4036,"Ġcrypto":4037,"encies":4038,"Ġrace":4039,"We":4040,"Ġbot":4041,"\":":4042,"esh":4043,"ĠLu":4044,"Ġareas":4045,"force":4046,"Ġble":4047,"Ġhasn":4048,"Ġcoin":4049,"Ġexplicit":4050,"uzz":4051,"Ġartificial":4052,"MD":4053,"mun":4054,"Ġtwice":4055,"Ġaudience":4056,"Ġexception":4057,"Ġdamn":4058,"Ġwife":4059,"Ġfeet":4060,"Ġrecent":4061,"Ġfixed":4062,"Ġheavy":4063,"Ġbroken":4064,"Ġboot":4065,"Ġmorning":4066,"Ġsides":4067,"inger":4068,"cons":4069,"Ġrock":4070,"ĠAre":4071,"but":4072,"Ġodd":4073,"term":4074,"Ġdisapp":4075,"cell":4076,"Ġsquared":4077,"ĠBlack":4078,"Ġtemplate":4079,"Ġmob":4080,"Ġq":4081,"ordin":4082,"Ġboom":4083,"ĠFab":4084,"urope":4085,"ablish":4086,"Ġspin":4087,"ration":4088,"Ġforgot":4089,"Ġexplore":4090,"ensor":4091,"Ġcorner":4092,"about":4093,"Ġactive":4094,"ĠSu":4095,"Ġeditor":4096,"dom":4097,"Ġcivilization":4098,"Ġresist":4099,"Ġembed":4100,"Ġargue":4101,"Ġtradition":4102,"Ġstre":4103,"Ġrepresentation":4104,"Ġtrouble":4105,"Ġcritical":4106,"Ġrelease":4107,"head":4108,"Ġwonderful":4109,"Ġgroups":4110,"Ġweap":4111,"Ġgrav":4112,"reng":4113,"Ġcells":4114,"Ġuns":4115,"rength":4116,"Ġitems":4117,"abilities":4118,"eal":4119,"Ġdumb":4120,"Ġarr":4121,"Ġkeeps":4122,"Ġrare":4123,"30":4124,"Ġconsidered":4125,"ography":4126,"16":4127,"Ġafraid":4128,"Ġviews":4129,"Ġcollection":4130,"idge":4131,"ĠMicro":4132,"mers":4133,"Ġens":4134,"Ġhanging":4135,"Ġputs":4136,"Ġcommunication":4137,"Ġannoy":4138,"Ġratio":4139,"over":4140,"Ġdepth":4141,"Ġconstra":4142,"Ġscene":4143,"Ġcentral":4144,"Ġfocused":4145,"Ġreturns":4146,"Ġfans":4147,"orrow":4148,"oun":4149,"Ġinject":4150,"itary":4151,"........":4152,"SP":4153,"Ġfighting":4154,"Ġmic":4155,"Ġlinear":4156,"Ġconcl":4157,"Ġtwe":4158,"rency":4159,"oices":4160,"ctors":4161,"ystem":4162,"Ġconditions":4163,"Ġproperties":4164,"Ġsna":4165,"Ġyout":4166,"izer":4167,"Ġmathematical":4168,"inux":4169,"Ġreduce":4170,"iest":4171,"Ġcorrespo":4172,"ĉĉĉ":4173,"ption":4174,"ighb":4175,"Ġshown":4176,"Ġconflic":4177,"agram":4178,"Ġsuffering":4179,"Ġcompetition":4180,"Ġwindows":4181,"Ġgrowing":4182,"vid":4183,"utor":4184,"Ġattach":4185,"Ġfilter":4186,"ĠDef":4187,"Ġgain":4188,"Ġbringing":4189,"ohn":4190,"Ġefficiency":4191,"lebr":4192,"ĠWar":4193,"Ġcorrectly":4194,"urally":4195,"Ġcountries":4196,"ĠGo":4197,"ĠEarth":4198,"Ġstored":4199,"Ġresponsib":4200,"Ġdiscover":4201,"Ġsyntax":4202,"Ġstatic":4203,"Ġbright":4204,"Ġsatis":4205,"run":4206,"Ġbatt":4207,"Ġpositions":4208,"Ġepisode":4209,"Ļª":4210,"Ġlie":4211,"Ġequival":4212,"Ġtick":4213,"Ġtruck":4214,"Ġtransfer":4215,"Ġhelpful":4216,"oding":4217,"ĠChandler":4218,"itors":4219,"Ġprinciples":4220,"ĠLook":4221,"Ġseriously":4222,"ĠWho":4223,"isms":4224,"lem":4225,"Ġfamous":4226,"Ġrap":4227,"Ġstrength":4228,"istics":4229,"Ġleads":4230,"Ġanalog":4231,"hood":4232,"rames":4233,"Ġvalu":4234,"Ġtasks":4235,"Ġlack":4236,"Ġdisagree":4237,"ĠâĻª":4238,"Ġdecent":4239,"Ġexperiences":4240,"Ġgiant":4241,"Ġreligious":4242,"irm":4243,"Ġdad":4244,"ĠWhich":4245,"Ġdecl":4246,"Ġreasonable":4247,"Ġsong":4248,"Ġholding":4249,"sp":4250,"order":4251,"Ġtechnically":4252,"25":4253,"Ġkeeping":4254,"Ġdomin":4255,"aint":4256,"Ġsurprised":4257,"Ġcoff":4258,"Ġsched":4259,"Ġocc":4260,"Ġtheoret":4261,"Ġprefer":4262,"igning":4263,"ĠPl":4264,"aged":4265,"Ġpaying":4266,"ĠPh":4267,"Ġslowly":4268,"forward":4269,"ĠJohn":4270,"Ġstars":4271,"ĠCheck":4272,"Ġmessages":4273,"ternal":4274,"Ġther":4275,"rade":4276,"Ġmanager":4277,"Ġnoticed":4278,"blem":4279,"Ġautonom":4280,"Ġcelebr":4281,"Wh":4282,"inct":4283,"Ġhom":4284,"Ġdeeper":4285,"Ġattrib":4286,"ML":4287,"Ġpushing":4288,"Ġrecognize":4289,"pri":4290,"Ġmeeting":4291,"based":4292,"mate":4293,"Ġfunctional":4294,"Ġcha":4295,"Ġcapable":4296,"Ġfundamentally":4297,"Ġunders":4298,");":4299,"Ġexcl":4300,"Ġ23":4301,"ception":4302,"Ġtries":4303,"ĠAmerican":4304,"Ġclosed":4305,"Ġmax":4306,"col":4307,"Ġcos":4308,"Ġfuck":4309,"Ġengines":4310,"ker":4311,"Ġimpressive":4312,"omen":4313,"Ġunlike":4314,"Ġestablish":4315,"?\"":4316,"ĠGPT":4317,"Ġcheap":4318,"Ġparameter":4319,"Ġmole":4320,"Ġremote":4321,"Ġinfinite":4322,"ĠĠĠĠĠĠĠĠĠĠĠĠ":4323,"Ġbuffer":4324,"ĠChristian":4325,"Ġmember":4326,"Ġcollege":4327,"Ġdram":4328,"cra":4329,"name":4330,"Ġinstit":4331,"Ġinterpret":4332,"Ġmac":4333,"ĠOn":4334,"Ġmus":4335,"Ġcompl":4336,"ĠThank":4337,"bi":4338,"Ġpow":4339,"ana":4340,"rage":4341,"Ġneur":4342,"Ġneighb":4343,"Ġoperator":4344,"Ġson":4345,"ques":4346,"Ġbrand":4347,"//":4348,"pm":4349,"ipped":4350,"Ġequation":4351,"Ġreve":4352,"Ġbytes":4353,"Ġborn":4354,"etch":4355,"Ġpolicy":4356,"Ġprogrammer":4357,"ĠApple":4358,"net":4359,"ĠAlex":4360,"Ġtransact":4361,"iver":4362,"Ġcook":4363,"Ġalign":4364,"ublic":4365,"ĠInst":4366,"Ġscr":4367,"Ġmanifest":4368,"Figure":4369,"ios":4370,"ĠState":4371,"Ġmatters":4372,"Ġfeedback":4373,"ĠĠĠĠĠĠĠĠĠĠĠĠĠĠĠĠĠĠĠ":4374,"Ġincreasing":4375,"Ġmanip":4376,"Ġcomputing":4377,"Ġwalking":4378,"laug":4379,"etime":4380,"Ġshock":4381,"ĠNe":4382,"Ġdespite":4383,"Ġdu":4384,"raine":4385,"unt":4386,"Ġpresident":4387,"AT":4388,"Ġturbo":4389,"cos":4390,"Ġworried":4391,"Ġdeterm":4392,"ned":4393,"Ġmut":4394,"Ġcrash":4395,"70":4396,"Ġresolution":4397,"Ġversions":4398,"ĠMr":4399,"Ġcosts":4400,"Ġknock":4401,"Ġguard":4402,"Ġhurt":4403,"Ġplane":4404,"Ġaddition":4405,"Ġcontract":4406,"Ġfinan":4407,"Ġcourses":4408,"Ġaccident":4409,"kraine":4410,"Ġconver":4411,"ein":4412,"Ġchallenges":4413,"Ġparents":4414,"Ġdate":4415,"Ġforms":4416,"Ġbeauty":4417,"ournal":4418,"Ġcogn":4419,"Ġgraphics":4420,"rough":4421,"Ġcooling":4422,"Ġopposed":4423,"Ġlayers":4424,"['":4425,"Ġadjust":4426,"enced":4427,"Ġsending":4428,"Ġaccom":4429,"Ġrom":4430,"Ġlinked":4431,"atives":4432,"ints":4433,"ĠLe":4434,"PS":4435,"Ġfake":4436,"Ġdomain":4437,"Ġangle":4438,"Ġpassed":4439,"Ġmilitary":4440,"Ġflex":4441,"ĠFigure":4442,"Ġbelief":4443,"Ġrepl":4444,"Ġcovered":4445,"Ġwoman":4446,"Ġscientists":4447,"15":4448,"Ġeducation":4449,"Ġmembers":4450,"data":4451,"Ġdescribed":4452,"Ġcoffee":4453,"Ġexecute":4454,"pi":4455,"Ġwhoa":4456,"Ġlaws":4457,"Ġconcerned":4458,"Ġphase":4459,"Ġflip":4460,"Ġfigured":4461,"AM":4462,"eral":4463,"Ġyell":4464,"spe":4465,"Ġded":4466,"Ġsto":4467,"Ġinsight":4468,"32":4469,"umber":4470,"Ġmanaged":4471,"af":4472,"Ġshad":4473,"ĠEvery":4474,"Ġmistakes":4475,"Ġjoke":4476,"Ġfinished":4477,"Ġyoutube":4478,"Ġir":4479,"Ġcolors":4480,"Ġhyd":4481,"Ġdeveloping":4482,"\",":4483,"aming":4484,"Ġbud":4485,"sing":4486,"Ġbug":4487,"Ġnarrative":4488,"uine":4489,"pha":4490,"Ġexisting":4491,"idden":4492,"ĠAdv":4493,"Ġbed":4494,"edia":4495,"ĠAMD":4496,"Ġlegal":4497,"tr":4498,"Ġtre":4499,"uts":4500,"ĠCent":4501,"Ġprofessional":4502,"Ġentirely":4503,"Ġchamp":4504,"Ġslash":4505,"Ġreflect":4506,"iation":4507,"ĠMaybe":4508,"Ġcomfortable":4509,"Ġboost":4510,"mark":4511,"Ġforeign":4512,"Ġaccurate":4513,"Ġphen":4514,"Ġhelping":4515,"Ġtires":4516,"Ġtherm":4517,"Ġrear":4518,"acing":4519,"Ġbreaking":4520,"Ġast":4521,"org":4522,"Ġarbit":4523,"Ġ21":4524,"Ġmultiply":4525,"Ġprotocol":4526,"Ġgent":4527,"Ġmeta":4528,"Ġding":4529,"Ġ==":4530,"Ġintuition":4531,"Ġcalculate":4532,"Ġtournament":4533,"Ġinstant":4534,"ĠMac":4535,"Ġsolving":4536,"lied":4537,"Ġdrink":4538,"case":4539,"Ġcreative":4540,"ĠCast":4541,"Ġexchange":4542,"Ġdivid":4543,"ilot":4544,"Ġsite":4545,"omb":4546,"Ġmoments":4547,"Ġserv":4548,"Ġerrors":4549,"Ġtutor":4550,"Ġdealing":4551,"Ġlad":4552,"Ġstable":4553,"ĠMax":4554,"ĠDon":4555,"Ġgenuine":4556,"Ġapple":4557,"Ġpractical":4558,"mon":4559,"Ġinch":4560,"erences":4561,"Ġtom":4562,"illy":4563,"Ġhelped":4564,"ĠJordan":4565,"Ġbuying":4566,"bon":4567,"uild":4568,"phone":4569,"Ġcrap":4570,"Ġfly":4571,"Ġcommunicate":4572,"Ġthreads":4573,"vable":4574,"Ġsimulation":4575,"Ġdynamic":4576,"Ġroughly":4577,"].":4578,"Ġleader":4579,"Ġ>":4580,"Ġsolutions":4581,"Ġhypoth":4582,"Ġbag":4583,"iling":4584,"Ġcurve":4585,"Ġinteraction":4586,"cles":4587,"ulated":4588,"Ġexistence":4589,"arp":4590,"Ġsacrific":4591,"Ġcomparison":4592,"Ġpump":4593,"flix":4594,"Ġfell":4595,"Ġconversations":4596,"pers":4597,"Ġteaching":4598,"Ġshop":4599,"Ġcompat":4600,"Ġequivalent":4601,"Ġsick":4602,"atory":4603,"Ġanswers":4604,"40":4605,"Ġmanual":4606,"Ġideal":4607,"Ġchecking":4608,"Ġdetermin":4609,"part":4610,"Ġlens":4611,"Ġorganization":4612,"cal":4613,"Ġhyper":4614,"Ġpromise":4615,"Ġmental":4616,"Ġresponsibility":4617,"lies":4618,"Ġtypescript":4619,"rie":4620,"Ġloved":4621,"Ġelectron":4622,"Brady":4623,"Ġrating":4624,"Ġburn":4625,"Ġsuck":4626,"ĠEd":4627,"Ġflag":4628,"Ġadvanced":4629,"Ġimplemented":4630,"Ġspending":4631,"Ġphenomen":4632,"Ġ:":4633,"Ġ27":4634,"text":4635,"Ġtutorial":4636,"Ġrecords":4637,"ees":4638,"Ġhighlight":4639,"Ġclassic":4640,"Ġwondering":4641,"Ġban":4642,"Ġasyn":4643,"arian":4644,"Ġreleased":4645,"lin":4646,"Ġsam":4647,"ĠHD":4648,"ĠSqu":4649,"Ġinterf":4650,"Ġmyst":4651,"Ġbrowser":4652,"Ġlinks":4653,"90":4654,"atts":4655,"Ġmeg":4656,"Ġeconomy":4657,"Ġspecies":4658,"Ġreli":4659,"Ġunderstood":4660,"ĠTrump":4661,"Ġunderscore":4662,"Ġassociated":4663,"was":4664,"chron":4665,"Ġcyl":4666,"oe":4667,"year":4668,"Ġpeace":4669,"gory":4670,"Ġlibraries":4671,"lim":4672,"Ġpc":4673,"Ġexplan":4674,"ĠMicrosoft":4675,"Ġsatisf":4676,"pus":4677,"Ġacad":4678,"eak":4679,"Ġcommit":4680,"Ġicon":4681,"Ġstanding":4682,"ished":4683,"Ġmajority":4684,"Ġannoying":4685,"Ġrein":4686,"ulations":4687,"Ġpref":4688,"Ġunits":4689,"Ġsmooth":4690,"mos":4691,"Ġrelevant":4692,"Ġhook":4693,"Ġletter":4694,"Ġ)":4695,"Ġinher":4696,"ĠHans":4697,"Ex":4698,"room":4699,"Ġmatrix":4700,"ED":4701,"ira":4702,"Ġforces":4703,"log":4704,"ĠCastle":4705,"Ġapproxim":4706,"Ġattacking":4707,"Ġhierarchy":4708,"Ġbenefits":4709,"ym":4710,"Ġpunch":4711,"Ġvaluable":4712,"Ġencrypt":4713,"stand":4714,"Ġdivide":4715,"Ġpool":4716,"ada":4717,"ĠSim":4718,"ĠMark":4719,"erve":4720,"Ġstress":4721,"Ġcreation":4722,"Ġalternative":4723,"Ġdiction":4724,"Ġchecks":4725,"Ġwrest":4726,"Ġsomewhat":4727,"ĠWow":4728,"Ġdaily":4729,"Ġrapid":4730,"Ġscratch":4731,"Ġtax":4732,"Ġqual":4733,"Ġcollabor":4734,"ded":4735,"iven":4736,"ula":4737,"iving":4738,"ĠFl":4739,"dimens":4740,"Ġpages":4741,"Ġdeploy":4742,"irect":4743,"Ġgoog":4744,"ertz":4745,"Ġstrings":4746,"Ġsituations":4747,"Ġbudget":4748,"Ġpuzz":4749,"alest":4750,"ĠCons":4751,"ĠMan":4752,"ĠLinus":4753,"ups":4754,"13":4755,"jo":4756,"train":4757,"Ġlights":4758,"Ġprompt":4759,"ĠAmerica":4760,"Ġwhose":4761,"Ġliber":4762,"ckets":4763,"Ġfloor":4764,"Ġlaughing":4765,"ection":4766,"Ġstudent":4767,"Ġsignificantly":4768,"EA":4769,"Ġpand":4770,"aph":4771,"ĠCommun":4772,"Ġanimals":4773,"Ġgosh":4774,"Ġholy":4775,"Ġboys":4776,"Ġglass":4777,"iano":4778,"Ġinputs":4779,"Ġdamage":4780,"Ġexer":4781,"Ġactions":4782,"(\"":4783,"rs":4784,"connect":4785,"Ġnaturally":4786,"ambda":4787,"Ġbucks":4788,"Ġturning":4789,"Ġpixels":4790,"ship":4791,"Ġbiology":4792,"Ġreligion":4793,"width":4794,"Ġspect":4795,"Ġsurprise":4796,"Ġfolder":4797,"Ġaim":4798,"Ġnav":4799,"ĠSm":4800,"Ġmoral":4801,"Ġtaught":4802,"Ġdisk":4803,"Ġprovides":4804,"isters":4805,"Ġtransition":4806,"################":4807,"Ġmal":4808,"ĠDis":4809,"Ġbrief":4810,"This":4811,"Ġtweet":4812,"Ġvict":4813,"Ġdifferences":4814,"Ġsymm":4815,"Ġpassing":4816,"no":4817,"arn":4818,"Ġrecurs":4819,"Ġfaith":4820,"ĠSam":4821,"Ġadapt":4822,"fin":4823,"fish":4824,"Ġsou":4825,"Ġcaught":4826,"rench":4827,"round":4828,"itable":4829,"cap":4830,"ession":4831,"Ġmetal":4832,"Ġ300":4833,"Ġprocesses":4834,"Ġoptimal":4835,"ĠHowever":4836,"Ġdemonstr":4837,"some":4838,"struct":4839,"Ġcombination":4840,"Ġrevolution":4841,"Ġfort":4842,"bra":4843,"Ġliked":4844,"Ġenem":4845,"Ġpassion":4846,"Ġtopics":4847,"bage":4848,"Ġholes":4849,"iles":4850,"Ġpointers":4851,"through":4852,"Ġapps":4853,"ĠWith":4854,"Ġprem":4855,"apers":4856,"Ġmissed":4857,"Ġtire":4858,"?)":4859,"look":4860,"Ġ22":4861,"world":4862,"Ġtrained":4863,"arl":4864,"Ġexcell":4865,"ernel":4866,"ids":4867,"ils":4868,"rete":4869,"Ġlikes":4870,"Ġbasis":4871,"Ġmotion":4872,"Ġattacks":4873,"Ġexecut":4874,"00000000":4875,"kn":4876,"kens":4877,"Ġvia":4878,"Ġtyping":4879,"Ġtechnique":4880,"gram":4881,"Ġprogrammers":4882,"Ġupgrade":4883,"Ġbattle":4884,"Ġshit":4885,"ĠQu":4886,"ĠUnivers":4887,"Ġhorrible":4888,"SS":4889,"Ġgrowth":4890,"athan":4891,"utch":4892,"Ġancient":4893,"Ġvolume":4894,"Ġmobile":4895,"Ġincor":4896,"Ġrelationships":4897,"Ġcategory":4898,"Ġbare":4899,"ĠWait":4900,"Ġdifferently":4901,"tex":4902,"Ġslide":4903,"Ġintellect":4904,"odox":4905,"Ġfailure":4906,"Ġrespond":4907,"Ġimplic":4908,"Ġcustomer":4909,"ĠRed":4910,"Ġdistribution":4911,"erate":4912,"Ġwatched":4913,"Ġgri":4914,"Ġbackwards":4915,"Ġfourth":4916,"vidia":4917,"Ġped":4918,"Ġdriven":4919,"Ġadm":4920,"Ġextent":4921,"Ġlucky":4922,"Ġmanufacture":4923,"Ġhitting":4924,"St":4925,"dri":4926,"Ġbench":4927,"Ġselling":4928,"which":4929,"Ġcry":4930,"Ġexternal":4931,"Ġconsistent":4932,"Ġlic":4933,"Ġaccompl":4934,"aks":4935,"len":4936,"Ġfunctionality":4937,"su":4938,"vey":4939,"Ġsolved":4940,"Ġgun":4941,"Ġleaving":4942,"Ġsharing":4943,"Ġscary":4944,"Ġship":4945,"Ġsaving":4946,"ĠLib":4947,"Ġtwitter":4948,"ĠFirst":4949,"Ġdrawing":4950,"Ġindeed":4951,"Ġexecution":4952,"ĠEnglish":4953,"Ġreverse":4954,"ĠLinux":4955,"Ġfailed":4956,"device":4957,"Ġgenerated":4958,"Ġraw":4959,"ĠAmaz":4960,"rant":4961,"Ġmesh":4962,"Ġpounds":4963,"Ġpropos":4964,"Ġappropri":4965,"Ġtight":4966,"ino":4967,"thodox":4968,"Ġplenty":4969,"Ġ26":4970,"ĠMo":4971,"Ġapplied":4972,"Ġsubst":4973,"Ġconflict":4974,"Ġur":4975,"Ġgoals":4976,"ĠJew":4977,"Ġmultiplic":4978,"Ġpixel":4979,"Ġchips":4980,"Ġdied":4981,"Ġdesire":4982,"Ġphilosophy":4983,"ĠWhere":4984,"Ġappears":4985,"Ġtechniques":4986,"rome":4987,"Ġpolitics":4988,"real":4989,"Ġindependent":4990,"Ġpopulation":4991,"Ġindividuals":4992,"Ġwear":4993,"ĠSome":4994,"Ġstopped":4995,"ST":4996,"Ġhero":4997,"Ġcoordin":4998,"Ġfilmm":4999,"Ġorient":5000,".)":5001,"lad":5002,"icated":5003,"Ġscan":5004,"Ġjoy":5005,"Ġdetermine":5006,"Ġiron":5007,"ancing":5008,"Ġbutt":5009,"Ġlegit":5010,"Ġalive":5011,"Ġpicked":5012,"Ġinstalled":5013,"cades":5014,"itory":5015,"ĠNor":5016,"Ġfinancial":5017,"inter":5018,"Ġseemed":5019,"zen":5020,"unction":5021,"abytes":5022,"Ġfloat":5023,"Ġetc":5024,"Ġcontroller":5025,"Ġallowing":5026,"Ġshap":5027,"Ġtypical":5028,"Ġspaces":5029,"Ġcustomers":5030,"level":5031,"Ġentry":5032,"Ġremind":5033,"ĠLoop":5034,"Ġservices":5035,"Ġteams":5036,"Ġcores":5037,"Ġslot":5038,"Ġtun":5039,"Ġregion":5040,"Ġtrees":5041,"Ġhidden":5042,"ĠRooks":5043,"going":5044,"Ġcandidates":5045,"esign":5046,"otes":5047,"ĠAf":5048,"weight":5049,"Ġassuming":5050,"dimensional":5051,"bre":5052,"ka":5053,"viet":5054,"Ġupper":5055,"Ġmanner":5056,"Ġgenerator":5057,"99":5058,"Be":5059,"ello":5060,"Ġmeas":5061,"Ġaside":5062,"Ġengage":5063,"Ġgoogle":5064,"call":5065,"Ġstraightforward":5066,"Ġdimensions":5067,"Ġsample":5068,"Ġslower":5069,"Ġmad":5070,"Ġclust":5071,"])":5072,"resents":5073,"Ġuniversity":5074,"Ġruntime":5075,"Ġafford":5076,"Ġpad":5077,"Ġconference":5078,"Ġframes":5079,"Ġstands":5080,"otic":5081,"Ġdelay":5082,"people":5083,"ĠPlay":5084,"Ġbrother":5085,"edy":5086,"Ġreveal":5087,"Ġlived":5088,"iden":5089,"Ġsees":5090,"cade":5091,"Ġmyth":5092,"Ġtele":5093,"Ġultimate":5094,"Ġpropag":5095,"aren":5096,"Ġsand":5097,"Ġtrig":5098,"sole":5099,"Ġquery":5100,"Ġjournal":5101,"ĠComput":5102,"hand":5103,"ĠShe":5104,"uman":5105,"Ġstrateg":5106,"Ġtab":5107,"Ġpanel":5108,"Ġshall":5109,"Ġintention":5110,"istry":5111,"abel":5112,"Ġhumanity":5113,"Ġleading":5114,"Ġcooler":5115,"Ġfreaking":5116,"ĠNetflix":5117,"Ġkilled":5118,"ai":5119,"hn":5120,"mas":5121,"move":5122,"Ġconserv":5123,"Ġdesktop":5124,"Ġquit":5125,"Ġtransmission":5126,"craft":5127,"icon":5128,"che":5129,"Ġcircum":5130,"rogen":5131,"Ġinitially":5132,"ĠHTML":5133,"illing":5134,"Ġfloating":5135,"Ġvehicles":5136,"--":5137,"Batch":5138,"Ġprimary":5139,"Ġconvin":5140,"Ġspiritual":5141,"ael":5142,"ole":5143,"ĠAmazon":5144,"iate":5145,"tle":5146,"Ġrights":5147,"Ġtrip":5148,"Ġrepresents":5149,"Ġfollowed":5150,"Ġscenario":5151,"Ġstruggle":5152,"ĠWes":5153,"Ġshooting":5154,"Ġcables":5155,"Ġlit":5156,"Ġfif":5157,"urd":5158,"Ġcommer":5159,"irth":5160,"Ġblog":5161,"Ġinnov":5162,"SD":5163,"Ġthera":5164,"Ġnotes":5165,"Ġ400":5166,"Ġaggressive":5167,"ĠYork":5168,"Ġviolence":5169,"Ġgarbage":5170,"14":5171,"Ġtour":5172,"Ġpy":5173,"ogan":5174,"belie":5175,"Ġheld":5176,"type":5177,"Ġstreet":5178,"uct":5179,"cend":5180,"Ġmarketing":5181,"Ġoperate":5182,"Ġfish":5183,"Ġattract":5184,"Ġincluded":5185,"Ġemotion":5186,"Ġgravity":5187,"Ġdictionary":5188,"equ":5189,"Ġscientist":5190,"za":5191,"Ġactivity":5192,"Ġmodules":5193,"Ġconfused":5194,"Ġsymbolic":5195,"Ġsaved":5196,"Ġunited":5197,"ĠLibrary":5198,"Ġfrustr":5199,"ĠHard":5200,"Ġwave":5201,"Ġcomputational":5202,"Ġvolt":5203,"Ġ45":5204,"Ġgeom":5205,"Ġboring":5206,"Ġatom":5207,"Ġhorsepower":5208,"Ġexcellent":5209,"Ġstruct":5210,"Ġwis":5211,"Ġcarbon":5212,"ounce":5213,"Ġdocumentation":5214,"write":5215,"86":5216,"Ġclever":5217,"Ġrank":5218,"Ġsphere":5219,"Ġcorrupt":5220,"Ġeconomic":5221,"Tr":5222,"ham":5223,"know":5224,"Ġmoon":5225,"ĠDefine":5226,"Ġtact":5227,"Ġemerg":5228,"Ġfi":5229,"ĠChess":5230,"Ġsecure":5231,"Ġensure":5232,"Ġfem":5233,"Ġdecades":5234,"Ġfields":5235,"ĠPalest":5236,"Ġcombust":5237,"Ġconcepts":5238,"Ġblood":5239,"Ġexte":5240,"aven":5241,"ĠGood":5242,"Ġdocumentary":5243,"Ġalien":5244,"Ġchair":5245,"Ġhar":5246,"ashing":5247,"ĠTarget":5248,"while":5249,"Con":5250,"Ġvel":5251,"Ġsucks":5252,"gorithm":5253,"Ġabstraction":5254,"Ġconnections":5255,"Ġskin":5256,"Ġrequests":5257,"Ġliqu":5258,"Ġbroke":5259,"Ġignore":5260,"Ġconfiguration":5261,"',":5262,"Ġhide":5263,"Ġhair":5264,"Ġselection":5265,"Ġintake":5266,"ĠBy":5267,"Ġfollows":5268,"Ġthumb":5269,"Ġvirus":5270,"Ġhoping":5271,"Ġarbitrary":5272,"Ġtokens":5273,"Ġvacc":5274,"Ġharm":5275,"Ġkeyword":5276,"Ġsucceed":5277,"Ġcircuit":5278,"Ġfault":5279,"Ġreward":5280,"ichael":5281,"Ġhi":5282,"Ġzoom":5283,"Ġtempor":5284,"Ġremoved":5285,"ĠGerman":5286,"itz":5287,"Ġlex":5288,"ĠRussia":5289,"ml":5290,"Ġwaste":5291,"')":5292,"Ġbreat":5293,"ause":5294,"iments":5295,"Ġalt":5296,"GB":5297,"Ġice":5298,"Ġconven":5299,"ĠChina":5300,"Ġlogical":5301,"Ġlifetime":5302,"ki":5303,"Ġisol":5304,"lemen":5305,"ĠMar":5306,"ĠMaster":5307,"Ġunderlying":5308,"Ġrepeat":5309,"Ġsurvive":5310,"Ġinvestig":5311,"onathan":5312,"Ġwheels":5313,"rum":5314,"ensity":5315,"Ġservers":5316,"Ġparad":5317,"oting":5318,"phere":5319,"Ġmir":5320,"orge":5321,"oad":5322,"Ġfresh":5323,"Ġchallenging":5324,"Ġnovel":5325,"Ġprote":5326,"Ġgrid":5327,"Ġintegers":5328,"Ġrepresented":5329,"Ġraise":5330,"enc":5331,"Ġdel":5332,"neath":5333,"Ġbind":5334,"Ġoptimization":5335,"Ġmathematic":5336,"Ġstatus":5337,"Ġpun":5338,"Ġvirt":5339,"Ġstudying":5340,"Ġpars":5341,"Ġresponsible":5342,"Ġfalling":5343,"Ġinfluence":5344,"esus":5345,"Ġpray":5346,"Ġpaths":5347,"Ġuniversal":5348,"It":5349,"Ġsilly":5350,"step":5351,"Ġcompression":5352,"Ġproud":5353,"Ġpossibilities":5354,"han":5355,"your":5356,"ĠAli":5357,"Ġtriangle":5358,"So":5359,"Ġelectr":5360,"Ġoptimize":5361,"usive":5362,"Ġheck":5363,"because":5364,"Ġscam":5365,"when":5366,"Ġintroduce":5367,"Ġnational":5368,"Ġcrack":5369,"Ġtricky":5370,"ĠDavid":5371,"Ġdistributed":5372,"Ġchaos":5373,"Ġvul":5374,"Ġextension":5375,"return":5376,"Ġcameras":5377,"pace":5378,"Ġthus":5379,"Ġphr":5380,"Ġdebate":5381,"Ġfootage":5382,"frame":5383,"ĠJimmy":5384,"Ġwake":5385,"Ġlimits":5386,"Ġgrew":5387,"Ġtomorrow":5388,"Linus":5389,"max":5390,"Ġwest":5391,"omething":5392,"Ġclip":5393,"Ġplanning":5394,"Ġremain":5395,"Ġstreaming":5396,"terday":5397,"ĠTy":5398,"comple":5399,"rate":5400,"ĠDid":5401,"Ġblind":5402,"Ġidi":5403,"Ġring":5404,"chain":5405,"Ġscope":5406,"Ġincent":5407,"conf":5408,"Ġreceive":5409,"Ġsin":5410,"ĠEurope":5411,"Ġdoubt":5412,"Ġunderneath":5413,"Ġoriginally":5414,"Ġgentlemen":5415,"ĠJake":5416,"Ġeating":5417,"ĠSar":5418,"Ġthermal":5419,"ober":5420,"cience":5421,"Ġparticles":5422,"Ġreached":5423,"Ġstockfish":5424,"cel":5425,"Ġtrial":5426,"Ġresol":5427,"Ġargu":5428,"eros":5429,"Ġbirth":5430,"ulf":5431,"ened":5432,"ĠUkraine":5433,"Ġpulling":5434,"known":5435,"Ġdual":5436,"Ġdise":5437,"Ġedit":5438,"append":5439,"bl":5440,"pack":5441,"vation":5442,"ĉĉĉĉ":5443,"herent":5444,"IT":5445,"Ġresource":5446,"Ġspecify":5447,"24":5448,"Ġheaven":5449,"Ġyesterday":5450,"eration":5451,"see":5452,"think":5453,"Ġenable":5454,"anges":5455,"inese":5456,"Ġsufficient":5457,"Ġrated":5458,"Ġregisters":5459,"ashion":5460,"Ġletters":5461,"Ġ2020":5462,"Ġdecre":5463,"Ġchoices":5464,"Ġagent":5465,"Ġlas":5466,"ĠGrand":5467,"ĠRes":5468,"ĠChapter":5469,"Ġassist":5470,"Ġdrug":5471,"Ġath":5472,"Ġsharp":5473,"Ġregardless":5474,"press":5475,"Ġhun":5476,"Ġ2000":5477,"ss":5478,"enn":5479,"Ġtransp":5480,"Ġconsequences":5481,"Ġexplanation":5482,"64":5483,"stream":5484,"Ġfactors":5485,"Ġloses":5486,"Ġperce":5487,"Ġstatements":5488,"Ġcombustion":5489,"Ġske":5490,"beat":5491,"Ġawful":5492,"Ġembedded":5493,"Ġrise":5494,"rict":5495,"Ġemp":5496,"Ġcategor":5497,"Ġlatest":5498,"Ġrussian":5499,"Ġjohn":5500,"Ġpapers":5501,"Ġgeneric":5502,"Ġsentence":5503,"Ġsimpler":5504,"Ġfig":5505,"oted":5506,"Ġglad":5507,"Ġliquid":5508,"Ġbreaks":5509,"laughs":5510,"Ġcpu":5511,"Ġoffers":5512,"Ġ35":5513,"Ġheads":5514,"Ġmatching":5515,"Ġmotor":5516,"Ġports":5517,"Ġpipeline":5518,"Ġtip":5519,"Ġfat":5520,"icing":5521,"Ġalright":5522,"Ġmultipl":5523,"Ġnavig":5524,"Ġjack":5525,"Ġskip":5526,"Ġspeeds":5527,"Ġincrement":5528,"Ġnull":5529,"Ġlists":5530,"ikip":5531,"Ġidentify":5532,"Ġsteal":5533,"Ġvulner":5534,"Ġnerv":5535,"ĠSw":5536,"Ġconsidering":5537,"Ġmovies":5538,"17":5539,"Ġflu":5540,"Ġmargin":5541,"ĠFabiano":5542,"working":5543,"Ġshortcut":5544,"Ġvalve":5545,"Ġpublished":5546,"']":5547,"LU":5548,"Ġna":5549,"coming":5550,"Ġconfusing":5551,"ĠCarls":5552,"Ġexplo":5553,"eme":5554,"xy":5555,"itation":5556,"Ġplot":5557,"Ġintroduced":5558,"Ġappropriate":5559,"ĠSte":5560,"Ġbatch":5561,"Ġrub":5562,"Ġresume":5563,"Ġexperienced":5564,"scape":5565,"Ġobjective":5566,"Ġsignals":5567,"Ġhoriz":5568,"IN":5569,"orter":5570,"Ġsoph":5571,"eable":5572,"ĠBob":5573,"ĠHar":5574,"Ġthrott":5575,"Ġamb":5576,"hold":5577,"Ġguide":5578,"Ġdeliver":5579,"oca":5580,"rian":5581,"Ġconfidence":5582,"Ġincludes":5583,"Ġtape":5584,"Ġphysic":5585,"Ġprovided":5586,"nom":5587,"Ġchoo":5588,"Ġhadn":5589,"ĠTrans":5590,"roid":5591,"Ġsolar":5592,"prise":5593,"Ġdisci":5594,"Ġfacts":5595,"Ġphysically":5596,"Ġamerican":5597,"aff":5598,"Ġfinds":5599,"Ġmountain":5600,"ikipedia":5601,"oty":5602,"Ġdies":5603,"Ġecos":5604,"Ġadvance":5605,"Ġmechanical":5606,"Ġweapons":5607,"Ġcommercial":5608,"Ġforced":5609,"Ġcylinder":5610,"Ġmort":5611,"ĠSch":5612,"ĠOf":5613,"Ġupload":5614,"Ġpulled":5615,"Ġsponsors":5616,"Ġoutcome":5617,"Ġtraff":5618,"Ġwisdom":5619,"Jimmy":5620,"Ġ28":5621,"Ġkit":5622,"bet":5623,"Ġwidth":5624,"Ġfed":5625,"Ġyours":5626,"poses":5627,"Ġecosystem":5628,"mber":5629,"zing":5630,"Ġperception":5631,"process":5632,"Ġplatforms":5633,"optim":5634,"Ġtow":5635,"Ġpurely":5636,"EAK":5637,"Ġnervous":5638,"Ġunity":5639,"js":5640,"urning":5641,"gu":5642,"Ġcompos":5643,"Ġflaw":5644,"Ġprofile":5645,"rastructure":5646,"Ġanimal":5647,"dis":5648,"Ġvast":5649,"ĠBeast":5650,"Ġtag":5651,"Ġemotional":5652,"Ġintuitive":5653,"Ġmission":5654,"Ġhits":5655,"new":5656,"Ġcyber":5657,"Ġweakness":5658,"Ġutil":5659,"don":5660,"iers":5661,"ulating":5662,"Ġflash":5663,"ĠUI":5664,"Ġpaste":5665,"Ġelimin":5666,"Ġreaction":5667,"Ġinherit":5668,"Ġride":5669,"olic":5670,"Ġblow":5671,"ĠVim":5672,"ĠRussian":5673,"Ġveloc":5674,"Let":5675,"oly":5676,"Ġdial":5677,"Ġarri":5678,"Ġescape":5679,"Ġremaining":5680,"Ġpreviously":5681,"Ġpushed":5682,"ĠCheckmate":5683,"ĠJan":5684,"Ġdiag":5685,"App":5686,"dr":5687,"erent":5688,"ĠGet":5689,"Ġopened":5690,"Ġinfrastructure":5691,"Ġwood":5692,"Ġgap":5693,"Ġsegment":5694,"Ġstartup":5695,"Ġvariety":5696,"Ġrpm":5697,"Ġbiological":5698,"Ġcute":5699,"Ġmit":5700,"Ġchapter":5701,"artment":5702,"ĠPer":5703,"Ġprocessors":5704,"Ġtechnologies":5705,"Ġauto":5706,"Ġlargest":5707,"Ġtheories":5708,"Ġflying":5709,"Ġsurround":5710,"Ġexpecting":5711,"illion":5712,"Ġinterrupt":5713,"Ġclassical":5714,"ĠIntern":5715,"Ġmedium":5716,"Ġmeaningful":5717,"Ġintegrated":5718,"instein":5719,"ran":5720,"Ġloud":5721,"iler":5722,"every":5723,"oke":5724,"Ġclimate":5725,"Ġinterviews":5726,"ĠSquare":5727,"Ġformula":5728,"diff":5729,"Ġunbelie":5730,"Ġterminal":5731,"SPEAK":5732,"SPEAKER":5733,"Ġlift":5734,"Ġseed":5735,"Ġstudies":5736,"Ġsports":5737,"Ġbegan":5738,"Ġsusp":5739,"ĠUniversity":5740,"Pro":5741,"Ġsources":5742,"igu":5743,"Ġkernel":5744,"Ġopportunities":5745,"Ġillustr":5746,"Ġrookie":5747,"Ġamerica":5748,"://":5749,"Ġbes":5750,"Ġbugs":5751,"Ġcombined":5752,"Ġmechanics":5753,"forcement":5754,"ĠCenter":5755,"ĠProblem":5756,"Ġpictures":5757,"Ġdive":5758,"Ġ99":5759,"Ġsymbolism":5760,"ĠPut":5761,"Ġcris":5762,"ixt":5763,"Ġtesla":5764,"rag":5765,"Ġconsole":5766,"vis":5767,"ĠFe":5768,"Ġexperiments":5769,"Ġrecording":5770,"uracy":5771,"ĠTom":5772,"Ġminds":5773,"Ġphilosophical":5774,"tc":5775,"lean":5776,"Ġgrade":5777,"Ġlayout":5778,"Ġproduced":5779,"Ġscheme":5780,"Ġdigits":5781,"Ġsweet":5782,"Ġmystery":5783,"200":5784,"reen":5785,"ithm":5786,"Ġvs":5787,"Ġleaves":5788,"Ġmedical":5789,"Ġdivided":5790,"roph":5791,"ĠGam":5792,"Ġexercise":5793,"ront":5794,"Ġconsequence":5795,"Ġsophistic":5796,"ĠAh":5797,"Ġletting":5798,"Ġcircumst":5799,"Ġcert":5800,"etric":5801,"Ġengineers":5802,"Jake":5803,"Ġreplic":5804,"Ġextract":5805,"Ġscared":5806,"Ġgenuinely":5807,"asion":5808,"Ġconstraints":5809,"Ġram":5810,"osh":5811,"Ġdrugs":5812,"icious":5813,"ionship":5814,"Ġhandling":5815,"osen":5816,"Ġrobotics":5817,"AR":5818,"really":5819,"ĠThanks":5820,"Ġheader":5821,"ĠCommunity":5822,"LO":5823,"aur":5824,"Ġpurposes":5825,"Ġmatches":5826,"Ġlocked":5827,"Ġdimension":5828,"house":5829,"odies":5830,"Ġdirectory":5831,"Ġgrip":5832,"Ġhat":5833,"ico":5834,"state":5835,"Ġrussia":5836,"Ġexplicitly":5837,"ĠCarlson":5838,"Ġcart":5839,"than":5840,"Ġneither":5841,"Ġelon":5842,"Ġ120":5843,"Ġvisit":5844,"sess":5845,"reate":5846,"Ġboss":5847,"rial":5848,"Ġmetaph":5849,"Ġanalyze":5850,"Ġacceleration":5851,"ĠHardware":5852,"nomial":5853,"ID":5854,"Ġbon":5855,"Ġnegot":5856,"ĠGit":5857,"Ġloads":5858,"Ġspeakers":5859,"Ġtiming":5860,"Ġautonomous":5861,"Ġquiet":5862,"Ġclar":5863,"Ġgradient":5864,"Ġtrading":5865,"Ġcompetitive":5866,"Ġinvestment":5867,"Ġpaint":5868,"Ġtraffic":5869,"('":5870,"Ġpointing":5871,"Ġvelocity":5872,"olt":5873,"ĠDan":5874,"Ġpause":5875,"cules":5876,"Ġgate":5877,"Ġenorm":5878,"Ġapplying":5879,"iu":5880,"Ġstops":5881,"Ġcodes":5882,"Ġupdated":5883,"Ġsen":5884,"oses":5885,"ĠPaul":5886,"Ġstood":5887,"Ġconfident":5888,"anted":5889,"Ġresign":5890,"Ġdesigners":5891,"ĠTechn":5892,"Ġinform":5893,"Ġminor":5894,"itsu":5895,"ingu":5896,"Ġwanting":5897,"ĠEngine":5898,"Ġneurons":5899,"\",\"":5900,"code":5901,"ww":5902,"rab":5903,"Ġbudd":5904,"Ġlesson":5905,"Ġholds":5906,"Ġphoto":5907,"Ġguarantee":5908,"La":5909,"init":5910,"**":5911,"Ġbelong":5912,"Ġfrequency":5913,"Ġpandemic":5914,"oded":5915,"Ġintermedi":5916,"Ġfinger":5917,"Ġaccomplish":5918,"Ġadvert":5919,"Ġunc":5920,"Ġsupported":5921,"Ġcontinues":5922,"Hub":5923,"win":5924,"conds":5925,"Ġstandards":5926,"Ġpurch":5927,"Ġrequirements":5928,"SA":5929,"och":5930,"For":5931,"Ġos":5932,"Ġcub":5933,"irty":5934,"Ġprepar":5935,"Ġsky":5936,"oration":5937,"Ġrect":5938,"Ġupdates":5939,"Ġmaterials":5940,"Ġlaugh":5941,"Ġtown":5942,"Ġupset":5943,"Ġclients":5944,"Ġcorpor":5945,"Ġkidding":5946,"Ġhealthy":5947,"Ġtens":5948,"Ġlean":5949,"well":5950,"phas":5951,"QL":5952,"ds":5953,"Ġtension":5954,"Ġplate":5955,"Ġintense":5956,"Ġwrap":5957,"Ġdisappoint":5958,"Ġreject":5959,"Ġquad":5960,"Ġtested":5961,"Ġchannels":5962,"Ġprivacy":5963,"AN":5964,"Ġwearing":5965,"Ġserial":5966,"ondon":5967,"awn":5968,"Ġbear":5969,"Ġpeak":5970,"Ġcognitive":5971,"Ġnic":5972,"Ġessential":5973,"Ġsubtract":5974,"Ġtang":5975,"Ġgal":5976,"aked":5977,"store":5978,"Ġclutch":5979,"ĠEn":5980,"Ġbarely":5981,"ĠDynam":5982,"ĠĠĠĠĠĠĠĠĠĠĠĠĠĠĠĠĠĠĠĠĠĠĠĠĠĠĠĠĠĠĠĠ":5983,"tra":5984,"ĠPar":5985,"Ġtons":5986,"Ġsupports":5987,"Ġintellectual":5988,"And":5989,"Ġhire":5990,"Ġwealth":5991,"Ġ2023":5992,"will":5993,"ĠFin":5994,"Ġthrowing":5995,"Ġmillim":5996,"Ġroute":5997,"Ġchemical":5998,"Ġdin":5999,"ĠTesla":6000,"ĠEtc":6001,"ĠDev":6002,"Ġdedicated":6003,"You":6004,"Ġgenius":6005,"Ġfilled":6006,"ĠGitHub":6007,"make":6008,"Ġdump":6009,"asant":6010,"Ġinstr":6011,"OS":6012,"uber":6013,"ĠAny":6014,"airs":6015,"Ġadult":6016,"ĠLondon":6017,"cores":6018,"Ġhydrogen":6019,"Ġsme":6020,"Ġpill":6021,"Ġfetch":6022,"Ġinner":6023,"Ġcollea":6024,"ĠZig":6025,"Ġdivision":6026,"prene":6027,"ĠSee":6028,"Ġpointed":6029,"abyte":6030,"Ġrows":6031,"ĠPre":6032,"Ġreset":6033,"Ġhearing":6034,"Ġvictim":6035,"start":6036,"istically":6037,"Ġdiscussed":6038,"Ġprepared":6039,"Ġanx":6040,"Ġtail":6041,"Ġhood":6042,"Ġdigit":6043,"Ġmart":6044,"Ġinev":6045,"reprene":6046,"Ġlatency":6047,"Ġalpha":6048,"ologically":6049,"Ġfancy":6050,"Ġrotate":6051,"Ġevolutionary":6052,"Ġsession":6053,"Ġgenerating":6054,"ĠNvidia":6055,"fn":6056,"would":6057,"Ġspell":6058,"Ġfraction":6059,"Ġhistorical":6060,"Ġinstitutions":6061,"Ġpuzzle":6062,"kind":6063,"ocr":6064,"Ġcolon":6065,"aneously":6066,"Ġtie":6067,"Ġain":6068,"Ġblockchain":6069,"Ġconcrete":6070,"Ġvertices":6071,"Ġyellow":6072,"Ġcontrols":6073,"Ġcheaper":6074,"Ġrely":6075,"Ġdecade":6076,"Ġdefending":6077,"ifier":6078,"Ġtracking":6079,"onym":6080,"Ġhung":6081,"lymp":6082,"ĠPoint":6083,"ĠRTX":6084,"Ġcontrast":6085,"ĠUnion":6086,"Ġdropped":6087,"called":6088,"asy":6089,"Ġopens":6090,"Ġclaims":6091,"Ġnative":6092,"Ġfruit":6093,"olutions":6094,"ager":6095,"Ġprecisely":6096,"ĠMat":6097,"Ġformal":6098,"Ġrestrict":6099,"Ġencounter":6100,"Ġwrestling":6101,"Ġmirror":6102,"Ġlect":6103,"Ġmale":6104,"Ġuncom":6105,"Ġbrains":6106,"Ġlying":6107,"Ġcharging":6108,"Ġkilling":6109,"Ġing":6110,"Ġrolling":6111,"Ġangry":6112,"Ġthrottle":6113,"Ġpretend":6114,"Ġediting":6115,"Ġagency":6116,"Ġmodify":6117,"Ġroutine":6118,"Ġvertex":6119,"orph":6120,"olf":6121,"ĠFace":6122,"Ġprison":6123,"uda":6124,"Ġentreprene":6125,"ĠBishops":6126,"Ġdependency":6127,"Ġfashion":6128,"Ġnuts":6129,"Ġstages":6130,"Ġlets":6131,"ĠGe":6132,"Ġflight":6133,"Ġproductive":6134,"Ġpsychology":6135,"Ġsymbols":6136,"Ġparticipate":6137,"Ġbird":6138,"Ġdependencies":6139,"Ġdrawn":6140,"Ġliterature":6141,"efficient":6142,"RL":6143,"cale":6144,"Ġserve":6145,"Ġshif":6146,"Ġschedule":6147,"Size":6148,"pad":6149,"Ġnation":6150,"ĠJson":6151,"True":6152,"Ġwherever":6153,"Ġacqu":6154,"Ġcheating":6155,"Ġcontrovers":6156,"Ġimproved":6157,"Ġchemistry":6158,"lines":6159,"Ġhtt":6160,"Ġprediction":6161,"Ġcontrolled":6162,"18":6163,"mic":6164,"Ġdance":6165,"Ġaliens":6166,"Ġmotivation":6167,"Ġfrank":6168,"ĠCol":6169,"ĠMe":6170,"Ġspan":6171,"Ġcorrel":6172,"Ġcapabilities":6173,"Ġslides":6174,"Ġfastest":6175,"Ġbias":6176,"ifies":6177,"ĠSSD":6178,"Ġusual":6179,"Ġadds":6180,"Ġproducing":6181,"Ġsubtle":6182,"Ġpicking":6183,"itarian":6184,"Ġru":6185,"Ġange":6186,"ĠThus":6187,"ĠJoe":6188,"Ġcauses":6189,"Ġmedic":6190,"Ġfocusing":6191,"Ġdiscipl":6192,"nger":6193,"abled":6194,"oline":6195,"ĠHea":6196,"ĠEven":6197,"Ġmolecules":6198,"Ġfilmmak":6199,"ĠMus":6200,"Ġexperts":6201,"Ġpolice":6202,"Ġtheoretical":6203,"Ġtast":6204,"Ġtied":6205,"Ġconcur":6206,"Ġwhoever":6207,"Ġpercentage":6208,"Ġneighbor":6209,"illa":6210,"avas":6211,"whel":6212,"Ġcutting":6213,"Ġmechanisms":6214,"EE":6215,"mat":6216,"wind":6217,"Ġhall":6218,"Ġegg":6219,"ured":6220,"Ġquarter":6221,"sored":6222,"Ġspark":6223,"ĠOb":6224,"Ġoffering":6225,"Ġmillise":6226,"retch":6227,"Beast":6228,"ape":6229,"Ġshel":6230,"ĠDr":6231,"Laughter":6232,"eed":6233,"reed":6234,"Ġproced":6235,"Ġmanually":6236,"ĠPalestin":6237,"Ġphrase":6238,"Ġsophisticated":6239,"Cause":6240,"}\")":6241,"Ġadmin":6242,"Ġtransformation":6243,"(),":6244,"Ġsnow":6245,"Ġfirm":6246,"Ġexit":6247,"ĠĠĠĠĠĠ":6248,"phones":6249,"Ġemphas":6250,"Ġexponent":6251,"Ġyounger":6252,"vere":6253,"thetic":6254,"Ġshell":6255,"Ġselected":6256,"Ġresistance":6257,"Ġcoach":6258,"Ġlessons":6259,"Ġremoving":6260,"Ġofficial":6261,"inction":6262,"ĠWi":6263,"ĠLambda":6264,"Ġthick":6265,"Ġmile":6266,"acter":6267,"ĠRGB":6268,"ĠĠĠĠĠĠĠĠčĊ":6269,"Ġrefresh":6270,"Ġ150":6271,"Ġimmediate":6272,"Ġlaughs":6273,"=\"":6274,"Ġyield":6275,"Ġfits":6276,"imal":6277,"Ġpartner":6278,"Ġcrow":6279,"clock":6280,"Ġprofessor":6281,"ĠElon":6282,"Ġinvented":6283,"Ġpremium":6284,"cord":6285,"Ġcloth":6286,"Ġgraphs":6287,"ĠSuper":6288,"rog":6289,"Ġplastic":6290,"ĠSer":6291,"ander":6292,"Ġequations":6293,"Ġcrimin":6294,"Ġprinting":6295,"Ġtricks":6296,"Ġconclusion":6297,"Ġconvenient":6298,"Ġchose":6299,"Ġcube":6300,"Ġbillions":6301,"Ġatmos":6302,"angi":6303,"ĠFrame":6304,"apan":6305,"Ġprofound":6306,"lause":6307,"Ġsales":6308,"tw":6309,"Ġweigh":6310,"ishing":6311,"Ġdrivers":6312,"Ġproviding":6313,"Ġthin":6314,"ĠCor":6315,"Ġcommunities":6316,"Ġiteration":6317,"loss":6318,"Ġtill":6319,"Ġrates":6320,"Ġevolved":6321,"Ġbang":6322,"them":6323,"icks":6324,"Ġfinite":6325,"Ġencoding":6326,"Ġweights":6327,"Ġconcerns":6328,"Ġdisease":6329,"ards":6330,"Ġsuit":6331,"Ġunion":6332,"ĠJS":6333,"Ġsummer":6334,"Ġconsumer":6335,"ura":6336,"Ġack":6337,"Ġfaces":6338,"these":6339,"Ġcompe":6340,"Ġshout":6341,"Ġcompatible":6342,"Ġbuttons":6343,"ipher":6344,"Ġasync":6345,"ON":6346,"tain":6347,"Ġwise":6348,"Ġbasics":6349,"Ġlawy":6350,"Ġht":6351,"iters":6352,"Ġcompress":6353,"Ġowners":6354,"Ġrecon":6355,"Ġreturning":6356,"Ġexcuse":6357,"Ġcombine":6358,"Ġattached":6359,"Ġwi":6360,"ato":6361,"Ġgerman":6362,"Ġ42":6363,"Ġstudio":6364,"Ġlegs":6365,"Ġconvince":6366,"idel":6367,"iration":6368,"Ġempath":6369,"Ġplanets":6370,"Ġbegins":6371,"onic":6372,"ĠRep":6373,"Ġscenes":6374,"Ġ//":6375,"Ġcaus":6376,"Ġcares":6377,"Ġtranslation":6378,"sim":6379,"Ġacting":6380,"rier":6381,"ĠOur":6382,"Ġbridge":6383,"Ġaccidentally":6384,"Ġfab":6385,"ĠYour":6386,"Ġblank":6387,"Ġtriang":6388,"Ġevaluate":6389,"................":6390,"avascript":6391,"bits":6392,"asp":6393,"Ġentertain":6394,"Ġimprovement":6395,"Ġdestroyed":6396,"Ġsea":6397,"Ġgram":6398,"Ġreci":6399,"ĠSQL":6400,"Ġera":6401,"Ġpainful":6402,"Ġenum":6403,"ĠRAM":6404,"Ġpersonality":6405,"Ġoce":6406,"Ġnft":6407,"Ġextend":6408,"itty":6409,"Ġsimult":6410,"Ġnorth":6411,"If":6412,"Ġug":6413,"raw":6414,"Ġprices":6415,"Ġ75":6416,"Ġapproaches":6417,"Ġidentical":6418,"remend":6419,"pass":6420,"Ġhikar":6421,"Ġmars":6422,"Ġmouth":6423,"Ġpatch":6424,"Ġsteam":6425,"Ġequip":6426,"Ġauthent":6427,"Ġsexual":6428,"cop":6429,"Ġbrut":6430,"Ġhardest":6431,"Ġinternational":6432,"Ġpleasure":6433,"Ġanalogy":6434,"Ġacademic":6435,"something":6436,"Ġrain":6437,"ĠPe":6438,"ciousness":6439,"Ġsilicon":6440,"ĠOver":6441,"Ġswap":6442,"Ġshapes":6443,"file":6444,"Ġstation":6445,"Ġslots":6446,"Ġsmarter":6447,"Ġanytime":6448,"Ġnicely":6449,"Ġfucking":6450,"Ġcities":6451,"Ġreasoning":6452,"Ġcaused":6453,"Ġpresented":6454,"Ġreceived":6455,"Ġchristianity":6456,"Ġrh":6457,"olid":6458,"Ġartist":6459,"Ġdescribing":6460,"ĠNetwork":6461,"ounced":6462,"rut":6463,"Ġwatts":6464,"then":6465,"Ġimproving":6466,"Ġpolynomial":6467,"Ġfool":6468,"ĠYep":6469,"Ġpairs":6470,"Ġenemy":6471,"Ġalex":6472,"Ġsaint":6473,"Ġexpans":6474,"Ġdoctor":6475,"Ġhumor":6476,"Ġbuilds":6477,"Ġbandwidth":6478,"Ġfiguring":6479,"Ġacknow":6480,"Ġtired":6481,"Ġsust":6482,"encing":6483,"Ġindu":6484,"Ġneut":6485,"Ġchances":6486,"Ġchunk":6487,"Ġrecognition":6488,"EO":6489,"anc":6490,"Ġgift":6491,"Ġroles":6492,"Ġstudied":6493,"Ġhilar":6494,"Ġqueue":6495,"Ġjudge":6496,"Ġgirl":6497,"Ġstores":6498,"vard":6499,"kend":6500,"ĠĠĠĠĠ":6501,"osp":6502,"Ġads":6503,"Ġrational":6504,"Ġvote":6505,"Ġlege":6506,"Ġgradu":6507,"Ġeasiest":6508,"Ġfortun":6509,"Ġweather":6510,"Ġfork":6511,"ĠHam":6512,"Ġrocket":6513,"Ġsupporting":6514,"Ġleadership":6515,"ĠSarangi":6516,"Ġbother":6517,"Ġemiss":6518,"ruti":6519,"An":6520,"Ġtips":6521,"Ġtremend":6522,"ams":6523,"Ġtriv":6524,"Ġspon":6525,"Ġincreases":6526,"Ġstronger":6527,"Ġnowhere":6528,"Ġoverwhel":6529,"Ġjoe":6530,"ĠQueens":6531,"Ġtexture":6532,"Ġintended":6533,"ĠSmruti":6534,"SI":6535,"Ġhous":6536,"Ġjun":6537,"eared":6538,"adays":6539,"Ġplans":6540,"conv":6541,"Ġpredic":6542,"Ġsponsoring":6543,"bes":6544,"Ġstrict":6545,"Ġfriendly":6546,"().":6547,"ĠiP":6548,"Ġneat":6549,"Ġshots":6550,"Ġmini":6551,"Ġchecked":6552,"Ġlighting":6553,"Ġthreatening":6554,"Ġ2022":6555,"Chris":6556,"Ġspectrum":6557,"ĠFacebook":6558,"Re":6559,"cor":6560,"gain":6561,"Ġpip":6562,"Ġafterwards":6563,"Ġsignature":6564,"Ġarrays":6565,"Ġaccounts":6566,"Ġmixed":6567,"ĠMod":6568,"ĠLink":6569,"Ġcommands":6570,"Ġhypothesis":6571,"Ġtemplates":6572,"Ġchampion":6573,"complete":6574,"Ġenormous":6575,"23":6576,"pen":6577,"Ġsocket":6578,"Ġarms":6579,"Ġfraud":6580,"Ġpurs":6581,"ĠCPUs":6582,"Ġcolumns":6583,"aset":6584,"ĠCo":6585,"Ġhappiness":6586,"Ġ+=":6587,"arrass":6588,"Ġraised":6589,"To":6590,"ĠAct":6591,"ĠGu":6592,"ĠEach":6593,"Ġoptimized":6594,"Ġhilarious":6595,"Ġintent":6596,"Ġtap":6597,"berg":6598,"Ġoverl":6599,"Ġblame":6600,"TT":6601,"au":6602,"Ġdying":6603,"Ġzone":6604,"ĠVal":6605,"Ġamounts":6606,"ĠCanada":6607,"28":6608,"ES":6609,"Ġ|":6610,"Ġleap":6611,"Ġinteracting":6612,"Ġsensitive":6613,"Ġstrategies":6614,"Ġfract":6615,"Ġsym":6616,"Ġwallet":6617,"Ġcomplain":6618,"annel":6619,"Ġpowers":6620,"Ġconvinced":6621,"Ġmur":6622,"arc":6623,"Ġblur":6624,"Ġrepos":6625,"Ġcorresponding":6626,"Ġcircumstances":6627,"Ġaug":6628,"Ġshr":6629,"comput":6630,"Ġscreens":6631,"Ġrandomly":6632,"Ġnarrow":6633,"Ġlicense":6634,"Ġsan":6635,"Ġcompre":6636,"ĠURL":6637,"Ġabsurd":6638,"Ġstopping":6639,"Ġfacebook":6640,"Ġcastles":6641,"Ġupgrad":6642,"??":6643,"fo":6644,"sl":6645,"Ġchosen":6646,"Ġusage":6647,"ĠChinese":6648,"Ġsuccessfully":6649,"Ġembarrass":6650,"Ġlaser":6651,"Ġintermediate":6652,"rics":6653,"Ġner":6654,"edel":6655,"things":6656,"Ġoptional":6657,"Ġexisted":6658,"gypt":6659,"apping":6660,"Ġscrews":6661,"Ġsir":6662,"Ġdict":6663,"Ġkinda":6664,"Ġprize":6665,"reshold":6666,"Ġaccuracy":6667,"Ġcombin":6668,"Ġestim":6669,"flo":6670,"Ġtables":6671,"ĠDude":6672,"Ġlargely":6673,"Ġboxes":6674,"False":6675,"PC":6676,"away":6677,"grad":6678,"Ġloves":6679,"Ġadopt":6680,"Ġaccum":6681,"field":6682,"ĠÎ":6683,"Ġstretch":6684,"Ġcancer":6685,"apse":6686,"Ġfoundation":6687,"Ġdirections":6688,"build":6689,"Ġcas":6690,"Ġ33":6691,"Ġfacing":6692,"Ġapplies":6693,"ĠWesley":6694,"Ġmask":6695,"Ġdeck":6696,"ĠMart":6697,"irection":6698,"Ġcurrency":6699,"Ġaccessible":6700,"Ġfalls":6701,"Ġstruggling":6702,"Ġbelieved":6703,"Ġ*/":6704,"uits":6705,"Ġvertical":6706,"Ġsmell":6707,"Ġlen":6708,"ĠCome":6709,"Ġspeaker":6710,"Ġcategories":6711,"race":6712,"Ġclub":6713,"Ġsoul":6714,"Ġequipment":6715,"='":6716,"umin":6717,"Ġpsychedel":6718,"Ġassignment":6719,"Ġ29":6720,"nake":6721,"Ġ48":6722,"Ġzeros":6723,"Ġsigned":6724,"exper":6725,"Ġlocations":6726,"Ġsteering":6727,"MI":6728,"cred":6729,"gues":6730,"Ġdust":6731,"Ġnowadays":6732,"Ġbrake":6733,"Ġadvant":6734,"Ġcopies":6735,"Ġswitches":6736,"Ġsumm":6737,"Ġsynchron":6738,"function":6739,"Ġtoward":6740,"enture":6741,"urance":6742,"Ġpros":6743,"abil":6744,"Ġimpl":6745,"ĠBeh":6746,"ĠAdam":6747,"Ġorders":6748,"Ġgpus":6749,"Ġrac":6750,"ĠLucy":6751,"ĠGambit":6752,"500":6753,"number":6754,"ests":6755,"ĠLex":6756,"Ġfactory":6757,"Ġmemories":6758,"Ġcompeting":6759,"ĠNorth":6760,"Ġgeometry":6761,"uros":6762,"Ġrab":6763,"Ġarc":6764,"Ġagents":6765,"Ġproduces":6766,"Ġrespons":6767,"Ġapolog":6768,"Ġmagical":6769,"alk":6770,"ĠBas":6771,"ĠBrady":6772,"Ġformer":6773,"Ġ2016":6774,"ithmetic":6775,"Ġauthentic":6776,"Ġ...":6777,"Ġsuffer":6778,"ĠAdvantage":6779,"nam":6780,"Ġtends":6781,"Ġcarefully":6782,"Ġ95":6783,"Ġprimarily":6784,"Ġtransaction":6785,"Ġcrisis":6786,"IA":6787,"Ġbodies":6788,"ĠBen":6789,"pled":6790,"Ġ36":6791,"Ġimportantly":6792,"Ġ600":6793,"Ġrepeated":6794,"Ġencourage":6795,"Ġham":6796,"ulator":6797,"ĠColl":6798,"Ġhuh":6799,"Ġhonor":6800,"Ġpackages":6801,"Ġcompete":6802,"Ġefficiently":6803,"Ġ2021":6804,"Ġemployees":6805,"Ġsponsored":6806,"Ġadvantages":6807,"ford":6808,"Ġconspi":6809,"ifications":6810,"Ġdiscount":6811,"Ġassumption":6812,"Ġweapon":6813,"Ġisland":6814,"Ġreprodu":6815,"Ġbullet":6816,"Oh":6817,"Ġ198":6818,"Ġwarm":6819,"Ġwarning":6820,"Ġattribute":6821,"Ġinterfaces":6822,"bar":6823,"Ġmeat":6824,"Ġconnecting":6825,"Ġterrifying":6826,"Ġdry":6827,"Ġvary":6828,"ĠRust":6829,"Ġsubset":6830,"Ġdefining":6831,"Ġathle":6832,"uary":6833,"Ġ`":6834,"Ġhiring":6835,"Ġpitch":6836,"Ġfing":6837,"icip":6838,"Ġtraveling":6839,"Applause":6840,"ĠAut":6841,"ector":6842,"Ġexplained":6843,"value":6844,"Ġinjection":6845,"ĠGame":6846,"Ġmenu":6847,"Ġaxis":6848,"Ġincorrect":6849,"Ġseat":6850,"Ġplant":6851,"Ġcontents":6852,"Ġmerge":6853,"Ġinspired":6854,"bble":6855,"rection":6856,"comes":6857,"Ġarticles":6858,"Ġmaths":6859,"Ġdestruct":6860,"Ġpolitic":6861,"zz":6862,"arts":6863,"Ġsorted":6864,"Ġcourt":6865,"upbeat":6866,"Ġfigures":6867,"Ġconvention":6868,"Ġreliable":6869,"Ġchoosing":6870,"Ġcit":6871,"Ġcort":6872,"Ġhex":6873,"ĠCont":6874,"ĠSoviet":6875,"Ġdisconnect":6876,"Ġexplos":6877,"lam":6878,"ogue":6879,"who":6880,"Ġautomatic":6881,"Ġspoke":6882,"Fi":6883,"ptions":6884,"ĠLear":6885,"Ġimplicit":6886,"Ġexpansion":6887,"Ġtank":6888,"Ġstro":6889,"Ġjavascript":6890,"into":6891,"Ġsearching":6892,"Ġevolve":6893,"Ġvaccine":6894,"Ġhikaro":6895,"batch":6896,"first":6897,"antics":6898,"Ġsurvey":6899,"Ġbusy":6900,"Ġreinforcement":6901,"ued":6902,"Ġbun":6903,"Ġloose":6904,"Ġdensity":6905,"ested":6906,"Ġpartly":6907,"Ġpresence":6908,"ĠChristmas":6909,"Ġwalked":6910,"Ġattempts":6911,"eel":6912,"Ġwalls":6913,"Ġsimplest":6914,"Ġgasoline":6915,"Ġmolec":6916,"Conv":6917,"Ġ%":6918,"Ġbeast":6919,"alin":6920,"Ġconservative":6921,"Ġmig":6922,"ails":6923,"Ġvariation":6924,"Ġauthority":6925,"NA":6926,"host":6927,"Ġego":6928,"rol":6929,"Ġseason":6930,"Ġperm":6931,"Ġgigs":6932,"illed":6933,"Ġclim":6934,"Ġschem":6935,"Ġwebsites":6936,"Ġradi":6937,"ĠDoes":6938,"Ġsustain":6939,"node":6940,"each":6941,"ĠDem":6942,"Ġphones":6943,"Ġpsychological":6944,"Ġrotation":6945,"Ġintegration":6946,"Ġdice":6947,"itual":6948,"Ġshorter":6949,"ĠMin":6950,"Ġcultural":6951,"fi":6952,"Ġcham":6953,"Ġtrades":6954,"ĠEngineers":6955,"Ġbuddy":6956,"Ġtall":6957,"Ġyork":6958,"ĠTime":6959,"Ġscroll":6960,"Ġmemor":6961,"Ġvisible":6962,"Ġdynamics":6963,"Ġwatt":6964,"Ġbomb":6965,"ĠSc":6966,"Ġinterse":6967,"Ġequally":6968,"Ġdistinct":6969,"points":6970,"vision":6971,"Ġexploration":6972,"ĠPawns":6973,"Ġexceptions":6974,"Ġinvolves":6975,"Ġnons":6976,"reek":6977,"tech":6978,"Ġsuspect":6979,"Norm":6980,"Ġdistinction":6981,"Ġincreased":6982,"Ġexplaining":6983,"Ġapi":6984,"Ġprotection":6985,"Ġethical":6986,"Ġtranslate":6987,"charger":6988,"has":6989,"oper":6990,"actually":6991,"ĠLord":6992,"Ġgray":6993,"Ġstandpoint":6994,"Ġfrequently":6995,"ĠFrank":6996,"Ġreplaced":6997,"cracy":6998,"ĠĠĠĠčĊ":6999,"Ġworship":7000,"Ġcontainer":7001,"Ġgolden":7002,"Ġtemperatures":7003,"Mr":7004,"cision":7005,"Ġattributes":7006,"happ":7007,"Ġmaps":7008,"Ġintr":7009,"Ġilleg":7010,"Ġanalyt":7011,"Ġoccup":7012,"iety":7013,"ket":7014,"pn":7015,"Ġpins":7016,"uty":7017,"Ġcomprom":7018,"Ġromantic":7019,"Ġuncertain":7020,"Ġfulf":7021,"ĠSure":7022,"Ġcommitted":7023,"Ġlaid":7024,"Ġreturned":7025,"books":7026,"Ġcovering":7027,"Ġpriority":7028,"Ġdemocracy":7029,"Ġvoltage":7030,"Ġcompelling":7031,"Ġtheme":7032,"Ġpet":7033,"ĠRock":7034,"Ġinteractions":7035,"Ġsensor":7036,"Ġobserve":7037,"Ġburning":7038,"Ġevaluation":7039,"Ġcrucial":7040,"ga":7041,"Ġhosp":7042,"Ġvoid":7043,"ĠKe":7044,"Ġsorting":7045,"Ġdiagram":7046,"Ġmultiplication":7047,"pal":7048,"lear":7049,"Ġmeme":7050,"ilian":7051,"ĠBiden":7052,"Ġultra":7053,"Ġlabor":7054,"DR":7055,"anes":7056,"Ġinherent":7057,"Ġreferences":7058,"Ġstoring":7059,"Ġclosest":7060,"Ġprotected":7061,"onald":7062,"Ġthreshold":7063,"Ġwinner":7064,"Ġdivers":7065,"Ġillusion":7066,"Ġopinions":7067,"Ġinheritance":7068,"sub":7069,"Ġtv":7070,"uss":7071,"etary":7072,"ĠRich":7073,"ĠJonathan":7074,"setting":7075,"Ġproceed":7076,"ĠJames":7077,"Ġdocuments":7078,"ĠConcept":7079,"Ġlaunched":7080,"Ġmultiplied":7081,"Ġmilliseconds":7082,"Ġshirt":7083,"Ġcoverage":7084,"Ġexpos":7085,"Ġvectors":7086,"position":7087,"Ġcriticism":7088,"What":7089,"icial":7090,"urg":7091,"next":7092,"Ġleak":7093,"Ġproductivity":7094,"Ġprinted":7095,"Ġrepresenting":7096,"Ġcontrolling":7097,"Ġlowest":7098,"Ġexecuted":7099,"Ġcluster":7100,"different":7101,"Ġunbelievable":7102,"Ġfrankly":7103,"den":7104,"Ġcup":7105,"Ġgym":7106,"itute":7107,"Ġorthodox":7108,"ĠPi":7109,"ocur":7110,"produ":7111,"shape":7112,"fortable":7113,"Ġtrigger":7114,"Ġriver":7115,"Ġrealistic":7116,"Ġsimultaneously":7117,"wood":7118,"requ":7119,"Ġdash":7120,"stra":7121,"ĠOS":7122,"Ġfeelings":7123,"ented":7124,"ĠAR":7125,"ĠEv":7126,"ĠĠĠĠĠĠĠĠĠĠ":7127,"Ġoffered":7128,"Ġbeginner":7129,"Ġradical":7130,"Ġradio":7131,"Chapter":7132,"Ġschedul":7133,"pet":7134,"Ġextens":7135,"Ġreduction":7136,"Ġstatistics":7137,"Ġtrivial":7138,"Ġtrump":7139,"Ġinfect":7140,"Ġcalculation":7141,"There":7142,"rem":7143,"Ġgit":7144,"Ġdecides":7145,"Ġmonster":7146,"brid":7147,"Ġenh":7148,"udio":7149,"Ġmainly":7150,"Ġmarried":7151,"ĠPCI":7152,"Ġcryptocur":7153,"Ġtransactions":7154,"Ġprotein":7155,"Ġhorizont":7156,"Ġrecur":7157,"Ġdependent":7158,"PM":7159,"cc":7160,"Ġ}":7161,"Ġsty":7162,"imp":7163,"Ġvan":7164,"Ġagreed":7165,"Ġdifferential":7166,"Ġ[]":7167,"Ġnetworking":7168,"Ġdifficulty":7169,"Ġcycles":7170,"Ġtensor":7171,"Ġpist":7172,"estern":7173,"Ġnotation":7174,"ptic":7175,"ologists":7176,"Ġ65":7177,"Ġleaf":7178,"Ġcounting":7179,"Ġremark":7180,"Ġloops":7181,"Ġocean":7182,"des":7183,"ourse":7184,"uckles":7185,"Ġclosely":7186,"even":7187,"agon":7188,"Ġconstruction":7189,"Ġteacher":7190,"Ġtheorem":7191,"Ġdragon":7192,"Ġshocking":7193,"Col":7194,"bling":7195,"Ġ__":7196,"Ġhub":7197,"Ġdogs":7198,"Ġtub":7199,"Ġarithmetic":7200,"Ġ250":7201,"ĠRun":7202,"Ġending":7203,"Ġconnector":7204,"Ġenvironments":7205,"Ġsnake":7206,"aign":7207,"isible":7208,"Ġreput":7209,"orted":7210,"Ġtraject":7211,"Ġ128":7212,"Ġfiction":7213,"itish":7214,"Ġunknown":7215,"Ġblo":7216,"Ġdesigning":7217,"Ġpasses":7218,"Ġdiam":7219,"Ġjumping":7220,"Ġbow":7221,"ĠTim":7222,"ĠSub":7223,"ĠData":7224,"Ġperman":7225,"Ġprimes":7226,"Ġcrime":7227,"Ġmindset":7228,"Ġbottle":7229,"Ġshoes":7230,"Ġborder":7231,"Ġrend":7232,"ĠMars":7233,"Ġadmit":7234,"Ġtransist":7235,"Ġsummar":7236,"Ġsends":7237,"Ġatoms":7238,"ills":7239,"Ġplugged":7240,"Ġeconomics":7241,"Ġtrash":7242,"Ġimpressed":7243,"Ġderiv":7244,"Ġconspiracy":7245,"Ġlies":7246,"root":7247,"ĠEnter":7248,"Ġfewer":7249,"Ġpacket":7250,"Ġdepos":7251,"Ġbatteries":7252,"Ġsenior":7253,"Ġstability":7254,"Ġseal":7255,"Ġdiss":7256,"ĠTheory":7257,"Ġarrive":7258,"Ġtheoretically":7259,"Ġfifth":7260,"Ġbonus":7261,"Ġbrutal":7262,"45":7263,"EN":7264,"Ġsink":7265,"Ġpoll":7266,"Ġreflection":7267,"ĠTwo":7268,"score":7269,"Ġhttp":7270,"Ġatmosphere":7271,"Ġcomparing":7272,"Ġdescript":7273,"ĠJesus":7274,"arios":7275,"Ġassets":7276,"Ġremains":7277,"Ġpresum":7278,"Ġprepare":7279,"->":7280,"war":7281,"Ġgall":7282,"Ġbasket":7283,"Ġbehave":7284,"Ġminimal":7285,"ĠPutin":7286,"NN":7287,"gress":7288,"Ġdavid":7289,"Ġeurope":7290,"ĠCal":7291,"Ġexploring":7292,"Ġaccepted":7293,"Ġconsumption":7294,"Ġduplic":7295,"Ġanxiety":7296,"itate":7297,"ĠBig":7298,"Ġtraum":7299,"Ġinterpre":7300,"Ġpromote":7301,"riend":7302,"iveness":7303,"mind":7304,"Ġaes":7305,"Ġbump":7306,"ĠWikipedia":7307,"ĠPra":7308,"Ġcoins":7309,"annels":7310,"ahertz":7311,"pred":7312,"oder":7313,"Ġvid":7314,"ĠMIT":7315,"ĠHigh":7316,"Ġreader":7317,"ĠChamp":7318,"Ġparticle":7319,"Ġreduced":7320,"Ġintegrate":7321,"Ġcapitalism":7322,"ĠSection":7323,"Ġimper":7324,"Ġunlock":7325,"Ġwrites":7326,"Ġstrang":7327,"necess":7328,"Ġperforming":7329,"ĠConsciousness":7330,"48":7331,"life":7332,"Ġok":7333,"Ġritual":7334,"ĠCSS":7335,"arden":7336,"Ġcomma":7337,"Ġwaves":7338,"human":7339,"pa":7340,"Ġbeating":7341,"ĠAB":7342,"Ġtrapped":7343,"Ġcompilers":7344,"adding":7345,"ĠSupp":7346,"Ġflexible":7347,"Ġthrown":7348,"Ġnumer":7349,"Ġquicker":7350,"Ġvariant":7351,"Ġrecursive":7352,"Ġfluid":7353,"RA":7354,"Ġwars":7355,"abit":7356,"Ġradius":7357,"Ġcitiz":7358,"GPT":7359,"Ġadop":7360,"ĠFrench":7361,"Ġtro":7362,"Ġbul":7363,"Ġexcess":7364,"ĠCEO":7365,"Ġbyte":7366,"Ġpublicly":7367,"Ġanticip":7368,"Ġcircles":7369,"Ġdaughter":7370,"Ġcampaign":7371,"sum":7372,"uh":7373,"alty":7374,"Ġannot":7375,"ĠPH":7376,"Ġrealm":7377,"Ġcollapse":7378,"128":7379,"dict":7380,"Ġbite":7381,"ĠWest":7382,"interest":7383,"Ġdiagn":7384,"Ġimprovements":7385,"ĠBehavior":7386,"][":7387,"pes":7388,"Ġtu":7389,"Ġachieved":7390,"Ġemotions":7391,"games":7392,"Ġlap":7393,"Ġnan":7394,"Ġoverload":7395,"Ġjoined":7396,"Ġcombat":7397,"Ġloaded":7398,"Ġcolleagues":7399,"Ġbin":7400,"Ġrack":7401,"theless":7402,"others":7403,"ĠAndroid":7404,"Ġconfigure":7405,"Ġinfo":7406,"Ġuniversities":7407,"Ġ2024":7408,"Ġdisappear":7409,"snake":7410,"etics":7411,"ĠBra":7412,"enses":7413,"Ġdepartment":7414,"Ġscenarios":7415,"ĠWhoa":7416,"wik":7417,"Ġchina":7418,"Ġintroduction":7419,"Ġrequirement":7420,"Ġofficially":7421,"22":7422,"omin":7423,"mean":7424,"Ġoverhead":7425,"Ġnumpy":7426,"Ġsmallest":7427,"Ġmeetings":7428,"Ġassumptions":7429,"\".":7430,"gonna":7431,"plit":7432,"Ġlaptops":7433,"Ġdebugging":7434,"kin":7435,"err":7436,"Ġcine":7437,"itness":7438,"Ġrent":7439,"ctober":7440,"ĠMichael":7441,"Ġwriter":7442,"ologist":7443,"Ġimplementations":7444,"Ġloading":7445,"Ġemails":7446,"ĠImplement":7447,"Ġspinning":7448,"ĠAfter":7449,"Ġidiot":7450,"ativity":7451,"Ġorbit":7452,"ĠAC":7453,"lessly":7454,"Ġrendering":7455,"ĠAb":7456,"Ġcheat":7457,"Ġdisplays":7458,"ĠConstruct":7459,"trans":7460,"ĠGermany":7461,"Ġuncomfortable":7462,"float":7463,"ustin":7464,"soever":7465,"ĠFPS":7466,"Ġboat":7467,"iosity":7468,"Ġmeters":7469,"Ġheavily":7470,"Ġbroadly":7471,"ef":7472,"Ġbab":7473,"edge":7474,"Ġju":7475,"ĠMoses":7476,"Ġtrap":7477,"Ġpainting":7478,"ĠBlitz":7479,"Ġsensors":7480,"Ġinj":7481,"Ġouter":7482,"Ġoutputs":7483,"offs":7484,"Ġcandidate":7485,"Ġlegend":7486,"hib":7487,"erson":7488,"ĠVector":7489,"Ġimplementing":7490,"Ġinfinity":7491,"Ġreferring":7492,"Ġgrammar":7493,"Ġugly":7494,"eries":7495,"roc":7496,"Ġwhatsoever":7497,"Ġcompass":7498,"Ġ1000":7499,"Ġreads":7500,"Ġinternally":7501,"ĠAlso":7502,"Ġsemi":7503,"ĠBible":7504,"ĠLev":7505,"Ġregret":7506,"Ġartists":7507,"ĠJewish":7508,"erm":7509,"ener":7510,"Ġfriction":7511,"ĠSource":7512,"Ġinstances":7513,"Ġrelax":7514,"Ġsheet":7515,"Ġenglish":7516,"Ġlazy":7517,"Ġpowered":7518,"band":7519,"stop":7520,"Ġwinter":7521,"Ġdiet":7522,"Ġcontinuous":7523,"Ġperceive":7524,"num":7525,"rated":7526,"ĠLTT":7527,"ĠEgypt":7528,"telling":7529,"udes":7530,"Ġrecall":7531,"Ġfunding":7532,"road":7533,"Ġcontrad":7534,"Ġ55":7535,"Ġinvolve":7536,"Ġestablished":7537,"vised":7538,"Ġsizes":7539,"erved":7540,"Ġjava":7541,"elsi":7542,"plane":7543,"Ġentity":7544,"Ġcausing":7545,"Ġscaling":7546,"Ġforcing":7547,"exp":7548,"Ġinvesting":7549,"Ġestimate":7550,"Ġutility":7551,"ĠIndian":7552,"otype":7553,"Ġemissions":7554,"master":7555,"Ġuna":7556,"ppy":7557,"ĠAG":7558,"wheel":7559,"Ġconduct":7560,"Ġepic":7561,"Ġthreats":7562,"Ġdetermined":7563,"elsius":7564,"tion":7565,"Ġplaced":7566,"Ġformed":7567,"Ġbrackets":7568,"Ġdiscovery":7569,"ographic":7570,"standing":7571,"ĠPHP":7572,"Ġwestern":7573,"Ġbread":7574,"Ġnn":7575,"Ġjiu":7576,"bert":7577,"Ġrealizing":7578,"avi":7579,"Ġcave":7580,"Ġoperand":7581,"Ġposted":7582,"Ġdatabases":7583,"Ġguaranteed":7584,"How":7585,"Ġll":7586,"ĠChat":7587,"need":7588,"Ġdeliber":7589,"bias":7590,"Ġinnovation":7591,"Ġfingers":7592,"Sec":7593,"bby":7594,"nel":7595,"Ġgath":7596,"Ġvib":7597,"Ġexposed":7598,"Ġviewers":7599,"anny":7600,"Ġextended":7601,"Ġnonsense":7602,"Ġbat":7603,"opath":7604,"img":7605,"ĠCS":7606,"Ġsake":7607,"ĠELO":7608,"rica":7609,"plicity":7610,"âĢĻ":7611,"Ġgender":7612,"aves":7613,"hol":7614,"lig":7615,"ĠII":7616,"being":7617,"Ġgrows":7618,"Ġimportance":7619,"anned":7620,"Ġswitching":7621,"Ġfemale":7622,"Ġintel":7623,"ĠNone":7624,"ĠComp":7625,"Ġmetaphor":7626,"List":7627,"lass":7628,"Ġnut":7629,"pling":7630,"Ġdesper":7631,"Ġcrew":7632,"Ġcontaining":7633,"Ġscripture":7634,"Ġefforts":7635,"Ġoccurs":7636,"Ġinspiration":7637,"Ġtremendous":7638,"TP":7639,"ama":7640,"Ġtwitch":7641,"Ġcounts":7642,"Ġencode":7643,"Ġphotos":7644,"Ġreplacement":7645,"public":7646,"Ġtel":7647,"input":7648,"Ġhired":7649,"ĠCloud":7650,"Ġgalax":7651,"mitted":7652,"Ġsurf":7653,"Ġrestaur":7654,"ĠGeneral":7655,"Ġoccasion":7656,"ĠConcepts":7657,"Ġrelation":7658,"Ġarts":7659,"Ġfails":7660,"ropy":7661,"Ġportion":7662,"Ġcastle":7663,"Ġpatient":7664,"Ġdetection":7665,"Ġadminist":7666,"Ġjail":7667,"venue":7668,"Ġprev":7669,"Ġbelt":7670,"Ġzip":7671,"Ġdesigns":7672,"Ġstrongly":7673,"Ġschools":7674,"Ġlimitations":7675,"ĠPeople":7676,"Ġmurder":7677,"cope":7678,"graph":7679,"Ġgpu":7680,"Ġhabit":7681,"Ġmere":7682,"ĠCy":7683,"Ġsurely":7684,"Ġconversion":7685,"Ġorganized":7686,"Ġprofession":7687,"Ġjudo":7688,"Ġmapping":7689,"ĠTuring":7690,"ĠMon":7691,"Ġblocking":7692,"Ġcalm":7693,"Ġcontinuing":7694,"Ġsacrifices":7695,"UD":7696,"dec":7697,"Ġmagnetic":7698,"Ġmr":7699,"Ġrewrite":7700,"ĠAgain":7701,"Ġgenetic":7702,"expect":7703,"Ġcontroversial":7704,"ÃĹ":7705,"Ġasp":7706,"ĠTur":7707,"Ġliteral":7708,"Ġrecorded":7709,"Ġordered":7710,"Ġmanipulate":7711,"Ġoriented":7712,"aving":7713,"zes":7714,"phile":7715,"Ġobservation":7716,"Ġaggreg":7717,"Ġodds":7718,"Ġtriangles":7719,"Ġchamber":7720,"ales":7721,"oof":7722,"ĠAndrew":7723,"Ġcommitt":7724,"Ġconnects":7725,"Ġdesigner":7726,"Ġorganizations":7727,"Ġemerge":7728,"Ġsync":7729,"Ġexclusive":7730,"Ġtemporary":7731,"uting":7732,"Ġchest":7733,"Ġspring":7734,"Ġteen":7735,"ĠRet":7736,"their":7737,"Ġterritory":7738,"Ġphenomena":7739,"ek":7740,"Ġpaul":7741,"Ġopenings":7742,"Ġcaptured":7743,"conscious":7744,"ĠMartin":7745,"Ġbrown":7746,"Ġelection":7747,"Ġ800":7748,"Ġhybrid":7749,"ĠExpress":7750,"Ġexpressions":7751,"ĠSil":7752,"Ġcompound":7753,"Ġmodeling":7754,"Ġrobust":7755,"Ġ2019":7756,"Ġstrike":7757,"Ġinsights":7758,"two":7759,"enger":7760,"abs":7761,"Ġunderstands":7762,"Ġunlikely":7763,"ĠPrague":7764,"CC":7765,"Ġtent":7766,"Ġfont":7767,"cho":7768,"Ġmyster":7769,"iche":7770,"ĠLea":7771,"Ġcreator":7772,"Ġrisks":7773,"Ġbriefly":7774,"Ġsymmetry":7775,"33":7776,"base":7777,"rep":7778,"only":7779,"isco":7780,"Ġbell":7781,"channels":7782,"iform":7783,"Ġobsess":7784,"ĠChannel":7785,"Ġlabels":7786,"Ġhistorically":7787,"hot":7788,"label":7789,"Ġhiding":7790,"item":7791,"bell":7792,"ĠIns":7793,"Ġdevil":7794,"Ġbusinesses":7795,"Ġverify":7796,"Ġsemantics":7797,"actly":7798,"Ġworkers":7799,"ĠKarl":7800,"Ġrepet":7801,"Ġcompiled":7802,"Ġdetailed":7803,"Ġjudgment":7804,"Ġdeclar":7805,"ĠIran":7806,"Ġranges":7807,"Ġdistingu":7808,"ateful":7809,"iforn":7810,"icky":7811,"Ġinterests":7812,"Ġsubmit":7813,"Ġmainstream":7814,"Ġwalks":7815,"ĠAlgorithm":7816,"Ġclosing":7817,"Ġsociet":7818,"Ġmicrosoft":7819,"Ġdreams":7820,"Ġladies":7821,"Ġmeasuring":7822,"bu":7823,"Ġdirty":7824,"check":7825,"Ġshipping":7826,"ĠSince":7827,"ĠOut":7828,"Ġgrind":7829,"Ġspoken":7830,"Ġautonomy":7831,"Ġliberal":7832,"take":7833,"Ġmira":7834,"Ġactively":7835,"Ġmining":7836,"Ġresearchers":7837,"Ġreaching":7838,"ĠReally":7839,"Ġmanaging":7840,"Ġanimation":7841,"Ġindustrial":7842,"Ġacadem":7843,"driver":7844,"Ġpark":7845,"Ġproport":7846,"Ġplants":7847,"Ġenabled":7848,"Ġtwist":7849,"Ġobtain":7850,"Ġsqueal":7851,"Ġhitler":7852,"Ġ2014":7853,"Ġinspiring":7854,"Ġticket":7855,"Ġcompatibility":7856,"Ġrapidly":7857,"iel":7858,"Ġow":7859,"Ġolymp":7860,"Ġincome":7861,"Ġstaff":7862,"Ġchun":7863,"Ġassert":7864,"Ġdistract":7865,"Ġshortest":7866,"Ġreducing":7867,"Ġelectricity":7868,"Ġrigor":7869,"Ġapologize":7870,"otion":7871,"alley":7872,"Ġanonym":7873,"thes":7874,"Ġmock":7875,"kesh":7876,"Ġentries":7877,"vas":7878,"Ġwhom":7879,"Ġtyped":7880,"Ġtherapy":7881,"Ġcrowd":7882,"Alex":7883,"dit":7884,"pilot":7885,"rence":7886,"icilian":7887,"Ġheap":7888,"ĠSystem":7889,"ĠRy":7890,"Ġ37":7891,"Ġrecru":7892,"Ġrouter":7893,"Ġcelebrate":7894,"ĠDynamic":7895,"ini":7896,"oup":7897,"Ġmario":7898,"ĠChar":7899,"ĠVision":7900,"Ġ2017":7901,"Ġindicate":7902,"ĠChristianity":7903,"Ġencryption":7904,"free":7905,"reon":7906,"Ġdots":7907,"usi":7908,"eaking":7909,"Ġplain":7910,"ĠSet":7911,"Ġunus":7912,"Ġoperators":7913,"Ġ98":7914,"Ġpressing":7915,"())":7916,"ended":7917,"Ġreferred":7918,"Ġmotivated":7919,"afe":7920,"iop":7921,"Ġappeal":7922,"ĠJack":7923,"Ġsettle":7924,"Ġprofit":7925,"Ġstreams":7926,"Ġethere":7927,"Ġcontinued":7928,"Ġelectrical":7929,"Ġcompreh":7930,"sm":7931,"Ġoxy":7932,"Ġtoler":7933,"Ġbesides":7934,"ifornia":7935,"eness":7936,"ĠMore":7937,"Ġovercome":7938,"Ġtransport":7939,"Ġdirector":7940,"Ġapis":7941,"Ġdestination":7942,"Ġdiagonal":7943,"bul":7944,"Ġcuriosity":7945,"Ġmonitors":7946,"Ġcoun":7947,"Ġsword":7948,"Ġwoke":7949,"Ġdimensional":7950,"Ġgirls":7951,"iated":7952,"Ġ->":7953,"ptical":7954,"ĠWhile":7955,"Ġfilming":7956,"Ġatomic":7957,"tensor":7958,"ua":7959,"leep":7960,"uries":7961,"Ġacts":7962,"anda":7963,"yson":7964,"Ġperformed":7965,"Ġsurprisingly":7966,"Ġkilow":7967,"Ġltt":7968,"ague":7969,"Ġordering":7970,"Ġaligned":7971,"krain":7972,"ture":7973,"Ġyo":7974,"Ġneov":7975,"gebra":7976,"ĠTra":7977,"Ġsaves":7978,"Ġbubble":7979,"Ġterror":7980,"Ġdescribes":7981,"Ġastron":7982,"Ġelectronic":7983,"Ġdemonstrate":7984,"Ġmillimeter":7985,"ja":7986,"sters":7987,"Ġaccus":7988,"Ġdisaster":7989,"Ġrefact":7990,"Ġsigns":7991,"Ġminimize":7992,"Ġtargets":7993,"Ġdrama":7994,"Ġmathematicians":7995,"Ġmedicine":7996,"ĠIP":7997,"riage":7998,"Ġcovers":7999,"aken":8000,"Ġstays":8001,"Ġpresentation":8002,"Ġbroader":8003,"Ġstrip":8004,"Ġassigned":8005,"Ġfiber":8006,"Ġownership":8007,"Ġhal":8008,"ester":8009,"ĠIO":8010,"perform":8011,"achine":8012,"ĠTrue":8013,"Ġmartial":8014,"loc":8015,"Ġeast":8016,"ĠScient":8017,"ĠGoth":8018,"Ġoffset":8019,"Ġdirected":8020,"Ġsimilarly":8021,"Ġ2015":8022,"Ġmaximize":8023,"afka":8024,"Ġillegal":8025,"block":8026,"dat":8027,"uk":8028,"Ġnope":8029,"etheless":8030,"Ġpocket":8031,"Ġdecimal":8032,"Ġconstit":8033,"Ġallocate":8034,"ĠEdge":8035,"Ġfired":8036,"ĠNote":8037,"Ġexistential":8038,"program":8039,"Ġdepression":8040,"Ġautomated":8041,"Ġtouching":8042,"Ġscrewed":8043,"Ġscales":8044,"Ġwireless":8045,"Ġcab":8046,"Ġjew":8047,"ĠChrome":8048,"Ġstaying":8049,"Ġtrend":8050,"Ġmanufacturers":8051,"Ġexponential":8052,"rout":8053,"Ġfle":8054,"Ġanch":8055,"Ġtrib":8056,"Ġideally":8057,"Ġsites":8058,"Ġpractices":8059,"Ġgears":8060,"Ġreviews":8061,"Ġdelivery":8062,"Ġjer":8063,"astroph":8064,"Ġgrateful":8065,"Ġtreated":8066,"ĠSpace":8067,"Ġshadow":8068,"Ġmortality":8069,"Ġpurchase":8070,"bably":8071,"were":8072,"iced":8073,"Ġrush":8074,"ĠBuild":8075,"ĠMc":8076,"Ġages":8077,"orship":8078,"Ġgenerations":8079,"atively":8080,"Ġtechnological":8081,"Ġcake":8082,"Ġparse":8083,"Ġcapability":8084,"Ġstructured":8085,"Ġ2018":8086,"Ġ256":8087,"Ġinfinitely":8088,"Ġviral":8089,"Ġmagnitude":8090,"Ġtaste":8091,"give":8092,"hello":8093,"lement":8094,"ĠBo":8095,"blems":8096,"Ġconstructed":8097,"organ":8098,"Ġusb":8099,"anged":8100,"Ġimagination":8101,"Ġcollective":8102,"Ġverb":8103,"bt":8104,"both":8105,"ference":8106,"Ġbath":8107,"ĠBit":8108,"':":8109,"could":8110,"tree":8111,"igm":8112,"Ġproven":8113,"ĠWidth":8114,"Ġflood":8115,"Now":8116,"uum":8117,"Ġcow":8118,"Ġmixt":8119,"agan":8120,"ĠOpen":8121,"velation":8122,"Ġpersist":8123,"Ġmessy":8124,"Ġmarkets":8125,"eterson":8126,"Ġinflation":8127,"BM":8128,"EC":8129,"else":8130,"ĠDesign":8131,"ache":8132,"Ġjoining":8133,"Ġlosses":8134,"Ġballs":8135,"Ġbone":8136,"Ġborrow":8137,"Ġalco":8138,"Ġseek":8139,"empl":8140,"izza":8141,"anging":8142,"Ġpartial":8143,"Ġbless":8144,"Ġscra":8145,"Ġcatastroph":8146,"ĠIndia":8147,"person":8148,"ulti":8149,"Ġconceptual":8150,"Ġdiscussions":8151,"Ġsequences":8152,"ĠDemocr":8153,"cises":8154,"Ġfiring":8155,"ĠPR":8156,"ĠFrom":8157,"ĠOoh":8158,"Ġ1080":8159,"Ġenjoying":8160,"Ġpredictions":8161,"Ġdinner":8162,"Ġacknowledge":8163,"Ġarrow":8164,"ĠMost":8165,"Ġdecor":8166,"Ġoptimistic":8167,"Ġannounced":8168,"missions":8169,"Ġinterpretation":8170,"Ġtransparent":8171,"Ġoxygen":8172,"Ġpig":8173,"ancy":8174,"stein":8175,"Ġdear":8176,"Ġenables":8177,"Ġarrest":8178,"plot":8179,"Ġhumility":8180,"Ġrelate":8181,"Ġbracket":8182,"Ġfights":8183,"Ġinitialize":8184,"Ġimmers":8185,"iable":8186,"ometers":8187,"Ġbye":8188,"Ġblunder":8189,"ĠStar":8190,"Ġpressed":8191,"Ġposts":8192,"ĠOrthodox":8193,"Ġisolated":8194,"Ġethereum":8195,"vol":8196,"Ġpul":8197,"ĠMer":8198,"Ġbrakes":8199,"Ġsteel":8200,"Ġinstitution":8201,"Ġincorpor":8202,"Ġcryptocurrency":8203,"ih":8204,"Ġether":8205,"Ġneuros":8206,"ĠAdd":8207,"osis":8208,"Ġwarrant":8209,"Ġblender":8210,"Ġdecentral":8211,"Ġasynchron":8212,"Ġdiversity":8213,"ĠChatGPT":8214,"say":8215,"ilies":8216,"udo":8217,"Ġcorrespond":8218,"Ġalignment":8219,"]:":8220,"Ġdan":8221,"Ġcalculated":8222,"Ġmusk":8223,"ladies":8224,"Ġcriminal":8225,"fold":8226,"iders":8227,"Ġneck":8228,"ĠGreat":8229,"Ġcamel":8230,"does":8231,"Ġbounds":8232,"Ġviruses":8233,"Ġmerch":8234,"ĠHDMI":8235,"Ġlegitimate":8236,"Ġresolve":8237,"ĠGotham":8238,"oman":8239,"ometimes":8240,"Ġalert":8241,"ĠThree":8242,"Ġparties":8243,"ĠOnce":8244,"acc":8245,"Ġnonetheless":8246,"Ġcoordinates":8247,"Ġnaive":8248,"Ġuncertainty":8249,"35":8250,"range":8251,"Ġpace":8252,"Ġnin":8253,"Ġdeals":8254,"ĠCD":8255,"agger":8256,"earch":8257,"Ġcraft":8258,"Ġpasswords":8259,"Ġfrustrating":8260,"between":8261,"Com":8262,"virtual":8263,"orient":8264,"Ġresulting":8265,"Ġtempt":8266,"ĠUnity":8267,"Ġethiop":8268,"Ġnavigate":8269,"Ġsummary":8270,"LED":8271,"vy":8272,"vet":8273,"imum":8274,"adian":8275,"Ġsimulate":8276,"Ġsuggestions":8277,"26":8278,"bles":8279,"ara":8280,"Ġshame":8281,"ĠSpe":8282,"Ġbackup":8283,"ensus":8284,"ĠNext":8285,"Ġmodular":8286,"Ġlovely":8287,"Ġinvestors":8288,"Ġgovernments":8289,"Ġbalanced":8290,"marks":8291,"Ġexpanding":8292,"Ġmanufacturing":8293,"################################":8294,"ĠRepublic":8295,"Ġec":8296,"image":8297,"udd":8298,"grid":8299,"Ġiterator":8300,"Ġsalary":8301,"ĠPrime":8302,"Ġinstrument":8303,"Ġhorizontal":8304,"Ġ00000000":8305,"Ġcyn":8306,"eto":8307,"Ġelsewhere":8308,"ĠBeyond":8309,"column":8310,"Ġsacrificing":8311,"Ġnicer":8312,"iger":8313,"Ġrul":8314,"imer":8315,"Ġalgebra":8316,"iled":8317,"ĠUh":8318,"Ġlandscape":8319,"Ġcoordinate":8320,"75":8321,"As":8322,"found":8323,"arg":8324,"Ġasks":8325,"ago":8326,"Ġpartition":8327,"Ġsingular":8328,"Ġorganize":8329,"Ġsimplify":8330,"Ġrarely":8331,"kers":8332,"Ġstake":8333,"ieval":8334,"ĠPD":8335,"Ġcoh":8336,"Ġ38":8337,"Ġcreators":8338,"Ġregions":8339,"Ġdebt":8340,"layer":8341,"Ġdeleted":8342,"Ġtriple":8343,"training":8344,"Ġsubstant":8345,"AS":8346,"Ġmute":8347,"child":8348,"quote":8349,"Ġchick":8350,"Ġactor":8351,"ĠGraph":8352,"Ġclin":8353,"Ġpassive":8354,"Ġdiscussing":8355,"Ġiterate":8356,"Ġsurvival":8357,"Ġdrops":8358,"Ġforgotten":8359,"Ġbeliefs":8360,"jac":8361,"Ġpoker":8362,"Ġuseless":8363,"ĠYan":8364,"ĠNumber":8365,"ĠKafka":8366,"Ġswim":8367,"Ġcontained":8368,"Ġmarks":8369,"Ġannounce":8370,"Ġmacro":8371,"Ġreputation":8372,"Ġwires":8373,"Ġlunch":8374,"vember":8375,"sem":8376,"ĠPower":8377,"Ġbucket":8378,"Ġconsult":8379,"Ġ2013":8380,"Well":8381,"isons":8382,"allow":8383,"Ġloving":8384,"Ġ31":8385,"Ġdefensive":8386,"Ġspecified":8387,"Ġtouched":8388,"Ġmonitoring":8389,"bot":8390,"olit":8391,"rett":8392,"ĠComputing":8393,"Ġtangent":8394,"Ġrepository":8395,"Ġpiston":8396,"ĠEnterprise":8397,"Ġparen":8398,"Ġours":8399,"Ġsacred":8400,"ĠRPM":8401,"Ġmetric":8402,"Ġmetrics":8403,"Ġreports":8404,"Ġenemies":8405,"Ġpassionate":8406,"Ġmarch":8407,"Ġfought":8408,"caps":8409,"ĠSicilian":8410,"Ġcompens":8411,"Ġunnecess":8412,"Ġelabor":8413,"Ġproposed":8414,"Ġstroke":8415,"900":8416,"=(":8417,"bered":8418,"lr":8419,"Ġathe":8420,"sey":8421,"Ġanth":8422,"istan":8423,"Ġcompact":8424,"ĠUlt":8425,"ĠHarvard":8426,"ĠAGI":8427,"ns":8428,"oon":8429,"Ġtier":8430,"Ġlag":8431,"Ġray":8432,"Ġjet":8433,"Ġouts":8434,"Ġamd":8435,"odynam":8436,"uded":8437,"Ġschol":8438,"Ġhurts":8439,"Ġbranches":8440,"ĠMatrix":8441,"\"\"":8442,"([":8443,"etr":8444,"Ġconcent":8445,"ĠHave":8446,"Ġsubscription":8447,"Ġweaknesses":8448,"Ġneuro":8449,"Ġgenerates":8450,"ĠInter":8451,"ĠAmericans":8452,"laughing":8453,"gments":8454,"aron":8455,"Ġstem":8456,"idents":8457,"Ġquotes":8458,"Ġpron":8459,"Ġentities":8460,"Ġbehavi":8461,"Ġdestruction":8462,"bye":8463,"Ġcontribute":8464,"Ġneighbors":8465,"Ġexecuting":8466,"Ġfilmmaker":8467,"omas":8468,"ĠThunder":8469,"ĠLi":8470,"cost":8471,"Ġslip":8472,"Ġspeedrun":8473,"Ġgods":8474,"Ġmeasured":8475,"Ġmathematician":8476,"Ġhint":8477,"Ġinverse":8478,"Ġcancel":8479,"Ġnevertheless":8480,"Ġcraz":8481,"Ġboundary":8482,"ĠConstructor":8483,"long":8484,"lene":8485,"Ġhence":8486,"olan":8487,"Ġclicking":8488,"Ġblund":8489,"mingly":8490,"Ġorganisms":8491,"Ġvacuum":8492,"Ġexpertise":8493,"she":8494,"ante":8495,"imir":8496,"uls":8497,"Ġgukesh":8498,"ĠSoci":8499,"Ġnewer":8500,"Ġentering":8501,"Ġreasonably":8502,"Ġbreakthrough":8503,"Ġfundamentals":8504,"Ġdominant":8505,"Ġcommittee":8506,"Ġmixture":8507,"fall":8508,"usions":8509,"aling":8510,"ĠDB":8511,"berry":8512,"Ġinfer":8513,"Ġlogging":8514,"Ġprotest":8515,"prove":8516,"system":8517,"ĠiPh":8518,"Ġneovim":8519,"OR":8520,"Ġproved":8521,"atholic":8522,"lobal":8523,"Ġcharacteristics":8524,"Ġsmoke":8525,"ĠActually":8526,"Ġry":8527,"ĠTor":8528,"ĠBer":8529,"ĠHoly":8530,"ĠJapan":8531,"Ġattacked":8532,"cuda":8533,"istical":8534,"Ġtrace":8535,"Ġpsychedelics":8536,"Ġfusion":8537,"Ġgates":8538,"Ġsoviet":8539,"ĠSat":8540,"ĠHuman":8541,"Ġmedieval":8542,"Ġpanels":8543,"Ġrounds":8544,"Ġaccelerate":8545,"Ġaffected":8546,"Ġflexibility":8547,"Ġcorporate":8548,"ĠFrameworks":8549,"800":8550,"lead":8551,"Ġinterv":8552,"Ġequality":8553,"gged":8554,"Ġdropping":8555,"Ġfactorial":8556,"Ġpolicies":8557,"Ġkicked":8558,"Ġchampionship":8559,"ladimir":8560,"De":8561,"good":8562,"ique":8563,"etically":8564,"Ġjustify":8565,"Ġmeal":8566,"Ġbelieves":8567,"problem":8568,"Ġaddresses":8569,"alem":8570,"ĠSpan":8571,"Ġmicros":8572,"Ġexploit":8573,"Ġdim":8574,"Ġsections":8575,"Ġconce":8576,"ĠFound":8577,"Ġcreativity":8578,"Ġfriendship":8579,"ĠAuto":8580,"scale":8581,"Ġwitness":8582,"Ġbacter":8583,"Ġdock":8584,"Ġintim":8585,"Ġpartially":8586,"Ġcompleted":8587,"icted":8588,"Ġconnectors":8589,"Ġdomains":8590,"Ġluckily":8591,"Ġcompassion":8592,"Ġ&":8593,"aters":8594,"Ġpoem":8595,"ĠHit":8596,"Ġsett":8597,"expl":8598,"Ġfamilies":8599,"Ġtreatment":8600,"199":8601,"ĠGrandmaster":8602,"ĠSociety":8603,"parent":8604,"test":8605,"Ġsight":8606,"output":8607,"Ġmodified":8608,"Ġspeaks":8609,"Ġrecover":8610,"Ġincreasingly":8611,"ĠMojo":8612,"Ġcomedy":8613,"Ġtrillion":8614,"Ġbold":8615,"ĠChad":8616,"Ġenth":8617,"ĠVirtual":8618,"Ġdefines":8619,"Ġcentralized":8620,"ĠInternational":8621,"ĠGr":8622,"agraph":8623,"Ġuniform":8624,"Ġpartners":8625,"ogen":8626,"Ġnightm":8627,"Ġ2012":8628,"Ġprivile":8629,"Ġmaintaining":8630,"ĠPlus":8631,"ĠJews":8632,"Ġfro":8633,"around":8634,"Ġorange":8635,"ĠAD":8636,"Ġobst":8637,"ibl":8638,"Ġpatreon":8639,"Ġencoura":8640,"reet":8641,"Ġsouth":8642,"care":8643,"Ġdelic":8644,"Ġupside":8645,"ĠCity":8646,"Ġsale":8647,"Ġoffline":8648,"Ġengaged":8649,"Ġfailing":8650,"Ġkills":8651,"Ġconsistency":8652,"Ġsamples":8653,"Ġtower":8654,"Ġempathy":8655,"Ġaugment":8656,"expected":8657,"algorithm":8658,"Ġexceed":8659,"ĠAlpha":8660,"Ġirre":8661,"Ġshrink":8662,"matic":8663,"left":8664,"ember":8665,"Ġtwenty":8666,"ĠDes":8667,"Ġdeserve":8668,"Ġelev":8669,"Ġexport":8670,"ĠAlright":8671,"Ġsubscribers":8672,"Ġsongs":8673,"hmm":8674,"Ġgang":8675,"Ġanger":8676,"ĠMario":8677,"Ġfragment":8678,"Ġcopied":8679,"crimin":8680,"Ġcalculations":8681,"Ġexperimental":8682,"Ġangles":8683,"ĠĠĠĠĠĠĠĠĠĠĠĠčĊ":8684,"Ġinevitable":8685,"MA":8686,"sec":8687,"Ġanc":8688,"Ġspots":8689,"Ġhandful":8690,"Ġcuts":8691,"Ġstayed":8692,"Ġmarx":8693,"Ġcalculus":8694,"random":8695,"Ġdramatic":8696,"Ġcontracts":8697,"OT":8698,"hen":8699,"sa":8700,"Ġ;":8701,"Ġoops":8702,"Ġjordan":8703,"ĠSorry":8704,"ĠCreat":8705,"Ġhumble":8706,"Ġjokes":8707,"Ġagreement":8708,"Ġcopying":8709,"ĠAnother":8710,"lers":8711,"Ġtheater":8712,"ĠArab":8713,"Ġrepair":8714,"Ġswear":8715,"Ġexpectations":8716,"Ġcognition":8717,"Man":8718,"Ġdish":8719,"ĠAc":8720,"acks":8721,"moves":8722,"Ġfilters":8723,"Ġsubjective":8724,"best":8725,"information":8726,"Ġgarden":8727,"Ġdoors":8728,"Ġalph":8729,"ĠGive":8730,"Ġprobabilities":8731,"ĠKnights":8732,"Ġcorners":8733,"Ġawk":8734,"Ġcommonly":8735,"ports":8736,"Ġpodcasts":8737,"Ġmanagers":8738,"ĠMarket":8739,"Ġmeasures":8740,"Ġsufficiently":8741,"gar":8742,"Ġwet":8743,"thern":8744,"ĠLeg":8745,"Ġcarrying":8746,"ocus":8747,"Ġrip":8748,"ĠBoo":8749,"Ġ2010":8750,"Ġ700":8751,"Ġcommunicating":8752,"ĠAss":8753,"ĠInternet":8754,"vi":8755,"Ġdislike":8756,"Ġexperiencing":8757,"Ġlogo":8758,"Ġupdating":8759,"Ġcultures":8760,"ĠShad":8761,"Ġlabeled":8762,"Ġcosmic":8763,"Ġdrinking":8764,"Ġorientation":8765,"cool":8766,"wing":8767,"otal":8768,"Ġsuic":8769,"version":8770,"ordon":8771,"Ġexcite":8772,"Ġexplains":8773,"Ġenvironmental":8774,"Ġdramatically":8775,"kins":8776,"nov":8777,"Ġshuff":8778,"Ġsecondary":8779,"Ġsupplies":8780,"ĠStep":8781,"Ġfunds":8782,"Ġseparated":8783,"ĠCarl":8784,"Ġrigid":8785,"Ġlecture":8786,"66":8787,"rets":8788,"ĠThose":8789,"Ġoverr":8790,"Ġgranted":8791,"Ġengaging":8792,"Ġentirety":8793,"axis":8794,"Ġorganism":8795,"Ġcaptures":8796,"Ġbrightness":8797,"Ġpedal":8798,"Ġphysicists":8799,"Ġalcohol":8800,"Mod":8801,"aus":8802,"draw":8803,"fortunately":8804,"Ġtoy":8805,"Ġpse":8806,"Ġgpt":8807,"isy":8808,"Ġnail":8809,"Ġstone":8810,"Ġshitty":8811,"Ġvill":8812,"ĠMex":8813,"Ġdisp":8814,"aved":8815,"ĠUK":8816,"ĠVR":8817,"Ġspecialized":8818,"Ġjumps":8819,"ĠIsraeli":8820,"Ġderived":8821,"Ġinstantly":8822,"Ġrectangle":8823,"Ġremarkable":8824,"Ġenthusi":8825,"pie":8826,"Ġproph":8827,"Ġshield":8828,"been":8829,"orsche":8830,"Ġlightning":8831,"Ġmathematically":8832,"Ġboundaries":8833,"Ġphenomenon":8834,"ĠJanuary":8835,"Ġextensions":8836,"OV":8837,"fen":8838,"tp":8839,"Ġĉĉ":8840,"Ġnit":8841,"alian":8842,"ĠCr":8843,"ĠBar":8844,"Ġpricing":8845,"Ġgrown":8846,"Ġattitude":8847,"Ġcreatures":8848,"ortunate":8849,"ĠForce":8850,"Ġvisualize":8851,"Ġtargeting":8852,"ĠHTTP":8853,"Ġwidely":8854,"Ġeliminate":8855,"sung":8856,"nda":8857,"cam":8858,"Ġpoetry":8859,"anguage":8860,"member":8861,"Ġsequential":8862,"Ġscripts":8863,"Ġhospital":8864,"Ġtone":8865,"Ġpal":8866,"Ġrecap":8867,"Ġvoices":8868,"ĠPS":8869,"Ġdefinitions":8870,"Ġretrie":8871,"Ġpackets":8872,"Ġsteve":8873,"ĠPalestinian":8874,"Ġrestaurant":8875,"dir":8876,"egr":8877,"vpn":8878,"Ġtack":8879,"Ġoct":8880,"Ġbored":8881,"Ġgut":8882,"Ġreuse":8883,"asty":8884,"ĠJer":8885,"Ġassess":8886,"Ġlocally":8887,"Ġgigabytes":8888,"Ġtimer":8889,"Ġcausal":8890,"Ġteles":8891,"quest":8892,"ĠCam":8893,"Ġactors":8894,"orea":8895,"ĠRob":8896,"Ġbund":8897,"ĠEast":8898,"Ġcurs":8899,"Ġ900":8900,"Ġswitched":8901,"Ġscrewdriver":8902,"Ġfabric":8903,"\"\\":8904,"Qu":8905,"zed":8906,"ifact":8907,"Ġqueries":8908,"Ġarmy":8909,"ĠFre":8910,"ĠOctober":8911,"ĠNP":8912,"Ġentropy":8913,"Ġeditors":8914,"ocate":8915,"Ġheadphones":8916,"Ġmessed":8917,"Ġdraws":8918,"Ġapproximation":8919,"iguous":8920,"Ġgraduate":8921,"ĠLinked":8922,"gb":8923,"pop":8924,"urb":8925,"ĠSun":8926,"ĠPart":8927,"Ġunable":8928,"Ġ34":8929,"ellig":8930,"Ġtraded":8931,"ĠWorks":8932,"Ġconverted":8933,"Ġpursue":8934,"IS":8935,"link":8936,"Ġoutcomes":8937,"Ġspawn":8938,"ĠLED":8939,"Ġputin":8940,"Ġdisrupt":8941,"Ġdesert":8942,"Ġterrain":8943,"Ġ197":8944,"Ġbeautifully":8945,"Ġmarriage":8946,"Ġdecrease":8947,"Ġdiscipline":8948,"Ġoverlap":8949,"Ġtrajectory":8950,"Ġancest":8951,"met":8952,"Ġthor":8953,"inc":8954,"Ġmatt":8955,"Ġnations":8956,"ptember":8957,"ĠMike":8958,"Ġvalidation":8959,"Ġsatisfied":8960,"nis":8961,"Ġscores":8962,"Ġhus":8963,"Ġlin":8964,"Ġthrows":8965,"Ġslice":8966,"Ġhandy":8967,"Ġideology":8968,"Ġpolar":8969,"Ġpushes":8970,"ĠReddit":8971,"Ġspat":8972,"ĠDiv":8973,"Ġunre":8974,"ĠFire":8975,"Ġreson":8976,"Ġeleg":8977,"Ġinval":8978,"ribly":8979,"Ġsubscribed":8980,"Ġinches":8981,"Ġassistant":8982,"Ġbloody":8983,"27":8984,"Ġtune":8985,"Ġmas":8986,"idget":8987,"empor":8988,"ĠMm":8989,"ĠĠĠĠĠĠĠĠĠ":8990,"Ġdescend":8991,"Ġmomentum":8992,"Ġbarrier":8993,"Ġsuggested":8994,"Ġemployee":8995,"Ġpunish":8996,"date":8997,"las":8998,"incent":8999,"atell":9000,"Ġplt":9001,"Ġbackward":9002,"Ġconfusion":9003,"ocaly":9004,"Ġparagraph":9005,"256":9006,"Ġneutral":9007,"Ġrabbit":9008,"Ġmolecule":9009,"pon":9010,"Ġties":9011,"Ġnaming":9012,"ums":9013,"ĠEric":9014,"Ġasset":9015,"pril":9016,"Ġessence":9017,"etera":9018,"ĠRev":9019,"ĠArt":9020,"Ġsticks":9021,"limited":9022,"Ġcollaboration":9023,"ReLU":9024,"Ġresponses":9025,"Ġelaborate":9026,"BI":9027,"Book":9028,"DE":9029,"Â·":9030,"Ġukraine":9031,"Ġjustice":9032,"result":9033,"active":9034,"ĠHas":9035,"Ġcontest":9036,"Ġdismiss":9037,"Ġconfirm":9038,"Ġfootball":9039,"Ġacceptable":9040,"Ġarrived":9041,"Ġexplosion":9042,"hed":9043,"ji":9044,"lor":9045,"wide":9046,"Ġeveryday":9047,"ĠGot":9048,"Ġoverflow":9049,"Ġinstinct":9050,"Ġopponents":9051,"should":9052,"Ġphotograph":9053,"Ġasynchronous":9054,"36":9055,"bru":9056,"men":9057,"enance":9058,"Ġbutter":9059,"cember":9060,"ĠSolutions":9061,"Ġtemple":9062,"Ġconstructor":9063,"Ġoccurred":9064,"ĠDiscord":9065,"[:":9066,"ĠÃĹ":9067,"ĠRam":9068,"Ġoverclock":9069,"Ġgenes":9070,"Ġlongest":9071,"Ġcopper":9072,"Ġhalfway":9073,"param":9074,"Ġinteractive":9075,"Ġcivilizations":9076,"Ġallocated":9077,"ĠTyler":9078,"Ġdiesel":9079,"Ġbasketball":9080,"did":9081,"vm":9082,"Ġĉ":9083,"ota":9084,"Ġvice":9085,"tending":9086,"Ġconsume":9087,"uding":9088,"Ġadventure":9089,"Ġsecular":9090,"modern":9091,"ĠiPhone":9092,"Ġobstac":9093,"fit":9094,"uce":9095,"inity":9096,"Ġbac":9097,"Ġrevers":9098,"ĠTest":9099,"Ġadjac":9100,"Ġblink":9101,"Ġdiscl":9102,"Ġinsurance":9103,"Ġtooling":9104,"Ġoptimizing":9105,"Ġtracks":9106,"Ġunfortunate":9107,"Ġhungry":9108,"Ġchunks":9109,"Ġbanks":9110,"ria":9111,"apters":9112,"Ġmodes":9113,"Ġfinance":9114,"Ġrefere":9115,"BatchNorm":9116,"Ġdestructive":9117,"Block":9118,"MS":9119,"Ġthrew":9120,"Ġduration":9121,"Ġaband":9122,"Ġchart":9123,"Ġowner":9124,"Ġartifact":9125,"Ġfreel":9126,"ĠĠĠĠĠĠĠĠĠĠĠĠĠĠĠĠĠĠĠĠĠĠĠ":9127,"Ġgreedy":9128,"That":9129,"ouncing":9130,"Ġpreparation":9131,"Ġoccasionally":9132,"much":9133,"want":9134,"Ġbraking":9135,"Ġdistances":9136,"Ġregularly":9137,"Ġtitles":9138,"Ġrubber":9139,"rey":9140,"Ġmichael":9141,"ĠSL":9142,"ĠMatt":9143,"Ġdisg":9144,"orders":9145,"ools":9146,"Ġbadly":9147,"Ġcharged":9148,"Ġanswering":9149,"Ġblocked":9150,"Ġrepresentations":9151,"Ġprimitive":9152,"ĠInstagram":9153,"Ġangels":9154,"Al":9155,"Ġsister":9156,"ĠSouth":9157,"Ġowned":9158,"Ġunusual":9159,"((":9160,"Ġwider":9161,"Ġpiv":9162,"atever":9163,"Ġtwin":9164,"Ġhandles":9165,"Ġeleph":9166,"Ġsurve":9167,"azi":9168,"Ġladder":9169,"bruary":9170,"may":9171,"upp":9172,"vin":9173,"ĠSy":9174,"ĠBill":9175,"ĠHold":9176,"Ġbuildings":9177,"Ġ512":9178,"Ġbeginners":9179,"Ġbottlene":9180,"Ġgeorge":9181,"ĠPhil":9182,"Ġparser":9183,"29":9184,"frames":9185,"atulations":9186,"Ġhes":9187,"izable":9188,"Ġunexpected":9189,"ĠOLED":9190,"Ġgrapp":9191,"Ġlisted":9192,"Ġhandled":9193,"Ġpositional":9194,"Ġautomation":9195,"Ġcalculating":9196,"Ġceiling":9197,"Ġmultiplying":9198,"Ġvirtue":9199,"vari":9200,"Ġtube":9201,"usting":9202,"Ġoutta":9203,"aints":9204,"ĠHDR":9205,"Ġclarify":9206,"Ġentrepreneurs":9207,"Ġshifting":9208,"21":9209,"count":9210,"dim":9211,"split":9212,"elp":9213,"ĠNice":9214,"cratic":9215,"Ġglue":9216,"Ġrecognized":9217,"Ġassumed":9218,"Ġembod":9219,"ĠMuslim":9220,"Ġgermany":9221,")]":9222,"gic":9223,"little":9224,"ĨĴ":9225,"Ġaward":9226,"ĠBots":9227,"Ġnose":9228,"Ġclips":9229,"ĠLife":9230,"ĠEinstein":9231,"Ġjoint":9232,"ission":9233,"Ġchildhood":9234,"__(":9235,"Ġcastling":9236,"ĠLuke":9237,"Ġproposal":9238,"Ġlawyer":9239,"ĠSpanish":9240,"600":9241,"eu":9242,"low":9243,"try":9244,"Ġpizza":9245,"Ġlamb":9246,"Ġsector":9247,"Ġsevent":9248,"Ġspends":9249,"Ġdisad":9250,"Ġregime":9251,"Ġpermut":9252,"Ġdistinguish":9253,"Ġlttstore":9254,"110":9255,"dist":9256,"Ġox":9257,"Ġhated":9258,"Ġprag":9259,"Ġgee":9260,"chuckles":9261,"ĠTake":9262,"ĠST":9263,"Ġusable":9264,"Ġleverage":9265,"Ġspr":9266,"Ġinstagram":9267,"Ġconsists":9268,"gorithms":9269,"Ġexpectation":9270,"Ġweekend":9271,"Ġinvested":9272,"Ġsleeping":9273,"Ġordinary":9274,"ĠMrBeast":9275,"Ġempir":9276,"Ġpresumably":9277,"dep":9278,"ĠJune":9279,"Ġtyr":9280,"Ġforest":9281,"Ġteachers":9282,"Ġreceiver":9283,"Ġdialogue":9284,"Ġsits":9285,"Ġbio":9286,"Ġnested":9287,"oday":9288,"ĠBro":9289,"Ġlogin":9290,"Ġreadable":9291,"Ġcriter":9292,"Ġhotel":9293,"ĠArm":9294,"ĠTechnologies":9295,"Ġexposure":9296,"ĠBitcoin":9297,"Ġawkward":9298,"rices":9299,"tent":9300,"wall":9301,"Ġsatell":9302,"Ġpose":9303,"ĠCH":9304,"ĠDel":9305,"Ġpride":9306,"Ġcurves":9307,"ĠVis":9308,"Ġpromised":9309,"Ġsilver":9310,"Ġactivation":9311,"Ġcombinations":9312,"Ġhammer":9313,"Ġ00":9314,"itar":9315,"Ġell":9316,"amine":9317,"ours":9318,"ĠRead":9319,"athers":9320,"Ġboards":9321,"show":9322,"Ġpractically":9323,"All":9324,"David":9325,"front":9326,"Ġbom":9327,"Ġbure":9328,"Ġhars":9329,"Ġjesus":9330,"ĠPI":9331,"ĠRuss":9332,"Ġcale":9333,"Ġscreaming":9334,"Ġdestroying":9335,"Ġentrepreneur":9336,"Ġvidit":9337,"Ġabandon":9338,"No":9339,"rend":9340,"anford":9341,"ĠIBM":9342,"ĠAndy":9343,"atching":9344,"Ġsla":9345,"Ġslope":9346,"Ġgrass":9347,"Ġconsensus":9348,"Ġequil":9349,"uesday":9350,"Ġbreakdown":9351,"Ġunfair":9352,"Ġrecommended":9353,"Ġexpressvpn":9354,"Ġgravit":9355,"ĠEverything":9356,"non":9357,"Ġtox":9358,"Ġpile":9359,"html":9360,"ĠAir":9361,"ades":9362,"Ġgoods":9363,"ĠRay":9364,"ĠOpt":9365,"Ġincident":9366,"Ġfounder":9367,"Ġdarkness":9368,"Ġreported":9369,"Ġbroadcast":9370,"Ġrecursion":9371,"Ġbreath":9372,"Ġarguing":9373,"track":9374,"Ġhouses":9375,"cil":9376,"Ġfried":9377,"ĠCL":9378,"atures":9379,"Ġcompilation":9380,"Ġ2008":9381,"Ġdefended":9382,"Ġprotecting":9383,"Ġmeasurement":9384,"ĠSecond":9385,"control":9386,"Ġreplacing":9387,"efined":9388,"bolt":9389,"iences":9390,"uous":9391,"ndar":9392,"antly":9393,"ĠGlobal":9394,"Ġadapter":9395,"Ġoverview":9396,"Ġsubsequ":9397,"Ġstorytelling":9398,"Ġabsor":9399,"otted":9400,"playing":9401,"ĠArc":9402,"Ġarrange":9403,"Ġvulnerable":9404,"Ġflaws":9405,"usalem":9406,"Ġjonathan":9407,"Ġintro":9408,"eline":9409,"ĠFact":9410,"ĠFTX":9411,"Ġcrush":9412,"Ġcontainers":9413,"Ġcollected":9414,"Ġshaft":9415,"Ġstatistical":9416,"Ġgalaxy":9417,"Ġunnecessary":9418,"Ġecho":9419,"urgy":9420,"ĠHeight":9421,"Ġprincipal":9422,"Ġperiods":9423,"Ġregarding":9424,"Ġinnoc":9425,"Ġelectronics":9426,"Ġprocedure":9427,"Ġcortex":9428,"37":9429,"38":9430,"Im":9431,"high":9432,"lan":9433,"Ġbush":9434,"Ġhmm":9435,"arks":9436,"ĠCong":9437,"Ġunw":9438,"Ġvariants":9439,"Ġprototype":9440,"Ġfixing":9441,"Ġethics":9442,"Ġsuggests":9443,"spec":9444,"Ġbenchmarks":9445,"Ġcrying":9446,"Ġtherap":9447,"Ġathletes":9448,"Ġradiator":9449,"ba":9450,"bas":9451,"iating":9452,"athem":9453,"Ġgene":9454,"Ġjoking":9455,"Ġcenturies":9456,"Ġpayment":9457,"gging":9458,"Ġpulls":9459,"Ġprinter":9460,"Ġviolent":9461,"Ġattractive":9462,"Ġpreparing":9463,"Ġobsessed":9464,"built":9465,"68":9466,"AI":9467,"sort":9468,"Ġicons":9469,"error":9470,"Ġstim":9471,"ĠMarch":9472,"cribe":9473,"Ġmemes":9474,"Ġbeneficial":9475,"Ġquantity":9476,"Ġsemic":9477,"ĠWestern":9478,"Ġvaccines":9479,"Ġprayer":9480,"ĠHeap":9481,"ĠLearning":9482,"Ġmysterious":9483,"gling":9484,"norm":9485,"Ġbanned":9486,"Ġgather":9487,"ston":9488,"odus":9489,"Ġcomed":9490,"ĠLogan":9491,"ĠOther":9492,"igned":9493,"Ġvalves":9494,"Ġproblematic":9495,"lihood":9496,"Ġundefined":9497,"Ġenterprise":9498,"Ġmacros":9499,"Ġneuron":9500,"Ġroman":9501,"Ġsavings":9502,"Ġhtml":9503,"Ġhusband":9504,"jitsu":9505,"mx":9506,"sis":9507,"erable":9508,"Ġlon":9509,"Ġcance":9510,"estyle":9511,"ĠBea":9512,"ĠEm":9513,"ĠNV":9514,"comm":9515,"memory":9516,"Ġcommunism":9517,"Ġpleasant":9518,"break":9519,"ĠComputer":9520,"www":9521,"aco":9522,"Ġhill":9523,"ĠHello":9524,"othing":9525,"Ġ1990":9526,"ĠResa":9527,"gra":9528,"vest":9529,"Ġbars":9530,"Ġlambda":9531,"Ġgaps":9532,"Ġsticking":9533,"ĠHoll":9534,"Ġworkflow":9535,"ĠList":9536,"Ġfilms":9537,"Ġrotating":9538,"Ġappearance":9539,"Ġmaintenance":9540,"party":9541,"Ġtutorials":9542,"thesis":9543,"ĠPeter":9544,"ogether":9545,"Ġmovements":9546,"ords":9547,"mann":9548,"Ġstepping":9549,"Ġiterations":9550,"Ġutter":9551,"Ġaffects":9552,"Ġindependently":9553,"Ġproteins":9554,"Ġfortunately":9555,"[\"":9556,"Ġss":9557,"Ġip":9558,"Ġlatch":9559,"chess":9560,"ĠDonald":9561,"Ġrelativity":9562,"Ġlogs":9563,"Ġinstalling":9564,"Ġmicrophone":9565,"Ġshocked":9566,"Ġtrauma":9567,"ĠChampionship":9568,"95":9569,"Ġcetera":9570,"Ġnaked":9571,"Ġanarch":9572,"izers":9573,"ĠDC":9574,"Ġextrem":9575,"wiki":9576,"find":9577,"Ġmand":9578,"Ġlighter":9579,"();":9580,"Ġgigahertz":9581,"Ġstruck":9582,"Ġphysicist":9583,"ĠHamas":9584,"depth":9585,"47":9586,"Ġwired":9587,"atural":9588,"Ġcree":9589,"Ġlinux":9590,"Ġrug":9591,"thread":9592,"adata":9593,"ĠUN":9594,"verted":9595,"ĠClass":9596,"Ġingred":9597,"Ġkilowatt":9598,"Ġinvalid":9599,"mis":9600,"ĠSec":9601,"ĠLog":9602,"Ġvend":9603,"Ġcleaning":9604,"Ġconcurrent":9605,"Ġconcurrency":9606,"ĠRichard":9607,"Ġbacteria":9608,"96":9609,"design":9610,"hard":9611,"Ġdrew":9612,"ods":9613,"ola":9614,"asts":9615,"ĠRen":9616,"iley":9617,"Ġguessing":9618,"Ġsketch":9619,"Ġ85":9620,"Ġfairy":9621,"ĠAlthough":9622,"ĠProt":9623,"Ġembarrassing":9624,"Ġderivative":9625,"Ġinterpreter":9626,"Ġnightmare":9627,"von":9628,"Ġaer":9629,"abet":9630,"Ġinvoke":9631,"exist":9632,"Ġpops":9633,"Ġrema":9634,"Ġpromising":9635,"ĠAdvanced":9636,"ĠSteve":9637,"Ġdisappointed":9638,"MrBeast":9639,"Ġwarranty":9640,"Pl":9641,"pan":9642,"pot":9643,"Ġlikelihood":9644,"ustral":9645,"outs":9646,"Ġinterestingly":9647,"Ġaircraft":9648,"Ġpriorit":9649,"Ġcriticize":9650,"Ġpads":9651,"ĠScientology":9652,"semble":9653,"Set":9654,"Yeah":9655,"eval":9656,"onto":9657,"Ġpink":9658,"Ġpiss":9659,"ĠMet":9660,"Ġclone":9661,"ĠKar":9662,"Ġgrat":9663,"Ġinvisible":9664,"Ġmisses":9665,"Ġoptimizations":9666,"000000":9667,"ĠâĨĴ":9668,"Ġconstraint":9669,"Ġinevit":9670,"Ġaesthetic":9671,"Int":9672,"Ġbones":9673,"icular":9674,"Ġalumin":9675,"Ġvoca":9676,"Ġlookup":9677,"ĠLL":9678,"Ġcollaps":9679,"Ġfighter":9680,"Ġlabs":9681,"ĠProgram":9682,"Ġseparation":9683,"Ġsentences":9684,"Ġallocation":9685,"Ġparsing":9686,"Ġskeptical":9687,"ĠSwift":9688,"Ġinherently":9689,"Ġbabies":9690,"ywood":9691,"ref":9692,"ĠAS":9693,"ĠWill":9694,"areq":9695,"Ġcoefficient":9696,"assis":9697,"Ġflour":9698,"Ġmetadata":9699,"Ġgraphical":9700,"Ġposting":9701,"Ġevolving":9702,"Ġflags":9703,"ĠMexico":9704,"Ġsack":9705,"ĠPort":9706,"Ġentered":9707,"Ġobserv":9708,"Ġmagnus":9709,"Ġcomparisons":9710,"Ġkilometers":9711,"Ġtickets":9712,"ĠĠĠĠĠĠĠĠĠĠĠĠĠĠ":9713,"irable":9714,"Ġfilmmaking":9715,"Ġlegitim":9716,"oriented":9717,"Ġexcitement":9718,"bow":9719,"ghan":9720,"oot":9721,"Ġtense":9722,"Ġmush":9723,"Ġgt":9724,"keep":9725,"those":9726,"Ġsevere":9727,"ountered":9728,"Ġreaches":9729,"ĠInstead":9730,"Ġlenses":9731,"Ġtelevision":9732,"Ġemergent":9733,"product":9734,"predict":9735,"Ġsocieties":9736,"Ġharsh":9737,"Ġps":9738,"secut":9739,"chem":9740,"Ġsegue":9741,"inders":9742,"Ġlogos":9743,"Ġmentally":9744,"Ġeducational":9745,"ĠNeural":9746,"after":9747,"Ġincentive":9748,"'.":9749,"LL":9750,"ano":9751,"utable":9752,"also":9753,"urther":9754,"ĠCool":9755,"ĠMiddle":9756,"Ġearn":9757,"ĠVery":9758,"neg":9759,"Ġinfilt":9760,"Ġhype":9761,"Ġrooms":9762,"ĠExpl":9763,"Ġfilling":9764,"Ġhomes":9765,"Ġcorruption":9766,"Ġsuspension":9767,"Ġcitizens":9768,"Ġbehaviors":9769,"65":9770,"had":9771,"omy":9772,"ĠBack":9773,"Ġresil":9774,"viously":9775,"ĠMasters":9776,"Ġincentives":9777,"aul":9778,"born":9779,"cpu":9780,"fess":9781,"Ġroof":9782,"Ġneeding":9783,"Ġguest":9784,"ĠUp":9785,"aneous":9786,"():":9787,"Ġgigantic":9788,"Ġconvolution":9789,"Ġdiscourse":9790,"Ġpredicted":9791,"Ġdrove":9792,"Ġtonight":9793,"Ġnoticing":9794,"ĠBritish":9795,"Ġapproximately":9796,"Ġfemin":9797,"Ġconventional":9798,"Ġpermanent":9799,"34":9800,"AC":9801,"rich":9802,"array":9803,"Ġconject":9804,"ĠOld":9805,"Ġshoulder":9806,"Ġdocs":9807,"arris":9808,"Ġtrusted":9809,"Ġwrapped":9810,"Ġmicrow":9811,"Ġconvincing":9812,"Ġempire":9813,"ĠÎĺ":9814,"Ġtuple":9815,"pent":9816,"ometer":9817,"iday":9818,"aments":9819,"Ġfee":9820,"ĠAndre":9821,"epoch":9822,"Ġprogrammed":9823,"Ġprojection":9824,"Ġaccessing":9825,"Ġairflow":9826,"Ġapocaly":9827,"Ġcleaner":9828,"Ġignor":9829,"Ġcataly":9830,"writing":9831,"Ġsneak":9832,"Ġdeclare":9833,"driving":9834,"Ġvirtually":9835,"Ġclothes":9836,"ET":9837,"Ġwolf":9838,"Ġgro":9839,"Ġghost":9840,"thony":9841,"ortion":9842,"Ġpreced":9843,"Ġperforms":9844,"Ġgrain":9845,"loads":9846,"Ġglory":9847,"Ġdefeat":9848,"Ġdivine":9849,"models":9850,"Ġexpressed":9851,"Ġawareness":9852,"Ġauthoritarian":9853,"Ġdecentralized":9854,"car":9855,"iat":9856,"utter":9857,"Ġgospe":9858,"Ġclue":9859,"ĠHence":9860,"worth":9861,"gener":9862,"Ġcorresponds":9863,"Ġfellow":9864,"Ġcommitment":9865,"Ġemergence":9866,"1000":9867,"vide":9868,"Ġdna":9869,"Ġduck":9870,"Ġfrench":9871,"alo":9872,"Ġusern":9873,"Ġbacked":9874,"ĠJeff":9875,"Ġheadset":9876,"Ġcolored":9877,"Ġbios":9878,"Ġaddressing":9879,"ĠExactly":9880,"aspberry":9881,"Ġanalytics":9882,"fast":9883,"Ġsixt":9884,"Ġandrew":9885,"ĠBel":9886,"Ġdowns":9887,"Ġcalculator":9888,"Ġcollecting":9889,"randon":9890,"Ġneighborhood":9891,"techn":9892,"Ġsuicide":9893,"Ġcere":9894,"onest":9895,"Ġlux":9896,"Ġnea":9897,"igen":9898,"ifiers":9899,"ĠTJ":9900,"respect":9901,"Ġprecision":9902,"Ġoptical":9903,"Ġ1980":9904,"Ġtemp":9905,"Ġpriest":9906,"ĠIslam":9907,"Ġencountered":9908,"Ġclaiming":9909,"Ġconsistently":9910,"Ġclouds":9911,"Ġmuscle":9912,"Ġencrypted":9913,"ĠTommy":9914,"Ġpoliticians":9915,"inging":9916,"Ġknife":9917,"Ġabuse":9918,"Ġattend":9919,"Ġups":9920,"rium":9921,"peror":9922,"Ġmonsters":9923,"Ġsquee":9924,"Ġmentioning":9925,"ĠXbox":9926,"ĠDeep":9927,"values":9928,"config":9929,"ING":9930,"Okay":9931,"del":9932,"ok":9933,"inch":9934,"Ġkar":9935,"quer":9936,"pleasant":9937,"ĠDi":9938,"Ġunlimited":9939,"Ġgenome":9940,"Ġhighway":9941,"Ġanswered":9942,"Ġtexts":9943,"Ġpursu":9944,"ĠĠĠĠĠĠĠĠĠĠĠĠĠĠĠĠĠĠĠĠĠĠĠĠĠĠĠĠĠĠĠ":9945,"ĠConv":9946,"Ġclaimed":9947,"Ġreceiving":9948,"Ġmatrices":9949,"Ġanchor":9950,"Ġspatial":9951,"Ġration":9952,"Ġstats":9953,"Ġ180":9954,"ĠWatts":9955,"ĠGar":9956,"Ġmaneu":9957,"ango":9958,"Ġperipher":9959,"Ġdesired":9960,"Ġmarked":9961,"Ġ1500":9962,"Ġlanding":9963,"Ġburden":9964,"Ġkilog":9965,"Ġpuzzles":9966,"Ġmanufacturer":9967,"arency":9968,"Ġelectrons":9969,"Ġarguably":9970,"Ġbirthday":9971,"Ġinduction":9972,"Ġchassis":9973,"Ġcompressed":9974,"Ġappend":9975,"Ġcarried":9976,"minute":9977,"Ġindividually":9978,"Ġiniti":9979,"Ġradiation":9980,"Ġmounting":9981,"Ġcosm":9982,"Ġmanipulation":9983,"speed":9984,"Ġtunnel":9985,"Ġtransistors":9986,"dy":9987,"Ġpent":9988,"itives":9989,"owers":9990,"ithub":9991,"ĠAbra":9992,"olen":9993,"ĠMount":9994,"Ġpermission":9995,"Ġears":9996,"Ġconfront":9997,"post":9998,"Ġroutines":9999,"space":10000,"Ġaluminum":10001,"OC":10002,"WS":10003,"erves":10004,"Ġnvidia":10005,"Ġdoom":10006,"riv":10007,"ucker":10008,"Ġamazon":10009,"Ġidentified":10010,"Ġpresents":10011,"ervices":10012,"Ġcontinuously":10013,"Ġsemantic":10014,"Ġexceptionally":10015,"Ġgained":10016,"Ġpredicting":10017,"Ġii":10018,"ication":10019,"racle":10020,"Ġ--":10021,"Ġguidel":10022,"ĠWeb":10023,"Ġsolves":10024,"Ġspecification":10025,"Ġraising":10026,"Ġparadox":10027,"ĠPalestinians":10028,"settings":10029,"een":10030,"ras":10031,"ueto":10032,"Ġpilot":10033,"orious":10034,"Ġbeats":10035,"ĠSort":10036,"Ġmeanwhile":10037,"acci":10038,"Ġcourage":10039,"Ġmeter":10040,"Ġmeditation":10041,"itchen":10042,"Ġlistened":10043,"Ġpreserve":10044,"Ġrotor":10045,"Ġintentionally":10046,"ĠSuppose":10047,"Ġethernet":10048,"Ġcalendar":10049,"dam":10050,"oir":10051,"same":10052,"Ġseemingly":10053,"ĠRub":10054,"Ġblowing":10055,"Ġserving":10056,"Ġdecrypt":10057,"Ġdeciding":10058,"Ġprocessed":10059,"Ġexpose":10060,"Ġ69":10061,"ĠNovember":10062,"Ġsafely":10063,"ĠCanadian":10064,"Ġnuke":10065,"Ġimmune":10066,"Ġshifted":10067,"Ġactivate":10068,"Ġcooking":10069,"Ġshopping":10070,"Ġemotionally":10071,"uetooth":10072,"aire":10073,"keys":10074,"ĠPat":10075,"Ġresent":10076,"Ġsimplicity":10077,"ĠJose":10078,"Ġ360":10079,"Ġlaying":10080,"Ġintroducing":10081,"ocolate":10082,"ĠLua":10083,"Ġirr":10084,"supp":10085,"Ġfederal":10086,"Ġsuspicious":10087,"Ġshelf":10088,"Ġenumerate":10089,"Ġintrins":10090,"Ġbike":10091,"Ġabilities":10092,"Ġalter":10093,"ĠFair":10094,"ĠFBI":10095,"Ġendless":10096,"Ġcenters":10097,"Ġsixth":10098,"Ġkingdom":10099,"Ġportable":10100,"ĠShop":10101,"Ġgradually":10102,"Ġpolym":10103,"ĠTransform":10104,"ĠDrive":10105,"Ġlawyers":10106,"Ġsummarize":10107,"ĠAbraham":10108,"CP":10109,"Ms":10110,"gl":10111,"made":10112,"urations":10113,"Ġven":10114,"ĠCur":10115,"Ġcoal":10116,"Ġguitar":10117,"icked":10118,"ordinary":10119,"Ġcellular":10120,"oster":10121,"Ġamongst":10122,"Ġadults":10123,"Ġmutex":10124,"Net":10125,"Node":10126,"pse":10127,"sample":10128,"zer":10129,"onacci":10130,"icy":10131,"Ġjeff":10132,"elf":10133,"ĠRec":10134,"ĠDirection":10135,"Ġedition":10136,"Ġrefers":10137,"Ġdrill":10138,"Ġlegacy":10139,"Ġreporting":10140,"Ġabstractions":10141,"Ġtweets":10142,"Ġbenchmark":10143,"Ġreminds":10144,"Ġpropaganda":10145,"Ġnfts":10146,"Here":10147,"kill":10148,"Ġdick":10149,"isp":10150,"ica":10151,"sell":10152,"Ġvague":10153,"plug":10154,"ĠMag":10155,"Ġcrank":10156,"Ġparas":10157,"Ġrestart":10158,"Ġundo":10159,"Ġconverting":10160,"Ġshortcuts":10161,"Ġoverwhelming":10162,"/**":10163,"fol":10164,"rating":10165,"Ġgreek":10166,"station":10167,"Ġmail":10168,"Ġdecom":10169,"Ġchop":10170,"Ġcovid":10171,"umpy":10172,"linear":10173,"ĠBefore":10174,"compet":10175,"Ġimplications":10176,"Ġadmire":10177,"Ġcompromise":10178,"Xiv":10179,"hy":10180,"antum":10181,"ĠTuesday":10182,"ĠSony":10183,"Ġseeking":10184,"Ġunpleasant":10185,"ressing":10186,"Ġcalib":10187,"Ġknights":10188,"Ġterrified":10189,"ennis":10190,"Ġtransparency":10191,"ĠHeaven":10192,"Ġrecipe":10193,"Ġchicken":10194,"Ġanthrop":10195,"ION":10196,"arre":10197,"Ġbeer":10198,"Ġracing":10199,"Ġshake":10200,"inton":10201,"Ġrealistically":10202,"Ġflame":10203,"Ġinsist":10204,"Ġthankfully":10205,"Ġmassively":10206,"doing":10207,"ĠArch":10208,"Ġsweat":10209,"Ġcoinc":10210,"Ġsnap":10211,"Ġtuned":10212,"Ġentertainment":10213,"Ar":10214,"save":10215,"Ġbounce":10216,"Ġlinger":10217,"Ġdod":10218,"Ġbubb":10219,"Ġbeta":10220,"commun":10221,"Ġappeared":10222,"urns":10223,"Ġflows":10224,"Ġhardly":10225,"Ġadvis":10226,"ĠUnfortunately":10227,"Ġvisually":10228,"Ġseparately":10229,"ĠChristians":10230,"Ġtendency":10231,"Ġapartment":10232,"Ġfaced":10233,"charged":10234,"Ġtransformed":10235,"Ġparticipating":10236,"Ġactivities":10237,"Ġconstrained":10238,"Ġurl":10239,"iblical":10240,"Un":10241,"lot":10242,"}\\":10243,"Ġpit":10244,"Ġoftent":10245,"Ġdozen":10246,"Ġjson":10247,"index":10248,"Ġtimeline":10249,"Ġbrothers":10250,"Ġbelieving":10251,"ĠSteam":10252,"Ġlightweight":10253,"Ġjumped":10254,"Ġrepeating":10255,"Ġarrows":10256,"ĠĠĠĠĠĠĠĠĠĠĠĠĠ":10257,"computer":10258,"Ġenhance":10259,"Ġmerely":10260,"Ġoftentimes":10261,"67":10262,"zens":10263,"Ġtread":10264,"lder":10265,"cha":10266,"Ġasleep":10267,"ĠWr":10268,"Ġradar":10269,"Ġgigabit":10270,"Ġetern":10271,"Ġmisunder":10272,"Ġguns":10273,"Ġjournalists":10274,"FS":10275,"map":10276,"squ":10277,"water":10278,"ĠÂ·":10279,"igma":10280,"Ġcongr":10281,"ĠTyson":10282,"ounds":10283,"Ġfoam":10284,"Ġterabyte":10285,"Ġglitch":10286,"romagn":10287,"Ġamericans":10288,"Ġmanifold":10289,"Example":10290,"Ġcryst":10291,"Ġinformed":10292,"ĠMusk":10293,"Ġremainder":10294,"erry":10295,"Ġdoctors":10296,"ĠSan":10297,"ĠCir":10298,"Ġquiz":10299,"ags":10300,"Ġevening":10301,"ĠFall":10302,"Ġ44":10303,"Ġzig":10304,"Ġinvited":10305,"layers":10306,"Ġoccurring":10307,"Ġpcie":10308,"irected":10309,"Pie":10310,"uke":10311,"Ġcats":10312,"Ġmasks":10313,"roach":10314,"Ġencaps":10315,"ĠGiven":10316,"ĠLa":10317,"Ġtalent":10318,"Ġimpression":10319,"Ġ47":10320,"Ġdevelops":10321,"ibonacci":10322,"Ġrepresentative":10323,"Ġencoded":10324,"Ġobserved":10325,"enchmark":10326,"Ġmutable":10327,"Ġprotocols":10328,"mi":10329,"rid":10330,"zard":10331,"itating":10332,"ĠIN":10333,"Ġmel":10334,"ective":10335,"Ġsafer":10336,"ĠNational":10337,"ĠJun":10338,"const":10339,"Ġinternship":10340,"Ġbanana":10341,"looking":10342,"Ġemergency":10343,"configure":10344,"Ġfractal":10345,"gal":10346,"Ġlun":10347,"Ġstolen":10348,"ilty":10349,"Ġpreview":10350,"Ġrealization":10351,"Ġ49":10352,"Ġremembering":10353,"Ġqueens":10354,"Ġchurches":10355,"Ġsalt":10356,"Ġmultiplicity":10357,"Ġjungle":10358,"represent":10359,"provement":10360,"main":10361,"Ġthesis":10362,"Ġnarc":10363,"amin":10364,"amps":10365,"ĠTimes":10366,"ĠCore":10367,"intend":10368,"Ġlocks":10369,"ĠDa":10370,"cogn":10371,"teen":10372,"Ġinspect":10373,"rencies":10374,"player":10375,"Chandler":10376,"Ġanalyzing":10377,"ĠRussians":10378,"Ġsadly":10379,"obert":10380,"Ġcorrelation":10381,"Ġfortunate":10382,"Ġsympt":10383,"Ġintersection":10384,"Ġprevents":10385,"Ġcriteria":10386,"hor":10387,"ias":10388,"rec":10389,"Ġramp":10390,"inear":10391,"Ġimple":10392,"ĠPew":10393,"ivation":10394,"Ġpercept":10395,"Ġoperates":10396,"aza":10397,"Ġmedal":10398,"Ġimagery":10399,"Ġfreak":10400,"Ġpanic":10401,"Ġemerging":10402,"Ġpoorly":10403,"Ġchaotic":10404,"ĠEuropean":10405,"Ġvulnerability":10406,"Ġaggregate":10407,"Ġcents":10408,"inge":10409,"kell":10410,"Ġdozens":10411,"Ġwasting":10412,"ĠMake":10413,"ĠPlease":10414,"ĠLen":10415,"Ġcomputed":10416,"ructions":10417,"Ġaccessed":10418,"Ġauthors":10419,"Ġcontrollers":10420,"Ġepisodes":10421,"Ġindicates":10422,"Ġrevealed":10423,"Ġtactics":10424,"ĠParad":10425,"................................":10426,"Ġimplies":10427,"bulary":10428,"Ġgravitational":10429,"DP":10430,"making":10431,"uel":10432,"aten":10433,"isc":10434,"Ġnpm":10435,"icism":10436,"anta":10437,"ĠCelsius":10438,"ĠLee":10439,"ĠEr":10440,"ĠEve":10441,"ĠNorm":10442,"ĠItalian":10443,"Ġgamers":10444,"Ġsooner":10445,"Ġemerges":10446,"ĠGenesis":10447,"Ġhosting":10448,"Ġaccurately":10449,"Ġtraditionally":10450,"Ġstrictly":10451,"But":10452,"tic":10453,"Ġlone":10454,"Ġlord":10455,"open":10456,"ĠAWS":10457,"Ġplaus":10458,"ĠSAT":10459,"ĠWay":10460,"ĠMain":10461,"ĠHope":10462,"ĠDennis":10463,"Ġampl":10464,"Ġroots":10465,"Ġinsult":10466,"Ġclassification":10467,"Ġvolunt":10468,"Ġbeaten":10469,"Ġallocator":10470,"Ġderive":10471,"Ġexecutable":10472,"krainian":10473,"hop":10474,"uation":10475,"Ġbiz":10476,"Ġstaring":10477,"Ġtraction":10478,"Ġinterval":10479,"ĠStudio":10480,"Ġplanned":10481,"Ġpackaging":10482,"Ġpromises":10483,"Ġraises":10484,"Ġconsideration":10485,"Ġfascinated":10486,"sembly":10487,"Ġphilosopher":10488,"Ġsubjects":10489,"Ġpreference":10490,"paper":10491,"ql":10492,"Ġhd":10493,"Ġholid":10494,"Ġwriters":10495,"Ġendpoint":10496,"Ġcoron":10497,"Ġ68":10498,"Ġhopeful":10499,"Ġ2011":10500,"Ġinterviewed":10501,"ĠAsus":10502,"Ġpreventing":10503,"Ġrigorous":10504,"Ġequilib":10505,"Ġpolymorph":10506,"IM":10507,"iance":10508,"uction":10509,"vity":10510,"Ġwing":10511,"Ġtoile":10512,"Ġstalin":10513,"agement":10514,"ĠDDR":10515,"Ġsynd":10516,"Ġtranscend":10517,"olutely":10518,"Ġfailures":10519,"Ġextraordinary":10520,"Ġaccepting":10521,"Ġsurvived":10522,"encers":10523,"Ġresigned":10524,"Color":10525,"Ġrendered":10526,"Ġgallon":10527,"ĠCalifornia":10528,"Ġadopted":10529,"Ġarrested":10530,"Ġparenthes":10531,"ĠBoolean":10532,"fil":10533,"Ġted":10534,"redu":10535,"Ġfitting":10536,"ĠCR":10537,"Ġcomplement":10538,"example":10539,"many":10540,"Ġclicked":10541,"Ġparticipation":10542,"Ġtournaments":10543,"Ġmegabytes":10544,"learning":10545,"Ġdisgusting":10546,"lab":10547,"Ġdirt":10548,"Ġnur":10549,"Ġkitchen":10550,"Ġprobe":10551,"ĠWal":10552,"ĠGal":10553,"ĠGary":10554,"Ġadvers":10555,"Ġfunctioning":10556,"Ġregul":10557,"Ġviewer":10558,"Ġconstants":10559,"Ġgrounded":10560,"Ġobserver":10561,"Ġimmig":10562,"Ġdownloaded":10563,"Ġsatisfying":10564,"Ġaccomplished":10565,"etrical":10566,"Is":10567,"void":10568,"Ġinefficient":10569,"ĠWould":10570,"ĠMa":10571,"ĠRandom":10572,"aze":10573,"Ġbiased":10574,"Ġ2009":10575,"Ġredund":10576,"Ġdarker":10577,"Ġrevolutionary":10578,"processor":10579,"Ġquadr":10580,"intendo":10581,"Die":10582,"such":10583,"Ġought":10584,"Ġben":10585,"Ġmc":10586,"Ġfathers":10587,"etris":10588,"Ġrogan":10589,"Ġsender":10590,"aded":10591,"ĠCIA":10592,"before":10593,"ĠStreet":10594,"Ġcircuits":10595,"Ġestate":10596,"Ġhacker":10597,"Ġfrustrated":10598,"Ġtactical":10599,"ragon":10600,"RAM":10601,"ĠAbs":10602,"Ġquot":10603,"Ġtear":10604,"ĠFive":10605,"Ġresur":10606,"Ġrunner":10607,"Ġemperor":10608,"Ġbond":10609,"Ġcompletion":10610,"Ġcheese":10611,"ĠVer":10612,"problems":10613,"Ġembrace":10614,"Ġreliability":10615,"Ġaffordable":10616,"Ġnarciss":10617,"2000":10618,"nes":10619,"zero":10620,"Ġmated":10621,"Ġdense":10622,"Ġfram":10623,"Ġgp":10624,"icate":10625,"Ġstabil":10626,"ivered":10627,"Ġbases":10628,"ĠShould":10629,"install":10630,"bbing":10631,"ĠIDE":10632,"ĠConsider":10633,"Ġfilmmakers":10634,"Ġbathroom":10635,"ĠHitler":10636,"ĠLinkedIn":10637,"Ġrings":10638,"ĠCat":10639,"Ġguilty":10640,"Ġgrasp":10641,"Ġvariations":10642,"attle":10643,"obs":10644,"Ġphilosophers":10645,"Ġregards":10646,"Ġcylinders":10647,"Ġdeployment":10648,"Ġelegant":10649,"ĠRevolution":10650,"Ġtoxic":10651,"Ġmaneuver":10652,"Key":10653,"watch":10654,"Ġhol":10655,"itals":10656,"umes":10657,"ĠGold":10658,"ĠFusion":10659,"Ġblast":10660,"Ġresid":10661,"Ġzomb":10662,"Ġfarther":10663,"proof":10664,"Ġboxing":10665,"ĠAdvent":10666,"Ġdynamically":10667,"Ġvacation":10668,"Ġwrapper":10669,"Ġblew":10670,"Ġremotely":10671,"join":10672,"ĠARM":10673,"minded":10674,"Ġusername":10675,"700":10676,"GA":10677,"gun":10678,"gage":10679,"Ġdun":10680,"Ġdop":10681,"ĠCP":10682,"ĠRoad":10683,"Ġbetray":10684,"ĠNolan":10685,"Ġtraged":10686,"Ġtransm":10687,"issors":10688,"Ġalgorithmic":10689,"ĠĠĠĠĠĠĠĠĠĠĠĠĠĠĠĠĠĠĠĠĠĠĠĠĠĠĠ":10690,"Ġdefeated":10691,"Ġsynthetic":10692,"Ġdenote":10693,"Ġsoldiers":10694,"Ġturbocharger":10695,"Ġdeterministic":10696,"Ġfifty":10697,"ĠFoundation":10698,"elligence":10699,"IC":10700,"ora":10701,"Ġgolf":10702,"ida":10703,"Ġintensity":10704,"ĠSometimes":10705,"Ġarise":10706,"orses":10707,"ĠStalin":10708,"Ġcapturing":10709,"Ġprofessors":10710,"Ġinfluencers":10711,"Ġgarage":10712,"ĠSamsung":10713,"piece":10714,"[-":10715,"Ġly":10716,"Ġgross":10717,"ett":10718,"Ġlib":10719,"amples":10720,"ĠTheir":10721,"Ġexpense":10722,"Ġautomate":10723,"Ġlaunching":10724,"defined":10725,"Ġhunting":10726,"Ġwine":10727,"Ġstorm":10728,"Ġdonate":10729,"ĠLast":10730,"Ġflipping":10731,"ĠVi":10732,"Ġfallen":10733,"Ġkiller":10734,"Ġgamer":10735,"Ġexclus":10736,"Ġexecutive":10737,"Ġtouring":10738,"Ġbirds":10739,"Ġanonymous":10740,"DiePie":10741,"Karl":10742,"Ġcens":10743,"Ġnasty":10744,"Ġ110":10745,"Ġenlight":10746,"Ġpoison":10747,"ĠHer":10748,"ĠRoman":10749,"ĠOd":10750,"Ġimpress":10751,"Ġslack":10752,"ĠVladimir":10753,"ĠVincent":10754,"Ġcrappy":10755,"Ġclosure":10756,"Ġarchitectures":10757,"Ġfacil":10758,"Ġdiscovering":10759,"Ġcomposition":10760,"Ġrepeatedly":10761,"AL":10762,"Hey":10763,"MP":10764,"pin":10765,"Ġhug":10766,"Ġpants":10767,"ĠHP":10768,"anger":10769,"Ġdescent":10770,"Ġterabytes":10771,"Ġbrave":10772,"Ġcompetitors":10773,"Ġportfol":10774,"Ġpsychologically":10775,"Ġobserving":10776,"Ġrecommendation":10777,"Ġhighlights":10778,"oader":10779,"Ġrejected":10780,"hole":10781,"van":10782,"Ġwidget":10783,"aton":10784,"asible":10785,"Ġstead":10786,"rolling":10787,"three":10788,"Ġchill":10789,"Ġchron":10790,"Ġchocolate":10791,"ifting":10792,"Ġlever":10793,"cessing":10794,"Ġdecode":10795,"Ġ51":10796,"thew":10797,"Ġindices":10798,"Ġviewed":10799,"Ġprints":10800,"apped":10801,"Ġalongside":10802,"uthor":10803,"Ġutilize":10804,"Ġadvertise":10805,"Ġadvertising":10806,"Ġmillimeters":10807,"Ġangel":10808,"Ġdelicious":10809,"Ġthorough":10810,"Res":10811,"atics":10812,"Ġfx":10813,"Ġsoc":10814,"Ġlied":10815,"Ġjitsu":10816,"ille":10817,"develop":10818,"Ġspray":10819,"Ġdownside":10820,"Ġoblig":10821,"Ġsupercharger":10822,"engine":10823,"Ġpromotion":10824,"Ġdemons":10825,"Ġmorality":10826,"Ġfacult":10827,"Ġratios":10828,"Ġcomplaining":10829,"Ġsatisfy":10830,"Ġparadigm":10831,"Ġdelivered":10832,"Ġemphasize":10833,"ĠOverflow":10834,"Ġbackend":10835,"39":10836,"Er":10837,"elect":10838,"length":10839,"Ġtheor":10840,"Ġib":10841,"Ġdancing":10842,"illions":10843,"ads":10844,"ĠTree":10845,"Ġsugar":10846,"ĠBenchmark":10847,"ĠFour":10848,"Ġinvite":10849,"Ġemerged":10850,"Ġweighs":10851,"Ġaspir":10852,"bin":10853,"lon":10854,"rons":10855,"Ġbiblical":10856,"Ġmall":10857,"Ġlately":10858,"Ġjam":10859,"eav":10860,"Ġunpack":10861,"Ġcoop":10862,"Ġcomputations":10863,"Ġinvari":10864,"Ġsuperior":10865,"Ġlocated":10866,"Ġ3080":10867,"Ġidentities":10868,"Ġinvestigate":10869,"NS":10870,"hm":10871,"uy":10872,"ald":10873,"Ġrelying":10874,"Ġstall":10875,"ĠTex":10876,"ĠSD":10877,"ĠSaint":10878,"cover":10879,"Ġtracing":10880,"Ġflavor":10881,"ashed":10882,"Ġremembered":10883,"Ġdrunk":10884,"ĠExodus":10885,"Ġkeyboards":10886,"ageddon":10887,"color":10888,"ghanistan":10889,"Ġbizarre":10890,"sky":10891,"Ġsour":10892,"Ġproxy":10893,"ĠGra":10894,"Ġworker":10895,"ĠDep":10896,"Ġunquote":10897,"Ġstartups":10898,"Ġguides":10899,"apor":10900,"ĠJen":10901,"Ġsmile":10902,"ĠView":10903,"Ġdivor":10904,"Ġfinishing":10905,"ĠGPUs":10906,"Ġtuning":10907,"Ġbelongs":10908,"Ġdeposit":10909,"Ġdesperate":10910,"Ġconjecture":10911,"400":10912,"UI":10913,"ikes":10914,"Ġbol":10915,"Ġbrian":10916,"Ġpd":10917,"Ġpour":10918,"Ġddr":10919,"Ġinline":10920,"Ġkings":10921,"ĠShow":10922,"Ġhashing":10923,"Ġtransmit":10924,"Ġinvo":10925,"Ġindirect":10926,"ĠStart":10927,"Ġheading":10928,"Ġfreeze":10929,"Ġpurple":10930,"Ġelectromagn":10931,"Ġaccounting":10932,"Ġmounted":10933,"Ġrichard":10934,"Ġaxi":10935,"Ġguarantees":10936,"ĠGeorge":10937,"dig":10938,"might":10939,"inci":10940,"Ġease":10941,"Ġmeets":10942,"Ġmapped":10943,"olved":10944,"Ġunst":10945,"Ġ39":10946,"Ġconfir":10947,"Ġheaders":10948,"current":10949,"Ġfairness":10950,"Ġcustomize":10951,"Ġjunior":10952,"Ġtubes":10953,"Ġparentheses":10954,"OO":10955,"ban":10956,"Ġhip":10957,"Ġmm":10958,"Ġgithub":10959,"Ġbeam":10960,"Ġambit":10961,"Ġemac":10962,"Ġcorrection":10963,"bridge":10964,"Ġelectro":10965,"Ġpresenting":10966,"When":10967,"Ġlicens":10968,"Ġeggs":10969,"Ġduplicate":10970,"Ġinevitably":10971,")/":10972,"mart":10973,"Ġtroll":10974,"Ġhoney":10975,"Ġstere":10976,"thur":10977,"ĠGordon":10978,"ĠLSP":10979,"ĠEV":10980,"Ġsliding":10981,"ĠUs":10982,"why":10983,"Ġcarries":10984,"Ġelite":10985,"Ġcreature":10986,"Ġinference":10987,"Ġreactions":10988,"Ġlanded":10989,"Ġfeeding":10990,"Ġnarratives":10991,"Ġunsafe":10992,"interesting":10993,"bled":10994,"stairs":10995,"Ġsemin":10996,"Ġproving":10997,"ĠAnt":10998,"Ġpeer":10999,"ĠEaster":11000,"Ġblown":11001,"owser":11002,"Ġformation":11003,"Ġmessing":11004,"Ġpathway":11005,"Ġpicks":11006,"Ġpromoting":11007,"ĠReal":11008,"Ġvirgin":11009,"Ġbleed":11010,"Ġmanifestation":11011,"Ġgentle":11012,"Ġresigns":11013,"Ġadoption":11014,"Ġadjacent":11015,"Ġfriedman":11016,"\"{":11017,"itution":11018,"implement":11019,"umble":11020,"osses":11021,"Ġbuck":11022,"Ġbrush":11023,"Ġrocks":11024,"Ġbothered":11025,"Ġhobby":11026,"rospect":11027,"Ġcraw":11028,"Ġairplane":11029,"Ġmatched":11030,"Ġvolts":11031,"Ġrespectively":11032,"Ġpredictable":11033,"Ġsimplified":11034,"Ġassociate":11035,"Ġexpanded":11036,"Ġtweeted":11037,"Station":11038,"Ġhorizon":11039,"holders":11040,"Ġintuitively":11041,"Ġcontradict":11042,"Ġneuroscience":11043,"emporary":11044,"Ġimplements":11045,"Ġgbt":11046,"iser":11047,"Ġnap":11048,"Ġrevenue":11049,"ĠAug":11050,"ĠBST":11051,"gery":11052,"Ġautop":11053,"Ġsenses":11054,"Ġrolled":11055,"Ġgradients":11056,"Ġlifting":11057,"Ġcookie":11058,"breaking":11059,"Ġpropagate":11060,"Ġbottleneck":11061,"Ġsyndrome":11062,"Data":11063,"pol":11064,"Ġporn":11065,"Ġrail":11066,"Ġwhichever":11067,"ĠPark":11068,"Ġspare":11069,"Ġdisable":11070,"Ġsimulations":11071,"Ġregulation":11072,"Ġfarm":11073,"Ġherself":11074,"Ġvisited":11075,"Ġfollowers":11076,"Ġchatbot":11077,"Ġtranslated":11078,"Ġdebugger":11079,"Ġdetermines":11080,"ĠEveryone":11081,"Ġspaceship":11082,"Ġtabs":11083,"window":11084,"Ġschema":11085,"ĠRyan":11086,"Ġluxury":11087,"Ġportfolio":11088,"iar":11089,"Ġaustin":11090,"Ġbent":11091,"Ġkicking":11092,"Ġheur":11093,"unte":11094,"Ġgoodbye":11095,"ĠFalse":11096,"Ġcareers":11097,"ĠAlgorithms":11098,"Ġchristians":11099,"ĠSeptember":11100,"Ġ240":11101,"Ġboolean":11102,"Ġblend":11103,"ĠCentral":11104,"ĠSimple":11105,"Ġstealing":11106,"Ġnearest":11107,":/":11108,"friend":11109,"incl":11110,"Ġsigning":11111,"Ġrevelation":11112,"essions":11113,"aman":11114,"ĠMem":11115,"ĠGreen":11116,"Ġpoke":11117,"Ġadam":11118,"ĠLou":11119,"Ġsubmitted":11120,"Ġcream":11121,"Ġwarp":11122,"Ġdefends":11123,"Ġmentality":11124,"Ġpropri":11125,"Ġconsuming":11126,"written":11127,"important":11128,"Ġconverter":11129,"Ġbreathing":11130,"Ġethiopia":11131,"98":11132,"great":11133,"Ġ_":11134,"inent":11135,"Ġhertz":11136,"ename":11137,"Ġbeach":11138,"stack":11139,"Ġchuck":11140,"ĠHor":11141,"Ġbrick":11142,"Ġflop":11143,"token":11144,"1111":11145,"placement":11146,"ĠSean":11147,"Ġassembler":11148,"Ġglob":11149,"ĠOnly":11150,"Ġlady":11151,"Ġspectac":11152,"Ġstructural":11153,"steps":11154,"Ġsurrounded":11155,"Ġlectures":11156,"ancisco":11157,"ĠPewDiePie":11158,"42":11159,"aud":11160,"bor":11161,"inal":11162,"isl":11163,"levant":11164,"amation":11165,"pel":11166,"ĠCV":11167,"ĠCall":11168,"Ġpee":11169,"Ġunreal":11170,"Ġnewton":11171,"Ġunderstandable":11172,"Ġserves":11173,"Ġserpent":11174,"players":11175,"Ġlimiting":11176,"screen":11177,"Ġmagnet":11178,"ealous":11179,"super":11180,"Ġliturgy":11181,"Ġaccumulate":11182,"children":11183,"ĠThunderbolt":11184,"last":11185,"zilla":11186,"Ġwed":11187,"enment":11188,"omorph":11189,"ummy":11190,"Ġvoting":11191,"ado":11192,"ĠLuc":11193,"ĠKen":11194,"Ġobsc":11195,"ĠChap":11196,"Ġcoolant":11197,"Ġdevast":11198,"Ġ2001":11199,"Ġshares":11200,"backs":11201,"ĠBrilliant":11202,"Ġdeliberately":11203,"Ġtelescope":11204,"ĠArmageddon":11205,"Ġtoilet":11206,"77":11207,"uitive":11208,"onz":11209,"Ġreform":11210,"ĠMom":11211,"ĠPres":11212,"Ġperspect":11213,"Ġcharity":11214,"Ġcharger":11215,"Ġspecs":11216,"ĠStop":11217,"Ġwond":11218,"Ġfantasy":11219,"Ġprefix":11220,"Ġaiming":11221,"Ġfirmware":11222,"%.":11223,"US":11224,"auc":11225,"uge":11226,"Ġeb":11227,"Ġgoof":11228,"Ġexagger":11229,"ulates":11230,"ĠAsi":11231,"ĠTI":11232,"ĠarXiv":11233,"Ġendgame":11234,"Ġdivis":11235,"Ġstepped":11236,"Ġslee":11237,"ĠEngland":11238,"Ġreveals":11239,"ĠQuantum":11240,"ĠUniversal":11241,"Ġadmitted":11242,"ĠBraz":11243,"ĠVisual":11244,"Ġguidelines":11245,"gent":11246,"jango":11247,"Ġtile":11248,"Ġpbb":11249,"Ġdy":11250,"Ġongoing":11251,"Ġwithdraw":11252,"Ġexhib":11253,"ĠSur":11254,"Ġtags":11255,"Ġcargo":11256,"Ġversa":11257,"Ġ97":11258,"Ġpracticing":11259,"Ġlands":11260,"Ġcaches":11261,"Ġconfigurations":11262,"Ġangular":11263,"Ġinserted":11264,"ĠMacBook":11265,"Ġvictims":11266,"EEE":11267,"NNs":11268,"dataset":11269,"Tensor":11270,"create":11271,"lar":11272,"sight":11273,"Ġsaints":11274,"Ġcmake":11275,"etra":11276,"change":11277,"ulative":11278,"ĠBell":11279,"Ġtalented":11280,"ĠOff":11281,"Ġflowing":11282,"ĠInnov":11283,"Ġ79":11284,"Ġcompetitor":11285,"Ġpolitically":11286,"Ġreduces":11287,"):.":11288,"Ġearliest":11289,"Ġselecting":11290,"Ġrouting":11291,"Ġinspire":11292,"Ġembedding":11293,"Ġmalicious":11294,"Ġjournalist":11295,"Ġsympath":11296,"Ġcynical":11297,"Ġpseudo":11298,"fs":11299,"vantage":11300,"Ġmature":11301,"Ġlatter":11302,"Ġfreely":11303,"Ġprovoc":11304,"shirt":11305,"Ġpotato":11306,"Ġvolunte":11307,"Ġdiscrete":11308,"Ġlocking":11309,"Ġpatients":11310,"Ġtargeted":11311,"Ġimmense":11312,"Ġsnaps":11313,"Ġpreferred":11314,"Ġqualified":11315,"Ġengagement":11316,"ashington":11317,"Ġillustrate":11318,"Ġreplicate":11319,"Ġshifts":11320,"Ġracist":11321,"Ġathlete":11322,"Ġadministr":11323,"ĠSystems":11324,"ĠLegacy":11325,"det":11326,"Ġdimin":11327,"Ġga":11328,"alysis":11329,"Ġreplay":11330,"Ġkiss":11331,"Ġchief":11332,"Ġvalley":11333,"ĠScience":11334,"ands":11335,"ĠThomas":11336,"Ġnobel":11337,"Ġimbal":11338,"ĠWas":11339,"ĠMor":11340,"Ġpert":11341,"Ġbash":11342,"Ġgreatly":11343,"Ġterribly":11344,"Ġshortly":11345,"Ġtraditions":11346,"etermin":11347,"Ġworrying":11348,"Ġsilence":11349,"Ġcosmos":11350,"Ġcrashes":11351,"Ġhooks":11352,"ympt":11353,"Ġstressful":11354,"ĠPalestine":11355,"Ġsustainable":11356,"Ġstranger":11357,"69":11358,"hab":11359,"tk":11360,"reck":11361,"Ġsar":11362,"Ġmuse":11363,"Ġfav":11364,"vectors":11365,"Ġ101":11366,"Ġ3090":11367,"Ġpacked":11368,"ostic":11369,"Ġbullsh":11370,"Ġconclude":11371,"Ġpreferences":11372,"Ġtaxes":11373,"Ġextends":11374,"Ġinvestigation":11375,"oshi":11376,"Ġhousing":11377,"ĠUltra":11378,"31":11379,"EL":11380,"aware":11381,"fire":11382,"Ġlinus":11383,"Ġeinstein":11384,"rooms":11385,"Ġdiffer":11386,"agen":11387,"Ġtravers":11388,"tell":11389,"Ġcharges":11390,"Ġaccesses":11391,"curs":11392,"Ġturtle":11393,"Ġintegrity":11394,"Ġdeleting":11395,"Ġstreets":11396,"Ġsatisfact":11397,"Ġgeometric":11398,"Ġdeclaration":11399,"doesn":11400,"ĠBerlin":11401,"Ġcursor":11402,"Ġdopamine":11403,"Ġlith":11404,"Ġwasted":11405,"ulum":11406,"ĠSing":11407,"ĠWall":11408,"ĠGreek":11409,"ĠPo":11410,"ĠHertz":11411,"ĠRA":11412,"Ġcoherent":11413,"ĠJon":11414,"Ġcheater":11415,"Ġgrabs":11416,"lier":11417,"Ġdigging":11418,"Ġmotors":11419,"ĠDecember":11420,"Ġmiserable":11421,"Ġvalidate":11422,"Ġsilent":11423,"Ġlifestyle":11424,"Ġattempting":11425,"Ġtactic":11426,"Ġacquire":11427,"Ġoverride":11428,"Ġplausible":11429,"Add":11430,"EM":11431,"ores":11432,"Ġdarn":11433,"Ġgif":11434,"itative":11435,"oto":11436,"Ġjapan":11437,"ĠTrad":11438,"ela":11439,"Ġfeast":11440,"Ġspam":11441,"ĠLove":11442,"Ġblows":11443,"Ġcaller":11444,"Ġscissors":11445,"Ġproducer":11446,"Ġmonkey":11447,"Ġcouch":11448,"Ġbills":11449,"Ġrisky":11450,"Ġviable":11451,"Ġsuggesting":11452,"Ġtreating":11453,"Ġdetected":11454,"running":11455,"epend":11456,"rot":11457,"vably":11458,"Ġbass":11459,"Ġrebuild":11460,"Ġcanada":11461,"ĠMine":11462,"ĠHead":11463,"ĠFibonacci":11464,"ĠChurch":11465,"Ġzones":11466,"Ġexplored":11467,"Ġfrag":11468,"ĠRemember":11469,"Ġannual":11470,"Ġvisualization":11471,"Ġindication":11472,"Ġgirlf":11473,"creat":11474,"Ġosc":11475,"Ġbend":11476,"Ġconvey":11477,"Ġshower":11478,"abling":11479,"ĠMachine":11480,"Ġmanages":11481,"ĠHis":11482,"Ġbackpack":11483,"Ġdataset":11484,"Ġdesires":11485,"Ġbob":11486,"Ġserved":11487,"Ġgrace":11488,"Ġlogged":11489,"Ġinstallation":11490,"Ġhooked":11491,"Ġmarginal":11492,"ĠFebruary":11493,"Ġclimb":11494,"Ġvocabulary":11495,"Ġdare":11496,"eaks":11497,"ĠSum":11498,"Ġarrog":11499,"ĠMS":11500,"ĠGap":11501,"ĠEscape":11502,"Ġapproaching":11503,"Ġ2006":11504,"Ġcrossing":11505,"Ġavoiding":11506,"Ġimmutable":11507,"Ġcruel":11508,"Ġsurrounding":11509,"Ġcertific":11510,"Ġdashboard":11511,"Ġmiracle":11512,"Ġelephant":11513,"Ġequilibrium":11514,"father":11515,"numpy":11516,"Ġbid":11517,"Ġforgive":11518,"Ġships":11519,"ĠCU":11520,"ĠFore":11521,"Ġcoupled":11522,"clip":11523,"Ġ1200":11524,"Ġmonthly":11525,"Ġawait":11526,"Ġhorr":11527,"Ġinitialized":11528,"Ġcounterplay":11529,"Ġheavier":11530,"Ġrolls":11531,"Ġbrowsers":11532,"ĠSquares":11533,"Ġbinding":11534,"Ġemphasis":11535,"Ġpursuit":11536,"happy":11537,"Ġextremes":11538,"Ġperspectives":11539,"={":11540,"gi":11541,"Ġcage":11542,"Ġgim":11543,"itain":11544,"Ġnas":11545,"stone":11546,"oore":11547,"cand":11548,"ĠMSI":11549,"ĠPress":11550,"ĠRogan":11551,"ĠFree":11552,"Ġcooled":11553,"Ġheaded":11554,"Ġteaches":11555,"Ġclicks":11556,"Ġdoubled":11557,"Ġsacrificed":11558,"Ġqualities":11559,"Ġproposition":11560,"Ġrestricted":11561,"ĠTexas":11562,"bound":11563,"figure":11564,"food":11565,"mid":11566,"uan":11567,"Ġseam":11568,"ita":11569,"omic":11570,"Ġmold":11571,"ĠAi":11572,"ĠTit":11573,"ĠSky":11574,"ems":11575,"ĠPath":11576,"beep":11577,"ĠExt":11578,"Ġsimulated":11579,"Ġdrone":11580,"prob":11581,"ĠProbably":11582,"Ġmilk":11583,"Ġagenda":11584,"Ġhacked":11585,"Ġknocked":11586,"Ġlegendary":11587,"Ġpulse":11588,"Ġclinical":11589,"ĠToronto":11590,"Ġreferen":11591,"Ġingredients":11592,"01":11593,"Sequ":11594,"gence":11595,"ercises":11596,"Ġdub":11597,"second":11598,"Ġchinese":11599,"ĠTre":11600,"Ġplas":11601,"ĠBank":11602,"ĠBoom":11603,"ffe":11604,"ĠDom":11605,"Ġunplug":11606,"coll":11607,"athon":11608,"Ġdating":11609,"ĠJe":11610,"Ġbrid":11611,"Ġesca":11612,"Ġtextures":11613,"Ġpresid":11614,"ussian":11615,"Ġresearcher":11616,"Ġturb":11617,"Ġdeadline":11618,"Ġpopularity":11619,"ĠPhD":11620,"market":11621,"Ġdividing":11622,"Ġpyram":11623,"ĠDaniel":11624,"pick":11625,"Ġhints":11626,"anium":11627,"Ġincoming":11628,"cending":11629,"raq":11630,"riers":11631,"ĠWashington":11632,"ĠPeterson":11633,"Ġpoop":11634,"Ġ56":11635,"Ġconferences":11636,"Ġvariance":11637,"Ġimagining":11638,"rican":11639,"Ġorganic":11640,"Ġgambling":11641,"Ġmagaz":11642,"Ġignition":11643,"Ġstrikes":11644,"Ġresponded":11645,"Ġvictory":11646,"Ġflawed":11647,"Error":11648,"Ġproprietary":11649,"BC":11650,"gate":11651,"liter":11652,"padding":11653,"turn":11654,"Ġmike":11655,"itic":11656,"arse":11657,"omatic":11658,"Ġstiff":11659,"Ġseats":11660,"Ġwashing":11661,"ained":11662,"ĠPol":11663,"ĠFurther":11664,"Ġcoolest":11665,"Ġselfish":11666,"Ġ96":11667,"Ġfamously":11668,"ĠReg":11669,"instruction":11670,"Ġinfected":11671,"Ġcabin":11672,"Ġblunders":11673,"ĠTestament":11674,"Ġbubbles":11675,"das":11676,"Ġwaters":11677,"Ġbor":11678,"itical":11679,"ĠCour":11680,"ĠBost":11681,"Ġpossess":11682,"ysical":11683,"Ġaddiction":11684,"Ġ1970":11685,"Ġscand":11686,"Ġinitialization":11687,"Ġachieving":11688,"Ġinfluenced":11689,"Ġaggress":11690,"Ġhacking":11691,"Ġpenn":11692,"Ġinterpreted":11693,"ĠMoon":11694,"Ġeliminated":11695,"Ġfulfill":11696,"ulsion":11697,"parameters":11698,"Ġbureauc":11699,"Ġpbbb":11700,"dtype":11701,"ele":11702,"hist":11703,"kernel":11704,"txt":11705,"Ġcipher":11706,"Ġduty":11707,"Ġstir":11708,"iman":11709,"ĠBoth":11710,"ĠFort":11711,"Ġgenerative":11712,"Ġextensive":11713,"Ġcaps":11714,"attered":11715,"Ġhangs":11716,"Ġspotify":11717,"Ġaccelerating":11718,"Ġdeny":11719,"Ġexchanges":11720,"related":11721,"Ġdominate":11722,"Ġambitious":11723,"Bay":11724,"},":11725,"Ġwip":11726,"Ġcul":11727,"Ġpra":11728,"Ġnih":11729,"opolit":11730,"Ġmood":11731,"ĠAw":11732,"pell":11733,"rior":11734,"Ġpole":11735,"Ġsav":11736,"Ġunified":11737,"ĠOlymp":11738,"ĠEX":11739,"Ġforming":11740,"Ġargs":11741,"Ġpopping":11742,"Ġdealt":11743,"Ġnecessity":11744,"Ġforwarding":11745,"ĠDevelop":11746,"Ġbaseball":11747,"Ġsensory":11748,"door":11749,"ĠAnish":11750,"Ġtennis":11751,"Ġresponding":11752,"Ġpenalty":11753,"Ġtrucks":11754,"Ġbreathe":11755,"Ġauthentication":11756,"Ġlegitimately":11757,"Ġlonely":11758,"300":11759,"Ġrt":11760,"Ġheating":11761,"erer":11762,"Ġorg":11763,"olve":11764,"ĠCra":11765,"Ġloy":11766,"Ġbacking":11767,"Ġcovet":11768,"ĠEmp":11769,"Ġ72":11770,"Ġessay":11771,"Ġdepart":11772,"Ġ2004":11773,"Ġrecovery":11774,"Ġignored":11775,"Ġchooses":11776,"ĠPerfect":11777,"EX":11778,"fers":11779,"fake":11780,"his":11781,"Ġhunt":11782,"anas":11783,"again":11784,"Ġrepo":11785,"Ġcollision":11786,"Ġconcaten":11787,"Ġroller":11788,"controll":11789,"Ġconflicts":11790,"ĠPlayStation":11791,"Ġperceived":11792,"Ġunbelievably":11793,"Ġryzen":11794,"Ġslavery":11795,"Ġtragedy":11796,"PR":11797,"big":11798,"oes":11799,"rust":11800,"times":11801,"Ġturing":11802,"Ġsessions":11803,"Ġeax":11804,"alt":11805,"Ġrna":11806,"Ġstated":11807,"http":11808,"Ġpropose":11809,"olas":11810,"Ġfeasible":11811,"ĠDell":11812,"ĠSocial":11813,"ĠUnder":11814,"ĠVP":11815,"Ġcombining":11816,"Ġ2007":11817,"Ġcatching":11818,"ĠFabby":11819,"Ġshaped":11820,"Ġincentiv":11821,"Ġdinos":11822,"Ġgrappling":11823,"hour":11824,"help":11825,"Ġthirty":11826,"erting":11827,"igins":11828,"Ġforwards":11829,"chall":11830,"Ġsegments":11831,"ĠTR":11832,"ĠGreg":11833,"Ġteeth":11834,"ĠNever":11835,"Ġflask":11836,"lib":11837,"ĠStore":11838,"ĠStars":11839,"Ġdiverse":11840,"Ġconditional":11841,"Ġworthy":11842,"possible":11843,"Ġconclusions":11844,"Ġmales":11845,"Ġsymmetric":11846,"worlds":11847,"Ġcombinator":11848,"Ġannotations":11849,"Ġmicrowave":11850,"Ġfaculty":11851,"Ġbust":11852,"Ġml":11853,"Ġlion":11854,"Ġink":11855,"owered":11856,"Ġshed":11857,"Ġsuitable":11858,"Ġunconscious":11859,"Ġtraits":11860,"Ġthoughtful":11861,"Ġrefuse":11862,"Ġdrift":11863,"Ġdeviation":11864,"Ġdownloading":11865,"Ġbeef":11866,"Ġcapitalist":11867,"ĠImprovement":11868,"Ġofficer":11869,"Ġclusters":11870,"Ġnaught":11871,"ĠObviously":11872,"Ġintentions":11873,"ĠAssume":11874,"Ġaerodynam":11875,"]))":11876,"scores":11877,"Ġ0000":11878,"inery":11879,"Ġsins":11880,"vector":11881,"otive":11882,"Ġjealous":11883,"camer":11884,"ĠApril":11885,"ĠMouse":11886,"Ġovernight":11887,"Ġinterior":11888,"ĠUm":11889,"Ġrelates":11890,"Ġcompiling":11891,"Ġ2005":11892,"Ġsecrets":11893,"Ġplugging":11894,"Ġmaintained":11895,"ĠLoops":11896,"lemetry":11897,"Ġshader":11898,"Ġmalware":11899,"Ġcubes":11900,"Note":11901,"foll":11902,"session":11903,"var":11904,"Ġaver":11905,"Ġdb":11906,"encer":11907,"ĠIEEE":11908,"Ġren":11909,"ĠSl":11910,"Ġupcoming":11911,"Ġsupers":11912,"Ġsometime":11913,"Ġagile":11914,"ĠNope":11915,"Ġcheering":11916,"Ġindent":11917,"Ġparity":11918,"Ġairport":11919,"law":11920,"uccess":11921,"ĠTwitch":11922,"Ġconsumers":11923,"Ġstruggled":11924,"Ġexplanations":11925,"ĠPlayers":11926,"Ġirrelevant":11927,"ĠHaskell":11928,"ĠHollywood":11929,"cue":11930,"Ġya":11931,"Ġmim":11932,"Ġgay":11933,"Ġgains":11934,"isa":11935,"illance":11936,"Ġvent":11937,"ĠSnow":11938,"ĠSearch":11939,"plex":11940,"ĠPsych":11941,"ĠHi":11942,"ĠRa":11943,"ĠDown":11944,"ĠFa":11945,"Ġphd":11946,"Ġlineup":11947,"Ġrestore":11948,"Ġoptimism":11949,"Ġnights":11950,"Ġbasement":11951,"ĠAnge":11952,"Ġrecognizing":11953,"Ġcampus":11954,"Ġtransistor":11955,"criminator":11956,"ĠSquarespace":11957,"44":11958,"512":11959,"ko":11960,"ymm":11961,"Ġporsche":11962,"Ġdress":11963,"Ġchains":11964,"ĠCatholic":11965,"intuitive":11966,"ĠHun":11967,"Ġcommod":11968,"acity":11969,"Ġnamely":11970,"Ġtorture":11971,"Ġsupposedly":11972,"Ġthreaten":11973,"Ġreleasing":11974,"Ġcrossed":11975,"ĠSpot":11976,"Ġspheres":11977,"Ġnovelty":11978,"ĠSchool":11979,"ĠKeep":11980,"Ġcinemat":11981,"Ġrepetition":11982,"Ġsettled":11983,"TS":11984,"note":11985,"Ġsole":11986,"etical":11987,"static":11988,"Ġnoted":11989,"ĠBay":11990,"action":11991,"Ġtweak":11992,"agine":11993,"Ġbitter":11994,"Ġworldwide":11995,"Ġroy":11996,"ĠUsing":11997,"aker":11998,"Ġfounded":11999,"Ġremoves":12000,"Ġcompiles":12001,"Ġshoe":12002,"ĠComm":12003,"Ġunfold":12004,"Ġinterviewing":12005,"ĠSecurity":12006,"Ġlimitation":12007,"Ġcontributing":12008,"ĠType":12009,"Ġruin":12010,"urable":12011,"Ġsurfaces":12012,"ĠPDF":12013,"Ġempirical":12014,"rarily":12015,"Ġfence":12016,"Ġeu":12017,"Ġrewards":12018,"Ġasympt":12019,"ĠDock":12020,"cessor":12021,"ĠStand":12022,"ernels":12023,"Ġdistant":12024,"ecd":12025,"Ġnucle":12026,"Ġspiral":12027,"Ġimmort":12028,"Ġhierarchical":12029,"Ġreflected":12030,"Ġshallow":12031,"Ġattracted":12032,"Ġclarity":12033,"Ġhtmx":12034,"ĠSilicon":12035,"Ġscholars":12036,"Ġinnocent":12037,"fessor":12038,"OM":12039,"hi":12040,"atile":12041,"Ġpagan":12042,"Ġfen":12043,"ione":12044,"mend":12045,"Ġknee":12046,"Ġmaker":12047,"ĠTeam":12048,"ĠPan":12049,"ysics":12050,"ocation":12051,"Ġintegral":12052,"Ġmeantime":12053,"Ġsuspend":12054,"ĠBranch":12055,"Ġpleased":12056,"Ġterminology":12057,"ĠAfrica":12058,"Ġstrategic":12059,"Ġpredicate":12060,"Ġkilograms":12061,"ĠAugust":12062,"hill":12063,"sign":12064,"Ġdia":12065,"Ġinert":12066,"Ġbeep":12067,"ĠSk":12068,"activation":12069,"dev":12070,"ĠDNA":12071,"Ġprecious":12072,"ĠForm":12073,"Ġgameplay":12074,"Ġconnectivity":12075,"ields":12076,"Ġgraphic":12077,"Ġglow":12078,"Ġhomework":12079,"Ġlowercase":12080,"Ġdiving":12081,"Ġconstructing":12082,"ĠNewton":12083,"ĠSpir":12084,"Ġtroubles":12085,"Ġburned":12086,"Ġsucked":12087,"optimizer":12088,"everything":12089,"Ġresponsive":12090,"Ġincorporate":12091,"ustralia":12092,"Ġinitiative":12093,"55":12094,"Sh":12095,"Ġtether":12096,"Ġfires":12097,"another":12098,"isk":12099,"Ġonboard":12100,"means":12101,"thought":12102,"ami":12103,"ĠBrian":12104,"ĠGaza":12105,"Ġagencies":12106,"Ġguid":12107,"ĠUse":12108,"Ġgrabbing":12109,"Ġcheckm":12110,"Ġretro":12111,"Ġwaited":12112,"Ġsurgery":12113,"Ġplanes":12114,"Ġ1960":12115,"Ġcircul":12116,"Ġsubscriber":12117,"Ġhurting":12118,"Ġcaching":12119,"Ġopposition":12120,"ĠFriday":12121,"Ġkicks":12122,"classes":12123,"Ġmystical":12124,"Ġproportion":12125,"Ġcraziest":12126,"ĠCreator":12127,"Ġcongratulations":12128,"ĠAbsolutely":12129,"Ġbullshit":12130,"Sequential":12131,"done":12132,"lined":12133,"atus":12134,"Ġcd":12135,"ingly":12136,"Ġmeth":12137,"lla":12138,"Ġuk":12139,"Ġshy":12140,"Ġfruits":12141,"Ġgenerous":12142,"Ġ43":12143,"issue":12144,"Ġcommunion":12145,"Ġfounders":12146,"Ġlegisl":12147,"Ġplugins":12148,"Ġnearby":12149,"Ġroads":12150,"ĠGener":12151,"Ġbags":12152,"Ġconservatives":12153,"Proof":12154,"Ġstyles":12155,"Ġgirlfriend":12156,"div":12157,"Ġverse":12158,"Ġsed":12159,"ĠeBay":12160,"otlin":12161,"Ġabund":12162,"Ġalle":12163,"ifiable":12164,"plate":12165,"ĠRobert":12166,"ĠFind":12167,"Ġcared":12168,"Ġprojector":12169,"Ġfounding":12170,"iox":12171,"crates":12172,"Ġriding":12173,"Ġcryptography":12174,"Ġbankrupt":12175,"Ġmotherboards":12176,"Ġparallelism":12177,"Ġcookies":12178,"ĠDynamics":12179,"Ġupgraded":12180,"Ġreproduce":12181,"Ġsubstantial":12182,"Ġdescendants":12183,"Ġexclusively":12184,"FA":12185,"bench":12186,"dem":12187,"okay":12188,"Ġtan":12189,"Ġiphone":12190,"Ġcv":12191,"urday":12192,"imeter":12193,"ĠSS":12194,"plus":12195,"ĠEs":12196,"Ġreply":12197,"ĠInfin":12198,"Ġadvances":12199,"Ġpressures":12200,"Ġapproval":12201,"Ġcamps":12202,"Ġstrongest":12203,"Ġpsychopath":12204,"ĠConan":12205,"factor":12206,"Ġnoticeable":12207,"Ġspelled":12208,"ĠBasically":12209,"Ġanticipate":12210,"Ġinjury":12211,"Ġverbose":12212,"Ġalphabet":12213,"End":12214,"aim":12215,"fund":12216,"Ġbible":12217,"Ġms":12218,"Ġrome":12219,"entry":12220,"Ġstom":12221,"ĠWoo":12222,"Ġenrich":12223,"ĠGUI":12224,"ĠHy":12225,"jects":12226,"Ġgrant":12227,"Ġpopped":12228,"Ġcompetent":12229,"Ġsticker":12230,"Ġdemands":12231,"Ġbattles":12232,"Ġdeployed":12233,"Ġtemporal":12234,"Ġdiamond":12235,"Ġdiagnosis":12236,"Ġintimid":12237,"Ġgospel":12238,"eger":12239,"fare":12240,"joint":12241,"natural":12242,"Ġrum":12243,"stro":12244,"stick":12245,"Ġwhatnot":12246,"Ġshipped":12247,"Ġvoted":12248,"ĠBet":12249,"ĠMary":12250,"ĠFocus":12251,"ĠEli":12252,"Ġidle":12253,"Ġgenerators":12254,"Ġ67":12255,"Ġcharism":12256,"Ġsupervised":12257,"Ġ160":12258,"Ġsmartphone":12259,"Ġgigabyte":12260,"Ġcastled":12261,"Ġceo":12262,"Ġsymmetrical":12263,"Ġisolation":12264,"Ġfreshbooks":12265,"Ġnegotiation":12266,"Ġracism":12267,"Ġrecurrence":12268,"Ġtherapist":12269,"Ed":12270,"jah":12271,"mn":12272,"atis":12273,"Ġhikaru":12274,"Ġtooth":12275,"Ġdar":12276,"asm":12277,"Ġanecd":12278,"Ġshine":12279,"ĠThink":12280,"Ġimg":12281,"actic":12282,"orsair":12283,"Ġ52":12284,"Ġcaring":12285,"Ġcorn":12286,"ĠConst":12287,"Ġdisagreement":12288,"Ġhomeless":12289,"connected":12290,"Ġpropagation":12291,"Ġliturg":12292,"Ġrectang":12293,"Ġrhyth":12294,"Ġadministration":12295,"Ġteenager":12296,"Ġsubsequent":12297,"acob":12298,"85":12299,"dest":12300,"giving":12301,"nic":12302,"sche":12303,"Ġcpus":12304,"enna":12305,"utils":12306,"Ġstations":12307,"Ġconsecut":12308,"Ġvr":12309,"Ġtex":12310,"Ġpretending":12311,"ĠOper":12312,"ĠEqu":12313,"ĠJourney":12314,"Ġ46":12315,"Ġafterno":12316,"Ġowns":12317,"clos":12318,"Ġemployer":12319,"Ġformatting":12320,"Ġembra":12321,"Ġyelling":12322,"Ġhighlighting":12323,"Ġbanking":12324,"Ġolympic":12325,"Ġappealing":12326,"Ġprivilege":12327,"Ġsurveillance":12328,"Ġlambdas":12329,"Ġseventh":12330,"video":12331,"Ġautopilot":12332,"ĠBoston":12333,"pg":12334,"page":12335,"sided":12336,"Ġ!":12337,"Ġniche":12338,"ascal":12339,"still":12340,"ĠDist":12341,"Ġperpet":12342,"Ġoffensive":12343,"mov":12344,"Ġcommitting":12345,"ĠHealth":12346,"Ġpromoted":12347,"Ġcoded":12348,"Ġtotalitarian":12349,"ĠAssoci":12350,"Ġinstructive":12351,"Ġgrabbed":12352,"Ġcontacts":12353,"Ġaccommod":12354,"Ġparadise":12355,"Ġhunger":12356,"Ġnavigation":12357,"Ġpursuing":12358,"Ġcensorship":12359,"Ġoscill":12360,"fun":12361,"oen":12362,"wich":12363,"onentially":12364,"Ġtoss":12365,"Ġdil":12366,"ĠSomething":12367,"aret":12368,"ĠLege":12369,"0001":12370,"Ġswing":12371,"queue":12372,"Ġgeneralize":12373,"ĠXT":12374,"Ġdipl":12375,"Ġdepressed":12376,"Ġscripting":12377,"Ġdeaths":12378,"Ġlengths":12379,"Ġmountains":12380,"Ġsetups":12381,"Ġignoring":12382,"ocaust":12383,"Ġbulk":12384,"Ġdecorator":12385,"Ġpivot":12386,"Ġembodied":12387,"APT":12388,"fig":12389,"Ġtilt":12390,"orida":12391,"ĠAuthor":12392,"Ġshoulders":12393,"Ġdisorder":12394,"attering":12395,"Ġsubmission":12396,"Ġhanded":12397,"Ġassault":12398,"ĠStr":12399,"Ġrandomness":12400,"Ġsocialism":12401,"Ġplugs":12402,"Ġdistribute":12403,"compan":12404,"Ġstole":12405,"vonne":12406,"49":12407,"CS":12408,"Ġmurd":12409,"Ġgest":12410,"iful":12411,"Ġtale":12412,"Ġenfor":12413,"Ġfees":12414,"ĠRo":12415,"ĠDay":12416,"Ġlastly":12417,"Ġeric":12418,"Ġlocality":12419,"Ġmeaningless":12420,"Ġapplicable":12421,"Ġpacks":12422,"Ġricher":12423,"Ġvaccin":12424,"ĠSATA":12425,"eon":12426,"gered":12427,"Â°":12428,"Ġooh":12429,"ndon":12430,"Ġcro":12431,"alking":12432,"Ġwash":12433,"ĠMass":12434,"Ġclang":12435,"ĠRel":12436,"Ġreserv":12437,"Ġbrute":12438,"Ġhardcore":12439,"Ġ59":12440,"Ġelif":12441,"Ġformats":12442,"Ġviewing":12443,"height":12444,"Ġsensible":12445,"Ġarchive":12446,"Ġroutes":12447,"Ġbalancing":12448,"itecture":12449,"Ġdeclared":12450,"Ġrefactor":12451,"Ġintervals":12452,"Ġsoccer":12453,"cat":12454,"Ġrod":12455,"Ġplates":12456,"ĠCap":12457,"ĠBrandon":12458,"ĠHalo":12459,"ĠRon":12460,"iph":12461,"Ġ350":12462,"Ġincons":12463,"ixel":12464,"Ġrecreate":12465,"Ġtransitions":12466,"Ġholl":12467,"gets":12468,"Ġcommunist":12469,"Ġbehalf":12470,"held":12471,"Ġcopyright":12472,"Ġautomata":12473,"Ġsentiment":12474,"Ġrobotic":12475,"Ġillness":12476,"Ġhopeless":12477,"Ġmixing":12478,"Ġinventory":12479,"Ġscanner":12480,"Ġbeside":12481,"Ġintersect":12482,"Ġimperfect":12483,"leading":12484,"On":12485,"nie":12486,"pool":12487,"Ġwreck":12488,"Ġcs":12489,"Ġfer":12490,"Ġredd":12491,"Ġkorea":12492,"ima":12493,"socket":12494,"ĠMind":12495,"ĠHub":12496,"Ġuncle":12497,"ĠFord":12498,"ĠNPC":12499,"Ġincon":12500,"Ġregist":12501,"Ġidentifying":12502,"Ġfuels":12503,"Ġcircular":12504,"raining":12505,"uffle":12506,"Ġsexy":12507,"Ġfacility":12508,"Ġdoubling":12509,"Ġhackers":12510,"Ġfrequencies":12511,"Ġschemes":12512,"Ġflew":12513,"Ġatheist":12514,"Ġtyranny":12515,"onestly":12516,"Ġibm":12517,"Ġafternoon":12518,"brew":12519,"di":12520,"fter":12521,"gres":12522,"Ġont":12523,"Ġjan":12524,"opoly":12525,"Ġbypass":12526,"ĠWars":12527,"ĠDV":12528,"Ġbuzz":12529,"ĠEnd":12530,"ĠNothing":12531,"Ġtragic":12532,"Ġdisplacement":12533,"angel":12534,"ĠChall":12535,"ĠVict":12536,"close":12537,"Ġreminder":12538,"ĠFork":12539,"Ġmorph":12540,"Ġdebates":12541,"Ġpatri":12542,"Ġtrials":12543,"Ġutterly":12544,"Ġsteady":12545,"CD":12546,"LP":12547,"One":12548,"rous":12549,"zant":12550,"Ġtiger":12551,"Ġcelsius":12552,"Ġpadding":12553,"Ġhabits":12554,"Ġate":12555,"Ġshaking":12556,"Ġves":12557,"ĠTower":12558,"ĠMulti":12559,"Ġcontemporary":12560,"answ":12561,"phen":12562,"cling":12563,"Ġcontinually":12564,"ropri":12565,"Ġforgetting":12566,"Ġreligions":12567,"Ġ1800":12568,"Ġbullets":12569,"ĠDefense":12570,"ĠInstitute":12571,"Ġmetaverse":12572,"Ġsampling":12573,"Ġentertaining":12574,"ĠGuys":12575,"Ġfeminine":12576,"Ġspectacular":12577,"APTER":12578,"doc":12579,"pc":12580,"Ġtanks":12581,"Ġlane":12582,"Ġliking":12583,"Ġford":12584,"Ġcompli":12585,"ĠCA":12586,"ĠGre":12587,"Ġclamp":12588,"Ġtales":12589,"ishes":12590,"Ġ53":12591,"ĠVol":12592,"hips":12593,"Ġleaked":12594,"Ġwebcam":12595,"Ġpays":12596,"Ġcorrectness":12597,"Ġeighth":12598,"series":12599,"umbling":12600,"Ġdocumentaries":12601,"Ġsensing":12602,"Ġstocks":12603,"Ġtribe":12604,"Ġspreading":12605,"Ġstrengths":12606,"Ġmega":12607,"Ġapproximate":12608,"Ġrevealing":12609,"better":12610,"Ġminority":12611,"ĠFinally":12612,"Ġprofessionals":12613,"Ġcatastrophic":12614,"'],":12615,"gonom":12616,"Ġware":12617,"Ġrose":12618,"Ġmaze":12619,"Ġalarm":12620,"Ġshark":12621,"ĠCould":12622,"ĠBest":12623,"plat":12624,"Ġcoast":12625,"ĠLaw":12626,"Ġhappily":12627,"Ġdates":12628,"Ġempower":12629,"ĠValley":12630,"boy":12631,"Ġartistic":12632,"Ġdamaged":12633,"Ġgeopolit":12634,"Ġevaluated":12635,"ĠFabi":12636,"ĠPlan":12637,"Ġarbitrarily":12638,"Ġconvenience":12639,"Ġnegotiate":12640,"Ġcolleague":12641,"Ġclimbing":12642,"Ġdeliberate":12643,"ĠBeauty":12644,"table":12645,"Ġthro":12646,"Ġbay":12647,"Ġhorses":12648,"itivity":12649,"Ġalb":12650,"ĠTer":12651,"ĠTetris":12652,"ĠSP":12653,"ĠMeg":12654,"Ġcontempl":12655,"Ġprogression":12656,"Ġbonds":12657,"access":12658,"teness":12659,"ĉĉčĊ":12660,"Ġmistaken":12661,"words":12662,"Ġmentor":12663,"address":12664,"Ġfolding":12665,"ĠIndust":12666,"Ġindicator":12667,"ATO":12668,"Ġcertification":12669,"experiences":12670,"Ġmolecular":12671,"ĠDelta":12672,"Ġbureaucracy":12673,"Paul":12674,"eds":12675,"ali":12676,"ĠĠčĊ":12677,"Ġrising":12678,"Ġraspberry":12679,"Ġthinkers":12680,"Ġpockets":12681,"ĠDutch":12682,"Ġcock":12683,"ĠLabs":12684,"ateral":12685,"Ġexponentially":12686,"Ġpsychiat":12687,"positions":12688,"Ġdiscord":12689,"prev":12690,"Ġintuitions":12691,"Ġpinned":12692,"Ġharvard":12693,"ĠPerform":12694,"Ġalexander":12695,"Ġretrieve":12696,"Ġprioritize":12697,"Ġintrinsic":12698,"Ġprovocative":12699,"DA":12700,"language":12701,"math":12702,"Ġiq":12703,"Ġlg":12704,"Ġdip":12705,"Ġheal":12706,"ntry":12707,"Ġenvelop":12708,"ĠGCC":12709,"ĠLine":12710,"velength":12711,"Ġimpose":12712,"Ġaddict":12713,"ocal":12714,"Ġparaly":12715,"Ġholder":12716,"Ġpickle":12717,"Ġvisiting":12718,"Ġpostgres":12719,"Ġreleases":12720,"Ġdetecting":12721,"Ġsweep":12722,"Ġcubed":12723,"ĠModel":12724,"Ġgathered":12725,"performance":12726,"ĠRepublican":12727,"Ġdisadvantage":12728,"Ġplasma":12729,"greg":12730,"pea":12731,"Ġmice":12732,"Ġping":12733,"Ġripp":12734,"Ġforb":12735,"Ġheats":12736,"Ġanten":12737,"Ġcanon":12738,"opping":12739,"oos":12740,"Ġsup":12741,"Ġflipped":12742,"Ġenters":12743,"Ġretail":12744,"Ġmessaging":12745,"Ġtextbook":12746,"Ġcostly":12747,"Ġbroker":12748,"Ġfixes":12749,"Ġspecialization":12750,"Ġeaten":12751,"Ġcomparable":12752,"Ġmanipulating":12753,"Ġdemonstration":12754,"Ġthumbna":12755,"Ġremained":12756,"Ġarrives":12757,"Ġmitig":12758,"similar":12759,"experience":12760,"Adam":12761,"vance":12762,"ĠâĢ¢":12763,"Ġade":12764,"Ġsco":12765,"kel":12766,"always":12767,"Ġants":12768,"unting":12769,"emp":12770,"ĠMiss":12771,"Ġunpredict":12772,"ĠJuly":12773,"Ġgenoc":12774,"Ġslap":12775,"Ġboiler":12776,"Ġafrica":12777,"Ġ57":12778,"ractical":12779,"Ġcrashing":12780,"charge":12781,"copy":12782,"Ġacknowled":12783,"Ġcasual":12784,"Ġcitizen":12785,"Ġtackle":12786,"ĠBrazil":12787,"\"]":12788,"mother":12789,"Ġbees":12790,"Ġmakers":12791,"Ġworries":12792,"andy":12793,"Ġwrist":12794,"Ġ41":12795,"ictional":12796,"getting":12797,"Ġparking":12798,"Ġavail":12799,"Ġelected":12800,"Ġconception":12801,"ĠComes":12802,"Ġsplitting":12803,"Ġappreciation":12804,"ietz":12805,"Ġgarments":12806,"Ġbrighter":12807,"spons":12808,"orgh":12809,"Ġcollaborate":12810,"Ġglasses":12811,"ĠDisplay":12812,"olfram":12813,"Ġreconstruct":12814,"Ġestimated":12815,"Ġrefactoring":12816,"Map":12817,"fill":12818,"Ġcord":12819,"Ġyouth":12820,"Ġgoat":12821,"Ġhemis":12822,"Ġnotification":12823,"Ġcomic":12824,"irus":12825,"ĠSou":12826,"ĠServices":12827,"elcome":12828,"ĠBI":12829,"ĠMUD":12830,"Ġloan":12831,"Ġbritish":12832,"Ġretire":12833,"Ġengineered":12834,"upiter":12835,"Ġfasting":12836,"ventions":12837,"Ġthreatened":12838,"Ġfills":12839,"Ġconstructs":12840,"Ġsuggestion":12841,"Ġeducated":12842,"Ġhopes":12843,"ĠAlexa":12844,"Ġproportional":12845,"Ġcomprehensive":12846,"Ġancestors":12847,"Ġconfirmed":12848,"Ġemacs":12849,"ĠPresident":12850,"Ġlithium":12851,"ĠEmpire":12852,"88":12853,"Tareq":12854,"Ġhates":12855,"Ġinequ":12856,"aspar":12857,"Ġrgb":12858,"thetics":12859,"uns":12860,"Ġdisks":12861,"ĠJason":12862,"Ġmodul":12863,"Ġ54":12864,"Ġcrown":12865,"pson":12866,"Ġrespected":12867,"Ġeducate":12868,"Ġhistorian":12869,"ĠPrim":12870,"Ġcontribution":12871,"Ġdominated":12872,"ĠMaxim":12873,"Ġinterfere":12874,"Ġinterference":12875,"Ġvulnerabilities":12876,"ĠAnyway":12877,"Ġmemorize":12878,"Ġpermanently":12879,"Ġjuice":12880,"ĠCSV":12881,"ĠDocker":12882,"Ġtexas":12883,"ĠAuthority":12884,"Ġbouncing":12885,"Ġlisp":12886,"alities":12887,"verty":12888,"Ġstamp":12889,"Ġash":12890,"ĠAp":12891,"unning":12892,"ĠTi":12893,"ĠTed":12894,"olving":12895,"ĠSI":12896,"ĠMoore":12897,"ĠYo":12898,"ears":12899,"ĠNATO":12900,"ĠWhatever":12901,"Ġregulations":12902,"Ġadvocate":12903,"Ġaccountable":12904,"Ġassumes":12905,"addy":12906,"Ġstriking":12907,"Ġdoubles":12908,"Ġdetermining":12909,"ĠManagement":12910,"Ġsandwich":12911,"Colin":12912,"Ġcontradiction":12913,"Ġdistracted":12914,"question":12915,"camera":12916,"Create":12917,"iations":12918,"wan":12919,"Ġtiles":12920,"Ġhorm":12921,"ĠIS":12922,"Ġrename":12923,"Ġshiny":12924,"Ġnoisy":12925,"ĠMot":12926,"ĠGT":12927,"Ġlondon":12928,"ĠLight":12929,"ĠLew":12930,"ĠKings":12931,"Ġslowing":12932,"Ġdecline":12933,"Ġequipped":12934,"Ġrepublic":12935,"Ġcrunch":12936,"Ġaccent":12937,"Ġleague":12938,"Ġexecutes":12939,"Ġsums":12940,"Ġdivisible":12941,"Ġsuffered":12942,"ĠAnthony":12943,"Ġweaker":12944,"lands":12945,"Ġallocations":12946,"anything":12947,"Ġpsychedelic":12948,"Ġgathering":12949,"Ġannouncement":12950,"Ġsatellite":12951,"ĠRuby":12952,"Ġinconsist":12953,"ietzsche":12954,"Ġsized":12955,"Ġbaked":12956,"Ġlanes":12957,"iture":12958,"arity":12959,"etor":12960,"ortex":12961,"ĠBook":12962,"Ġpoverty":12963,"ĠHapp":12964,"Ġcoating":12965,"Ġdisrespect":12966,"Ġexplode":12967,"Ġabsence":12968,"Ġdraft":12969,"Ġdistur":12970,"Ġbehaves":12971,"Ġstephen":12972,"Ġdevs":12973,"Ġmarker":12974,"1024":12975,"Ġloser":12976,"ĠZero":12977,"Ġiterative":12978,"Ġsticky":12979,"Ġcredential":12980,"Ġsegmentation":12981,"IDIA":12982,"Ġolympics":12983,"ĠCHAPTER":12984,"Ġsymptoms":12985,"FC":12986,"ending":12987,"rd":12988,"atar":12989,"Ġmating":12990,"Ġnest":12991,"arters":12992,"Ġvotes":12993,"ĠMed":12994,"ĠParts":12995,"nacle":12996,"Ġtakeaway":12997,"Ġlearns":12998,"Ġexpenses":12999,"Ġcrate":13000,"Ġencoder":13001,"111":13002,"ĠBlock":13003,"Ġhearts":13004,"Ġappreciated":13005,"Ġevaluating":13006,"trl":13007,"Ġexercises":13008,"Ġpedest":13009,"Ġchairs":13010,"Ġcorporations":13011,"ĠColin":13012,"Ġruined":13013,"Ġrecipro":13014,"Ġfulfilling":13015,"Ġobtained":13016,"ĠNumberphile":13017,"Ġconsecutive":13018,"oided":13019,"ĉčĊ":13020,"Ġtheta":13021,"Ġbum":13022,"Ġmd":13023,"Ġdys":13024,"Ġrecept":13025,"ĠCode":13026,"ĠGa":13027,"ĠDimens":13028,"Ġunclear":13029,"Ġtrait":13030,"Ġmodifying":13031,"Ġreaders":13032,"Ġfunded":13033,"Ġcharacteristic":13034,"Ġportal":13035,"Ġpsychologist":13036,"ĠBluetooth":13037,"Ġrotates":13038,"Ġintegrating":13039,"Ġtravels":13040,"Ġemployers":13041,"ĠImage":13042,"Ġoccas":13043,"Ġfinancially":13044,"Ġratings":13045,"Ġkeywords":13046,"ĠSarah":13047,"Ġdissip":13048,"Ġobstacles":13049,"Ġconvolutional":13050,"Ġpyramid":13051,"mt":13052,"uana":13053,"Ġborders":13054,"Ġmu":13055,"verb":13056,"Ġrope":13057,"Ġstressed":13058,"eaky":13059,"ĠSpr":13060,"ĠThings":13061,"aste":13062,"Ġenforce":13063,"orean":13064,"ĠMad":13065,"ĠRX":13066,"ĠDoc":13067,"ĠNA":13068,"rug":13069,"Ġgenetics":13070,"Ġconfuse":13071,"Ġescal":13072,"Ġ92":13073,"Ġerase":13074,"Ġvisibility":13075,"Ġimproves":13076,"Ġdegrad":13077,"Ġstatistically":13078,"Ġutop":13079,"Ġscalable":13080,"Ġpublishing":13081,"Ġdemanding":13082,"Ġattachment":13083,"priv":13084,"Ġhypothes":13085,"ĠBobby":13086,"correct":13087,"Ġnumerous":13088,"Ġoperands":13089,"ĠLeague":13090,"Ġsqueeze":13091,"Ġsatisfaction":13092,"AE":13093,"bus":13094,"oby":13095,"Ġtong":13096,"inav":13097,"Ġcig":13098,"ancial":13099,"utious":13100,"Ġstab":13101,"ĠTH":13102,"ĠTable":13103,"Ġimpul":13104,"udge":13105,"Ġcorout":13106,"probably":13107,"Ġpainted":13108,"Ġ2003":13109,"Ġpatent":13110,"Ġtraveled":13111,"Ġcelebrating":13112,"Ġresolved":13113,"Ġcompressor":13114,"ĠModern":13115,"Ġcanceled":13116,",:":13117,"fly":13118,"Ġbeans":13119,"Ġcharts":13120,"ĠMedia":13121,"ĠRem":13122,"ĠLamb":13123,"ĠVir":13124,"Ġdefinitive":13125,"ĠStory":13126,"Ġdrum":13127,"Ġdifficulties":13128,"Ġscams":13129,"Ġaddressed":13130,"Ġmeasurements":13131,"Ġaffecting":13132,"Ġrockets":13133,"ĠMarx":13134,"Ġdiseases":13135,"Ġathlet":13136,"Ġskew":13137,"Ġambient":13138,"Ġdisconnected":13139,"local":13140,"Ġfragile":13141,"ĠLewis":13142,"!)":13143,">>":13144,"Cont":13145,"Linear":13146,"bly":13147,"mom":13148,"sur":13149,"asons":13150,"Ġprocl":13151,"olith":13152,"ĠMA":13153,"ĠMond":13154,"Ġscram":13155,"weet":13156,"Ġboston":13157,"Ġtransfers":13158,"Ġinvention":13159,"issance":13160,"Ġwavelength":13161,"Ġmedian":13162,"Ġperfection":13163,"Ġorganizing":13164,"ĠExample":13165,"Ġsignificance":13166,"Ġlifetimes":13167,"Ġproofs":13168,"Ġridiculously":13169,"Ġlabeling":13170,"Ġadaptive":13171,"Ġtriggered":13172,"Ġtribal":13173,"Ġswimming":13174,"ĠHumanity":13175,"ĠJerusalem":13176,"maybe":13177,"ĠProgramming":13178,"Ġholiday":13179,")-":13180,"RE":13181,"Table":13182,"kit":13183,"match":13184,"uper":13185,"aser":13186,"icago":13187,"camp":13188,"Ġmamm":13189,"uler":13190,"Ġchrom":13191,"ĠTry":13192,"ĠCO":13193,"respon":13194,"Ġark":13195,"Ġunhappy":13196,"ĠNN":13197,"Ġflies":13198,"Ġeastern":13199,"Ġlake":13200,"Ġcolour":13201,"Ġimagined":13202,"Ġergonom":13203,"appropri":13204,"()-":13205,"Ġtouches":13206,"Ġappearing":13207,"Ġstickers":13208,"Ġreceives":13209,"Ġanalyst":13210,"Ġ/*":13211,"ordinarily":13212,"Ġtreasure":13213,"Ġpunches":13214,"Ġutilizing":13215,"Ġupgrades":13216,"Ġnerd":13217,"ĠPCIe":13218,"gradu":13219,"ĠShopify":13220,"Ġresurrection":13221,")),":13222,"]['":13223,"machine":13224,"scribe":13225,"Ġ@":13226,"ched":13227,"Ġmemo":13228,"ĠSup":13229,"ieve":13230,"ĠMill":13231,"ĠMob":13232,"Ġworkstation":13233,"Ġpersu":13234,"Ġflesh":13235,"ĠInc":13236,"Ġcentered":13237,"azis":13238,"Ġdeepest":13239,"Ġpayload":13240,"Ġpacking":13241,"Ġtablet":13242,"server":13243,"Ġcritique":13244,"Ġdomest":13245,"Ġgrades":13246,"Ġexhausted":13247,"Ġcelebration":13248,"Ġguards":13249,"Ġtransportation":13250,"Ġabandoned":13251,"Ġresilient":13252,"ĠGarrett":13253,"eavor":13254,"Ġcertificate":13255,"Ġaggressively":13256,"bad":13257,"full":13258,"replace":13259,"aning":13260,"Ġinversion":13261,"Ġrib":13262,"sticky":13263,"amount":13264,"ĠCover":13265,"Ġtails":13266,"Ġthemes":13267,"Ġenabling":13268,"arer":13269,"ĠGi":13270,"ĠLar":13271,"Ġdisabled":13272,"Ġrealizes":13273,"Ġembody":13274,"Ġimporting":13275,"Ġmonetary":13276,"Ġguessed":13277,"loop":13278,"group":13279,"Ġapproved":13280,"Ġ195":13281,"Ġstandardized":13282,"eez":13283,"Ġviscos":13284,"Ġenerg":13285,"ĠConference":13286,"Ġclocks":13287,"Ġhierarchies":13288,"Ġconverts":13289,"Ġoverwhelmed":13290,"Ġacademia":13291,"Ġbundle":13292,"ĠNVIDIA":13293,"Ġhemisphere":13294,"150":13295,"Che":13296,"QU":13297,"Ġbip":13298,"ona":13299,"Ġfest":13300,"Ġgy":13301,"Ġnick":13302,"Ġbearing":13303,"Ġrails":13304,"Ġdelight":13305,"Ġoutrage":13306,"Ġarises":13307,"ĠHall":13308,"ĠHol":13309,"ĠDL":13310,"ĠLand":13311,"ĠJo":13312,"Ġincarn":13313,"aria":13314,"Ġartic":13315,"prising":13316,"Ġsearches":13317,"ĠIntegr":13318,"Ġachievement":13319,"Ġcrude":13320,"Ġblindfold":13321,"Ġshelter":13322,"Ġpipes":13323,"Ġimplicitly":13324,"Ġnitrogen":13325,"Ġglobally":13326,"orghini":13327,"63":13328,"CI":13329,"bility":13330,"five":13331,"oqu":13332,"Ġwides":13333,"Ġbapt":13334,"Ġhedge":13335,"Ġnp":13336,"Ġsocially":13337,"lete":13338,"lets":13339,"Ġrerun":13340,"Ġorch":13341,"ĠPent":13342,"ĠPeak":13343,"ĠDest":13344,"ĠDragon":13345,"ĠKey":13346,"ĠUV":13347,"Ġcautious":13348,"Ġwatches":13349,"Ġrequiring":13350,"Ġavoided":13351,"Ġpayments":13352,"ĠDoom":13353,"Ġtruths":13354,"Ġutilities":13355,"Ġexpressing":13356,"Ġranking":13357,"Ġalternatives":13358,"ĠFrance":13359,"Ġspreadshe":13360,"Ġheroes":13361,"Ġwipe":13362,"Ġconfigured":13363,"Ġobservations":13364,"ĠBIOS":13365,"Ġviscosity":13366,"Sim":13367,"cp":13368,"erning":13369,"oral":13370,"Ġnv":13371,"Ġstance":13372,"ĠAN":13373,"ĠSE":13374,"ĠScand":13375,"ĠDante":13376,"Ġnets":13377,"Ġprizes":13378,"taking":13379,"Ġspecifications":13380,"Ġdeprec":13381,"Ġpatience":13382,"Ġmotivations":13383,"Ġdemocratic":13384,"ĠPlato":13385,"Ġturbocharged":13386,"Ġknocking":13387,"Ġincremental":13388,"Andrew":13389,"Ġmigration":13390,"Ġscheduler":13391,"Ġirrational":13392,"Ġguidance":13393,"bies":13394,"lat":13395,"rt":13396,"since":13397,"uctor":13398,"Ġsine":13399,"Ġber":13400,"Ġhind":13401,"Ġfoss":13402,"itated":13403,"Ġdoge":13404,"url":13405,"ĠTri":13406,"Ġintensive":13407,"ĠCut":13408,"Ġquir":13409,"ĠWatch":13410,"Ġprince":13411,"ixit":13412,"oyd":13413,"Ġesp":13414,"Ġmetab":13415,"boards":13416,"Ġhyphen":13417,"ĠRevelation":13418,"Ġvolcan":13419,"Ġplugin":13420,"Ġclause":13421,"Ġ140":13422,"character":13423,"Ġtrends":13424,"Ġastero":13425,"Ġrecursively":13426,"Ġleaning":13427,"Ġcriminals":13428,"Ġrhetor":13429,"Ġdeposits":13430,"araoh":13431,"Ġalleged":13432,"Ġbots":13433,"aru":13434,"Ġstale":13435,"Ġjames":13436,"icholas":13437,"astically":13438,"Ġtrailer":13439,"Ġdeserves":13440,"Ġdecoding":13441,"Ġcurly":13442,"Ġclearance":13443,"Ġtracker":13444,"Ġshoots":13445,"Ġ4090":13446,"Ġiterators":13447,"Ġdiscard":13448,"Ġphotons":13449,"Thus":13450,"Ġsnipp":13451,"Ġinsertion":13452,"Ġisolate":13453,"Ġvastly":13454,"Ġdisappointing":13455,"copes":13456,"small":13457,"Ġimmersion":13458,"ĠJapanese":13459,"ĠShadow":13460,"ĠDivine":13461,"Ġobscure":13462,"PA":13463,"Tree":13464,"]]":13465,"bp":13466,"uing":13467,"Ġkits":13468,"story":13469,"eap":13470,"Ġorigins":13471,"Ġconform":13472,"ppp":13473,"ĠALU":13474,"Ġchris":13475,"Ġchasing":13476,"ĠTiff":13477,"ols":13478,"ĠSund":13479,"ĠBabel":13480,"Ġagrees":13481,"Ġtears":13482,"ĠHonestly":13483,"duino":13484,"Ġflower":13485,"ceptible":13486,"Ġinvasion":13487,"ĠVI":13488,"Ġexpr":13489,"Ġcertainty":13490,"Ġnetflix":13491,"Ġlisteners":13492,"Ġexceptional":13493,"Ġredirect":13494,"Ġdocumented":13495,"ĠInterest":13496,"Ġbehavioral":13497,"understand":13498,"Ġinfluential":13499,"Ġcrashed":13500,"Ġphenomenal":13501,"Ġhighlighted":13502,"Ġmegahertz":13503,"ermans":13504,"ĠRyzen":13505,"Ġmascul":13506,"Ġpissed":13507,"ĠWrite":13508,"onzi":13509,"Ġdialect":13510,"him":13511,"uci":13512,"Ġwiring":13513,"Ġsons":13514,"Ġdea":13515,"Ġgases":13516,"Ġjake":13517,"Ġjunk":13518,"pending":13519,"ĠMach":13520,"ĠMathem":13521,"Ġcliff":13522,"Ġtrail":13523,"ĠJim":13524,"Ġslam":13525,"Ġattacker":13526,"Ġrobin":13527,"Ġhousehold":13528,"without":13529,"Ġcrosses":13530,"having":13531,"ĠNews":13532,"Ġalternate":13533,"Ġchipset":13534,"capes":13535,"Ġdemonstrated":13536,"Ġdelivering":13537,"Ġdisciplines":13538,"Ġblanket":13539,"ĠCollege":13540,"ĠLearn":13541,"ĠEvolution":13542,"Ġtribes":13543,"Ġdispatch":13544,"negative":13545,"Ġapocalypse":13546,"Ġregulatory":13547,"Ġunstable":13548,"Ġwondered":13549,"ĠVPN":13550,"eus":13551,"ipe":13552,"iper":13553,"mine":13554,"Ġion":13555,"Ġcure":13556,"Ġfitt":13557,"Ġineff":13558,"Ġana":13559,"third":13560,"Ġmelt":13561,"imination":13562,"ĠSea":13563,"Ġoutline":13564,"Ġtrim":13565,"Ġlisting":13566,"Ġskipped":13567,"ĠĠĠĠĠĠĠĠĠĠĠĠĠĠĠĠĠ":13568,"Ġextraordinarily":13569,"Ġworthwhile":13570,"Ġreactive":13571,"Ġcloses":13572,"Ġchristmas":13573,"Ġthreaded":13574,"Ġgearing":13575,"Ġimpactful":13576,"Ġsplits":13577,"Ġwillingness":13578,"Ġauthorities":13579,"Ġinterpol":13580,"Ġcontributions":13581,"Ġdisappeared":13582,"Ġbananas":13583,"Ġthumbs":13584,"Ġtemporarily":13585,"Ġtubing":13586,"Ġbowl":13587,"Ġencouraging":13588,"Ġartifacts":13589,"platform":13590,"TO":13591,"Ġlined":13592,"Ġandroid":13593,"itle":13594,"ette":13595,"Ġstanford":13596,"Ġprops":13597,"Ġchase":13598,"amous":13599,"ĠRL":13600,"ĠNintendo":13601,"Ġoffense":13602,"Ġphases":13603,"ĠUkrainian":13604,"Ġrelies":13605,"Ġregen":13606,"Ġwaking":13607,"Ġcrushing":13608,"Ġobjectively":13609,"Ġtoggle":13610,"Ġleaks":13611,"Ġhugely":13612,"Ġfocuses":13613,"atted":13614,"Ġcondens":13615,"Ġbiases":13616,"ĠPCs":13617,"Ġcivilians":13618,"Ġrussians":13619,"Ġ1995":13620,"Ġexplorer":13621,"Ġmanifests":13622,"Ġhypothetical":13623,"ĠWhereas":13624,"Ġfrustration":13625,"Ġargued":13626,"Ġmultiplier":13627,"Ġhatred":13628,"Ġcomplaints":13629,"Ġdiameter":13630,"cooler":13631,"Query":13632,"Ġpermutation":13633,"ĠFactory":13634,"Ġperipherals":13635,"ĠMinecraft":13636,"None":13637,"cs":13638,"multi":13639,"talk":13640,"Ġtid":13641,"Ġcath":13642,"Ġrearr":13643,"sect":13644,"chat":13645,"roy":13646,"quate":13647,"Ġthinker":13648,"gevity":13649,"ĠAustin":13650,"integr":13651,"ĠDark":13652,"ĠNum":13653,"ĠKind":13654,"Ġacid":13655,"ĠJul":13656,"Ġhover":13657,"Ġclassifier":13658,"Ġdrilling":13659,"ilarly":13660,"Ġinvolving":13661,"Ġmorally":13662,"Ġmaintains":13663,"Ġrecommendations":13664,"Ġinsanely":13665,"Ġiconography":13666,"ĠQuest":13667,"Ġintellectually":13668,"Ġfiat":13669,"Ġuploaded":13670,"Ġcontroversy":13671,"ĠiPad":13672,"????":13673,"ĠLevi":13674,"Ġignorance":13675,"Ġmuseum":13676,"Ġ!=":13677,"Ġaid":13678,"Ġpil":13679,"orse":13680,"ĠAcad":13681,"ilon":13682,"Ġfrance":13683,"Ġlee":13684,"Ġscrolling":13685,"cribed":13686,"Ġconfid":13687,"Ġtort":13688,"Ġhorror":13689,"Ġ2002":13690,"ographer":13691,"Ġaccelerator":13692,"letter":13693,"Ġestablishment":13694,"iosyn":13695,"ĠLeela":13696,"Ġintentional":13697,"Ġsmells":13698,"Ġvarying":13699,"Ġcatastrophe":13700,"Ġpunishment":13701,"asparov":13702,"dle":13703,"Ġtin":13704,"Ġwikipedia":13705,"Ġdow":13706,"eta":13707,"Ġrand":13708,"Ġproc":13709,"Ġventure":13710,"ĠTop":13711,"ached":13712,"Ġconsoles":13713,"Ġrecy":13714,"Ġquestioning":13715,"Ġclassify":13716,"Ġfoundational":13717,"ĠAlice":13718,"Ġforeground":13719,"Ġstreamer":13720,"ĠZion":13721,"opher":13722,"Ġweekly":13723,"Ġviolation":13724,"Ġaggression":13725,"Ġscaled":13726,"compass":13727,"Ġmutual":13728,"Ġlasers":13729,"ĠPretty":13730,"foot":13731,"ĠReading":13732,"normal":13733,"Ġgratitude":13734,"Se":13735,"ii":13736,"method":13737,"Ġtk":13738,"Ġtheology":13739,"record":13740,"atable":13741,"Ġpione":13742,"Ġfame":13743,"orters":13744,"leton":13745,"aylor":13746,"struction":13747,"ading":13748,"Ġplacing":13749,"Ġpeel":13750,"ounding":13751,"ĠDP":13752,"ĠFoo":13753,"ĠFuture":13754,"ĠFields":13755,"Ġcallback":13756,"Ġbron":13757,"Ġsheets":13758,"Ġelections":13759,"akam":13760,"Ġinfant":13761,"Ġsounded":13762,"ilton":13763,"Ġprofitable":13764,"101":13765,"Ġraid":13766,"Ġsubsid":13767,"Ġiterating":13768,"Ġdownloads":13769,"Ġspoiler":13770,"idelity":13771,"250":13772,"GL":13773,"Get":13774,"four":13775,"sized":13776,"today":13777,"Ġcous":13778,"enable":13779,"ĠIQ":13780,"Ġjs":13781,"Ġproxim":13782,"Ġchapters":13783,"ĠTik":13784,"Ġarthur":13785,"ĠMos":13786,"ĠHandler":13787,"Ġidiosyn":13788,"Ġpaired":13789,"Ġcheated":13790,"ĠUber":13791,"Ġreload":13792,"Ġhandheld":13793,"shell":13794,"Ġidentifier":13795,"ĠProfessor":13796,"Ġinvestor":13797,"Ġaffili":13798,"Ġradically":13799,"Ġrequested":13800,"Ġimpacts":13801,"Ġphotography":13802,"Ġburied":13803,"Ġresponds":13804,"Ġunsigned":13805,"Ġwrestle":13806,"Ġjournalism":13807,"Ġcorrupted":13808,"Ġsucceeded":13809,"Ġambiguous":13810,"ĠFinancial":13811,"Ġinstruments":13812,"Ġacquired":13813,"wargs":13814,"Ġnumerical":13815,"Ġconstitution":13816,"Ġcohes":13817,"Ġintervention":13818,"ĠOtherwise":13819,"Ġdevastating":13820,"(-":13821,"bone":13822,"direction":13823,"mill":13824,"pair":13825,"ĠiOS":13826,"ounter":13827,"Ġpiano":13828,"Ġgaining":13829,"ĠIll":13830,"Ġeve":13831,"ctr":13832,"istinct":13833,"orer":13834,"ĠMil":13835,"Ġfunn":13836,"ĠKn":13837,"Ġrunners":13838,"Ġpharm":13839,"Ġslipp":13840,"Ġbrands":13841,"Ġ94":13842,"Ġ911":13843,"Ġmedi":13844,"Ġsteer":13845,"Ġsubtree":13846,"Ġburst":13847,"ĠRedux":13848,"Trans":13849,"Ġpragmatic":13850,"Ġliturgical":13851,"tles":13852,"total":13853,"Ġwand":13854,"Ġheated":13855,"ĠAV":13856,"ĠAaron":13857,"ifer":13858,"Ġactu":13859,"ĠFried":13860,"Ġdifferentiate":13861,"Ġapples":13862,"oger":13863,"Ġcommits":13864,"Ġslave":13865,"Ġjoins":13866,"Ġideological":13867,"Ġresulted":13868,"Ġphysi":13869,"profit":13870,"Ġenjoyable":13871,"Ġdisplayed":13872,"Ġnamespace":13873,"ĠTVs":13874,"Ġensuring":13875,"Ġshadows":13876,"Ġranked":13877,"Ġfingerprint":13878,"ĠObject":13879,"Ġprocedural":13880,"Ġbreakthroughs":13881,"Image":13882,"Ġgifts":13883,"At":13884,"DB":13885,"Len":13886,"OL":13887,"rations":13888,"ucin":13889,"Ġwiz":13890,"erving":13891,"Ġsockets":13892,"alan":13893,"Ġken":13894,"tery":13895,"una":13896,"Ġspike":13897,"ĠDot":13898,"ĠDave":13899,"ĠFu":13900,"Ġprogressive":13901,"Ġemulator":13902,"Ġcharles":13903,"Ġfarming":13904,"hey":13905,"ĠNoah":13906,"Ġautomotive":13907,"Ġgovernance":13908,"Ġweighted":13909,"Ġdangers":13910,"Ġindustries":13911,"Ġsmoking":13912,"Ġcontributed":13913,"Ġmutation":13914,"functional":13915,"Ġdescriptions":13916,"Ġlongevity":13917,"Ġsixty":13918,"Ġzombie":13919,"Ġdivorce":13920,"ĠPerformance":13921,"DS":13922,"ipt":13923,"pret":13924,"era":13925,"Ġpeter":13926,"Ġlou":13927,
[...]
