{"!":0,"\"":1,"#":2,"$":3,"%":4,"&":5,"'":6,"(":7,")":8,"*":9,"+":10,",":11,"-":12,".":13,"/":14,"0":15,"1":16,"2":17,"3":18,"4":19,"5":20,"6":21,"7":22,"8":23,"9":24,":":25,";":26,"<":27,"=":28,">":29,"?":30,"@":31,"A":32,"B":33,"C":34,"D":35,"E":36,"F":37,"G":38,"H":39,"I":40,"J":41,"K":42,"L":43,"M":44,"N":45,"O":46,"P":47,"Q":48,"R":49,"S":50,"T":51,"U":52,"V":53,"W":54,"X":55,"Y":56,"Z":57,"[":58,"\\":59,"]":60,"^":61,"_":62,"`":63,"a":64,"b":65,"c":66,"d":67,"e":68,"f":69,"g":70,"h":71,"i":72,"j":73,"k":74,"l":75,"m":76,"n":77,"o":78,"p":79,"q":80,"r":81,"s":82,"t":83,"u":84,"v":85,"w":86,"x":87,"y":88,"z":89,"{":90,"|":91,"}":92,"~":93,"¡":94,"¢":95,"£":96,"¤":97,"¥":98,"¦":99,"§":100,"¨":101,"©":102,"ª":103,"«":104,"¬":105,"®":106,"¯":107,"°":108,"±":109,"²":110,"³":111,"´":112,"µ":113,"¶":114,"·":115,"¸":116,"¹":117,"º":118,"»":119,"¼":120,"½":121,"¾":122,"¿":123,"À":124,"Á":125,"Â":126,"Ã":127,"Ä":128,"Å":129,"Æ":130,"Ç":131,"È":132,"É":133,"Ê":134,"Ë":135,"Ì":136,"Í":137,"Î":138,"Ï":139,"Ð":140,"Ñ":141,"Ò":142,"Ó":143,"Ô":144,"Õ":145,"Ö":146,"×":147,"Ø":148,"Ù":149,"Ú":150,"Û":151,"Ü":152,"Ý":153,"Þ":154,"ß":155,"à":156,"á":157,"â":158,"ã":159,"ä":160,"å":161,"æ":162,"ç":163,"è":164,"é":165,"ê":166,"ë":167,"ì":168,"í":169,"î":170,"ï":171,"ð":172,"ñ":173,"ò":174,"ó":175,"ô":176,"õ":177,"ö":178,"÷":179,"ø":180,"ù":181,"ú":182,"û":183,"ü":184,"ý":185,"þ":186,"ÿ":187,"Ā":188,"ā":189,"Ă":190,"ă":191,"Ą":192,"ą":193,"Ć":194,"ć":195,"Ĉ":196,"ĉ":197,"Ċ":198,"ċ":199,"Č":200,"č":201,"Ď":202,"ď":203,"Đ":204,"đ":205,"Ē":206,"ē":207,"Ĕ":208,"ĕ":209,"Ė":210,"ė":211,"Ę":212,"ę":213,"Ě":214,"ě":215,"Ĝ":216,"ĝ":217,"Ğ":218,"ğ":219,"Ġ":220,"ġ":221,"Ģ":222,"ģ":223,"Ĥ":224,"ĥ":225,"Ħ":226,"ħ":227,"Ĩ":228,"ĩ":229,"Ī":230,"ī":231,"Ĭ":232,"ĭ":233,"Į":234,"į":235,"İ":236,"ı":237,"Ĳ":238,"ĳ":239,"Ĵ":240,"ĵ":241,"Ķ":242,"ķ":243,"ĸ":244,"Ĺ":245,"ĺ":246,"Ļ":247,"ļ":248,"Ľ":249,"ľ":250,"Ŀ":251,"ŀ":252,"Ł":253,"ł":254,"Ń":255,"Ġt":256,"Ġth":257,"Ġa":258,"Ġi":259,"Ġw":260,"Ġs":261,"Ġthe":262,"re":263,"in":264,"Ġo":265,"ou":266,"at":267,"er":268,"Ġb":269,"Ġc":270,"nd":271,"Ġh":272,"ing":273,"Ġm":274,"Ġy":275,"Ġto":276,"Ġd":277,"Ġf":278,"on":279,"Ġl":280,"Ġand":281,"Ġp":282,"Ġyou":283,"Ġg":284,"ll":285,"en":286,"an":287,"es":288,"or":289,"is":290,"Ġn":291,"Ġof":292,"Ġin":293,"Ġthat":294,"Ġit":295,"it":296,"us":297,"ed":298,"ar":299,"as":300,"ow":301,"'s":302,"Ġwe":303,"Ġwh":304,"om":305,"ic":306,"ve":307,"et":308,"Ġe":309,"Ġis":310,"ut":311,"le":312,"ot":313,"Ġbe":314,"Ġu":315,"ay":316,"Ġon":317,"al":318,"ke":319,"Ġso":320,"Ġhe":321,"Ġre":322,"Ġthis":323,"Ġha":324,"Ġgo":325,"ion":326,"ig":327,"Ġr":328,"ver":329,"ac":330,"Ġli":331,"all":332,"Ġst":333,"id":334,"Ġj":335,"Ġk":336,"Ġfor":337,"ld":338,"ent":339,"ly":340,"se":341,"Ġdo":342,"am":343,"ht":344,"st":345,"ct":346,"Ġlike":347,"ust":348,"'t":349,"im":350,"ith":351,"Ġwas":352,"Ġan":353,"ight":354,"Ġhave":355,"Ġbut":356,"ur":357,"ro":358,"Ġse":359,"Ġwith":360,"ally":361,"ad":362,"Ġwhat":363,"Ġcan":364,"Ġthey":365,"Ġme":366,"ir":367,"Ġjust":368,"Ġkn":369,"Ġsh":370,"Ġas":371,"ch":372,"Ġnot":373,"th":374,"od":375,"'re":376,"Ġare":377,"Ġknow":378,"Ġne":379,"ome":380,"Ġall":381,"Ġthere":382,"ill":383,"ant":384,"ould":385,"ce":386,"Ġch":387,"op":388,"use":389,"Ġlo":390,"Ġat":391,"Ġif":392,"Ġab":393,"Ġgoing":394,"ter":395,"Ġmo":396,"Ġor":397,"ere":398,"Ġmy":399,"Ġde":400,"Ġfr":401,"pp":402,"Ġone":403,"Ġyour":404,"il":405,"'m":406,"ation":407,"Ġtr":408,"ea":409,"out":410,"Ġal":411,"Ġuh":412,"very":413,"Ġex":414,"Ġget":415,"Ġ[":416,"ain":417,"Ġcom":418,"qu":419,"Ġcon":420,"ol":421,"Ġv":422,"ge":423,"Ġright":424,"Ġhere":425,"Ġdon":426,"Ġpro":427,"Ġnow":428,"ok":429,"ul":430,"est":431,"un":432,"ess":433,"Ġup":434,"Ġout":435,"Ġwor":436,"ab":437,"ers":438,"ink":439,"ate":440,"ause":441,"Ġsu":442,"Ġbec":443,"art":444,"Ġabout":445,"ind":446,"ack":447,"ake":448,"Ġthen":449,"ive":450,"if":451,"um":452,"el":453,"Ġsome":454,"Ġsee":455,"usic":456,"Ġfrom":457,"Ġwant":458,"Ġsp":459,"Ġthink":460,"Ġpl":461,"oug":462,"ie":463,"Ġus":464,"music":465,"Ġwhen":466,"Ġbecause":467,"and":468,"Ġint":469,"ist":470,"Ġno":471,"Ġum":472,"Ġthing":473,"ame":474,"Ġhow":475,"eah":476,"Ġyeah":477,"ect":478,"nt":479,"Ġtim":480,"Ġlet":481,"Ġsay":482,"Ġ1":483,"Ġwill":484,"ort":485,"Ġwould":486,"Ġte":487,"os":488,"Ġpe":489,"ich":490,"ide":491,"Ġle":492,"eth":493,"Ġlook":494,"ure":495,"ap":496,"Ġco":497,"Ġby":498,"ak":499,"ast":500,"ck":501,"Ġreally":502,"ard":503,"ven":504,"Ġgot":505,"ound":506,"Ġthem":507,"Ġthese":508,"Ġmore":509,"Ġwho":510,"ine":511,"ity":512,"ough":513,"Ġok":514,"Ġact":515,"Ġour":516,"ri":517,"Ġpeop":518,"Ġwhich":519,"Ġpeople":520,"Ġdid":521,"Ġtime":522,"Ġokay":523,"Ġany":524,"Ġqu":525,"our":526,"Ġpre":527,"Ġar":528,"Ġcl":529,"one":530,"ore":531,"Ġhad":532,"'ll":533,"Ġfe":534,"Ġsa":535,"Ġevery":536,"Ġman":537,"'ve":538,"Ġwell":539,"ose":540,"ment":541,"Ġen":542,"act":543,"Ġway":544,"are":545,"mp":546,"Ġvery":547,"Ġhis":548,"Ġback":549,"ag":550,"ually":551,"Ġwere":552,"ies":553,"Ġhas":554,"ous":555,"Ġag":556,"Ġneed":557,"itt":558,"Ġoh":559,"Ġcomp":560,"Ġwhere":561,"ong":562,"so":563,"ick":564,"Ġwork":565,"Ġbr":566,"Ġover":567,"Ġinto":568,"own":569,"Ġthan":570,"her":571,"Ġad":572,"Ġsom":573,"Ġgood":574,"ff":575,"ice":576,"ip":577,"ace":578,"Ġpr":579,"ite":580,"Ġgr":581,"Ġgu":582,"age":583,"Ġcould":584,"ep":585,"reat":586,"Ġtw":587,"ther":588,"Ġ2":589,"Ġtheir":590,"Ġun":591,"ire":592,"Ġmake":593,"Ġalso":594,"Ġsc":595,"Ġmean":596,"ble":597,"Ġfir":598,"em":599,"iz":600,"way":601,"Ġactually":602,"ear":603,"ber":604,"ss":605,"ach":606,"Ġfirst":607,"pt":608,"Ġshe":609,"Ġexp":610,"Ġam":611,"00":612,"Ġbeen":613,"alk":614,"Ġro":615,"Ġkind":616,"ething":617,"Ġsomething":618,"Ġother":619,"Ġbu":620,"Ġdown":621,"Ġeven":622,"Ġtwo":623,"iv":624,"ree":625,"ions":626,"Ġpo":627,"ittle":628,"Ġthings":629,"Ġlittle":630,"Ġbo":631,"Ġhim":632,"Ġoff":633,"ra":634,"Ġcont":635,"ry":636,"nder":637,"iff":638,"Ġstart":639,"ue":640,"Ġlot":641,"Ġdoes":642,"xt":643,"ass":644,"Ġbl":645,"ud":646,"ase":647,"Ġthr":648,"Ġdiff":649,"Ġtake":650,"able":651,"Ġmu":652,"Ġuse":653,"int":654,"Ġagain":655,"Ġpart":656,"Ġmay":657,"be":658,"Ġac":659,"Ġthose":660,"Ġapp":661,"Ġyear":662,"Ġmuch":663,"Ġnew":664,"amp":665,"Ġcall":666,"Ġke":667,"ft":668,"ial":669,"ish":670,"thing":671,"Ġonly":672,"Ġher":673,"Ġfo":674,"Ġimp":675,"ting":676,"Ġwhy":677,"Ġper":678,"ving":679,"Ġfl":680,"Ġhapp":681,"Ġdiffere":682,"ys":683,"Ġtalk":684,"Ġput":685,"ign":686,"co":687,"Ġbet":688,"Ġcome":689,"orm":690,"ang":691,"Ġplay":692,"Ġsaid":693,"sel":694,"fe":695,"ence":696,"Ġday":697,"ile":698,"Ġthrough":699,"ody":700,"ning":701,"ans":702,"Ġres":703,"Ġtry":704,"ord":705,"Ġaf":706,"ult":707,"ory":708,"other":709,"ance":710,"ious":711,"Ġdis":712,"Ġunder":713,"av":714,"per":715,"ens":716,"ild":717,"ade":718,"Ġbit":719,"ated":720,"Ġshould":721,"end":722,"vel":723,"Ġdifferent":724,"cess":725,"Ġfeel":726,"Ġmost":727,"fore":728,"Ġgod":729,"ty":730,"ount":731,"ater":732,"Ġdoing":733,"Ġstr":734,"Ġrem":735,"Ġafter":736,"Ġstill":737,"Ġdes":738,"ec":739,"Ġshow":740,"ically":741,"Ġwr":742,"Ġjo":743,"ull":744,"ical":745,"ations":746,"Ġbas":747,"uct":748,"ail":749,"Ġbeing":750,"Ġid":751,"Ġadd":752,"Ġgreat":753,"wn":754,"Ġbig":755,"Ġsame":756,"ark":757,"urn":758,"atch":759,"Ġrun":760,"Ġdidn":761,"Ġbefore":762,"Ġend":763,"og":764,"Ġser":765,"Ġ3":766,"Ġho":767,"self":768,"Ġworld":769,"Ġaround":770,"aking":771,"Ġcar":772,"ug":773,"ary":774,"Ġpoint":775,"Ġph":776,"Ġcomm":777,"Ġhel":778,"Ġyears":779,"Ġlife":780,"Ġset":781,"Ġtoo":782,"Ġsm":783,"Ġgive":784,"Ġreal":785,"ady":786,"Ġmany":787,"red":788,"Ġnext":789,"Ġbel":790,"Ġtell":791,"ia":792,"Ġfind":793,"les":794,"ress":795,"Ġcr":796,"Ġdr":797,"Ġinc":798,"Ġlong":799,"Ġsy":800,"Ġmaybe":801,"Ġinst":802,"ition":803,"Ġthree":804,"Ġlove":805,"Ġins":806,"ought":807,"day":808,"Ġfun":809,"vers":810,"Ġob":811,"ful":812,"na":813,"Ġmin":814,"form":815,"ower":816,"body":817,"Ġyes":818,"lic":819,"Ġanother":820,"Ġsim":821,"Ġhelp":822,"ors":823,"Ġpers":824,"Ġthank":825,"ath":826,"oth":827,"Ġmight":828,"Ġsure":829,"ways":830,"Ġnever":831,"ever":832,"Ġnum":833,"Ġdat":834,"ange":835,"Ġrep":836,"ves":837,"Ġhig":838,"ms":839,"Ġcre":840,"Ġstu":841,"Ġfin":842,"Ġsl":843,"we":844,"Ġpos":845,"Ġinter":846,"yp":847,"akes":848,"Ġvide":849,"Ġop":850,"Ġhappen":851,"Ġmod":852,"ved":853,"Ġeverything":854,"Ġdef":855,"ject":856,"Ġev":857,"ible":858,"Ġind":859,"Ġmade":860,"ably":861,"ction":862,"app":863,"Ġatt":864,"Ġgen":865,"Ġrec":866,"Ġche":867,"Ġkeep":868,"Ġim":869,"ise":870,"Ġdec":871,"ead":872,"ating":873,"Ġquest":874,"ons":875,"Ġdoesn":876,"Ġalways":877,"Ġguys":878,"ix":879,"ether":880,"ual":881,"Ġpret":882,"lo":883,"Ġear":884,"ces":885,"Ġent":886,"ents":887,"Ġhand":888,"Ġprob":889,"ily":890,"cond":891,"Ġcour":892,"ert":893,"Ġits":894,"Ġlast":895,"Ġgame":896,"iss":897,"Ġperson":898,"Ġsecond":899,"Ġown":900,"Ġpretty":901,"hing":902,"Ġwa":903,"ub":904,"ute":905,"ied":906,"Ġbetter":907,"Ġrel":908,"gr":909,"onna":910,"Ġprobably":911,"Ġhigh":912,"Ġusing":913,"Ġdone":914,"Ġbuild":915,"Ġtyp":916,"ell":917,"Ġgonna":918,"Ġel":919,"ian":920,"Ġz":921,"Ġask":922,"ict":923,"let":924,"Ġtoday":925,"oup":926,"Ġstuff":927,"Ġgetting":928,"Ġ20":929,"Ġdata":930,"ode":931,"ize":932,"Ġcalled":933,"Ġla":934,"Ġunderst":935,"Ġ5":936,"ope":937,"Ġvideo":938,"Ġcle":939,"Ġeas":940,"Ġnumber":941,"ward":942,"Ġname":943,"stem":944,"Ġopen":945,"Ġsupp":946,"Ġinv":947,"Ġspec":948,"Ġbelie":949,"Ġhard":950,"Ġval":951,"Ġpower":952,"ason":953,"Ġ4":954,"Ġable":955,"ular":956,"Ġcons":957,"Ġmon":958,"Ġlist":959,"Ġsur":960,"Ġtop":961,"Ġimport":962,"Ġthought":963,"Ġsystem":964,"Ġem":965,"Ġlear":966,"Ġplace":967,"Ġsort":968,"Ġused":969,"Ġproble":970,"Ġunderstand":971,"Ġanything":972,"Ġturn":973,"Ġmove":974,"Ġaway":975,"ates":976,"Ġsub":977,"ib":978,"Ġacc":979,"sh":980,"Ġfour":981,"Ġter":982,"Ġfact":983,"Ġtrying":984,"atter":985,"'d":986,"Ġcourse":987,"ense":988,"Ġlooking":989,"Ġwar":990,"Ġcu":991,"Ġbre":992,"Ġexamp":993,"Ġeach":994,"Ġcol":995,"Ġprod":996,"Ġpass":997,"Ġeng":998,"ific":999,"Ġwait":1000,"Ġwhile":1001,"Ġmom":1002,"ock":1003,"Ġonce":1004,"ost":1005,"Ġ10":1006,"erest":1007,"Ġbest":1008,"Ġside":1009,"Ġlea":1010,"Ġcreat":1011,"Ġcheck":1012,"ready":1013,"Ġwatch":1014,"Ġalready":1015,"Ġext":1016,"Ġ]":1017,"Ġgener":1018,"Ġsk":1019,"Ġair":1020,"Ġ_":1021,"ather":1022,"ience":1023,"Ġ__":1024,"Ġcor":1025,"Ġinterest":1026,"Ġfam":1027,"iew":1028,"Ġsimp":1029,"Ġchar":1030,"Ġwhole":1031,"Ġever":1032,"ood":1033,"Ġ-":1034,"Ġsaying":1035,"als":1036,"ient":1037,"Ġcare":1038,"ness":1039,"ially":1040,"ier":1041,"oney":1042,"Ġhead":1043,"Ġma":1044,"Ġconf":1045,"ings":1046,"Ġboth":1047,"Ġdep":1048,"Ġmar":1049,"ered":1050,"Ġtest":1051,"lause":1052,"Ġplan":1053,"Ġwent":1054,"Ġele":1055,"ger":1056,"Ġold":1057,"ics":1058,"ility":1059,"applause":1060,"ks":1061,"az":1062,"Ġchange":1063,"Ġfound":1064,"Ġnice":1065,"Ġcreate":1066,"Ġ19":1067,"ren":1068,"Ġcap":1069,"cri":1070,"Ġbasically":1071,"ween":1072,"Ġexample":1073,"Ġbetween":1074,"Ġfar":1075,"Ġcoming":1076,"uc":1077,"Ġah":1078,"Ġimportant":1079,"olog":1080,"Ġsays":1081,"ments":1082,"Ġfew":1083,"Ġword":1084,"ember":1085,"ature":1086,"Ġquestion":1087,"cept":1088,"Ġhome":1089,"iend":1090,"ph":1091,"Ġteam":1092,"Ġlight":1093,"Ġform":1094,"Ġsw":1095,"Ġleft":1096,"Ġbeg":1097,"Ġtrans":1098,"Ġmoney":1099,"ash":1100,"Ġthough":1101,"ows":1102,"Ġtalking":1103,"Ġcool":1104,"Ġexper":1105,"Ġmeans":1106,"der":1107,"Ġcame":1108,"Ġret":1109,"Ġbad":1110,"ump":1111,"Ġsin":1112,"Ġass":1113,"Ġenough":1114,"Ġcur":1115,"Ġreg":1116,"ont":1117,"Ġbro":1118,"Ġmaking":1119,"Ġcase":1120,"Ġstop":1121,"Ġcontro":1122,"Ġhu":1123,"Ġremember":1124,"vious":1125,"Ġhey":1126,"ative":1127,"Ġtog":1128,"ets":1129,"Ġinside":1130,"Ġpres":1131,"ention":1132,"Ġidea":1133,"Ġbus":1134,"Ġwater":1135,"Ġmind":1136,"Ġlooks":1137,"ouse":1138,"Ġhit":1139,"Ġhum":1140,"Ġeff":1141,"Ġnothing":1142,"wh":1143,"Ġtogether":1144,"ew":1145,"Ġexact":1146,"Ġread":1147,"ird":1148,"Ġbook":1149,"Ġtimes":1150,"Ġcount":1151,"Ġhaving":1152,"Ġref":1153,"Ġcomes":1154,"Ġsign":1155,"air":1156,"Ġgl":1157,"Ġcode":1158,"Ġproblem":1159,"Ġbelieve":1160,"Ġline":1161,"bo":1162,"Ġstand":1163,"Ġstarted":1164,"Ġequ":1165,"Ġmiss":1166,"ner":1167,"Ġfriend":1168,"Ġsuper":1169,"Ġsmall":1170,"lete":1171,"ines":1172,"Ġfive":1173,"Ġwhatever":1174,"Ġsec":1175,"Ġaut":1176,"Ġquick":1177,"Ġsing":1178,"unch":1179,"Ġmark":1180,"000":1181,"Ġworking":1182,"Ġwanted":1183,"man":1184,"Ġlevel":1185,"Ġelse":1186,"Ġresp":1187,"Ġspace":1188,"ited":1189,"Ġgoes":1190,"ne":1191,"cus":1192,"Ġlearn":1193,"Ġdet":1194,"io":1195,"Ġcent":1196,"Ġchr":1197,"Ġred":1198,"Ġexpl":1199,"Ġfull":1200,"Ġed":1201,"Ġ6":1202,"Ġbeh":1203,"Ġsol":1204,"Ġwithout":1205,"uring":1206,"Ġsomeone":1207,"llow":1208,"Ġguy":1209,"up":1210,"Ġwee":1211,"Ġtech":1212,"Ġdefin":1213,"Ġfore":1214,"its":1215,"Ġsch":1216,"Ġposs":1217,"ertain":1218,"iness":1219,"ames":1220,"Ġdire":1221,"Ġjob":1222,"Ġmakes":1223,"ities":1224,"Ġreason":1225,"ross":1226,"Ġlead":1227,"ars":1228,"led":1229,"Ġstate":1230,"Ġproduct":1231,"Ġrest":1232,"ush":1233,"Ġcoll":1234,"Ġclass":1235,"ank":1236,"arch":1237,"ret":1238,"Ġdesign":1239,"ten":1240,"Ġple":1241,"Ġhold":1242,"ized":1243,"Ġpol":1244,"Ġquite":1245,"Ġsuch":1246,"Ġcompan":1247,"ues":1248,"ude":1249,"Ġhope":1250,"enc":1251,"Ġes":1252,"oc":1253,"Ġstud":1254,"nect":1255,"most":1256,"ately":1257,"Ġhour":1258,"Ġtype":1259,"gy":1260,"Ġless":1261,"Ġseen":1262,"Ġwin":1263,"Ġmet":1264,"Ġcuz":1265,"Ġprocess":1266,"velop":1267,"Ġkey":1268,"Ġinf":1269,"get":1270,"Ġmain":1271,"Ġmill":1272,"Ġahead":1273,"ying":1274,"itch":1275,"Ġmed":1276,"Ġnight":1277,"Ġchang":1278,"Ġpartic":1279,"ork":1280,"Ġdevelop":1281,"Ġfil":1282,"Ġunt":1283,"Ġvar":1284,"Ġfunction":1285,"Ġsit":1286,"eak":1287,"anc":1288,"Ġstep":1289,"Ġsound":1290,"Ġlar":1291,"iet":1292,"Ġap":1293,"Ġfree":1294,"eric":1295,"Ġuni":1296,"ave":1297,"uck":1298,"Ġwasn":1299,"Ġpie":1300,"Ġsince":1301,"iter":1302,"Ġalmost":1303,"Ġhouse":1304,"Ġabs":1305,"Ġbring":1306,"ream":1307,"Ġwalk":1308,"less":1309,"Ġlater":1310,"Ġvis":1311,"Ġmem":1312,"Ġmodel":1313,"etim":1314,"Ġfollow":1315,"Ġcomplete":1316,"Ġexactly":1317,"Ġkid":1318,"Ġconnect":1319,"ote":1320,"reen":1321,"Ġpa":1322,"Ġaw":1323,"ext":1324,"Ġpick":1325,"Ġclose":1326,"Ġstory":1327,"Ġfight":1328,"ution":1329,"nce":1330,"Ġadv":1331,"Ġhal":1332,"Ġkill":1333,"Ġtechn":1334,"Ġcontin":1335,"Ġwo":1336,"Ġ7":1337,"Ġtrue":1338,"Ġcertain":1339,"Ġbreak":1340,"Ġlive":1341,"Ġgiv":1342,"Ġhear":1343,"ern":1344,"Ġroom":1345,"att":1346,"Ġsaw":1347,"ages":1348,"Ġinteresting":1349,"Ġguess":1350,"Ġorder":1351,"utes":1352,"ott":1353,"sw":1354,"fect":1355,"ield":1356,"Ġblack":1357,"Ġvers":1358,"Ġproject":1359,"Ġtook":1360,"Ġclear":1361,"Ġemp":1362,"Ġinform":1363,"Ġcra":1364,"Ġmonth":1365,"Ġx":1366,"Ġopt":1367,"Ġrequ":1368,"Ġste":1369,"Ġisn":1370,"Ġpast":1371,"Ġcontrol":1372,"Ġwon":1373,"Ġcut":1374,"med":1375,"hip":1376,"Ġchild":1377,"Ġdays":1378,"aut":1379,"osed":1380,"Ġsense":1381,"Ġdist":1382,"Ġserv":1383,"ling":1384,"Ġfre":1385,"Ġeveryone":1386,"Ġansw":1387,"Ġcoup":1388,"Ġperfect":1389,"Ġbusiness":1390,"Ġeasy":1391,"Ġobvious":1392,"Ġbegin":1393,"str":1394,"Ġuntil":1395,"Ġmoment":1396,"Ġ8":1397,"Ġpay":1398,"Ġfamily":1399,"aster":1400,"Ġmess":1401,"Ġagainst":1402,"Ġbody":1403,"Ġvalue":1404,"Ġameric":1405,"ee":1406,"ught":1407,"Ġclick":1408,"Ġstay":1409,"Ġsometim":1410,"Ġyet":1411,"lt":1412,"Ġpop":1413,"br":1414,"Ġve":1415,"Ġchrist":1416,"Ġwrong":1417,"ared":1418,"Ġ9":1419,"Ġcho":1420,"Ġhalf":1421,"side":1422,"Ġmatter":1423,"gest":1424,"Ġmor":1425,"ale":1426,"Ġyourself":1427,"Ġey":1428,"Ġfire":1429,"ah":1430,"Ġloc":1431,"Ġentire":1432,"ither":1433,"Ġpar":1434,"pl":1435,"Ġinstead":1436,"Ġopp":1437,"Ġprov":1438,"Ġmid":1439,"ures":1440,"Ġworks":1441,"Ġheal":1442,"ator":1443,"Ġsometimes":1444,"ident":1445,"ism":1446,"Ġwom":1447,"Ġexc":1448,"Ġav":1449,"Ġleast":1450,"Ġgi":1451,"Ġhappened":1452,"Ġwind":1453,"Ġsix":1454,"Ġthinking":1455,"Ġeverybody":1456,"Ġland":1457,"Ġcouple":1458,"Ġplease":1459,"Ġgets":1460,"ton":1461,"ices":1462,"where":1463,"Ġpress":1464,"Ġincl":1465,"eed":1466,"Ġinformation":1467,"Ġminutes":1468,"ering":1469,"Ġjes":1470,"Ġready":1471,"Ġtold":1472,"Ġlisten":1473,"Ġart":1474,"Ġdem":1475,"verse":1476,"Ġhuman":1477,"Ġsingle":1478,"Ġmil":1479,"Ġabsol":1480,"ond":1481,"Ġdirect":1482,"ters":1483,"Ġtra":1484,"Ġamaz":1485,"aught":1486,"Ġwithin":1487,"pect":1488,"li":1489,"Ġmult":1490,"gram":1491,"bers":1492,"Ġabsolute":1493,"Ġhist":1494,"Ġcal":1495,"Ġengine":1496,"itely":1497,"Ġoper":1498,"Ġprot":1499,"Ġmust":1500,"Ġheart":1501,"ric":1502,"Ġpull":1503,"Ġtaking":1504,"iting":1505,"Ġpur":1506,"Ġrunning":1507,"Ġfront":1508,"quot":1509,"ax":1510,"ime":1511,"Ġcommun":1512,"Ġdri":1513,"Ġsomebody":1514,"Ġprogram":1515,"Ġjesus":1516,"Ġgroup":1517,"Ġbecome":1518,"Ġsn":1519,"Ġface":1520,"ists":1521,"Ġbar":1522,"zy":1523,"Ġdeal":1524,"ene":1525,"Ġtemp":1526,"Ġleave":1527,"Ġfile":1528,"Ġlog":1529,"Ġfig":1530,"Ġton":1531,"rop":1532,"bs":1533,"Ġview":1534,"Ġfood":1535,"Ġconc":1536,"Ġbeaut":1537,"Ġdefinitely":1538,"Ġsor":1539,"Ġsqu":1540,"Ġparticular":1541,"lex":1542,"Ġspeak":1543,"Ġ$":1544,"Ġdeep":1545,"Ġduring":1546,"Ġpri":1547,"ann":1548,"Ġtrain":1549,"land":1550,"ape":1551,"Ġfine":1552,"Ġhon":1553,"Ġwhite":1554,"Ġeither":1555,"Ġallow":1556,"Ġfast":1557,"Ġmag":1558,"Ġobject":1559,"ots":1560,"ins":1561,"Ġsupport":1562,"Ġsuc":1563,"ool":1564,"ove":1565,"Ġsoc":1566,"Ġtakes":1567,"endo":1568,"Ġleg":1569,"Ġking":1570,"Ġhell":1571,"Ġtext":1572,"Ġsimple":1573,"Ġexperience":1574,"Ġtool":1575,"Ġlink":1576,"ational":1577,"ilt":1578,"Ġprom":1579,"Ġbab":1580,"Ġobviously":1581,"lect":1582,"Ġpub":1583,"Ġliter":1584,"Ġer":1585,"dd":1586,"Ġsal":1587,"Ġdev":1588,"con":1589,"Ġcompany":1590,"Ġpain":1591,"Ġeffect":1592,"Ġgrow":1593,"Ġoften":1594,"min":1595,"Ġsorry":1596,"Ġmen":1597,"Ġwhether":1598,"Ġlay":1599,"Ġevent":1600,"Ġdi":1601,"Ġpot":1602,"Ġbehind":1603,"Ġiss":1604,"Ġago":1605,"eng":1606,"view":1607,"Ġhappens":1608,"ts":1609,"Ġreturn":1610,"Ġhar":1611,"Ġprof":1612,"gan":1613,"Ġalong":1614,"Ġaccess":1615,"ane":1616,"oud":1617,"Ġfu":1618,"Ġfall":1619,"gn":1620,"Ġbuilding":1621,"ully":1622,"Ġattack":1623,"Ġpossible":1624,"lf":1625,"ology":1626,"Ġ12":1627,"Ġball":1628,"Ġknew":1629,"Ġ&":1630,"Ġshort":1631,"Ġwrite":1632,"ality":1633,"aces":1634,"Ġesp":1635,"Ġresult":1636,"avor":1637,"Ġcolor":1638,"Ġmach":1639,"Ġyoun":1640,"Ġcust":1641,"res":1642,"ains":1643,"Ġwow":1644,"Ġsou":1645,"wards":1646,"work":1647,"Ġrecord":1648,"mm":1649,"Ġnet":1650,"Ġcop":1651,"Ġexpect":1652,"rew":1653,"Ġdescri":1654,"Ġra":1655,"aps":1656,"ided":1657,"Ġpost":1658,"ortun":1659,"Ġ<":1660,"Ġanswer":1661,"|>":1662,"ftext":1663,"endoftext":1664,"Ġ<|":1665,"Ġ15":1666,"Ġtot":1667,"Ġweek":1668,"Ġschool":1669,"Ġabsolutely":1670,"Ġener":1671,"Ġfocus":1672,"ats":1673,"ired":1674,"ract":1675,"Ġacross":1676,"Ġstrong":1677,"Ġmillion":1678,"selves":1679,"ci":1680,"Ġcond":1681,"Ġsend":1682,"ides":1683,"Ġmyself":1684,"Ġarea":1685,"Ġimag":1686,"Ġnorm":1687,"Ġhot":1688,"Ġ30":1689,"Ġhowever":1690,"Ġlow":1691,"ero":1692,"Ġmeth":1693,"rent":1694,"Ġ100":1695,"Ġcustom":1696,"Ġsho":1697,"Ġhours":1698,"Ġsuccess":1699,"aph":1700,"Ġcharac":1701,"ories":1702,"Ġfut":1703,"Ġstar":1704,"ipp":1705,"Ġposition":1706,"fully":1707,"Ġapplic":1708,"Ġmusic":1709,"Ġbeautif":1710,"Ġcompletely":1711,"Ġfinally":1712,"arent":1713,"Ġintern":1714,"Ġblock":1715,"Ġlang":1716,"Ġearth":1717,"ural":1718,"oun":1719,"Ġplaying":1720,"line":1721,"Ġcity":1722,"itting":1723,"Ġbott":1724,"Ġoutside":1725,"Ġinvest":1726,"com":1727,"Ġappro":1728,"Ġperform":1729,"Ġgir":1730,"Ġquestions":1731,"Ġmeet":1732,"Ġwonder":1733,"Ġmaj":1734,"Ġheard":1735,"Ġpract":1736,"jo":1737,"Ġespec":1738,"Ġespecially":1739,"Ġcommand":1740,"pr":1741,"Ġhealth":1742,"ument":1743,"Ġelect":1744,"ify":1745,"ouch":1746,"Ġfield":1747,"ider":1748,"itive":1749,"Ġways":1750,"Ġnor":1751,"Ġearly":1752,"Ġenergy":1753,"Ġorig":1754,"Ġbox":1755,"Ġdark":1756,"Ġstra":1757,"Ġproper":1758,"Ġlord":1759,"Ġchall":1760,"ision":1761,"Ġphys":1762,"Ġhor":1763,"Ġlangu":1764,"Ġliterally":1765,"uce":1766,"Ġmass":1767,"Ġfuture":1768,"Ġstore":1769,"ital":1770,"Ġport":1771,"Ġamazing":1772,"ization":1773,"Ġfigure":1774,"Ġones":1775,"Ġrock":1776,"Ġitself":1777,"Ġwall":1778,"Ġmethod":1779,"Ġneeds":1780,"Ġcrazy":1781,"Ġbill":1782,"Ġbased":1783,"Ġlaw":1784,"Ġground":1785,"Ġamount":1786,"ilar":1787,"ming":1788,"Ġmention":1789,"Ġpack":1790,"Ġwouldn":1791,"ished":1792,"Ġrele":1793,"Ġhaven":1794,"Ġwatching":1795,"Ġmajor":1796,"Ġthanks":1797,"Ġlarge":1798,"Ġbeautiful":1799,"Ġhappy":1800,"ler":1801,"Ġuser":1802,"Ġhistory":1803,"Ġdra":1804,"Ġbuilt":1805,"Ġcomput":1806,"Ġbaby":1807,"Ġvari":1808,"els":1809,"Ġseems":1810,"Ġdam":1811,"iple":1812,"ases":1813,"Ġcreated":1814,"ron":1815,"Ġgiven":1816,"Ġinclud":1817,"ny":1818,"Ġservice":1819,"Ġclean":1820,"rem":1821,"Ġtable":1822,"Ġhuge":1823,"dle":1824,"Ġdou":1825,"Ġarm":1826,"Ġknown":1827,"Ġfriends":1828,"Ġspeed":1829,"Ġspecial":1830,"Ġai":1831,"Ġcam":1832,"Ġorigin":1833,"Ġcost":1834,"Ġcurrent":1835,"Ġsug":1836,"Ġbuy":1837,"ior":1838,"ians":1839,"Ġjoh":1840,"Ġdiv":1841,"Ġfeature":1842,"Ġthird":1843,"Ġeat":1844,"not":1845,"Ġcountry":1846,"par":1847,"ption":1848,"Ġpiece":1849,"put":1850,"que":1851,"row":1852,"Ġsoon":1853,"ware":1854,"Ġgone":1855,"Ġorgan":1856,"Ġarg":1857,"Ġwords":1858,"Ġpat":1859,"Ġlost":1860,"Ġquickly":1861,"Ġspir":1862,"Ġcouldn":1863,"Ġdest":1864,"cle":1865,"ency":1866,"..":1867,"Ġjohn":1868,"ift":1869,"Ġincre":1870,"elt":1871,"ium":1872,"Ġexist":1873,"Ġnear":1874,"Ġca":1875,"Ġsitu":1876,"Ġsun":1877,"Ġforeign":1878,"Ġyoung":1879,"oss":1880,"cc":1881,"Ġvo":1882,"Ġsimilar":1883,"Ġhonest":1884,"Ġcorre":1885,"Ġess":1886,"to":1887,"Ġgames":1888,"Ġfather":1889,"idence":1890,"ants":1891,"Ġsle":1892,"Ġmot":1893,"Ġfavor":1894,"Ġself":1895,"ced":1896,"Ġlim":1897,"Ġcir":1898,"Ġsimply":1899,"ousand":1900,"Ġaccount":1901,"Ġreach":1902,"Ġthousand":1903,"Ġsave":1904,"Ġchann":1905,"Ġep":1906,"Ġaff":1907,"ional":1908,"Ġmic":1909,"ney":1910,"Ġ50":1911,"orn":1912,"rib":1913,"aken":1914,"Ġide":1915,"Ġplus":1916,"Ġmov":1917,"Ġmarket":1918,"Ġgirl":1919,"Ġenjo":1920,"Ġsour":1921,"ror":1922,"Ġfoot":1923,"Ġmonths":1924,"ery":1925,"loy":1926,"Ġsent":1927,"Ġpush":1928,"Ġsoft":1929,"Ġmorning":1930,"come":1931,"gress":1932,"Ġmoving":1933,"Ġzero":1934,"Ġtrack":1935,"icult":1936,"atic":1937,"ased":1938,"Ġque":1939,"Ġdepend":1940,"Ġcomb":1941,"Ġdoll":1942,"Ġrad":1943,"Ġdifficult":1944,"Ġfinal":1945,"Ġris":1946,"Ġstraight":1947,"Ġrelations":1948,"entially":1949,"Ġtouch":1950,"Ġkids":1951,"ged":1952,"ently":1953,"Ġtrad":1954,"Ġson":1955,"ards":1956,"Ġshare":1957,"Ġmiddle":1958,"ury":1959,"Ġjump":1960,"Ġpublic":1961,"ips":1962,"Ġgave":1963,"ule":1964,"ison":1965,"vern":1966,"Ġroll":1967,"Ġbrain":1968,"Ġrather":1969,"Ġnat":1970,"Ġsell":1971,"by":1972,"Ġinstall":1973,"ential":1974,"Ġversion":1975,"Ġdead":1976,"Ġfeeling":1977,"Ġprotect":1978,"Ġfa":1979,"old":1980,"read":1981,"Ġdeath":1982,"Ġslow":1983,"son":1984,"load":1985,"Ġenc":1986,"Ġtur":1987,"Ġfill":1988,"Ġforward":1989,"ones":1990,"Ġliving":1991,"Ġhappening":1992,"ability":1993,"Ġstarting":1994,"Ġsearch":1995,"Ġcapt":1996,"Ġtrust":1997,"Ġspecific":1998,"Ġdude":1999,"Ġtom":2000,"Ġanim":2001,"Ġshot":2002,"Ġmanag":2003,"Ġsubs":2004,"Ġenv":2005,"Ġsize":2006,"Ġfelt":2007,"Ġfail":2008,"Ġlanguage":2009,"Ġfly":2010,"Ġcook":2011,"Ġseven":2012,"Ġscreen":2013,"Ġvol":2014,"Ġload":2015,"Ġbunch":2016,"Ġlooked":2017,"ina":2018,"Ġrelationship":2019,"Ġauth":2020,"Ġstruct":2021,"Ġge":2022,"Ġdoor":2023,"Ġusually":2024,"Ġdetail":2025,"Ġincred":2026,"Ġbase":2027,"Ġwants":2028,"Ġmachine":2029,"Ġgovern":2030,"Ġasked":2031,"Ġcover":2032,"ife":2033,"ined":2034,"urity":2035,"Ġexplain":2036,"Ġcommon":2037,"Ġdisc":2038,"Ġpage":2039,"Ġseeing":2040,"Ġterms":2041,"Ġeyes":2042,"Ġimage":2043,"Ġfur":2044,"Ġbottom":2045,"Ġage":2046,"Ġchannel":2047,"Ġeight":2048,"tern":2049,"Ġcenter":2050,"erc":2051,"Ġspirit":2052,"Ġpict":2053,"ised":2054,"uth":2055,"thers":2056,"Ġcorrect":2057,"Ġbecom":2058,"ified":2059,"Ġbur":2060,"Ġreco":2061,"Ġphone":2062,"ging":2063,"Ġ18":2064,"Ġlonger":2065,"ex":2066,"Ġsat":2067,"ral":2068,"Ġgives":2069,"Ġ200":2070,"Ġflo":2071,"Ġrese":2072,"Ġmr":2073,"Ġimagine":2074,"Ġothers":2075,"Ġcannot":2076,"Ġselect":2077,"Ġpath":2078,"Ġspend":2079,"Ġneeded":2080,"Ġhands":2081,"ray":2082,"Ġ201":2083,"face":2084,"Ġlearning":2085,"Ġforce":2086,"Ġgiving":2087,"raft":2088,"Ġident":2089,"Ġworth":2090,"Ġconst":2091,"Ġstates":2092,"ik":2093,"Ġpray":2094,"Ġanyway":2095,"Ġrid":2096,"Ġcollect":2097,"Ġextra":2098,"Ġchildren":2099,"Ġgeneral":2100,"ables":2101,"ensive":2102,"craft":2103,"Ġboy":2104,"Ġanyone":2105,"Ġenjoy":2106,"Ġclos":2107,"eter":2108,"Ġbelow":2109,"Ġtre":2110,"Ġanal":2111,"gt":2112,"Ġdifference":2113,"Ġpresent":2114,"Ġsecret":2115,"Ġsecurity":2116,"Ġswe":2117,"Ġsleep":2118,"Ġitem":2119,"Ġoffic":2120,"Ġapproach":2121,"Ġtar":2122,"Ġcell":2123,"Ġapplication":2124,"irt":2125,"Ġlab":2126,"Ġknows":2127,"bed":2128,"Ġdad":2129,"ask":2130,"Ġbatt":2131,"Ġhur":2132,"Ġrece":2133,"Ġpurp":2134,"Ġsty":2135,"vered":2136,"Ġbutton":2137,"Ġdoc":2138,"inc":2139,"Ġaud":2140,"Ġfix":2141,"Ġsupposed":2142,"Ġfair":2143,"aring":2144,"iron":2145,"Ġpan":2146,"Ġdisco":2147,"ried":2148,"Ġps":2149,"Ġworked":2150,"asure":2151,"Ġgreen":2152,"Ġswitch":2153,"Ġrob":2154,"Ġconvers":2155,"Ġhun":2156,"Ġger":2157,"Ġest":2158,"Ġvideos":2159,"Ġdog":2160,"Ġcontent":2161,"ube":2162,"lier":2163,"Ġant":2164,"Ġdrive":2165,"Ġteach":2166,"itions":2167,"Ġdream":2168,"vert":2169,"Ġsong":2170,"Ġneg":2171,"Ġnews":2172,"Ġprint":2173,"Ġseason":2174,"Ġstring":2175,"Ġtruth":2176,"Ġenviron":2177,"Ġmother":2178,"Ġmatch":2179,"Ġcharacter":2180,"Ġdrop":2181,"Ġavail":2182,"Ġinit":2183,"Ġcult":2184,"Ġtried":2185,"Ġstick":2186,"Ġmount":2187,"Ġbeginning":2188,"erv":2189,"Ġthrow":2190,"Ġdraw":2191,"Ġcla":2192,"Ġinvol":2193,"Ġpap":2194,"Ġsituation":2195,"Ġchance":2196,"Ġboard":2197,"Ġjour":2198,"Ġchur":2199,"Ġproblems":2200,"Ġhimself":2201,"Ġtaken":2202,"Ġreport":2203,"no":2204,"Ġqueen":2205,"ances":2206,"Ġdom":2207,"Ġweird":2208,"Ġwomen":2209,"Ġbecame":2210,"Ġgrand":2211,"Ġang":2212,"Ġcy":2213,"acy":2214,"rod":2215,"Ġequal":2216,"Ġresearch":2217,"ives":2218,"Ġsafe":2219,"Ġarch":2220,"Ġce":2221,"Ġ11":2222,"Ġchurch":2223,"ivid":2224,"Ġsubscri":2225,"Ġimpro":2226,"Ġcontinue":2227,"Ġtalked":2228,"Ġunf":2229,"Ġplat":2230,"Ġblue":2231,"uction":2232,"reme":2233,"oring":2234,"Ġactual":2235,"more":2236,"Ġpoints":2237,"Ġwel":2238,"Ġsurpr":2239,"iety":2240,"Ġgold":2241,"Ġsounds":2242,"Ġreact":2243,"ball":2244,"ume":2245,"Ġobs":2246,"Ġroad":2247,"Ġpowerful":2248,"Ġsepar":2249,"lish":2250,"Ġmicro":2251,"Ġfurther":2252,"Ġtelling":2253,"Ġnotice":2254,"Ġmultiple":2255,"ulation":2256,"te":2257,"Ġplayed":2258,"Ġchanges":2259,"Ġgun":2260,"Ġskill":2261,"ament":2262,"Ġhello":2263,"Ġinfl":2264,"Ġbene":2265,"Ġlock":2266,"Ġthemselves":2267,"ries":2268,"ken":2269,"Ġround":2270,"Ġcamer":2271,"Ġmater":2272,"Ġrich":2273,"ief":2274,"Ġdig":2275,"ibly":2276,"Ġsocial":2277,"Ġupd":2278,"Ġ202":2279,"medi":2280,"Ġocc":2281,"Ġfavorite":2282,"avy":2283,"Ġnobody":2284,"Ġult":2285,"ops":2286,"Ġhund":2287,"Ġbrought":2288,"Ġyout":2289,"Ġseries":2290,"Ġindivid":2291,"aughter":2292,"ination":2293,"of":2294,"Ġuniverse":2295,"Ġstre":2296,"Ġopportun":2297,"Ġwoman":2298,"Ġhundred":2299,"Ġprop":2300,"Ġamerican":2301,"izing":2302,"Ġearlier":2303,"light":2304,"lement":2305,"Ġtowards":2306,"Ġmovie":2307,"Ġautom":2308,"Ġshoot":2309,"Ġdie":2310,"Ġbed":2311,"Ġsil":2312,"Ġnecess":2313,"Ġpred":2314,"Ġaddress":2315,"Ġmix":2316,"Ġtreat":2317,"Ġ40":2318,"Ġemot":2319,"Ġavailable":2320,"Ġmax":2321,"Ġblood":2322,"Ġmaterial":2323,"Ġnote":2324,"Ġnumbers":2325,"Ġ25":2326,"Ġnetwork":2327,"Ġcompon":2328,"Ġknight":2329,"Ġcamp":2330,"Ġstri":2331,"anger":2332,"Ġcloud":2333,"Ġminute":2334,"Ġcontain":2335,"emp":2336,"Ġjud":2337,"Ġserver":2338,"Ġlose":2339,"Ġbrand":2340,"Ġrepl":2341,"istic":2342,"Ġbal":2343,"Ġconstr":2344,"Ġpy":2345,"Ġframe":2346,"Ġweight":2347,"astic":2348,"Ġfeels":2349,"Ġweb":2350,"Ġputting":2351,"omm":2352,"Ġserious":2353,"Ġhigher":2354,"Ġchoose":2355,"Ġnormal":2356,"itional":2357,"itical":2358,"Ġtit":2359,"Ġexec":2360,"Ġhy":2361,"Ġtravel":2362,"eg":2363,"Ġaren":2364,"Ġmessage":2365,"Ġcopy":2366,"Ġmentioned":2367,"Ġcross":2368,"Ġbi":2369,"ivity":2370,"Ġmaster":2371,"Ġphot":2372,"Ġnon":2373,"Ġship":2374,"Ġturned":2375,"ules":2376,"used":2377,"bit":2378,"oint":2379,"Ġchat":2380,"Ġlaunch":2381,"Ġparent":2382,"Ġlives":2383,"Ġexcept":2384,"ault":2385,"Ġchanged":2386,"Ġenvironment":2387,"Ġpriv":2388,"fort":2389,"Ġnorth":2390,"mon":2391,"Ġfac":2392,"Ġprice":2393,"Ġcatch":2394,"uss":2395,"iod":2396,"Ġdrink":2397,"Ġoil":2398,"Ġpersonal":2399,"Ġsource":2400,"ences":2401,"Ġflow":2402,"Ġ16":2403,"Ġdeb":2404,"rael":2405,"Ġextreme":2406,"Ġperiod":2407,"ns":2408,"ram":2409,"cuss":2410,"Ġrout":2411,"Ġanymore":2412,"Ġlearned":2413,"Ġdot":2414,"Ġsquare":2415,"Ġworry":2416,"Ġmeaning":2417,"Ġimmedi":2418,"Ġconcept":2419,"Ġcomputer":2420,"Ġindust":2421,"Ġpresident":2422,"Ġgovernment":2423,"Ġsever":2424,"ires":2425,"Ġisrael":2426,"net":2427,"Ġpal":2428,"la":2429,"Ġparts":2430,"Ġcompet":2431,"Ġwelcome":2432,"Ġunited":2433,"Ġflight":2434,"Ġissue":2435,"Ġindividual":2436,"Ġluck":2437,"Ġmanage":2438,"uit":2439,"Ġstream":2440,"ored":2441,"ugg":2442,"Ġfinish":2443,"Ġseconds":2444,"ze":2445,"ured":2446,"Ġcard":2447,"Ġintell":2448,"iding":2449,"Ġdecided":2450,"Ġrepres":2451,"Ġfund":2452,"ctor":2453,"Ġcirc":2454,"Ġabove":2455,"ground":2456,"Ġcreating":2457,"ma":2458,"Ġgrab":2459,"ister":2460,"Ġmist":2461,"cent":2462,"Ġenter":2463,"Ġcolum":2464,"Ġscale":2465,"Ġvi":2466,"Ġappear":2467,"Ġcommunity":2468,"Ġagree":2469,"Ġdefe":2470,"Ġforget":2471,"Ġinterview":2472,"Ġmine":2473,"mb":2474,"Ġtechnology":2475,"Ġevidence":2476,"Ġtypes":2477,"Ġlocal":2478,"antly":2479,"Ġsetting":2480,"erence":2481,"Ġdatab":2482,"Ġprevious":2483,"Ġunderstanding":2484,"Ġshows":2485,"Ġpatter":2486,"Ġsurv":2487,"Ġeg":2488,"Ġcomplex":2489,"Ġfit":2490,"Ġcry":2491,"Ġyoutube":2492,"Ġwebs":2493,"Ġvoice":2494,"Ġ(":2495,"Ġrequest":2496,"Ġeasier":2497,"Ġaction":2498,"Ġplayer":2499,"Ġstarts":2500,"yn":2501,"esome":2502,"Ġseveral":2503,"Ġamerica":2504,"board":2505,"Ġincluding":2506,"Ġforg":2507,"Ġeur":2508,"ster":2509,"Ġdiscuss":2510,"Ġoriginal":2511,"olution":2512,"Ġrisk":2513,"Ġeventually":2514,"Ġattention":2515,"Ġseem":2516,"ibility":2517,"Ġvict":2518,"Ġdrag":2519,"amed":2520,"Ġtools":2521,"Ġaccept":2522,"Ġpark":2523,"Ġvalues":2524,"Ġbish":2525,"Ġessentially":2526,"Ġability":2527,"Ġlots":2528,"Ġplatform":2529,"ively":2530,"Ġsitting":2531,"Ġdeli":2532,"Ġspr":2533,"Ġbrother":2534,"Ġlate":2535,"Ġscience":2536,"ators":2537,"Ġcold":2538,"Ġcontinu":2539,"Ġsystems":2540,"ted":2541,"cast":2542,"Ġawesome":2543,"Ġgoog":2544,"Ġpieces":2545,"ps":2546,"Ġill":2547,"Ġwriting":2548,"Ġpressure":2549,"Ġconv":2550,"Ġresour":2551,"Ġsouth":2552,"Ġpod":2553,"Ġjoin":2554,"Ġpicture":2555,"Ġbigger":2556,"Ġepis":2557,"Ġscient":2558,"Ġspot":2559,"Ġsomewhere":2560,"Ġprofess":2561,"Ġbiggest":2562,"cious":2563,"Ġbattle":2564,"Ġtheory":2565,"Ġlower":2566,"Ġrespons":2567,"Ġcertainly":2568,"ĠĠ":2569,"play":2570,"ledge":2571,"Ġ14":2572,"igh":2573,"Ġweeks":2574,"Ġsold":2575,"Ġhop":2576,"arily":2577,"Ġsumm":2578,"ateg":2579,"Ġmus":2580,"Ġmi":2581,"Ġbenef":2582,"room":2583,"ese":2584,"Ġrand":2585,"imate":2586,"back":2587,"Ġstage":2588,"Ġpractice":2589,"Ġclaim":2590,"Ġglo":2591,"Ġsection":2592,"Ġnatural":2593,"ned":2594,"Ġgoal":2595,"Ġalone":2596,"ression":2597,"Ġalth":2598,"Ġbeat":2599,"Ġfollowing":2600,"Ġcast":2601,"sc":2602,"ili":2603,"dden":2604,"Ġgerman":2605,"fer":2606,"Ġanybody":2607,"Ġalthough":2608,"Ġgoogle":2609,"Ġrole":2610,"Ġasking":2611,"Ġhang":2612,"pped":2613,"Ġheat":2614,"Ġdouble":2615,"Ġ13":2616,"Ġcoff":2617,"Ġsudden":2618,"Ġbishop":2619,"Ġimpact":2620,"Ġphil":2621,"word":2622,"Ġinte":2623,"Ġtraining":2624,"ration":2625,"Ġconsider":2626,"Ġrecomm":2627,"enge":2628,"iny":2629,"Ġrange":2630,"asons":2631,"itten":2632,"ising":2633,"Ġscri":2634,"Ġrecommend":2635,"Ġsuggest":2636,"Ġda":2637,"Ġwood":2638,"Ġcat":2639,"Ġdestro":2640,"Ġtotally":2641,"Ġstat":2642,"Ġfaith":2643,"Ġlines":2644,"umb":2645,"Ġappre":2646,"Ġjack":2647,"Ġur":2648,"Ġwife":2649,"Ġnature":2650,"ges":2651,"port":2652,"Ġfeed":2653,"Ġadded":2654,"my":2655,"asing":2656,"Ġunique":2657,"Ġlikely":2658,"Ġwaiting":2659,"Ġbegan":2660,"Ġplayers":2661,"time":2662,"Ġsoftware":2663,"Ġfunny":2664,"ilities":2665,"Ġhol":2666,"Ġpeace":2667,"Ġsuff":2668,"Ġcompanies":2669,"Ġdav":2670,"Ġmap":2671,"Ġtast":2672,"Ġment":2673,"Ġfish":2674,"Ġthreat":2675,"Ġmemory":2676,"Ġdollars":2677,"Ġtarget":2678,"Ġconfig":2679,"uly":2680,"Ġrespect":2681,"Ġdro":2682,"Ġprovide":2683,"Ġir":2684,"Ġfear":2685,"Ġrecogn":2686,"Ġscript":2687,"Ġemail":2688,"Ġmedia":2689,"ients":2690,"Ġwish":2691,"Ġperformance":2692,"Ġmodern":2693,"dy":2694,"Ġholy":2695,"Ġdevelopment":2696,"Ġpawn":2697,"Ġcoun":2698,"Ġeasily":2699,"Ġhair":2700,"Ġexperi":2701,"Ġfat":2702,"Ġbow":2703,"Ġchord":2704,"Ġeye":2705,"Ġideas":2706,"Ġstyle":2707,"Ġice":2708,"Ġprep":2709,"Ġhi":2710,"thon":2711,"Ġach":2712,"Ġet":2713,"Ġaircraft":2714,"haps":2715,"Ġappreci":2716,"Ġtotal":2717,"Ġsens":2718,"Ġpaper":2719,"Ġchallenge":2720,"Ġhost":2721,"Ġtrump":2722,"Ġstandard":2723,"oke":2724,"Ġperhaps":2725,"unk":2726,"Ġcrew":2727,"Ġapart":2728,"ites":2729,"Ġjew":2730,"Ġbecomes":2731,"Ġrealize":2732,"Ġreality":2733,"Ġplaces":2734,"Ġecon":2735,"icle":2736,"he":2737,"Ġimmediately":2738,"Ġweap":2739,"Ġmeant":2740,"Ġbrit":2741,"Ġparty":2742,"Ġtun":2743,"ained":2744,"Ġbom":2745,"Ġremove":2746,"Ġeconom":2747,"Ġimplement":2748,"Ġdatabase":2749,"set":2750,"Ġtrade":2751,"ctions":2752,"Ġ0":2753,"Ġstructure":2754,"Ġtree":2755,"Ġoption":2756,"Ġcomment":2757,"Ġapply":2758,"Ġintrod":2759,"Ġdanger":2760,"Ġquality":2761,"Ġyep":2762,"Ġpolice":2763,"Ġupon":2764,"Ġscr":2765,"Ġcoffee":2766,"Ġsurface":2767,"ta":2768,"Ġwhe":2769,"Ġskin":2770,"Ġbasic":2771,"Ġsand":2772,"Ġrook":2773,"Ġsus":2774,"Ġfeatures":2775,"Ġenem":2776,"Ġdeg":2777,"Ġslight":2778,"Ġdel":2779,"Ġmech":2780,"Ġgar":2781,"ux":2782,"Ġissues":2783,"Ġruss":2784,"Ġprim":2785,"Ġfing":2786,"Ġwebsite":2787,"Ġhopefully":2788,"verage":2789,"ades":2790,"Ġsignific":2791,"Ġcamera":2792,"Ġpil":2793,"Ġlos":2794,"Ġexcited":2795,"Ġmassive":2796,"Ġwild":2797,"Ġsir":2798,"Ġtax":2799,"aining":2800,"Ġshape":2801,"Ġaccord":2802,"Ġstren":2803,"Ġvariable":2804,"Ġdeter":2805,"vent":2806,"Ġchap":2807,"Ġspeaking":2808,"Ġesc":2809,"Ġtown":2810,"Ġinstr":2811,"fl":2812,"ped":2813,"iment":2814,"Ġauthor":2815,"Ġconversation":2816,"Ġtransform":2817,"Ġnar":2818,"Ġdescription":2819,"gth":2820,"ived":2821,"Ġq":2822,"Ġrom":2823,"Ġdocument":2824,"Ġstrength":2825,"Ġfilm":2826,"Ġdecision":2827,"Ġsea":2828,"Ġyork":2829,"Ġbank":2830,"ension":2831,"Ġallows":2832,"ru":2833,"Ġchalleng":2834,"Ġerror":2835,"Ġwritten":2836,"Ġpurpose":2837,"Ġdesp":2838,"Ġdirection":2839,"rible":2840,"wise":2841,"Ġonto":2842,"Ġhonestly":2843,"Ġdirectly":2844,"Ġcontext":2845,"Ġthroughout":2846,"Ġcomfort":2847,"Ġcause":2848,"apt":2849,"Ġcommunic":2850,"aced":2851,"Ġjourney":2852,"Ġstrugg":2853,"Ġbible":2854,"50":2855,"onse":2856,"Ġachie":2857,"Ġincredible":2858,"Ġrev":2859,"Ġmad":2860,"Ġpen":2861,"Ġfold":2862,"Ġfaster":2863,"Ġbreat":2864,"Ġshop":2865,"dom":2866,"Ġcontroll":2867,"Ġoptions":2868,"Ġmur":2869,"cks":2870,"Ġbehav":2871,"Ġinterested":2872,"Ġopportunity":2873,"Ġtrou":2874,"Ġresponse":2875,"Ġpopular":2876,"iction":2877,"Ġ17":2878,"Ġturns":2879,"Ġinput":2880,"Ġknowledge":2881,"Ġlik":2882,"Ġhelps":2883,"Ġeurope":2884,"Ġrepresent":2885,"book":2886,"Ġmath":2887,"Ġflat":2888,"Ġord":2889,"Ġ60":2890,"Ġintellig":2891,"Ġdin":2892,"Ġcareer":2893,"ship":2894,"Ġled":2895,"Ġmeasure":2896,"Ġwindow":2897,"Ġben":2898,"orrow":2899,"Ġ24":2900,"Ġpaul":2901,"imin":2902,"Ġcarry":2903,"Ġregular":2904,"Ġtrick":2905,"Ġmechan":2906,"oid":2907,"Ġain":2908,"Ġrandom":2909,"ulate":2910,"Ġmilit":2911,"roll":2912,"uced":2913,"Ġpositive":2914,"Ġbey":2915,"Ġpercent":2916,"Ġveh":2917,"raph":2918,"Ġnegative":2919,"Ġwest":2920,"Ġimm":2921,"Ġheavy":2922,"Ġshowing":2923,"Ġtonight":2924,"Ġstudy":2925,"Ġshut":2926,"ipe":2927,"apan":2928,"Ġdesigned":2929,"ding":2930,"Ġbag":2931,"Ġden":2932,"Ġfeet":2933,"Ġinvolved":2934,"Ġshall":2935,"Ġeffort":2936,"Ġhandle":2937,"Ġtemper":2938,"anced":2939,"Ġphysical":2940,"Ġjav":2941,"Ġjapan":2942,"Ġdrug":2943,"Ġegg":2944,"Ġkick":2945,"Ġaccording":2946,"Ġran":2947,"bing":2948,"Ġver":2949,"aged":2950,"Ġprogress":2951,"asc":2952,"Ġplane":2953,"Ġanc":2954,"Ġbeyond":2955,"Ġclearly":2956,"for":2957,"Ġunivers":2958,"Ġinstance":2959,"Ġmission":2960,"imately":2961,"Ġamong":2962,"Ġsmart":2963,"Ġkilled":2964,"Ġresults":2965,"Ġplanet":2966,"Ġconcern":2967,"Ġepisode":2968,"Ġdestroy":2969,"Ġaware":2970,"Ġpow":2971,"Ġedge":2972,"Ġhole":2973,"Ġscen":2974,"Ġcred":2975,"Ġtend":2976,"Ġfant":2977,"Ġinteract":2978,"Ġrelig":2979,"Ġsky":2980,"Ġreading":2981,"ners":2982,"Ġoffice":2983,"Ġindustry":2984,"Ġstreet":2985,"gue":2986,"ai":2987,"sp":2988,"Ġstock":2989,"Ġmembers":2990,"Ġchoice":2991,"Ġinvestig":2992,"Ġchina":2993,"Ġfully":2994,"Ġquant":2995,"aur":2996,"Ġje":2997,"itor":2998,"Ġonline":2999,"Ġallowed":3000,"den":3001,"Ġbooks":3002,"Ġelement":3003,"ams":3004,"Ġann":3005,"Ġund":3006,"Ġdefault":3007,"Ġfloor":3008,"Ġmis":3009,"Ġreasons":3010,"Ġdied":3011,"ival":3012,"Ġbir":3013,"Ġkept":3014,"Ġut":3015,"Ġwhenever":3016,"Ġemploy":3017,"Ġtor":3018,"Ġwrote":3019,"Ġunfortun":3020,"Ġsolution":3021,"Ġtour":3022,"idge":3023,"Ġconsid":3024,"ama":3025,"cer":3026,"Ġgraph":3027,"Ġmer":3028,"Ġuseful":3029,"Ġbackground":3030,"Ġsad":3031,"Ġrace":3032,"Ġdate":3033,"Ġri":3034,"usion":3035,"Ġsweet":3036,"Ġmode":3037,"Ġrate":3038,"Ġmir":3039,"Ġplug":3040,"rench":3041,"Ġnotes":3042,"Ġterr":3043,"Ġmodels":3044,"Ġinternet":3045,"Ġburn":3046,"ping":3047,"ological":3048,"Ġfan":3049,"Ġexce":3050,"Ġnine":3051,"Ġparents":3052,"Ġcalc":3053,"Ġpython":3054,"bal":3055,"Ġinflu":3056,"Ġcases":3057,"Ġcore":3058,"Ġtask":3059,"Ġcentury":3060,"Ġcars":3061,"Ġmilitary":3062,"Ġpsy":3063,"Ġwalking":3064,"Ġextremely":3065,"Ġbatter":3066,"aw":3067,"Ġprinc":3068,"Ġspl":3069,"Ġvarious":3070,"ength":3071,"Ġpotential":3072,"Ġbull":3073,"Ġimprove":3074,"Ġdavid":3075,"Ġcontact":3076,"...":3077,"Ġreve":3078,"Ġapi":3079,"acing":3080,"Ġspent":3081,"Ġisland":3082,"Ġscene":3083,"Ġintegr":3084,"ley":3085,"Ġattemp":3086,"icient":3087,"Ġdisplay":3088,"go":3089,"Ġvisual":3090,"itude":3091,"Ġpsych":3092,"Ġtemperature":3093,"Ġspecif":3094,"Ġmat":3095,"Ġservices":3096,"Ġproducts":3097,"Ġchristian":3098,"erve":3099,"Ġnone":3100,"mer":3101,"Ġstories":3102,"Ġgas":3103,"Ġrules":3104,"Ġmich":3105,"uments":3106,"Ġcomments":3107,"ises":3108,"ald":3109,"Ġdoub":3110,"Ġlayer":3111,"Ġoutput":3112,"Ġdespite":3113,"iced":3114,"Ġmoved":3115,"Ġsubscribe":3116,"Ġweren":3117,"Ġdry":3118,"Ġgosh":3119,"ressed":3120,"Ġsmaller":3121,"Ġten":3122,"Ġappreciate":3123,"Ġdan":3124,"Ġbillion":3125,"Ġlift":3126,"Ġfal":3127,"Ġsex":3128,"Ġfuel":3129,"Ġproduction":3130,"Ġarray":3131,"gen":3132,"Ġended":3133,"Ġloop":3134,"Ġtells":3135,"inary":3136,"Ġoffer":3137,"Ġcup":3138,"Ġsaf":3139,"Ġworse":3140,"Ġconnection":3141,"Ġhate":3142,"Ġsteps":3143,"ls":3144,"Ġshar":3145,"Ġaverage":3146,"Ġtherefore":3147,"Ġcalling":3148,"Ġkinds":3149,"Ġaffect":3150,"Ġborn":3151,"Ġadding":3152,"Ġtough":3153,"Ġvirt":3154,"Ġciv":3155,"Ġforever":3156,"how":3157,"Ġprivate":3158,"Ġthoughts":3159,"Ġ80":3160,"Ġitems":3161,"Ġchick":3162,"Ġdisapp":3163,"Ġthousands":3164,"Ġrequire":3165,"Ġopin":3166,"Ġnamed":3167,"Ġfiles":3168,"Ġcorner":3169,"Ġwindows":3170,"Ġseparate":3171,"Ġadvant":3172,"Ġpin":3173,"Ġeating":3174,"Ġglass":3175,"Ġgal":3176,"Ġprison":3177,"Ġwide":3178,"Ġshouldn":3179,"Ġemer":3180,"Ġviol":3181,"Ġquar":3182,"Ġperspect":3183,"Ġcharge":3184,"Ġble":3185,"Ġanywhere":3186,"aven":3187,"val":3188,"Ġadj":3189,"atically":3190,"Ġcand":3191,"Ġbirth":3192,"Ġrot":3193,"Ġnav":3194,"Ġspread":3195,"Ġslightly":3196,"Ġmissing":3197,"off":3198,"Ġgrowing":3199,"Ġfamous":3200,"Ġconsist":3201,"Ġadm":3202,"Ġtruly":3203,"Ġlength":3204,"aries":3205,"Ġhom":3206,"Ġrealized":3207,"ety":3208,"Ġdetails":3209,"ograph":3210,"Ġloss":3211,"Ġnut":3212,"Ġmaint":3213,"Ġelements":3214,"Ġfort":3215,"Ġpodcast":3216,"Ġlevels":3217,"Ġyell":3218,"Ġremind":3219,"Ġshowed":3220,"Ġreview":3221,"Ġsam":3222,"Ġunless":3223,"Ġstation":3224,"Ġsite":3225,"Ġens":3226,"Ġspecifically":3227,"icy":3228,"Ġexerc":3229,"Ġtow":3230,"hy":3231,"Ġshift":3232,"Ġlibr":3233,"Ġspin":3234,"anch":3235,"Ġsugar":3236,"Ġwonderful":3237,"Ġminor":3238,"itted":3239,"like":3240,"Ġuses":3241,"Ġcapital":3242,"Ġcivil":3243,"Ġdue":3244,"Ġotherwise":3245,"Ġevents":3246,"Ġnames":3247,"Ġworst":3248,"Ġindex":3249,"bi":3250,"Ġhyp":3251,"Ġgre":3252,"Ġelectric":3253,"cript":3254,"Ġcaus":3255,"Ġrelease":3256,"etic":3257,"bor":3258,"Ġtomorrow":3259,"Ġcloser":3260,"Ġculture":3261,"Ġlin":3262,"Ġrecently":3263,"Ġbehavior":3264,"Ġareas":3265,"Ġrepe":3266,"Ġdetect":3267,"Ġstack":3268,"mas":3269,"Ġdamage":3270,"Ġourselves":3271,"Ġfighting":3272,"Ġdefine":3273,"Ġflying":3274,"zz":3275,"Ġaust":3276,"Ġusers":3277,"Ġsyn":3278,"airs":3279,"Ġresist":3280,"Ġrow":3281,"Ġunfortunately":3282,"Ġjun":3283,"Ġmagn":3284,"Ġroot":3285,"Ġdeploy":3286,"Ġtruck":3287,"Ġlie":3288,"Ġpaid":3289,"pping":3290,"Ġresources":3291,"Ġupdate":3292,"Ġversus":3293,"Ġterm":3294,"Ġign":3295,"key":3296,"Ġparticularly":3297,"Ġtv":3298,"Ġbound":3299,"ended":3300,"Ġsuccessful":3301,"Ġpet":3302,"und":3303,"lly":3304,"aging":3305,"Ġrule":3306,"Ġoptim":3307,"Ġheaven":3308,"Ġequals":3309,"Ġarmy":3310,"Ġcondition":3311,"Ġhuh":3312,"ocr":3313,"ification":3314,"Ġgam":3315,"Ġincrease":3316,"Ġvill":3317,"rest":3318,"Ġfresh":3319,"Ġactiv":3320,"Ġinsp":3321,"Ġstatement":3322,"Ġarri":3323,"Ġrain":3324,"cket":3325,"oh":3326,"aff":3327,"Ġpattern":3328,"ession":3329,"Ġtesting":3330,"Ġbought":3331,"Ġargument":3332,"Ġtight":3333,"Ġband":3334,"Ġremo":3335,"Ġmac":3336,"Ġtitle":3337,"soci":3338,"pper":3339,"Ġwid":3340,"itect":3341,"Ġchapter":3342,"Ġhurt":3343,"Ġther":3344,"ocol":3345,"Ġdemon":3346,"Ġ90":3347,"Ġdriving":3348,"Ġscore":3349,"Ġcourt":3350,"Ġpu":3351,"Ġholding":3352,"Ġarchitect":3353,"itar":3354,"ana":3355,"Ġmoon":3356,"Ġht":3357,"Ġteams":3358,"Ġcurrently":3359,"Ġstanding":3360,"Ġstuck":3361,"Ġnational":3362,"Ġ199":3363,"Ġchamp":3364,"Ġcolumn":3365,"Ġprior":3366,"Ġbroken":3367,"Ġban":3368,"ato":3369,"ipped":3370,"Ġperspective":3371,"Ġtab":3372,"Ġuk":3373,"Ġclient":3374,"cl":3375,"Ġweak":3376,"miss":3377,"Ġruns":3378,"Ġtrouble":3379,"Ġconnected":3380,"Ġoverall":3381,"Ġdownload":3382,"Ġdyn":3383,"Ġyo":3384,"Ġbutter":3385,"Ġsociety":3386,"Ġanaly":3387,"Ġapple":3388,"Ġlistening":3389,"imum":3390,"Ġfinanc":3391,"Ġcharacters":3392,"osp":3393,"Ġsen":3394,"Ġmiles":3395,"Ġleaving":3396,"Ġfunctions":3397,"Ġassoci":3398,"ids":3399,"Ġiron":3400,"alth":3401,"Ġleaders":3402,"Ġdefense":3403,"Ġcomponent":3404,"Ġenglish":3405,"urs":3406,"Ġwire":3407,"Ġinitial":3408,"Ġmoves":3409,"here":3410,"Ġsick":3411,"Ġplant":3412,"Ġfinding":3413,"ha":3414,"Ġlat":3415,"orge":3416,"Ġjames":3417,"Ġsafety":3418,"Ġchanging":3419,"Ġsomehow":3420,"Ġmeeting":3421,"Ġwarm":3422,"Ġvision":3423,"Ġknowing":3424,"oon":3425,"ius":3426,"Ġavoid":3427,"ula":3428,"Ġfinished":3429,"Ġboss":3430,"Ġfol":3431,"Ġtiny":3432,"Ġwilling":3433,"Ġlaug":3434,"Ġproperty":3435,"Ġconscious":3436,"wor":3437,"Ġprec":3438,"Ġskills":3439,"iliar":3440,"Ġhumans":3441,"Ġoppos":3442,"Ġmal":3443,"Ġbless":3444,"Ġgrav":3445,"Ġtick":3446,"Ġpassed":3447,"Ġconsum":3448,"hood":3449,"Ġsolid":3450,"uted":3451,"Ġlocation":3452,"Ġcaught":3453,"Ġunit":3454,"utions":3455,"Ġeverywhere":3456,"Ġadjust":3457,"Ġgrad":3458,"Ġstor":3459,"ushing":3460,"Ġcounter":3461,"Ġdefend":3462,"Ġparam":3463,"Ġdangerous":3464,"Ġlif":3465,"Ġstress":3466,"Ġcalls":3467,"Ġopening":3468,"Ġsubject":3469,"Ġforgot":3470,"Ġrespond":3471,"Ġrelative":3472,"Ġexpert":3473,"tle":3474,"Ġnecessarily":3475,"Ġancient":3476,"Ġexpensive":3477,"Ġsac":3478,"Ġdepart":3479,"Ġip":3480,"Ġattach":3481,"Ġdim":3482,"Ġalive":3483,"Ġboys":3484,"Ġmanager":3485,"Ġapparent":3486,"Ġenemy":3487,"Ġjer":3488,"Ġperfectly":3489,"Ġlimit":3490,"Ġneigh":3491,"Ġpoor":3492,"Ġrelated":3493,"Ġeduc":3494,"Ġbudd":3495,"ob":3496,"Ġtermin":3497,"Ġshad":3498,"Ġdecl":3499,"Ġgreater":3500,"Ġloved":3501,"ey":3502,"Ġeast":3503,"Ġadvantage":3504,"Ġshock":3505,"Ġdecide":3506,"Ġbrown":3507,"Ġpassword":3508,"Ġsnow":3509,"Ġstars":3510,"Ġmanagement":3511,"Ġtechni":3512,"Ġsequ":3513,"Ġaudience":3514,"Ġcomplic":3515,"Ġreveal":3516,"Ġcab":3517,"year":3518,"Ġregard":3519,"Ġdistance":3520,"Ġgenerally":3521,"Ġboom":3522,"Ġtal":3523,"Ġrare":3524,"Ġlights":3525,"Ġcloth":3526,"Ġcustomer":3527,"Ġscrew":3528,"Ġkeeping":3529,"Ġfreed":3530,"Ġhistor":3531,"Ġclub":3532,"Ġfle":3533,"Ġfell":3534,"Ġange":3535,"Ġhall":3536,"Ġdamn":3537,"Ġsolve":3538,"Ġintelligence":3539,"outh":3540,"Ġquote":3541,"laughter":3542,"Ġcos":3543,"raid":3544,"Ġsmo":3545,"Ġalex":3546,"Ġterrible":3547,"Ġheight":3548,"point":3549,"Ġcream":3550,"Ġ70":3551,"isions":3552,"Ġexpand":3553,"Ġthick":3554,"Ġmagic":3555,"Ġgeneration":3556,"Ġguard":3557,"Ġarr":3558,"Ġmob":3559,"Ġindic":3560,"Ġassum":3561,"Ġolder":3562,"Ġforth":3563,"rast":3564,"Ġprojects":3565,"Ġring":3566,"Ġultimately":3567,"Ġfamiliar":3568,"Ġempty":3569,"Ġstorage":3570,"Ġknock":3571,"Ġlarger":3572,"Ġfed":3573,"Ġsmell":3574,"Ġeth":3575,"Ġopinion":3576,"Ġlack":3577,"Ġexperiment":3578,"Ġsharp":3579,"Ġminus":3580,"Ġafraid":3581,"Ġrough":3582,"Ġbritish":3583,"Ġlu":3584,"Ġpredict":3585,"Ġhill":3586,"Ġimages":3587,"Ġpolitical":3588,"Ġanti":3589,"ees":3590,"ham":3591,"Ġnormally":3592,"Ġachieve":3593,"odes":3594,"Ġverse":3595,"ino":3596,"Ġsoul":3597,"ously":3598,"Ġevil":3599,"Ġleading":3600,"Ġ21":3601,"Ġfundament":3602,"Ġcateg":3603,"Ġhighly":3604,"Ġgreatest":3605,"ael":3606,"fact":3607,"Ġends":3608,"pid":3609,"Ġdevice":3610,"Ġcovered":3611,"Ġincredibly":3612,"enced":3613,"Ġoce":3614,"por":3615,"Ġbright":3616,"Ġnearly":3617,"Ġtele":3618,"Ġsignificant":3619,"Ġtraff":3620,"Ġinclude":3621,"Ġtypically":3622,"ipping":3623,"ony":3624,"Ġsuddenly":3625,"Ġcareful":3626,"Ġreplace":3627,"Ġtrip":3628,"Ġali":3629,"Ġdistrib":3630,"Ġestab":3631,"Ġgent":3632,"Ġsport":3633,"Ġobjects":3634,"Ġglobal":3635,"Ġreb":3636,"Ġsales":3637,"Ġgiant":3638,"cker":3639,"Ġcoach":3640,"king":3641,"Ġmostly":3642,"Ġcele":3643,"Ġvehicle":3644,"Ġaspect":3645,"itic":3646,"eters":3647,"Ġdise":3648,"Ġforces":3649,"Ġvisit":3650,"Ġstrange":3651,"Ġ22":3652,"ifying":3653,"Ġfrench":3654,"Ġfrequ":3655,"Ġmovement":3656,"Ġglad":3657,"ties":3658,"Ġcolors":3659,"Ġgrowth":3660,"Ġcelebr":3661,"Ġfootball":3662,"Ġchea":3663,"Ġbroad":3664,"cy":3665,"Ġfantastic":3666,"ky":3667,"Ġimposs":3668,"ays":3669,"round":3670,"Ġfalse":3671,"Ġdynam":3672,"Ġriver":3673,"Ġsalt":3674,"Ġtaste":3675,"Ġvan":3676,"Ġhelped":3677,"Ġlived":3678,"men":3679,"Ġhook":3680,"ucle":3681,"lished":3682,"Ġdough":3683,"Ġcontract":3684,"Ġseemed":3685,"Ġclim":3686,"Ġcells":3687,"eline":3688,"xic":3689,"Ġbread":3690,"Ġroute":3691,"Ġbob":3692,"Ġhelping":3693,"idden":3694,"rupt":3695,"Ġcrack":3696,"Ġrub":3697,"uration":3698,"Ġdaughter":3699,"ef":3700,"Ġgotta":3701,"Ġfilter":3702,"Ġstupid":3703,"Ġjoy":3704,"Ġconfir":3705,"Ġcomplet":3706,"Ġblow":3707,"Ġsan":3708,"Ġdemand":3709,"Ġhealthy":3710,"Ġdar":3711,"Ġexamples":3712,"Ġwear":3713,"Ġquiet":3714,"iest":3715,"Ġorganization":3716,"uary":3717,"Ġassign":3718,"Ġattract":3719,"Ġadvanced":3720,"Ġstrate":3721,"Ġmistake":3722,"Ġhundreds":3723,"Ġpackage":3724,"Ġ198":3725,"Ġbringing":3726,"Ġbelief":3727,"Ġstrategy":3728,"Ġdiscovered":3729,"Ġfourth":3730,"Ġmh":3731,"Ġadmin":3732,"Ġtro":3733,"Ġdoctor":3734,"yal":3735,"Ġmouth":3736,"Ġconditions":3737,"Ġrequired":3738,"Ġchicken":3739,"lock":3740,"Ġactive":3741,"aves":3742,"Ġconstruct":3743,"Ġmetal":3744,"Ġfreedom":3745,"Ġhus":3746,"Ġreleased":3747,"ole":3748,"Ġexpected":3749,"Ġbat":3750,"Ġkitch":3751,"Ġcomponents":3752,"Ġimpossible":3753,"Ġaccur":3754,"Ġcountries":3755,"Ġprin":3756,"Ġcolle":3757,"Ġexplore":3758,"Ġbord":3759,"Ġmc":3760,"Ġmel":3761,"Ġhosp":3762,"Ġbird":3763,"Ġquarter":3764,"Ġnucle":3765,"Ġken":3766,"Ġride":3767,"Ġcustomers":3768,"enty":3769,"Ġsides":3770,"Ġmichael":3771,"Ġstone":3772,"Ġrefer":3773,"Ġreference":3774,"Ġtail":3775,"iling":3776,"Ġplays":3777,"Ġpossibly":3778,"Ġexpress":3779,"band":3780,"Ġlad":3781,"Ġox":3782,"Ġprogramming":3783,"Ġstopped":3784,"Ġaddition":3785,"Ġheld":3786,"Ġhero":3787,"Ġtill":3788,"Ġturning":3789,"Ġtank":3790,"Ġsmooth":3791,"Ġmeat":3792,"iles":3793,"Ġstudents":3794,"Ġdriver":3795,"Ġmedic":3796,"Ġsurround":3797,"ios":3798,"ring":3799,"mber":3800,"Ġnoticed":3801,"Ġgenerate":3802,"Ġoperation":3803,"Ġmotor":3804,"Ġmental":3805,"Ġchem":3806,"iation":3807,"Ġcentral":3808,"Ġdepending":3809,"izz":3810,"Ġbalance":3811,"Ġpaint":3812,"Ġfinancial":3813,"Ġbecoming":3814,"Ġprompt":3815,"Ġcollege":3816,"Ġanimals":3817,"Ġdeliver":3818,"Ġcompared":3819,"Ġcritical":3820,"bar":3821,"Ġpromise":3822,"Ġtri":3823,"Ġfans":3824,"Ġmultip":3825,"Ġtag":3826,"Ġslowly":3827,"Ġconstant":3828,"Ġapparently":3829,"ses":3830,"agram":3831,"Ġbrings":3832,"Ġadditional":3833,"Ġprevent":3834,"30":3835,"Ġkeeps":3836,"right":3837,"Ġsister":3838,"Ġproduce":3839,"Ġpersonally":3840,"Ġleader":3841,"itter":3842,"Ġjobs":3843,"Ġangle":3844,"Ġweather":3845,"Ġfilled":3846,"down":3847,"Ġoct":3848,"late":3849,"ston":3850,"Ġtrig":3851,"Ġbroke":3852,"Ġchallenges":3853,"eared":3854,"Ġnavig":3855,"Ġguitar":3856,"Ġexercise":3857,"Ġdiet":3858,"oo":3859,"ches":3860,"Ġju":3861,"Ġetc":3862,"Ġdomin":3863,"Ġcart":3864,"Ġkitchen":3865,"Ġyellow":3866,"Ġwave":3867,"bert":3868,"ulated":3869,"Ġimpress":3870,"Ġ500":3871,"Ġsummer":3872,"Ġencour":3873,"Ġcomplicated":3874,"Ġquantum":3875,"Ġchristmas":3876,"ening":3877,"izes":3878,"Ġmanaged":3879,"itness":3880,"Ġcancer":3881,"ga":3882,"Ġsymb":3883,"Ġvalid":3884,"Ġfrank":3885,"Ġbridge":3886,"Ġdelete":3887,"Ġspring":3888,"Ġapplications":3889,"Ġlibrary":3890,"Ġregion":3891,"Ġharder":3892,"gend":3893,"Ġcontainer":3894,"Ġfolder":3895,"Ġinternational":3896,"Ġlosing":3897,"esis":3898,"epend":3899,"Ġamazon":3900,"Ġdemocr":3901,"Ġwheel":3902,"Ġpure":3903,"Ġconsidered":3904,"sequ":3905,"Ġjoe":3906,"Ġalign":3907,"Ġtrial":3908,"nces":3909,"Ġpaste":3910,"Ġpump":3911,"Ġradio":3912,"Ġrap":3913,"ulf":3914,"Ġgirls":3915,"Ġdish":3916,"Ġscal":3917,"Ġcomfortable":3918,"Ġbell":3919,".&":3920,"Ġlegend":3921,"ancy":3922,"Ġalt":3923,"ued":3924,"Ġmilk":3925,"Ġbattery":3926,"Ġrestaur":3927,"entic":3928,"Ġhorse":3929,"osop":3930,"iring":3931,"Ġmountain":3932,"Ġautomatically":3933,"Ġgotten":3934,"Ġinvent":3935,"Ġtopic":3936,"Ġgroups":3937,"Ġsamp":3938,"rees":3939,"iers":3940,"Ġfolks":3941,"Ġcompl":3942,"Ġhasn":3943,"Ġreflect":3944,"Ġafric":3945,"Ġcaptain":3946,"Ġaustral":3947,"Ġdeveloped":3948,"ulations":3949,"Ġpad":3950,"Ġscared":3951,"lin":3952,"Ġicon":3953,"iant":3954,"Ġphilosop":3955,"Ġprem":3956,"nov":3957,"Ġpicked":3958,"Ġmoments":3959,"iving":3960,"Ġ194":3961,"Ġproph":3962,"Ġactions":3963,"Ġcapac":3964,"ql":3965,"Ġdiam":3966,"Ġocean":3967,"Ġpitch":3968,"Ġkil":3969,"Ġsaved":3970,"Ġinsane":3971,"itory":3972,"Ġconstantly":3973,"omp":3974,"Ġnecessary":3975,"Ġescape":3976,"Ġexciting":3977,"Ġselling":3978,"Ġgift":3979,"Ġsets":3980,"Ġfollowed":3981,"Ġhidden":3982,"Ġbear":3983,"Ġeffects":3984,"Ġwinning":3985,"Ġdaily":3986,"Ġmillions":3987,"Ġcash":3988,"Ġpound":3989,"Ġrise":3990,"Ġthread":3991,"ims":3992,"Ġsymbol":3993,"Ġflex":3994,"Ġleague":3995,"cing":3996,"Ġfasc":3997,"Ġfif":3998,"Ġamp":3999,"ened":4000,"Ġpip":4001,"ysis":4002,"Ġhide":4003,"Ġhyd":4004,"Ġindeed":4005,"bon":4006,"Ġcrash":4007,"Ġbreaking":4008,"Ġchart":4009,"Ġpulled":4010,"Ġwealth":4011,"Ġscroll":4012,"Ġgeorge":4013,"Ġinj":4014,"Ġcontrib":4015,"Ġtraffic":4016,"Ġgrew":4017,"Ġcircle":4018,"Ġhighlight":4019,"Ġempire":4020,"Ġindepend":4021,"Ġnode":4022,"the":4023,"Ġmarried":4024,"Ġfinger":4025,"Ġaccident":4026,"Ġgoals":4027,"Ġvirtual":4028,"Ġfro":4029,"Ġshap":4030,"Ġvir":4031,"Ġclosed":4032,"Ġtwice":4033,"Ġgentle":4034,"Ġvac":4035,"Ġfarm":4036,"Ġjan":4037,"Ġtraditional":4038,"Ġcrow":4039,"Ġjim":4040,"Ġbath":4041,"Ġgh":4042,"10":4043,"mos":4044,"Ġmike":4045,"Ġweapons":4046,"Ġ000":4047,"Ġbare":4048,"Ġcredit":4049,"Ġgear":4050,"Ġdegree":4051,"Ġmanu":4052,"fr":4053,"Ġtrail":4054,"Ġwes":4055,"Ġdoubt":4056,"Ġreceive":4057,"eal":4058,"Ġsupply":4059,"Ġhelpful":4060,"Ġwitness":4061,"Ġseat":4062,"Ġdelic":4063,"Ġyester":4064,"Ġhearing":4065,"Ġbud":4066,";&":4067,"Ġengineering":4068,"Ġpotentially":4069,"Ġefficient":4070,"Ġsacr":4071,"ruct":4072,"Ġauthentic":4073,"Ġunderne":4074,"Ġhusband":4075,"Ġnation":4076,"ucing":4077,"ml":4078,"Ġstorm":4079,"ublic":4080,"Ġyesterday":4081,"Ġunderneath":4082,"Ġbrill":4083,"Ġguest":4084,"Ġevolution":4085,"Ġstret":4086,"wood":4087,"Ġgard":4088,"Ġelectr":4089,"Ġpaying":4090,"Ġlimited":4091,"Ġbrows":4092,"Ġdollar":4093,"Ġseed":4094,"icles":4095,"Ġformat":4096,"Ġmethods":4097,"ba":4098,"phone":4099,"Ġleads":4100,"Ġtrees":4101,"Ġinfin":4102,"oles":4103,"Ġmart":4104,"Ġmember":4105,"Ġoperating":4106,"Ġshared":4107,"Ġrepublic":4108,"Ġgate":4109,"Ġhous":4110,"Ġru":4111,"Ġdecisions":4112,"nday":4113,"Ġslide":4114,"Ġeffective":4115,"Ġblocks":4116,"sec":4117,"soft":4118,"Ġfocused":4119,"Ġuniversity":4120,"Ġscenar":4121,"gs":4122,"Ġpun":4123,"Ġcraft":4124,"Ġsession":4125,"Ġsar":4126,"Ġbon":4127,"Ġserve":4128,"Ġprove":4129,"Ġrecognize":4130,"Ġopened":4131,"eral":4132,"Ġwalls":4133,"Ġclust":4134,"Ġassist":4135,"aren":4136,"Ġopposite":4137,"Ġsteel":4138,"thern":4139,"Ġ197":4140,"Ġax":4141,"kend":4142,"inct":4143,"ox":4144,"Ġholes":4145,"Ġvariables":4146,"Ġsplit":4147,"Ġboat":4148,"anna":4149,"Ġhung":4150,"Ġpeter":4151,"Ġcommit":4152,"Ġrecent":4153,"Ġenjoyed":4154,"Ġofficer":4155,"Ġrail":4156,"ceed":4157,"Ġkingdom":4158,"Ġprofessional":4159,"Ġsem":4160,"20":4161,"Ġboost":4162,"Ġkeys":4163,"Ġwake":4164,"erson":4165,"Ġsurprise":4166,"Ġphysics":4167,"rain":4168,"Ġemotional":4169,"Ġquery":4170,"Ġlargest":4171,"asks":4172,"icing":4173,"Ġstatus":4174,"Ġcris":4175,"oom":4176,"Ġbenefit":4177,"Ġaltern":4178,"Ġdemonstr":4179,"Ġgalax":4180,"Ġzone":4181,"Ġmissed":4182,"Ġinterp":4183,"Ġoccur":4184,"atory":4185,"Ġlam":4186,"Ġunlike":4187,"Ġdigital":4188,"Ġflag":4189,"Ġchain":4190,"Ġanalysis":4191,"Ġwatched":4192,"Ġletter":4193,"phere":4194,"Ġengines":4195,"Ġevol":4196,"Ġclock":4197,"Ġpopulation":4198,"Ġaz":4199,"Ġtap":4200,"Ġ196":4201,"Ġneur":4202,"Ġstudio":4203,"Ġanimal":4204,"Ġbrief":4205,"Ġdragon":4206,"Ġlucky":4207,"box":4208,"Ġdepends":4209,"gin":4210,"Ġpi":4211,"Ġweapon":4212,"Ġworried":4213,"Ġpilot":4214,"Ġdetermin":4215,"Ġmanufact":4216,"Ġagent":4217,"Ġdiscover":4218,"Ġ'":4219,"Ġjavas":4220,"Ġsched":4221,"Ġbelieved":4222,"Ġdeeper":4223,"itation":4224,"Ġindia":4225,"gment":4226,"Ġnuclear":4227,"etch":4228,"Ġmedical":4229,"Ġwed":4230,"Ġlesson":4231,"Ġpool":4232,"Ġing":4233,"Ġbelong":4234,"iday":4235,"Ġscientists":4236,"Ġdash":4237,"Ġjavascript":4238,"Ġcollection":4239,"Ġsubm":4240,"Ġdisease":4241,"Ġexperiences":4242,"inese":4243,"Ġinterface":4244,"Ġprefer":4245,"Ġupgr":4246,"Ġappl":4247,"Ġpresence":4248,"Ġconcl":4249,"Ġreceived":4250,"Ġunc":4251,"Ġassume":4252,"Ġcheese":4253,"Ġsetup":4254,"Ġsolar":4255,"Ġital":4256,"Ġcutting":4257,"Ġdive":4258,"gor":4259,"Ġegy":4260,"lection":4261,"Ġchinese":4262,"Ġpair":4263,"Ġegypt":4264,"Ġlaws":4265,"Ġproud":4266,"Ġtip":4267,"Ġformer":4268,"ndon":4269,"Ġsecure":4270,"Ġdu":4271,"Ġtests":4272,"Ġdealing":4273,"Ġwearing":4274,"Ġfer":4275,"Ġproperly":4276,"Ġraise":4277,"Ġmicrosoft":4278,"Ġconso":4279,"Ġjudge":4280,"Ġsubst":4281,"Ġinstalled":4282,"Ġfalling":4283,"Ġodd":4284,"eless":4285,"ov":4286,"Ġstudent":4287,"Ġrender":4288,"Ġleaves":4289,"Ġmatt":4290,"Ġofficial":4291,"Ġded":4292,"Ġentirely":4293,"Ġroman":4294,"Ġhospital":4295,"Ġcrime":4296,"Ġbranch":4297,"Ġpolicy":4298,"Ġren":4299,"do":4300,"Ġsignal":4301,"Ġhighest":4302,"Ġwal":4303,"deg":4304,"Ġtoken":4305,"Ġwalked":4306,"Ġpushing":4307,"Ġactivity":4308,"Ġ300":4309,"Ġdesk":4310,"Ġjapanese":4311,"Ġphase":4312,"ounce":4313,"Ġshout":4314,"Ġconvert":4315,"Ġstrateg":4316,"Ġmulti":4317,"rated":4318,"Ġtons":4319,"Ġtables":4320,"Ġvalu":4321,"Ġoperations":4322,"Ġconsole":4323,"Ġdescribe":4324,"Ġengland":4325,"Ġseriously":4326,"Ġhotel":4327,"Ġguide":4328,"Ġspiritual":4329,"Ġtan":4330,"Ġmotiv":4331,"Ġairpl":4332,"Ġbuying":4333,"others":4334,"enom":4335,"Ġpassing":4336,"Ġexam":4337,"utor":4338,"Ġconflic":4339,"Ġsuit":4340,"Ġinfluence":4341,"ining":4342,"Ġclassic":4343,"hold":4344,"Ġasse":4345,"Ġcoast":4346,"Ġfruit":4347,"Ġgig":4348,"Ġinternal":4349,"une":4350,"Ġdisp":4351,"Ġspee":4352,"Ġdinner":4353,"Ġmaintain":4354,"Ġcampa":4355,"Ġgoodness":4356,"Ġdepartment":4357,"Ġcampaign":4358,"aker":4359,"Ġbomb":4360,"Ġhoping":4361,"Ġshown":4362,"Ġgermany":4363,"Ġtes":4364,"Ġtechnical":4365,"bel":4366,"Ġprepared":4367,"Ġmurder":4368,"Ġbuff":4369,"Ġadvice":4370,"Ġshell":4371,"cend":4372,"Ġviews":4373,"antic":4374,"Ġexcell":4375,"Ġft":4376,"Ġidentity":4377,"ancing":4378,"Ġstretch":4379,"Ġgain":4380,"Ġprimary":4381,"Ġanswers":4382,"Ġremain":4383,"Ġsending":4384,"Ġrelationships":4385,"iel":4386,"Ġmathem":4387,"Ġnoise":4388,"Ġcod":4389,"Ġ45":4390,"reg":4391,"Ġlondon":4392,"ĠĠĠĠ":4393,"Ġder":4394,"Ġsurprised":4395,"Ġhat":4396,"Ġrecords":4397,"Ġfairly":4398,"Ġplans":4399,"vant":4400,"Ġwis":4401,"resh":4402,"Ġrussia":4403,"Ġgap":4404,"ada":4405,"Ġcolon":4406,"Ġprincip":4407,"Ġlogic":4408,"Ġwars":4409,"Ġclasses":4410,"Ġbac":4411,"Ġpc":4412,"Ġshooting":4413,"Ġchris":4414,"odies":4415,"Ġneck":4416,"Ġanx":4417,"Ġec":4418,"Ġplenty":4419,"Ġcontinued":4420,"ulous":4421,"Ġram":4422,"Ġvert":4423,"Ġtaught":4424,"Ġwash":4425,"works":4426,"osh":4427,"Ġproperties":4428,"unt":4429,"Ġpurch":4430,"Ġraised":4431,"Ġvul":4432,"acle":4433,"Ġarms":4434,"Ġcycle":4435,"nel":4436,"Ġcurious":4437,"Ġflu":4438,"Ġamb":4439,"Ġbrilliant":4440,"Ġ23":4441,"Ġbang":4442,"Ġcreative":4443,"olic":4444,"Ġtransport":4445,"Ġprayer":4446,"Ġlabel":4447,"oking":4448,"Ġsuppose":4449,"Ġwhereas":4450,"Ġanyways":4451,"Ġluc":4452,"Ġbes":4453,"Ġplanning":4454,"Ġthinks":4455,"Ġwondering":4456,"Ġqual":4457,"Ġfake":4458,"Ġlegal":4459,"ste":4460,"Ġmachines":4461,"Ġwhose":4462,"Ġpanel":4463,"Ġthin":4464,"acher":4465,"bb":4466,"uber":4467,"Ġtall":4468,"Ġborder":4469,"Ġconvin":4470,"Ġhonor":4471,"onom":4472,"Ġconstruction":4473,"Ġbye":4474,"rate":4475,"Ġlanding":4476,"Ġgolden":4477,"Ġflavor":4478,"Ġarchitecture":4479,"Ġyours":4480,"Ġincreasing":4481,"inating":4482,"Ġwilli":4483,"Ġlikes":4484,"Ġfem":4485,"amm":4486,"Ġcru":4487,"Ġreached":4488,"Ġinstruct":4489,"Ġplate":4490,"Ġfields":4491,"Ġgro":4492,"Ġalgor":4493,"Ġcaused":4494,"ket":4495,"Ġreduce":4496,"Ġfactor":4497,"Ġspending":4498,"ara":4499,"Ġdepth":4500,"Ġrelax":4501,"action":4502,"Ġalgorith":4503,"encies":4504,"Ġlaugh":4505,"abilities":4506,"Ġexch":4507,"Ġshel":4508,"Ġinnov":4509,"Ġvolume":4510,"Ġdece":4511,"Ġbreath":4512,"Ġkore":4513,"Ġconfidence":4514,"Ġcas":4515,"Ġwashing":4516,"Ġwaste":4517,"Ġspons":4518,"Ġequip":4519,"Ġcapable":4520,"asion":4521,"Ġsurvive":4522,"Ġexcuse":4523,"Ġfailed":4524,"Ġcompare":4525,"Ġadult":4526,"Ġcalif":4527,"Ġforest":4528,"nal":4529,"oses":4530,"Ġneighbor":4531,"Ġcake":4532,"Ġlady":4533,"Ġsettings":4534,"Ġterminal":4535,"Ġliqu":4536,"Ġhoriz":4537,"Ġdropped":4538,"Ġdut":4539,"Ġpartner":4540,"Ġcrowd":4541,"Ġbeach":4542,"Ġbrush":4543,"Ġflour":4544,"Ġdecades":4545,"Ġallowing":4546,"Ġattempt":4547,"Ġwing":4548,"Ġbusy":4549,"Ġpizz":4550,"Ġcreates":4551,"Ġkilling":4552,"under":4553,"Ġcaliforn":4554,"Ġunp":4555,"kn":4556,"Ġmig":4557,"Ġbegins":4558,"what":4559,"Ġsatis":4560,"Ġremains":4561,"Ġmovies":4562,"Ġresponsible":4563,"Ġpictures":4564,"Ġcute":4565,"Ġera":4566,"house":4567,"Ġinner":4568,"Ġpages":4569,"Ġexcl":4570,"Ġstaff":4571,"Ġcreation":4572,"Ġnarr":4573,"Ġexists":4574,"vin":4575,"Ġtransfer":4576,"da":4577,"Ġlake":4578,"Ġdocker":4579,"Ġchill":4580,"Ġcalm":4581,"Ġprote":4582,"Ġdrugs":4583,"Ġgrace":4584,"nam":4585,"Ġspect":4586,"well":4587,"Ġbasis":4588,"Ġgree":4589,"Ġconfident":4590,"Ġmajority":4591,"Ġ36":4592,"Ġstands":4593,"Ġpatterns":4594,"Ġsusp":4595,"Ġarrest":4596,"Ġgravity":4597,"apped":4598,"itics":4599,"Ġbutt":4600,"urally":4601,"Ġchocol":4602,"Ġmyst":4603,"Ġmodule":4604,"Ġauto":4605,"Ġvector":4606,"Ġteaching":4607,"Ġcruc":4608,"Ġspan":4609,"Ġdomain":4610,"Ġurl":4611,"Ġpill":4612,"Ġcheap":4613,"Ġpig":4614,"oms":4615,"Ġbowl":4616,"Ġdevices":4617,"Ġmhm":4618,"yle":4619,"Ġcalifornia":4620,"Ġengineer":4621,"Ġaggress":4622,"Ġtasks":4623,"Ġevening":4624,"pu":4625,"Ġconsequ":4626,"Ġremote":4627,"Ġimpressive":4628,"Ġnerv":4629,"Ġmut":4630,"Ġlas":4631,"apping":4632,"Ġamericans":4633,"Ġmatters":4634,"Ġafford":4635,"Ġfoundation":4636,"Ġreven":4637,"field":4638,"Ġstudies":4639,"Ġcooking":4640,"Ġconfiguration":4641,"Ġwestern":4642,"Ġsaving":4643,"Ġaim":4644,"Ġunderstood":4645,"Ġadvent":4646,"Ġbenefits":4647,"Ġhack":4648,"Ġdrill":4649,"Ġspoke":4650,"Ġcapture":4651,"ano":4652,"Ġfailure":4653,"Ġdoors":4654,"Ġprepare":4655,"oration":4656,"Ġ35":4657,"Ġformula":4658,"Ġfab":4659,"Ġsight":4660,"Ġdefinition":4661,"Ġconcerned":4662,"Ġgang":4663,"Ġsuffering":4664,"Ġrevolution":4665,"Ġspecies":4666,"osing":4667,"Ġblind":4668,"Ġbond":4669,"Ġwhoa":4670,"Ġflash":4671,"Ġcards":4672,"Ġrequires":4673,"Ġlinux":4674,"Ġsorts":4675,"Ġpainting":4676,"Ġcombat":4677,"Ġprime":4678,"Ġastr":4679,"rier":4680,"Ġexpression":4681,"Ġinstit":4682,"Ġdress":4683,"force":4684,"Ġhardware":4685,"Ġtower":4686,"Ġrat":4687,"Ġidentify":4688,"Ġnic":4689,"Ġdeck":4690,"Ġdefined":4691,"Ġemotions":4692,"Ġextern":4693,"Ġrecipe":4694,"Ġshr":4695,"Ġhitting":4696,"Ġloud":4697,"Ġincome":4698,"Ġnative":4699,"Ġcapacity":4700,"Ġbeauty":4701,"istry":4702,"Ġtalks":4703,"Ġfifth":4704,"Ġboot":4705,"Ġadminist":4706,"rian":4707,"Ġwrap":4708,"Ġarrived":4709,"Ġsharing":4710,"Ġbol":4711,"Ġjewish":4712,"mark":4713,"Ġfixed":4714,"Ġcompar":4715,"Ġgenu":4716,"Ġflip":4717,"Ġattacks":4718,"Ġingred":4719,"Ġreligion":4720,"Ġseal":4721,"Ġbrowser":4722,"riage":4723,"Ġengage":4724,"Ġpurs":4725,"Ġfi":4726,"Ġforced":4727,"ilies":4728,"Ġshadow":4729,"Ġdegrees":4730,"Ġlayers":4731,"Ġeconomy":4732,"Ġinsert":4733,"Ġpra":4734,"Ġvot":4735,"Ġrestaurant":4736,"Ġmarch":4737,"using":4738,"Ġresistance":4739,"Ġvib":4740,"Ġfirm":4741,"Ġheads":4742,"Ġnervous":4743,"Ġloves":4744,"Ġincluded":4745,"Ġske":4746,"Ġvast":4747,"head":4748,"Ġmotion":4749,"Ġchocolate":4750,"Ġcert":4751,"Ġcub":4752,"Ġdust":4753,"Ġfeelings":4754,"Ġheav":4755,"Ġchecking":4756,"Ġsees":4757,"Ġdelicious":4758,"Ġphoto":4759,"Ġgenuine":4760,"Ġcompetition":4761,"Ġdance":4762,"Ġroof":4763,"Ġlou":4764,"Ġpunch":4765,"Ġmagnet":4766,"Ġvaluable":4767,"Ġlegs":4768,"izations":4769,"Ġrank":4770,"Ġbid":4771,"Ġcontroller":4772,"Ġblah":4773,"Ġextract":4774,"Ġhanging":4775,"Ġequipment":4776,"Ġrelatively":4777,"ym":4778,"Ġtired":4779,"Ġapps":4780,"Ġ32":4781,"Ġextend":4782,"Ġ\"":4783,"Ġreligious":4784,"mine":4785,"Ġscan":4786,"Ġbits":4787,"Ġmyth":4788,"Ġphenom":4789,"Ġvulner":4790,"Ġlinked":4791,"Ġmessages":4792,"Ġexecut":4793,"Ġassemb":4794,"rig":4795,"Ġfigured":4796,"Ġprovided":4797,"Ġliber":4798,"Ġroyal":4799,"Ġcircum":4800,"Ġtrend":4801,"Ġlovely":4802,"Ġjava":4803,"Ġghost":4804,"Ġjoke":4805,"Ġcabin":4806,"ctors":4807,"Ġcombination":4808,"illa":4809,"Ġpulling":4810,"Ġattrib":4811,"Ġguar":4812,"Ġ26":4813,"Ġbasket":4814,"Ġsql":4815,"Ġsov":4816,"Ġhadn":4817,"Ġcommunication":4818,"Ġmerc":4819,"Ġaudio":4820,"Ġdiamond":4821,"Ġeggs":4822,"Ġphenomen":4823,"Ġessential":4824,"nes":4825,"Ġadop":4826,"erved":4827,"Ġinitially":4828,"Ġnas":4829,"oper":4830,"Ġrocket":4831,"Ġuns":4832,"Ġprotection":4833,"Ġfault":4834,"Ġorange":4835,"Ġjet":4836,"ander":4837,"Ġships":4838,"Ġsauce":4839,"Ġ27":4840,"Ġmanif":4841,"Ġatmos":4842,"Ġbucks":4843,"Ġchampions":4844,"Ġforms":4845,"mission":4846,"Ġnick":4847,"rie":4848,"Ġstronger":4849,"Ġexcellent":4850,"orter":4851,"Ġwinter":4852,"Ġgarden":4853,"Ġsha":4854,"Ġchair":4855,"Ġalb":4856,"esh":4857,"Ġmeas":4858,"Ġdiscip":4859,"Ġguarant":4860,"Ġazure":4861,"Ġcow":4862,"Ġmaximum":4863,"Ġelev":4864,"Ġinsight":4865,"Ġmeal":4866,"Ġpoke":4867,"Ġremark":4868,"au":4869,"Ġremoved":4870,"agon":4871,"Ġcontinues":4872,"Ġweekend":4873,"Ġtalent":4874,"Ġpros":4875,"Ġlabor":4876,"Ġfundamental":4877,"Ġdestroyed":4878,"Ġsuspect":4879,"Ġdiddy":4880,"Ġfrust":4881,"Ġdevelopers":4882,"Ġwi":4883,"Ġputs":4884,"Ġtoward":4885,"Ġmobile":4886,"Ġatmosphere":4887,"Ġpink":4888,"Ġprovides":4889,"Ġscientific":4890,"Ġdeveloper":4891,"Ġveget":4892,"Ġtemple":4893,"Ġrights":4894,"ils":4895,"Ġeffectively":4896,"Ġletting":4897,"Ġresource":4898,"Ġcrimin":4899,"Ġscary":4900,"Ġrobot":4901,"Ġdreams":4902,"Ġspeech":4903,"rors":4904,"Ġow":4905,"ensions":4906,"Ġchief":4907,"Ġjournal":4908,"Ġbirthday":4909,"atives":4910,"Ġexperienced":4911,"Ġcath":4912,"Ġconsciousness":4913,"iled":4914,"Ġmini":4915,"Ġprofit":4916,"Ġensure":4917,"Ġworship":4918,"Ġbrothers":4919,"Ġhoney":4920,"vere":4921,"Ġpizza":4922,"Ġliked":4923,"Ġexistence":4924,"Ġeducation":4925,"tes":4926,"Ġlinks":4927,"Ġmary":4928,"Ġgrid":4929,"Ġstruggle":4930,"ici":4931,"Ġhyper":4932,"ka":4933,"Ġprepar":4934,"Ġcluster":4935,"Ġchest":4936,"Ġrepeat":4937,"Ġideal":4938,"Ġentry":4939,"Ġschem":4940,"Ġneut":4941,"Ġ28":4942,"Ġintention":4943,"Ġpatient":4944,"Ġemotion":4945,"Ġtransition":4946,"Ġminim":4947,"Ġframework":4948,"Ġhits":4949,"Ġliquid":4950,"Ġpix":4951,"fast":4952,"Ġnose":4953,"Ġexecute":4954,"Ġfamilies":4955,"Ġproof":4956,"Ġcorpor":4957,"Ġash":4958,"Ġlatest":4959,"Ġobserv":4960,"Ġnail":4961,"Ġslash":4962,"Ġexternal":4963,"aked":4964,"rete":4965,"Ġpalest":4966,"Ġplot":4967,"Ġclothes":4968,"Ġangry":4969,"Ġvolt":4970,"Ġstrike":4971,"ev":4972,"Ġphr":4973,"Ġdedic":4974,"Ġfacebook":4975,"Ġanno":4976,"Ġassociated":4977,"coh":4978,"Ġlocked":4979,"Ġhen":4980,"whel":4981,"Ġbodies":4982,"Ġkeyword":4983,"Ġoffers":4984,"Ġdescribed":4985,"uries":4986,"rict":4987,"edi":4988,"Ġtwitter":4989,"ups":4990,"Ġpotato":4991,"Ġiter":4992,"Ġexplan":4993,"Ġmedium":4994,"Ġcha":4995,"Ġunion":4996,"Ġplaced":4997,"Ġpassion":4998,"adem":4999,"Ġbarely":5000,"Ġsheet":5001,"Ġappears":5002,"Ġcarbon":5003,"over":5004,"Ġgrant":5005,"Ġaug":5006,"Ġtok":5007,"gers":5008,"Ġindividuals":5009,"Ġdirectory":5010,"Ġmaterials":5011,"lam":5012,"ari":5013,"Ġhtml":5014,"Ġsust":5015,"Ġelectron":5016,"Ġry":5017,"Ġrod":5018,"iah":5019,"Ġinch":5020,"Ġgpt":5021,"Ġtransl":5022,"Ġlanguages":5023,"Ġrein":5024,"Ġexisting":5025,"known":5026,"Ġedit":5027,"Ġresponsibility":5028,"Ġdesire":5029,"Ġdriven":5030,"Ġaustralia":5031,"Ġpour":5032,"Ġoriginally":5033,"Ġfreaking":5034,"Ġlunch":5035,"Ġreaction":5036,"Ġsteal":5037,"Ġemerg":5038,"term":5039,"ris":5040,"Ġtesla":5041,"Ġber":5042,"Ġowner":5043,"ructure":5044,"Ġtherap":5045,"Ġtheme":5046,"Ġdynamic":5047,"Ġzoom":5048,"Ġupload":5049,"ager":5050,"Ġexplos":5051,"Ġacadem":5052,"Ġwick":5053,"Ġjam":5054,"ropri":5055,"Ġsurprising":5056,"--":5057,"alu":5058,"Ġdial":5059,"Ġsum":5060,"Ġincludes":5061,"Ġkeyboard":5062,"Ġol":5063,"Ġmistakes":5064,"Ġengineers":5065,"Ġfrance":5066,"Ġguns":5067,"Ġprinciple":5068,"Ġsett":5069,"Ġbuddy":5070,"Ġsymp":5071,"wr":5072,"Ġcance":5073,"Ġtechnically":5074,"Ġgut":5075,"Ġfulf":5076,"Ġaccom":5077,"zen":5078,"Ġcosts":5079,"rant":5080,"ordin":5081,"Ġultimate":5082,"Ġsigns":5083,"Ġprecise":5084,"Ġcastle":5085,"Ġukrain":5086,"ques":5087,"Ġfeedback":5088,"Ġpowers":5089,"Ġmarketing":5090,"Ġaccompl":5091,"Ġalcoh":5092,"Ġairplane":5093,"Ġmario":5094,"Ġjeff":5095,"Ġrussian":5096,"Ġstood":5097,"Ġrapid":5098,"Ġvote":5099,"Ġlayout":5100,"Ġtemplate":5101,"Ġoppon":5102,"Ġcolumns":5103,"Ġtechnique":5104,"osen":5105,"Ġfulfill":5106,"Ġwisdom":5107,"Ġsports":5108,"Ġworkers":5109,"Ġmoral":5110,"Ġtutor":5111,"ashion":5112,"Ġjail":5113,"etry":5114,"Ġpicking":5115,"Ġbudget":5116,"Ġmask":5117,"Ġshoes":5118,"Ġopportunities":5119,"uing":5120,"Ġos":5121,"celer":5122,"Ġplastic":5123,"Ġgray":5124,"Ġsmoke":5125,"Ġrush":5126,"af":5127,"Ġcategory":5128,"Ġoven":5129,"bre":5130,"Ġamen":5131,"aming":5132,"Ġacceler":5133,"Ġcritic":5134,"Ġscenario":5135,"Ġtape":5136,"Ġconduct":5137,"Ġinfrast":5138,"Ġmale":5139,"Ġoverwhel":5140,"Ġsteve":5141,"Ġtrading":5142,"Ġcosm":5143,"Ġplants":5144,"Ġridic":5145,"Ġnaturally":5146,"Ġisol":5147,"Ġpatients":5148,"onic":5149,"Ġstrip":5150,"Ġinterpret":5151,"Ġsources":5152,"stein":5153,"Ġii":5154,"Ġmenu":5155,"Ġmexic":5156,"Ġacqu":5157,"urance":5158,"Ġdeveloping":5159,"Ġagents":5160,"Ġacting":5161,"Ġfascinating":5162,"Ġarab":5163,"Ġrolling":5164,"rs":5165,"arm":5166,"lying":5167,"Ġheading":5168,"aters":5169,"Ġadam":5170,"Ġgather":5171,"Ġfingers":5172,"uits":5173,"Ġsequence":5174,"Ġsongs":5175,"Ġpreviously":5176,"Ġfighter":5177,"Ġblank":5178,"Ġvariety":5179,"py":5180,"Ġsituations":5181,"Ġlying":5182,"irty":5183,"Ġrose":5184,"Ġcit":5185,"Ġscratch":5186,"Ġorders":5187,"Ġlean":5188,"Ġdecent":5189,"Ġcompleted":5190,"Ġsimpl":5191,"ception":5192,"Ġwherever":5193,"Ġproduced":5194,"Ġfacing":5195,"Ġindian":5196,"Ġafrica":5197,"Ġdumb":5198,"pro":5199,"Ġchip":5200,"Ġwarning":5201,"Ġexception":5202,"Ġcities":5203,"Ġsav":5204,"ago":5205,"Ġtraum":5206,"Ġ400":5207,"Ġoxy":5208,"Ġfemale":5209,"now":5210,"Ġpushed":5211,"Ġconflict":5212,"Ġyounger":5213,"Ġconsistent":5214,"Ġsword":5215,"Ġadvance":5216,"Ġunits":5217,"Ġshots":5218,"Ġjustice":5219,"angle":5220,"Ġcarefully":5221,"Ġbul":5222,"Ġandrew":5223,"Ġlic":5224,"Ġaside":5225,"Ġuncle":5226,"Ġmanifest":5227,"Ġsarah":5228,"Ġgosp":5229,"Ġwhoever":5230,"Ġenh":5231,";/":5232,"Ġshark":5233,"ung":5234,"Ġinfrastructure":5235,"yl":5236,"Ġreject":5237,"Ġcommerc":5238,"Ġentertain":5239,"Ġteacher":5240,"Ġinstagram":5241,"ounced":5242,"Ġtact":5243,"Ġvent":5244,"Ġembr":5245,"Ġcontains":5246,"aint":5247,"Ġmarriage":5248,"Ġjews":5249,"Ġdogs":5250,"istics":5251,"Ġaccurate":5252,"Ġarguments":5253,"Ġbrack":5254,"Ġswim":5255,"Ġspecify":5256,"Ġinsul":5257,"rial":5258,"Ġencoun":5259,"Ġreturned":5260,"Ġjedi":5261,"Ġtex":5262,"Ġcauses":5263,"Ġprograms":5264,"Ġthus":5265,"Ġshield":5266,"iler":5267,"Ġrou":5268,"Ġreturns":5269,"ologies":5270,"Ġdeeply":5271,"Ġtypical":5272,"Ġauthority":5273,"ds":5274,"Ġatl":5275,"Ġincor":5276,"Ġskip":5277,"Ġdifferently":5278,"Ġcorrectly":5279,"Ġmusl":5280,"Ġluke":5281,"gets":5282,"Ġtrem":5283,"Ġsentence":5284,"Ġsoldiers":5285,"Ġdrawing":5286,"Ġpractical":5287,"Ġclip":5288,"Ġrust":5289,"Ġstrings":5290,"Ġfactory":5291,"Ġlies":5292,"Ġdaniel":5293,"Ġindependent":5294,"Ġast":5295,"Ġwhis":5296,"Ġdesert":5297,"Ġbay":5298,"Ġwaves":5299,"Ġly":5300,"Ġvictory":5301,"Ġath":5302,"Ġchess":5303,"Ġchemical":5304,"Ġconven":5305,"ums":5306,"Ġscream":5307,"Ġsolutions":5308,"Ġbreakfast":5309,"Ġadapt":5310,"Ġpromot":5311,"Ġgrind":5312,"Ġreli":5313,"Ġislam":5314,"Ġrear":5315,"Ġrac":5316,"berg":5317,"uces":5318,"Ġupper":5319,"Ġeconomic":5320,"Ġprofile":5321,"Ġcomputers":5322,"Ġestablish":5323,"cons":5324,"Ġsilver":5325,"Ġdying":5326,"Ġgri":5327,"Ġpartners":5328,"Ġmathemat":5329,"Ġvia":5330,"Ġjoining":5331,"Ġblend":5332,"Ġsuck":5333,"Ġtea":5334,"Ġtutorial":5335,"Ġhabit":5336,"Ġpoly":5337,"Ġcircumst":5338,"Ġarticle":5339,"Ġflor":5340,"iev":5341,"Ġhitler":5342,"asp":5343,"Ġimper":5344,"ford":5345,"Ġped":5346,"Ġprofessor":5347,"Ġpit":5348,"Ġwine":5349,"hand":5350,"Ġparad":5351,"Ġherself":5352,"Ġscenes":5353,"Ġdram":5354,"Ġfool":5355,"Ġtradition":5356,"Ġvillage":5357,"Ġdump":5358,"Ġintroduced":5359,"Ġcollab":5360,"Ġconcent":5361,"Ġnowhere":5362,"Ġparticip":5363,"Ġspaces":5364,"Ġsatisf":5365,"Ġdirector":5366,"Ġconcrete":5367,"Ġrice":5368,"Ġcontrols":5369,"Ġpocket":5370,"ober":5371,"Ġdiscussion":5372,"Ġvall":5373,"Ġalcohol":5374,"Ġtrained":5375,"Ġwise":5376,"Ġmystery":5377,"Ġlocated":5378,"Ġwashington":5379,"Ġburning":5380,"power":5381,"Ġmanip":5382,"Ġinvestment":5383,"Ġwet":5384,"Ġquot":5385,"Ġflood":5386,"Ġdelay":5387,"Ġbreaks":5388,"Ġpossibility":5389,"Ġves":5390,"Ġscar":5391,"Ġnavy":5392,"Ġtrigger":5393,"Ġwanting":5394,"Ġmort":5395,"Ġrecording":5396,"Ġrobert":5397,"han":5398,"Ġty":5399,"Ġsink":5400,"Ġalph":5401,"Ġrepos":5402,"Ġbug":5403,"Ġreverse":5404,"Ġchose":5405,"Ġproviding":5406,"Ġenorm":5407,"Ġstruggling":5408,"Ġbathroom":5409,"oked":5410,"Ġrent":5411,"11":5412,"uff":5413,"Ġlaid":5414,"Ġmuscle":5415,"Ġdesper":5416,"Ġconfirm":5417,"Ġevalu":5418,"Ġom":5419,"bye":5420,"Ġaccounts":5421,"usive":5422,"Ġwins":5423,"Ġballs":5424,"Ġrefresh":5425,"Ġcontr":5426,"Ġjoined":5427,"Ġminimum":5428,"Ġparameters":5429,"Ġack":5430,"Ġexchange":5431,"Ġjord":5432,"Ġencourage":5433,"Ġspark":5434,"Ġstaying":5435,"Ġpolitics":5436,"top":5437,"gle":5438,"Ġenemies":5439,"Ġsoviet":5440,"Ġcommercial":5441,"ica":5442,"Ġoctober":5443,"Ġbeings":5444,"Ġmagnus":5445,"illy":5446,"Ġraw":5447,"umin":5448,"Ġchallenging":5449,"Ġwidth":5450,"Ġrab":5451,"Ġclients":5452,"while":5453,"stand":5454,"rel":5455,"Ġseek":5456,"Ġcro":5457,"Ġwol":5458,"Ġknife":5459,"Ġdrinking":5460,"Ġprotein":5461,"Ġhealing":5462,"Ġsample":5463,"ission":5464,"agn":5465,"ini":5466,"Ġmindset":5467,"Ġresol":5468,"Ġarrow":5469,"cles":5470,"Ġhorrible":5471,"Ġfinds":5472,"rogen":5473,"ulating":5474,"Ġcleaning":5475,"Ġjanuary":5476,"Ġupset":5477,"Ġglory":5478,"Ġstreets":5479,"Ġpleasure":5480,"Ġneither":5481,"Ġboxes":5482,"Ġlaunched":5483,"Ġintense":5484,"Ġ150":5485,"Ġtone":5486,"Ġcave":5487,"haust":5488,"ensity":5489,"Ġbritain":5490,"Ġattached":5491,"Ġdisappoint":5492,"Ġgaz":5493,"rom":5494,"Ġpretend":5495,"Ġdiscovery":5496,"Ġargue":5497,"Ġkiss":5498,"Ġreward":5499,"Ġlux":5500,"Ġui":5501,"Ġhaw":5502,"Ġpilots":5503,"Ġchop":5504,"asy":5505,"fi":5506,"Ġsomewhat":5507,"Ġvoc":5508,"Ġthrowing":5509,"Ġcircuit":5510,"Ġairport":5511,"Ġron":5512,"Ġofficers":5513,"Ġcorn":5514,"Ġdelivery":5515,"Ġhamm":5516,"Ġkuber":5517,"Ġclar":5518,"Ġexpecting":5519,"Ġrelevant":5520,"Ġgalaxy":5521,"Ġwound":5522,"Ġstored":5523,"Ġparticles":5524,"Ġbrick":5525,"Ġleadership":5526,"Ġmirror":5527,"vey":5528,"Ġoffering":5529,"Ġfalls":5530,"Ġphotos":5531,"Ġjen":5532,"Ġunbel":5533,"Ġemployees":5534,"ifice":5535,"Ġdisappear":5536,"Ġpokemon":5537,"org":5538,"Ġsigned":5539,"Ġoxygen":5540,"Ġsoph":5541,"lies":5542,"Ġsab":5543,"eaks":5544,"Ġdemo":5545,"Ġvictim":5546,"inter":5547,"Ġnin":5548,"Ġafterno":5549,"Ġhouses":5550,"Ġrichard":5551,"Ġdear":5552,"Ġpositions":5553,"Ġdivide":5554,"Ġcausing":5555,"Ġexhaust":5556,"Ġharm":5557,"Ġdocuments":5558,"Ġacknow":5559,"Ġsteam":5560,"Ġconfused":5561,"Ġmars":5562,"Ġpause":5563,"Ġrul":5564,"Ġappropri":5565,"Ġlegit":5566,"netes":5567,"Ġtestament":5568,"Ġhearts":5569,"akers":5570,"Ġcryst":5571,"Ġkubernetes":5572,"Ġjose":5573,"Ġdonald":5574,"Ġswing":5575,"Ġcrucial":5576,"Ġintroduce":5577,"Ġuncom":5578,"izer":5579,"ki":5580,"iate":5581,"hib":5582,"Ġtraveling":5583,"Ġignore":5584,"Ġmountains":5585,"Ġgall":5586,"Ġcarl":5587,"Ġvit":5588,"Ġvehicles":5589,"otic":5590,"oken":5591,"iciency":5592,"Ġcarried":5593,"Ġnove":5594,"reed":5595,"Ġbottle":5596,"Ġsup":5597,"Ġparall":5598,"Ġmyster":5599,"Ġroughly":5600,"Ġtechniques":5601,"resp":5602,"Ġschedule":5603,"Ġcompos":5604,"Ġapplied":5605,"night":5606,"Ġtrap":5607,"place":5608,"Ġspell":5609,"rep":5610,"Ġalright":5611,"Ġingredients":5612,"ifts":5613,"Ġaband":5614,"Ġchoices":5615,"etime":5616,"Ġchords":5617,"iven":5618,"Ġwanna":5619,"Ġnovember":5620,"80":5621,"Ġchecked":5622,"Ġquit":5623,"Ġcomed":5624,"Ġholds":5625,"Ġham":5626,"Ġhungry":5627,"Ġsmile":5628,"Ġviolence":5629,"flow":5630,"Ġafternoon":5631,"Ġarmor":5632,"ida":5633,"Ġremaining":5634,"Ġdetermine":5635,"enses":5636,"Ġhub":5637,"Ġfashion":5638,"Ġheck":5639,"Ġnaz":5640,"Ġcrisis":5641,"Ġconnections":5642,"Ġtwist":5643,"Ġelimin":5644,"Ġcyber":5645,"Ġcham":5646,"Ġprotocol":5647,"aded":5648,"Ġcable":5649,"Ġray":5650,"Ġprocesses":5651,"Ġdarkness":5652,"Ġresc":5653,"Ġfoods":5654,"Ġjordan":5655,"Ġmelt":5656,"Ġgym":5657,"Ġreported":5658,"Ġhenry":5659,"Ġsnap":5660,"Ġinsulin":5661,"Ġcongress":5662,"Ġvessel":5663,"Ġladies":5664,"Ġembed":5665,"alled":5666,"ography":5667,"Ġstatic":5668,"Ġinn":5669,"Ġoccup":5670,"Ġhomes":5671,"imp":5672,"Ġven":5673,"Ġinspect":5674,"Ġloose":5675,"core":5676,"Ġpublished":5677,"Ġmonster":5678,"Ġdevil":5679,"Ġrig":5680,"ishing":5681,"Ġtier":5682,"Ġalgorithm":5683,"tr":5684,"Ġgrown":5685,"Ġgrass":5686,"Ġpuzz":5687,"Ġterror":5688,"Ġlamb":5689,"Ġss":5690,"Ġexplanation":5691,"reens":5692,"ban":5693,"Ġstable":5694,"omas":5695,"Ġsacrifice":5696,"Ġhiding":5697,"Ġcommunicate":5698,"Ġabandon":5699,"Ġmate":5700,"utter":5701,"Ġdisney":5702,"itz":5703,"Ġfont":5704,"Ġcommitted":5705,"Ġanxiety":5706,"based":5707,"Ġbusinesses":5708,"Ġreports":5709,"Ġarc":5710,"Ġdisag":5711,"Ġtreatment":5712,"Ġclaims":5713,"Ġjson":5714,"Ġtanks":5715,"Ġfrag":5716,"Ġversions":5717,"Ġdebate":5718,"Ġending":5719,"Ġapprox":5720,"Ġinspired":5721,"Ġelection":5722,"Ġdecor":5723,"Ġunus":5724,"Ġestablished":5725,"Ġcooper":5726,"idents":5727,"Ġpac":5728,"esc":5729,"Ġpref":5730,"Ġjoint":5731,"Ġchristians":5732,"Ġpraise":5733,"ae":5734,"has":5735,"Ġlandsc":5736,"Ġgenerated":5737,"Ġwheels":5738,"Ġinvestigation":5739,"Ġdraft":5740,"Ġeuropean":5741,"Ġtie":5742,"Ġacid":5743,"Ġpiv":5744,"Ġbench":5745,"Ġprinciples":5746,"Ġconsidering":5747,"Ġcarrying":5748,"Ġwra":5749,"Ġshame":5750,"licit":5751,"Ġunlock":5752,"Ġartist":5753,"Ġstayed":5754,"Ġdebt":5755,"Ġconcepts":5756,"Ġselected":5757,"cut":5758,"Ġhypoth":5759,"Ġparameter":5760,"Ġtries":5761,"ache":5762,"ille":5763,"Ġtracks":5764,"Ġmand":5765,"Ġridiculous":5766,"Ġloving":5767,"Ġmm":5768,"Ġfederal":5769,"char":5770,"ette":5771,"Ġharv":5772,"omb":5773,"Ġdaddy":5774,"Ġrefere":5775,"Ġwhom":5776,"ett":5777,"Ġmouse":5778,"Ġpatch":5779,"ria":5780,"Ġbone":5781,"Ġconference":5782,"Ġlawy":5783,"Ġsunday":5784,"Ġfbi":5785,"Ġilleg":5786,"iano":5787,"mate":5788,"Ġmixed":5789,"Ġerrors":5790,"Ġbite":5791,"Ġug":5792,"Ġextraord":5793,"Ġdistribution":5794,"icious":5795,"Ġgospel":5796,"gues":5797,"Ġsmith":5798,"Ġsleeping":5799,"Ġabstr":5800,"Ġcommands":5801,"Ġtexas":5802,"Ġgrade":5803,"40":5804,"Ġutil":5805,"Ġregardless":5806,"Ġprocessing":5807,"Ġcollea":5808,"Ġblog":5809,"Ġvalley":5810,"bits":5811,"Ġconversations":5812,"Ġblade":5813,"Ġgith":5814,"ami":5815,"Ġbeast":5816,"Ġkidding":5817,"Ġorganized":5818,"Ġaggressive":5819,"Ġracing":5820,"Ġexplained":5821,"Ġorbit":5822,"Ġ29":5823,"Ġwings":5824,"Ġanytime":5825,"Ġenormous":5826,"ek":5827,"Ġrows":5828,"rix":5829,"Ġclimate":5830,"Ġlun":5831,"Ġdisaster":5832,"eet":5833,"Ġfired":5834,"Ġinfinite":5835,"Ġnest":5836,"Ġowners":5837,"Ġextraordinary":5838,"Ġduck":5839,"Ġgithub":5840,"Ġdifferences":5841,"Ġfancy":5842,"Ġbuck":5843,"Ġtested":5844,"Ġlegacy":5845,"Ġalternative":5846,"Ġappeared":5847,"Ġeditor":5848,"Ġsatur":5849,"Ġpeak":5850,"Ġchampionship":5851,"anda":5852,"gu":5853,"Ġchosen":5854,"istan":5855,"Ġvertical":5856,"Ġcandid":5857,"iders":5858,"Ġemergency":5859,"Ġdistract":5860,"case":5861,"Ġemployee":5862,"Ġactivities":5863,"Ġdecade":5864,"Ġtexture":5865,"Ġanger":5866,"Ġequation":5867,"oot":5868,"Ġrevel":5869,"Ġgreek":5870,"Ġboring":5871,"roid":5872,"Ġminds":5873,"och":5874,"Ġroutine":5875,"Ġmedicine":5876,"Ġmemor":5877,"Ġinject":5878,"Ġsept":5879,"Ġ99":5880,"Ġjon":5881,"Ġrevealed":5882,"Ġaugust":5883,"Ġteeth":5884,"Ġhug":5885,"Ġscripture":5886,"bble":5887,"Ġcharl":5888,"Ġprices":5889,"ibilities":5890,"Ġformed":5891,"Ġincreased":5892,"imes":5893,"rating":5894,"Ġdies":5895,"Ġveg":5896,"Ġsquad":5897,"Ġpersonality":5898,"Ġhumanity":5899,"Ġfunctional":5900,"Ġ75":5901,"Ġpivot":5902,"Ġtransp":5903,"Ġdna":5904,"Ġexit":5905,"Ġexport":5906,"bage":5907,"Ġordered":5908,"Ġhistorical":5909,"Ġinstant":5910,"Ġbuildings":5911,"iration":5912,"Ġnasa":5913,"ateful":5914,"Ġfriday":5915,"Ġstructures":5916,"tp":5917,"Ġintu":5918,"Ġreplic":5919,"Ġtheore":5920,"Ġtoil":5921,"Ġupgrade":5922,"Ġspo":5923,"Ġmemories":5924,"Ġdrivers":5925,"ashing":5926,"Ġacts":5927,"Ġscreens":5928,"Ġmechanics":5929,"Ġincident":5930,"Ġsuccessfully":5931,"Ġkit":5932,"Ġteen":5933,"Ġsenior":5934,"Ġannoying":5935,"otyp":5936,"amin":5937,"Ġcoordin":5938,"Ġaspects":5939,"lor":5940,"Ġcriminal":5941,"anta":5942,"Ġmonit":5943,"Ġsale":5944,"Ġabsor":5945,"Ġhappiness":5946,"Ġretire":5947,"Ġletters":5948,"Ġ2020":5949,"Ġmole":5950,"Ġassets":5951,"Ġsearching":5952,"Ġstab":5953,"Ġcapabilities":5954,"Ġmurd":5955,"Ġharry":5956,"Ġdivision":5957,"Ġopponent":5958,"Ġbuttons":5959,"win":5960,"Ġtips":5961,"Ġfootage":5962,"Ġchips":5963,"Ġcongr":5964,"Ġopens":5965,"Ġisa":5966,"Ġjudgment":5967,"Ġcanada":5968,"Ġnegot":5969,"Ġsucceed":5970,"Ġaer":5971,"Ġoperator":5972,"Ġphilosophy":5973,"Ġtempor":5974,"Ġprince":5975,"Ġetern":5976,"lines":5977,"Ġpounds":5978,"ona":5979,"Ġthomas":5980,"sa":5981,"zing":5982,"Ġmatth":5983,"Ġdirty":5984,"Ġsinging":5985,"Ġrooms":5986,"Ġvoltage":5987,"Ġmit":5988,"Ġattacking":5989,"udes":5990,"Ġoffered":5991,"Ġdecember":5992,"Ġsurvival":5993,"Ġedges":5994,"Ġblame":5995,"ifications":5996,"Ġdip":5997,"Ġstops":5998,"Ġneighborhood":5999,"vision":6000,"Ġextension":6001,"Ġrhy":6002,"Ġguid":6003,"Ġlap":6004,"Ġembar":6005,"Ġsynt":6006,"uses":6007,"12":6008,"Ġoperate":6009,"Ġsustain":6010,"Ġukraine":6011,"Ġaws":6012,"Ġinher":6013,"iments":6014,"Ġcombined":6015,"Ġanalog":6016,"Ġouter":6017,"rics":6018,"Ġopposed":6019,"Ġfrequency":6020,"Ġestate":6021,"Ġvisible":6022,"Ġplatforms":6023,"Ġinstructions":6024,"Ġnom":6025,"Ġphysically":6026,"Ġbones":6027,"bur":6028,"Ġrack":6029,"Ġapartment":6030,"Ġjune":6031,"Ġexposed":6032,"Ġmonitor":6033,"ologist":6034,"Ġsensitive":6035,"Ġiran":6036,"Ġdrives":6037,"Ġplanned":6038,"Ġdeserve":6039,"mans":6040,"Ġnations":6041,"Ġcitiz":6042,"pa":6043,"Ġinterf":6044,"15":6045,"Ġagreed":6046,"Ġrocks":6047,"Ġpalestin":6048,"Ġdedicated":6049,"Ġpipe":6050,"Ġwilliam":6051,"Ġcock":6052,"Ġhash":6053,"Ġclimb":6054,"Ġdur":6055,"eable":6056,"Ġbucket":6057,"Ġmeanwhile":6058,"Ġconserv":6059,"bl":6060,"anes":6061,"Ġtrib":6062,"Ġmatthew":6063,"Ġrecon":6064,"Ġtoy":6065,"Ġfriendly":6066,"Ġsevent":6067,"Ġpublish":6068,"Ġnull":6069,"Ġshake":6070,"rass":6071,"Ġfocusing":6072,"Ġcurve":6073,"inger":6074,"Ġlect":6075,"Ġenable":6076,"Ġdivine":6077,"Ġbeef":6078,"Ġrum":6079,"Ġ2024":6080,"Ġsouthern":6081,"Ġtel":6082,"Ġkim":6083,"Ġadvert":6084,"Ġchase":6085,"Ġunbeliev":6086,"Ġextent":6087,"rator":6088,"Ġtang":6089,"aper":6090,"Ġrepresents":6091,"Ġequival":6092,"ros":6093,"Ġbesides":6094,"Ġanimation":6095,"Ġcameras":6096,"lessly":6097,"osaur":6098,"Ġdetermined":6099,"Ġcharging":6100,"Ġlessons":6101,"Ġdiss":6102,"Ġdup":6103,"Ġcann":6104,"Ġchic":6105,"Ġads":6106,"Ġencounter":6107,"Ġentered":6108,"wing":6109,"Ġhood":6110,"Ġblast":6111,"Ġpace":6112,"Ġcreep":6113,"Ġserved":6114,"Ġcpu":6115,"Ġemphas":6116,"Ġdc":6117,"Ġfacts":6118,"Ġloaded":6119,"Ġpreach":6120,"Ġfactors":6121,"Ġgluc":6122,"estyle":6123,"Ġproced":6124,"ded":6125,"Ġparallel":6126,"uh":6127,"icted":6128,"Ġll":6129,"Ġooh":6130,"Ġbump":6131,"Ġcreator":6132,"Ġapolog":6133,"Ġfortun":6134,"Ġrebu":6135,"Ġflorida":6136,"Ġba":6137,"Ġdocumentation":6138,"Ġrepository":6139,"Ġner":6140,"Ġtack":6141,"nis":6142,"Ġfaces":6143,"Ġjay":6144,"coming":6145,"Ġfoll":6146,"uel":6147,"Ġunex":6148,"Ġ64":6149,"Ġnarrow":6150,"Ġcompass":6151,"Ġadventure":6152,"ril":6153,"Ġusual":6154,"asty":6155,"Ġremarkable":6156,"kes":6157,"Ġcontrolled":6158,"Ġadministration":6159,"Ġkiller":6160,"Ġholly":6161,"Ġrevenue":6162,"Ġunknown":6163,"Ġkorea":6164,"Ġthor":6165,"Ġnumer":6166,"Ġye":6167,"Ġupdated":6168,"Ġadds":6169,"Ġcrypt":6170,"Ġfred":6171,"Ġlets":6172,"Ġgentlemen":6173,"Ġstun":6174,"ificial":6175,"Ġbars":6176,"acles":6177,"Ġcharles":6178,"Ġnetworks":6179,"Ġvictor":6180,"che":6181,"Ġpoll":6182,"Ġsynth":6183,"aints":6184,"Ġfellow":6185,"uls":6186,"Ġmatrix":6187,"Ġdivided":6188,"Ġstudying":6189,"list":6190,"sters":6191,"Ġfox":6192,"Ġunusual":6193,"Ġweigh":6194,"encing":6195,"Ġunders":6196,"Ġmuse":6197,"Ġseptember":6198,"Ġrouter":6199,"essed":6200,"Ġspray":6201,"Ġembarrass":6202,"Ġlaughing":6203,"nda":6204,"Ġfret":6205,"Ġselection":6206,"Ġcalculate":6207,"me":6208,"Ġlee":6209,"Ġjimmy":6210,"Ġawful":6211,"Ġscope":6212,"Ġthumb":6213,"Ġstir":6214,"Ġalert":6215,"Ġchecks":6216,"isms":6217,"Ġmartin":6218,"Ġprobability":6219,"Ġemb":6220,"iot":6221,"Ġcomma":6222,"vid":6223,"Ġbend":6224,"Ġloading":6225,"Ġalbum":6226,"Ġbullet":6227,"Ġroles":6228,"Ġconqu":6229,"Ġclin":6230,"Ġhorm":6231,"Ġsubt":6232,"Ġdefensive":6233,"Ġdun":6234,"Ġnavigate":6235,"road":6236,"Ġchances":6237,"Ġcomplexity":6238,"okes":6239,"Ġmechanism":6240,"Ġdisagree":6241,"Ġrome":6242,"Ġliver":6243,"Ġrequirements":6244,"fall":6245,"riend":6246,"Ġportion":6247,"Ġcircumstances":6248,"sey":6249,"Ġexpans":6250,"bell":6251,"Ġchaos":6252,"Ġcrying":6253,"Ġsignificantly":6254,"Ġlinear":6255,"Ġpepper":6256,"Ġalien":6257,"Ġtroops":6258,"Ġphrase":6259,"Ġpurple":6260,"Ġparen":6261,"Ġscott":6262,"Ġwinner":6263,"Ġtied":6264,"Ġmeters":6265,"Ġreput":6266,"urning":6267,"Ġcd":6268,"Ġafterwards":6269,"Ġmarks":6270,"Ġcoding":6271,"ado":6272,"Ġreasonable":6273,"Ġcoin":6274,"Ġtremend":6275,"Ġsyntax":6276,"Ġrick":6277,"Ġsupporting":6278,"Ġmega":6279,"Ġassembly":6280,"Ġfurn":6281,"Ġnuts":6282,"Ġestim":6283,"Ġoutcome":6284,"Ġterritory":6285,"Ġhurry":6286,"Ġcombine":6287,"enger":6288,"Ġsexual":6289,"Ġintelligent":6290,"Ġbind":6291,"Ġtrash":6292,"Ġoccasion":6293,"thr":6294,"Ġgrateful":6295,"Ġdistinct":6296,"Ġket":6297,"Ġconvention":6298,"Ġ33":6299,"Ġcontrast":6300,"hen":6301,"Ġnint":6302,"cho":6303,"Ġtension":6304,"Ġharmon":6305,"Ġclosing":6306,"Ġattend":6307,"Ġangel":6308,"500":6309,"Ġclosely":6310,"ulator":6311,"Ġguil":6312,"Ġexcel":6313,"isc":6314,"athy":6315,"ortion":6316,"Ġhelm":6317,"Ġdiagn":6318,"Ġdirt":6319,"Ġstro":6320,"Ġmanufacture":6321,"water":6322,"Ġinstrument":6323,"Ġconsequences":6324,"Ġcomparison":6325,"Ġgem":6326,"Ġfigures":6327,"Ġsilence":6328,"ura":6329,"Ġnarrative":6330,"99":6331,"Ġlego":6332,"Ġorient":6333,"Ġgods":6334,"Ġsurre":6335,"isters":6336,"Ġnintendo":6337,"Ġspa":6338,"Ġserving":6339,"Ġefficiency":6340,"Ġtunnel":6341,"Ġappropriate":6342,"Ġcontrovers":6343,"xture":6344,"Ġprovider":6345,"Ġfaced":6346,"Ġnotion":6347,"Ġmainly":6348,"Ġ*":6349,"Ġmile":6350,"Ġmolec":6351,"Ġreturning":6352,"Ġinteger":6353,"Ġryan":6354,"Ġplanes":6355,"Ġimportance":6356,"abet":6357,"Ġperman":6358,"Ġfits":6359,"Ġneat":6360,"Ġbold":6361,"Ġsurf":6362,"Ġstores":6363,"Ġglucose":6364,"Ġforgive":6365,"Ġapril":6366,"connect":6367,"Ġelectricity":6368,"rene":6369,"Ġjumping":6370,"Ġtelevision":6371,"Ġbasketball":6372,"Ġlifestyle":6373,"chron":6374,"athan":6375,"bes":6376,"Ġdecre":6377,"Ġimplementation":6378,"Ġrang":6379,"roph":6380,"Ġcube":6381,"Ġbiden":6382,"Ġtik":6383,"Ġkevin":6384,"Ġtopics":6385,"Ġnearby":6386,"Ġfloating":6387,"Ġjuice":6388,"Ġlav":6389,"Ġconvinced":6390,"Ġphysic":6391,"Ġfleet":6392,"Ġrates":6393,"Ġsecrets":6394,"Ġnicely":6395,"Ġceo":6396,"Ġgradu":6397,"Ġdang":6398,"Ġadmit":6399,"Ġreset":6400,"Ġenab":6401,"lfriend":6402,"bling":6403,"Ġ2000":6404,"Ġbike":6405,"Ġassuming":6406,"Ġbun":6407,"Ġfought":6408,"Ġguilty":6409,"stream":6410,"Ġpregn":6411,"Ġinsurance":6412,"Ġsilly":6413,"Ġdeployment":6414,"Ġdescend":6415,"Ġmanual":6416,"ading":6417,"Ġstatements":6418,"Ġbreathing":6419,"Ġcere":6420,"Ġappearance":6421,"Ġcivilization":6422,"isco":6423,"Ġjosh":6424,"Ġflesh":6425,"Ġfunctionality":6426,"Ġimportantly":6427,"Ġsalv":6428,"Ġcandy":6429,"Ġshapes":6430,"alem":6431,"engers":6432,"Ġtreated":6433,"Ġbeliefs":6434,"Ġnorthern":6435,"Ġexperts":6436,"js":6437,"Ġcrush":6438,"Ġfilling":6439,"Ġtrauma":6440,"Ġvel":6441,"Ġcrap":6442,"Ġdelive":6443,"Ġspoken":6444,"ptions":6445,"Ġpurchase":6446,"Ġshopping":6447,"respond":6448,"Ġpand":6449,"Ġtechnologies":6450,"Ġlit":6451,"Ġbelt":6452,"Ġsquee":6453,"Ġkenned":6454,"Ġintent":6455,"Ġcultural":6456,"Ġreplaced":6457,"Ġmoist":6458,"Ġparis":6459,"Ġheavily":6460,"gar":6461,"Ġjuly":6462,"stairs":6463,"Ġjerus":6464,"Ġcorrespond":6465,"Ġcommander":6466,"Ġchef":6467,"Ġira":6468,"Ġell":6469,"Ġna":6470,"Ġsurger":6471,"Ġnope":6472,"Ġ120":6473,"Ġradar":6474,"Ġmexico":6475,"Ġrecorded":6476,"Ġpowder":6477,"Ġspots":6478,"Ġcovering":6479,"Ġcaptured":6480,"Ġlens":6481,"Ġbirds":6482,"Ġdave":6483,"oons":6484,"Ġconver":6485,"Ġtherm":6486,"Ġjerusalem":6487,"100":6488,"Ġstandards":6489,"Ġtiming":6490,"ummy":6491,"Ġservers":6492,"Ġbedroom":6493,"rick":6494,"Ġagency":6495,"Ġobjective":6496,"Ġeastern":6497,"Ġjac":6498,"atell":6499,"Ġjul":6500,"Ġpoison":6501,"Ġprofound":6502,"pet":6503,"Ġloads":6504,"Ġalle":6505,"iveness":6506,"Ġdesigns":6507,"Ġglue":6508,"anny":6509,"Ġcontinuous":6510,"Ġgenuinely":6511,"Ġpurposes":6512,"Ġwaters":6513,"Ġadap":6514,"Ġdimension":6515,"Ġnich":6516,"Ġshirt":6517,"ndered":6518,"Ġviet":6519,"Ġwarri":6520,"Ġjohnson":6521,"Ġdb":6522,"Ġartificial":6523,"Ġein":6524,"Ġ195":6525,"kins":6526,"Ġguarantee":6527,"Ġmissions":6528,"Ġcuts":6529,"eous":6530,"Ġintended":6531,"Ġrequests":6532,"Ġcourage":6533,"Ġgaming":6534,"Ġdelivered":6535,"Ġnba":6536,"Ġabund":6537,"Ġdrum":6538,"25":6539,"Ġlimits":6540,"inity":6541,"Ġregret":6542,"Ġencry":6543,"Ġsurely":6544,"Ġultra":6545,"Ġmail":6546,"Ġlapt":6547,"Ġrolls":6548,"Ġsteven":6549,"Ġtitan":6550,"Ġsites":6551,"Ġtherapy":6552,"Ġdepression":6553,"Ġfabric":6554,"Ġdestination":6555,"Ġhttp":6556,"Ġpipeline":6557,"Ġusern":6558,"pected":6559,"Ġneighb":6560,"Ġconce":6561,"Ġpresentation":6562,"pir":6563,"Ġdiscussed":6564,"Ġequivalent":6565,"Ġreaching":6566,"Ġdoctors":6567,"Ġbush":6568,"hab":6569,"Ġmarsh":6570,"Ġrely":6571,"Ġdesktop":6572,"Ġkennedy":6573,"Ġsoil":6574,"Ġpist":6575,"Ġalongside":6576,"Ġdimensions":6577,"Ġgenius":6578,"apse":6579,"Ġduty":6580,"Ġlandscape":6581,"Ġshoulder":6582,"Ġthrew":6583,"aly":6584,"Ġupdates":6585,"Ġsher":6586,"Ġgoodbye":6587,"Ġpunish":6588,"Ġphotograph":6589,"Ġbrut":6590,"berry":6591,"Ġsilent":6592,"Ġdivers":6593,"Ġillegal":6594,"Ġsake":6595,"Ġmere":6596,"Ġpayment":6597,"Ġremem":6598,"Ġhint":6599,"Ġasks":6600,"Ġdare":6601,"osis":6602,"Ġrevelation":6603,"een":6604,"Ġmud":6605,"Ġsnack":6606,"Ġpointing":6607,"Ġcord":6608,"Ġflew":6609,"ibl":6610,"Ġsignature":6611,"Ġthrown":6612,"Ġinstantly":6613,"Ġsmash":6614,"ike":6615,"Ġbrian":6616,"Ġregister":6617,"Ġmetab":6618,"Ġsupported":6619,"Ġorganizations":6620,"Ġgirlfriend":6621,"Ġintellect":6622,"Ġjoseph":6623,"Ġtricky":6624,"Ġstyles":6625,"Ġneutral":6626,"Ġpercentage":6627,"stone":6628,"Ġbust":6629,"osure":6630,"font":6631,"Ġtears":6632,"Ġrestrict":6633,"Ġhunt":6634,"Ġkings":6635,"Ġexcess":6636,"Ġschol":6637,"Ġenterpr":6638,"ville":6639,"ystem":6640,"Ġassess":6641,"Ġmatches":6642,"rance":6643,"Ġrecip":6644,"agger":6645,"Ġmagnetic":6646,"don":6647,"aud":6648,"forward":6649,"Ġproceed":6650,"Ġhunting":6651,"Ġcss":6652,"Ġze":6653,"Ġpractices":6654,"Ġsatell":6655,"Ġretrie":6656,"Ġpassengers":6657,"Ġalpha":6658,"fol":6659,"wich":6660,"pass":6661,"Ġpron":6662,"Ġattitude":6663,"weight":6664,"Ġhire":6665,"Ġamounts":6666,"Ġpraying":6667,"Ġefforts":6668,"Ġcatholic":6669,"Ġtrim":6670,"Ġtheories":6671,"Ġschools":6672,"Ġbraz":6673,"Ġfranc":6674,"Ġactor":6675,"rect":6676,"Ġnap":6677,"Ġillust":6678,"Ġannounced":6679,"ij":6680,"friend":6681,"Ġrhyth":6682,"Ġmargin":6683,"Ġcongrat":6684,"itate":6685,"Ġwedding":6686,"eding":6687,"Ġearn":6688,"Ġproducing":6689,"otted":6690,"Ġchristianity":6691,"Ġ31":6692,"Ġtoilet":6693,"Ġchicago":6694,"mo":6695,"dr":6696,"Ġchildhood":6697,"Ġtens":6698,"Ġbreathe":6699,"Ġreputation":6700,"Ġ2022":6701,"oph":6702,"Ġinnoc":6703,"Ġsimilarly":6704,"Ġenjoying":6705,"Ġjason":6706,"eu":6707,"Ġaccepted":6708,"Ġcontainers":6709,"Ġsevere":6710,"Ġweakness":6711,"Ġminister":6712,"Ġaccomplish":6713,"Ġfasting":6714,"Ġmaps":6715,"Ġcher":6716,"Ġcenturies":6717,"Ġatom":6718,"outs":6719,"Ġcourses":6720,"Ġdefeat":6721,"Ġtomato":6722,"onaut":6723,"ifting":6724,"Ġappeal":6725,"Ġbackwards":6726,"Ġheader":6727,"Ġstan":6728,"Ġdelet":6729,"Ġproduc":6730,"Ġexisted":6731,"Ġstraightforward":6732,"Ġancest":6733,"elling":6734,"Ġmush":6735,"Ġfetch":6736,"bles":6737,"Ġindustrial":6738,"Ġlaser":6739,"Ġitalian":6740,"Ġosc":6741,"Ġmold":6742,"Ġfilms":6743,"Ġaward":6744,"Ġlogical":6745,"Ġinterviews":6746,"Ġseventh":6747,"inal":6748,"Ġauthentication":6749,"Ġstays":6750,"Ġvirgin":6751,"Ġ193":6752,"Ġtub":6753,"Ġradiation":6754,"Ġsurrounded":6755,"Ġemper":6756,"Ġcalories":6757,"Ġsneak":6758,"Ġshower":6759,"Ġcogn":6760,"Ġattacked":6761,"Ġconvenient":6762,"Ġpasses":6763,"Ġrect":6764,"Ġkilom":6765,"Ġtent":6766,"kin":6767,"Ġcommunities":6768,"Ġclaimed":6769,"Ġcompound":6770,"Ġhollywood":6771,"mates":6772,"Ġeld":6773,"Ġrecall":6774,"greg":6775,"Ġmonday":6776,"Ġcharges":6777,"Ġappoint":6778,"Ġanch":6779,"Ġremained":6780,"Ġepisodes":6781,"Ġdrops":6782,"Ġusername":6783,"oop":6784,"Ġbother":6785,"Ġprotected":6786,"Ġarrive":6787,"ota":6788,"ensional":6789,"Ġcarol":6790,"Ġpride":6791,"Ġhorizont":6792,"Ġratio":6793,"Ġunto":6794,"Ġexecution":6795,"Ġconfusing":6796,"Ġcale":6797,"icip":6798,"Ġpermission":6799,"Ġtune":6800,"Ġcompute":6801,"Ġrepeated":6802,"Ġcommission":6803,"Ġears":6804,"Ġparticle":6805,"Ġblessed":6806,"Ġmanaging":6807,"Ġprofession":6808,"Ġdiagram":6809,"Ġsith":6810,"Ġpiano":6811,"Ġwidget":6812,"Ġeric":6813,"Ġpromised":6814,"Ġlicense":6815,"Ġinvestigators":6816,"Ġvacu":6817,"Ġted":6818,"Ġflowers":6819,"rum":6820,"Ġinterior":6821,"Ġiphone":6822,"ata":6823,"Ġmeta":6824,"Ġdating":6825,"Ġordinary":6826,"Ġcrown":6827,"Ġdancing":6828,"Ġdivor":6829,"pm":6830,"Ġgenerations":6831,"Ġovercome":6832,"Ġunexpected":6833,"ingu":6834,"Ġkm":6835,"Ġcounty":6836,"Ġpresented":6837,"Ġ37":6838,"Ġtires":6839,"Ġconcerns":6840,"Ġbaking":6841,"aped":6842,"Ġlighting":6843,"run":6844,"any":6845,"Ġcharged":6846,"Ġcoins":6847,"Ġlogs":6848,"Ġtouched":6849,"Ġawareness":6850,"Ġconclusion":6851,"Ġeinstein":6852,"Ġkar":6853,"Ġclever":6854,"Ġtracking":6855,"Ġmanner":6856,"Ġgarage":6857,"Ġrib":6858,"Ġtony":6859,"Ġecho":6860,"Ġsurgery":6861,"Ġtelesc":6862,"Ġconnecting":6863,"Ġstrict":6864,"Ġticket":6865,"Ġros":6866,"Ġ600":6867,"wind":6868,"Ġmoses":6869,"Ġmysterious":6870,"Ġbanks":6871,"Ġsaturday":6872,"Ġdesigner":6873,"Ġminecraft":6874,"Ġstom":6875,"Ġburied":6876,"Ġincorpor":6877,"Ġcares":6878,"Ġplanets":6879,"Ġmixture":6880,"Ġrepair":6881,"Ġcaps":6882,"Ġabstract":6883,"Ġassault":6884,"Ġoffensive":6885,"Ġbelieves":6886,"Ġepic":6887,"Ġconstit":6888,"Ġpointed":6889,"Ġdetailed":6890,"Ġ250":6891,"icop":6892,"sell":6893,"Ġmommy":6894,"Ġroast":6895,"Ġvegas":6896,"Ġunre":6897,"Ġcreatures":6898,"Ġswear":6899,"bruary":6900,"Ġlogin":6901,"Ġcurs":6902,"Ġpyram":6903,"Ġuniversal":6904,"Ġthunder":6905,"Ġimmediate":6906,"Ġelectrical":6907,"Ġowned":6908,"Ġsi":6909,"Ġseeking":6910,"Ġarchae":6911,"Ġstruck":6912,"Ġarrested":6913,"wan":6914,"Ġuncomfort":6915,"Ġexpectations":6916,"Ġvolc":6917,"Ġmuseum":6918,"Ġrighteous":6919,"Ġchunk":6920,"Ġmood":6921,"Ġcovers":6922,"Ġspeaker":6923,"Ġboundary":6924,"Ġpackages":6925,"Ġdrove":6926,"Ġdrawn":6927,"Ġfebruary":6928,"Ġ34":6929,"azz":6930,"ker":6931,"enn":6932,"Ġparties":6933,"ruction":6934,"iger":6935,"ologists":6936,"Ġdinosaur":6937,"Ġlip":6938,"Ġdropping":6939,"Ġbam":6940,"rol":6941,"illed":6942,"Ġexplo":6943,"Ġplain":6944,"Ġhandling":6945,"Ġspider":6946,"Ġsandwich":6947,"Ġchampion":6948,"die":6949,"Ġalloc":6950,"Ġcontinuing":6951,"Ġsettle":6952,"Ġobl":6953,"Ġdrew":6954,"Ġresil":6955,"Ġlifetime":6956,"Ġprox":6957,"Ġhelicop":6958,"Ġpleas":6959,"Ġunbelievable":6960,"Ġ.":6961,"Ġ48":6962,"Ġexecuted":6963,"Ġbags":6964,"Ġgit":6965,"Ġluckily":6966,"bby":6967,"Ġentity":6968,"90":6969,"Ġdub":6970,"Ġ2023":6971,"Ġthy":6972,"Ġstopping":6973,"Ġassistant":6974,"Ġofficially":6975,"Ġguests":6976,"Ġpowered":6977,"Ġtestim":6978,"Ġitaly":6979,"made":6980,"war":6981,"Ġlocations":6982,"Ġsuffer":6983,"oll":6984,"Ġbin":6985,"Ġnu":6986,"Ġleak":6987,"Ġvacuum":6988,"Ġcooked":6989,"reh":6990,"Ġjones":6991,"illion":6992,"Ġstreaming":6993,"ala":6994,"Ġclicking":6995,"Ġholiday":6996,"Ġsatan":6997,"Ġobserve":6998,"Ġsections":6999,"Ġinstances":7000,"Ġbeneath":7001,"Ġalleged":7002,"Ġpsal":7003,"ront":7004,"Ġfrozen":7005,"ogue":7006,"uts":7007,"Ġtremendous":7008,"Ġprototyp":7009,"Ġorch":7010,"Ġinflation":7011,"Ġhammer":7012,"Ġvictims":7013,"Ġromans":7014,"Ġslower":7015,"owing":7016,"Ġcounc":7017,"Ġbeer":7018,"Ġexpansion":7019,"obe":7020,"Ġinvolves":7021,"iform":7022,"Ġfiber":7023,"Ġcs":7024,"Ġmrs":7025,"Ġsurrounding":7026,"Ġextended":7027,"bc":7028,"Ġconfirmed":7029,"Ġmultiply":7030,"pe":7031,"Ġbattles":7032,"Ġmaneu":7033,"Ġeasiest":7034,"Ġshortly":7035,"ague":7036,"Ġpotatoes":7037,"Ġstages":7038,"Ġmarkets":7039,"Ġoverwhelming":7040,"Ġturkey":7041,"Ġdestruction":7042,"Ġlegendary":7043,"Ġimproved":7044,"Ġgermans":7045,"Ġboundaries":7046,"Ġrescue":7047,"Ġbron":7048,"Ġexplicit":7049,"Ġports":7050,"Ġpolic":7051,"Ġlighter":7052,"Ġtube":7053,"Ġseats":7054,"Ġcollapse":7055,"Ġpanels":7056,"Ġbacter":7057,"Ġcrystal":7058,"Ġrings":7059,"Ġluxury":7060,"eries":7061,"Ġjake":7062,"Ġiconic":7063,"Ġcous":7064,"Ġdebug":7065,"Ġduplic":7066,"Ġchoosing":7067,"Ġmaxim":7068,"Ġstrategies":7069,"Ġanswered":7070,"Ġfollows":7071,"Ġstim":7072,"Ġsupports":7073,"Ġscientist":7074,"Ġheaded":7075,"Ġstraw":7076,"Ġbatteries":7077,"Ġreliable":7078,"Ġuncomfortable":7079,"Ġgrat":7080,"Ġphones":7081,"Ġrising":7082,"Ġbubble":7083,"Ġrecover":7084,"Ġdow":7085,"Ġdoug":7086,"Ġspeeds":7087,"Ġgraphics":7088,"hus":7089,"Ġsucks":7090,"itable":7091,"Ġpastor":7092,"Ġglasses":7093,"Ġresolution":7094,"Ġtransformation":7095,"Ġvp":7096,"Ġconfront":7097,"Ġpriest":7098,"Ġdevast":7099,"going":7100,"Ġpolicies":7101,"Ġdistur":7102,"Ġpreparing":7103,"Ġvulnerable":7104,"Ġperforming":7105,"Ġwires":7106,"Ġframes":7107,"Ġmama":7108,"ifies":7109,"Ġchamber":7110,"cp":7111,"Ġramp":7112,"offs":7113,"Ġannounce":7114,"Ġdelt":7115,"Ġphilosoph":7116,"Ġtoxic":7117,"Ġgates":7118,"ader":7119,"Ġsoup":7120,"Ġpointer":7121,"Ġprosec":7122,"Ġmarked":7123,"Ġecos":7124,"Ġmanually":7125,"Ġexperiments":7126,"irect":7127,"isher":7128,"Ġrecognized":7129,"Ġunderscore":7130,"Ġseeds":7131,"bered":7132,"Ġprivile":7133,"Ġfishing":7134,"Ġmakeup":7135,"Ġgreg":7136,"Ġcompress":7137,"Ġconsumer":7138,"rency":7139,"Ġevolved":7140,"urt":7141,"Ġcompetitive":7142,"Ġapproximately":7143,"Ġgenesis":7144,"Ġdod":7145,"ilot":7146,"ores":7147,"oded":7148,"Ġdiction":7149,"Ġsnake":7150,"Ġbillions":7151,"Ġreceiving":7152,"ares":7153,"nings":7154,"Ġgeom":7155,"Ġobser":7156,"Ġflaw":7157,"Ġceiling":7158,"through":7159,"Ġtreasure":7160,"Ġblo":7161,"Ġtire":7162,"Ġprincess":7163,"Ġlion":7164,"Ġtrapped":7165,"Ġsignals":7166,"Ġastronaut":7167,"Ġvice":7168,"Ġecosystem":7169,"Ġandroid":7170,"estic":7171,"Ġroots":7172,"Ġmeaningful":7173,"Ġwolf":7174,"Ġbrazil":7175,"Ġhatch":7176,"Ġscrews":7177,"Ġrh":7178,"Ġcharlie":7179,"Ġaffected":7180,"Ġspawn":7181,"Ġemperor":7182,"Ġstudied":7183,"Ġinvolve":7184,"Ġages":7185,"Ġate":7186,"umbs":7187,"Ġlanded":7188,"Ġsolo":7189,"Ġgrams":7190,"Ġzeal":7191,"Ġparenth":7192,"Ġoops":7193,"Ġbrains":7194,"Ġattor":7195,"Ġpolitic":7196,"Ġcategories":7197,"Ġgrip":7198,"Ġsheep":7199,"Ġsympt":7200,"Ġperce":7201,"Ġchannels":7202,"Ġinvited":7203,"Ġbonus":7204,"Ġanticip":7205,"Ġbrook":7206,"Ġelon":7207,"Ġfantasy":7208,"Ġcompiler":7209,"eds":7210,"Ġasyn":7211,"Ġ2021":7212,"Ġeve":7213,"oma":7214,"Ġrating":7215,"Ġtaxes":7216,"Ġviolent":7217,"Ġcomputing":7218,"Ġjar":7219,"aret":7220,"Ġ38":7221,"Ġhardest":7222,"bow":7223,"Ġinvite":7224,"Ġsolving":7225,"Ġworlds":7226,"Ġembrace":7227,"Ġpent":7228,"Ġlogo":7229,"Ġincreases":7230,"Ġsends":7231,"Ġrhythm":7232,"ulting":7233,"Ġloyal":7234,"Ġdict":7235,"Ġmeg":7236,"Ġshine":7237,"Ġpacific":7238,"Ġdramatic":7239,"Ġgb":7240,"Ġdemocracy":7241,"Ġcontemp":7242,"Ġ42":7243,"Ġanalyze":7244,"itty":7245,"ja":7246,"Ġmuslim":7247,"Ġrestart":7248,"reprene":7249,"isible":7250,"oy":7251,"coin":7252,"Ġsquared":7253,"Ġiniti":7254,"star":7255,"Ġneural":7256,"Ġentreprene":7257,"Ġnovel":7258,"iser":7259,"Ġsuggested":7260,"Ġcouncil":7261,"inations":7262,"Ġglor":7263,"essions":7264,"Ġprimarily":7265,"Ġrealm":7266,"Ġclouds":7267,"Ġinteraction":7268,"Ġstones":7269,"Ġsurvived":7270,"Ġasset":7271,"Ġsimon":7272,"iana":7273,"Ġtargets":7274,"brew":7275,"Ġsubmit":7276,"Ġlane":7277,"Ġ180":7278,"ena":7279,"Ġgarbage":7280,"Ġpremium":7281,"Ġartists":7282,"Ġgender":7283,"Ġbasics":7284,"Ġfallen":7285,"ĠĠĠĠĠĠĠĠ":7286,"16":7287,"Ġmarry":7288,"Ġpapers":7289,"Ġinnovation":7290,"Ġelite":7291,"Ġod":7292,"Ġimmig":7293,"Ġgoods":7294,"Ġobst":7295,"Ġexploring":7296,"Ġ65":7297,"Ġmercy":7298,"Ġinfect":7299,"Ġsalary":7300,"Ġrecovery":7301,"esth":7302,"Ġlargely":7303,"Ġminimal":7304,"Ġuniform":7305,"Ġbeating":7306,"Ġpriority":7307,"Ġmagaz":7308,"Ġposts":7309,"Ġprotest":7310,"Ġstrategic":7311,"elines":7312,"Ġ2019":7313,"Ġts":7314,"iors":7315,"mit":7316,"Ġlibraries":7317,"Ġtay":7318,"Ġfloat":7319,"Ġenvironments":7320,"Ġiraq":7321,"Ġassigned":7322,"Ġsophistic":7323,"Ġlb":7324,"Ġlaptop":7325,"leep":7326,"Ġbuilds":7327,"Ġforgotten":7328,"Ġprophet":7329,"Ġclue":7330,"Ġcomprom":7331,"Ġgenerator":7332,"Ġbot":7333,"Ġcheaper":7334,"Ġagreement":7335,"called":7336,"ca":7337,"Ġportfol":7338,"Ġisraeli":7339,"Ġoverl":7340,"pace":7341,"Ġcoal":7342,"Ġbelieving":7343,"Ġequipped":7344,"icial":7345,"Ġthreats":7346,"Ġnightm":7347,"Ġtoler":7348,"Ġoccurred":7349,"Ġsits":7350,"Ġfreak":7351,"Ġmomentum":7352,"Ġms":7353,"Ġaid":7354,"Ġidentified":7355,"Ġ95":7356,"Ġcosmic":7357,"Ġintroduction":7358,"inated":7359,"Ġstem":7360,"vas":7361,"Ġtheater":7362,"Ġaccessible":7363,"ener":7364,"Ġimpressed":7365,"Ġpainful":7366,"onge":7367,"Ġworksh":7368,"Ġabilities":7369,"Ġspeaks":7370,"Ġnutr":7371,"Ġconstructor":7372,"Ġadopt":7373,"iver":7374,"away":7375,"Ġ55":7376,"anned":7377,"Ġstomach":7378,"tenance":7379,"Ġclosest":7380,"Ġapplying":7381,"Ġconvince":7382,"Ġunderground":7383,"ji":7384,"Ġchuck":7385,"wide":7386,"Ġlis":7387,"Ġdelta":7388,"Ġseparated":7389,"Ġasia":7390,"Ġimprovement":7391,"Ġinches":7392,"Ġlawyer":7393,"inder":7394,"Ġdeals":7395,"Ġsmells":7396,"Ġfrequently":7397,"Ġhunter":7398,"Ġinspiration":7399,"father":7400,"Ġmaintenance":7401,"Ġari":7402,"Ġgolf":7403,"Ġuf":7404,"Ġregions":7405,"Ġenterprise":7406,"Ġfastest":7407,"Ġpear":7408,"Ġsegment":7409,"Ġimplemented":7410,"Ġmushroom":7411,"Ġml":7412,"orate":7413,"Ġsed":7414,"ola":7415,"Ġabuse":7416,"Ġtouching":7417,"Ġcompassion":7418,"Ġfights":7419,"iance":7420,"Ġpuzzle":7421,"Ġslice":7422,"Ġhandy":7423,"Ġmiracle":7424,"Ġshorter":7425,"Ġrip":7426,"Ġconfigure":7427,"rog":7428,"Ġhorizon":7429,"Ġtastes":7430,"Ġfighters":7431,"Ġnarc":7432,"rid":7433,"Ġinventory":7434,"Ġcolleagues":7435,"Ġcongratulations":7436,"fit":7437,"Ġwre":7438,"imeter":7439,"Ġflav":7440,"Ġyards":7441,"Ġhorror":7442,"cca":7443,"Ġreson":7444,"Ġarmed":7445,"Ġpole":7446,"Ġugly":7447,"Ġjackson":7448,"Ġbass":7449,"Ġ2016":7450,"Ġpersist":7451,"Ġflower":7452,"Ġrapidly":7453,"Ġmindful":7454,"Ġyard":7455,"Ġpenal":7456,"Ġlone":7457,"Ġpul":7458,"Ġuncertain":7459,"Ġmeter":7460,"Ġtheoret":7461,"mad":7462,"Ġviewers":7463,"Ġreviews":7464,"Ġpicks":7465,"Ġgateway":7466,"Ġrabbit":7467,"Ġradical":7468,"Ġbatman":7469,"Ġfried":7470,"Ġwriter":7471,"Ġslic":7472,"Ġtyping":7473,"Ġ+":7474,"Ġcommitt":7475,"Ġhalfway":7476,"Ġpropos":7477,"Ġcargo":7478,"Ġroads":7479,"Ġediting":7480,"Ġinjury":7481,"Ġgath":7482,"fish":7483,"itors":7484,"Ġdecides":7485,"Ġot":7486,"Ġshipping":7487,"Ġcompreh":7488,"Ġblu":7489,"Ġprinting":7490,"Ġupside":7491,"Ġborrow":7492,"Ġprev":7493,"Ġlightning":7494,"Ġinvented":7495,"Ġdelight":7496,"Ġprize":7497,"Ġsuggests":7498,"Ġwig":7499,"Ġcav":7500,"Ġinfo":7501,"Ġshocked":7502,"Ġvl":7503,"Ġspanish":7504,"Ġgay":7505,"Ġintegration":7506,"Ġabandoned":7507,"lers":7508,"Ġyog":7509,"Ġdates":7510,"Ġbeans":7511,"Ġreminds":7512,"Ġwalks":7513,"Ġtempl":7514,"Ġinev":7515,"Ġimagination":7516,"Ġgalaxies":7517,"Ġturb":7518,"ikes":7519,"archy":7520,"Ġdeliber":7521,"Ġentering":7522,"Ġislands":7523,"Ġbabies":7524,"law":7525,"hal":7526,"Ġenthus":7527,"Ġeveryday":7528,"Ġseasons":7529,"Ġsixth":7530,"fire":7531,"Ġouts":7532,"Ġcorners":7533,"Ġharvest":7534,"Ġbiological":7535,"Ġfest":7536,"Ġfacility":7537,"Ġcomedy":7538,"Ġcapability":7539,"Ġintim":7540,"Ġprecious":7541,"Ġrational":7542,"Ġmechanical":7543,"uded":7544,"Ġrisks":7545,"Ġhebrew":7546,"Ġcookie":7547,"Ġworthy":7548,"Ġdick":7549,"Ġscam":7550,"Ġpossibilities":7551,"herent":7552,"Ġgaza":7553,"Ġdarker":7554,"Ġturbo":7555,"Ġsid":7556,"Ġyay":7557,"Ġquad":7558,"Ġclone":7559,"Ġsail":7560,"Ġlouis":7561,"Ġenthusi":7562,"erves":7563,"Ġdirections":7564,"Ġdashboard":7565,"Ġarrange":7566,"Ġgross":7567,"Ġreduced":7568,"Ġanalyt":7569,"Ġapologize":7570,"Ġky":7571,"Ġclay":7572,"Ġaven":7573,"Ġnodes":7574,"Ġtemperatures":7575,"Ġmodules":7576,"Ġvoid":7577,"oker":7578,"Ġslip":7579,"Ġhan":7580,"nament":7581,"Ġnit":7582,"Ġhors":7583,"Ġjumped":7584,"Ġbriefly":7585,"Ġdesperate":7586,"60":7587,"Ġbackup":7588,"Ġproved":7589,"Ġbitcoin":7590,"laim":7591,"flix":7592,"burg":7593,"Ġasleep":7594,"Ġcoat":7595,"Ġposted":7596,"Ġsecondary":7597,"Ġrefrig":7598,"Ġdiscord":7599,"Ġbills":7600,"Ġexplaining":7601,"Ġremoving":7602,"Ġrefriger":7603,"Ġnights":7604,"step":7605,"Ġentertainment":7606,"van":7607,"Ġministry":7608,"Ġcitizens":7609,"Ġengaged":7610,"Ġachieved":7611,"Ġtrace":7612,"Ġbracket":7613,"print":7614,"Ġsticking":7615,"Ġpawns":7616,"arn":7617,"Ġease":7618,"Ġimpression":7619,"Ġnetflix":7620,"Ġprinted":7621,"Ġwooden":7622,"Ġdominant":7623,"Ġcommitment":7624,"Ġautomatic":7625,"Ġattribute":7626,"ora":7627,"icide":7628,"anged":7629,"Ġhes":7630,"yson":7631,"Ġmodify":7632,"Ġportal":7633,"Ġparking":7634,"Ġrit":7635,"Ġbuzz":7636,"Ġrealistic":7637,"Ġpalace":7638,"Ġenforce":7639,"nat":7640,"Ġ2018":7641,"Ġlemon":7642,"Ġdisconnect":7643,"Ġaltitude":7644,"Ġmeasures":7645,"Ġsubscription":7646,"Ġseeming":7647,"Ġcontrolling":7648,"Ġtriangle":7649,"Ġmerch":7650,"Ġhabits":7651,"Ġprecision":7652,"Ġbombs":7653,"Ġtum":7654,"Ġvegetables":7655,"Ġta":7656,"Ġunable":7657,"Ġriding":7658,"eing":7659,"ya":7660,"Ġmetaph":7661,"Ġneighbors":7662,"Ġcooling":7663,"Ġlaying":7664,"Ġjup":7665,"Ġinterrupt":7666,"sect":7667,"Ġdock":7668,"Ġfiring":7669,"Ġformation":7670,"Ġscales":7671,"Ġtaylor":7672,"Ġtrailer":7673,"Ġseam":7674,"Ġboston":7675,"Ġwilliams":7676,"Ġcancel":7677,"Ġtear":7678,"Ġrounds":7679,"Ġfrankly":7680,"Ġdemonstrate":7681,"Ġslides":7682,"Ġincrement":7683,"Ġflows":7684,"Ġbapt":7685,"Ġpracticing":7686,"Ġsins":7687,"Ġwoke":7688,"Ġsilic":7689,"Ġrelief":7690,"Ġbarrier":7691,"standing":7692,"Ġcups":7693,"Ġcraw":7694,"Ġcorporate":7695,"Ġolive":7696,"Ġimperial":7697,"Ġresur":7698,"life":7699,"Ġoffense":7700,"Ġobt":7701,"Ġmonitoring":7702,"Ġlecture":7703,"Ġsuperior":7704,"Ġmeditation":7705,"Ġrobots":7706,"Ġbc":7707,"Ġsafely":7708,"Ġafrican":7709,"rist":7710,"uran":7711,"Ġchasing":7712,"Ġwrit":7713,"Ġemails":7714,"Ġjacob":7715,"zer":7716,"Ġcompact":7717,"Ġportfolio":7718,"Ġtricks":7719,"riers":7720,"phones":7721,"Ġswift":7722,"Ġproven":7723,"Ġguards":7724,"Ġassass":7725,"Ġinstallation":7726,"uten":7727,"Ġidentical":7728,"attle":7729,"Ġburst":7730,"Ġclothing":7731,"Ġattempts":7732,"Ġspinning":7733,"Ġcelebrate":7734,"Ġathlet":7735,"Ġpromises":7736,"Ġharsh":7737,"Ġboards":7738,"Ġdepos":7739,"Ġshortcut":7740,"Ġhydrogen":7741,"Ġsubmar":7742,"Ġauthorities":7743,"Ġverb":7744,"Ġcm":7745,"Ġsteady":7746,"Ġmont":7747,"Ġsons":7748,"Ġrelat":7749,"Ġtort":7750,"aby":7751,"Ġwinds":7752,"Ġprivacy":7753,"Ġrunway":7754,"Ġangels":7755,"Ġinvisible":7756,"Ġreferred":7757,"Ġshed":7758,"Ġcreature":7759,"Ġbatch":7760,"Ġrevers":7761,"Ġvolts":7762,"yard":7763,"Ġadults":7764,"Ġteachers":7765,"Ġfate":7766,"Ġmock":7767,"Ġbugs":7768,"Ġdependent":7769,"Ġdual":7770,"Ġmanufacturing":7771,"Ġinsights":7772,"Ġeternal":7773,"Ġcort":7774,"Ġbra":7775,"Ġexecutive":7776,"Ġdiscount":7777,"Ġcliff":7778,"Ġtokens":7779,"rison":7780,"raw":7781,"Ġgranted":7782,"Ġsupplies":7783,"Ġtimeline":7784,"Ġcontest":7785,"Ġdictionary":7786,"uous":7787,"Ġexplains":7788,"Ġgrave":7789,"Ġallies":7790,"Ġaccidentally":7791,"Ġexplosion":7792,"Ġpacked":7793,"Ġverify":7794,"Ġcopper":7795,"Ġinflamm":7796,"Ġwebsites":7797,"Ġovers":7798,"rence":7799,"Ġmeasuring":7800,"Ġpregnant":7801,"Ġzealand":7802,"ifier":7803,"Ġprotecting":7804,"Ġfoss":7805,"Ġrebuild":7806,"wall":7807,"Ġabra":7808,"Ġscreaming":7809,"Ġgrain":7810,"Ġincreasingly":7811,"walk":7812,"Ġnowad":7813,"Ġunco":7814,"Ġhier":7815,"Ġmusical":7816,"Ġbacteria":7817,"Ġacknowledge":7818,"Ġregularly":7819,"Ġthrust":7820,"Ġserial":7821,"Ġaxis":7822,"Ġhired":7823,"Ġsurve":7824,"Ġlava":7825,"lets":7826,"Ġreflection":7827,"Ġpolar":7828,"Ġlands":7829,"Ġexclusive":7830,"soever":7831,"Ġsticks":7832,"Ġusb":7833,"Ġswitches":7834,"Ġmotivation":7835,"ogen":7836,"Ġdifficulty":7837,"Ġlowest":7838,"Ġinnocent":7839,"200":7840,"Ġflexible":7841,"Ġmaintaining":7842,"Ġendpoint":7843,"Ġvietnam":7844,"Ġshares":7845,"Ġbrands":7846,"Ġspacecraft":7847,"Ġsweat":7848,"Ġbubb":7849,"Ġwhatsoever":7850,"Ġdiabet":7851,"Ġcad":7852,"vis":7853,"olen":7854,"Ġavo":7855,"Ġworker":7856,"Ġward":7857,"Ġrealizing":7858,"Ġvine":7859,"Ġequally":7860,"Ġraising":7861,"Ġnowadays":7862,"Ġford":7863,"Ġhind":7864,"Ġmathematics":7865,"Ġpier":7866,"lyn":7867,"Ġorb":7868,"lla":7869,"Ġhorizontal":7870,"pack":7871,"iped":7872,"Ġpulls":7873,"Ġproc":7874,"Ġmeetings":7875,"Ġconsistently":7876,"Ġpainted":7877,"Ġastronom":7878,"Ġgenetic":7879,"Ġextr":7880,"Ġwil":7881,"Ġcurt":7882,"Ġbrad":7883,"Ġstartup":7884,"ua":7885,"Ġshaped":7886,"Ġdrinks":7887,"bra":7888,"Ġstad":7889,"Ġfranch":7890,"Ġpd":7891,"Ġnewsp":7892,"Ġdrone":7893,"Ġathe":7894,"Ġsponsor":7895,"Ġnumerous":7896,"Ġveloc":7897,"Ġcarrier":7898,"Ġsenate":7899,"Ġsolved":7900,"Ġcompete":7901,"Ġknocked":7902,"Ġwithd":7903,"Ġalleg":7904,"Ġkicked":7905,"Ġburned":7906,"Ġinvesting":7907,"Ġactively":7908,"Ġtwin":7909,"Ġregist":7910,"Ġresearchers":7911,"Ġethan":7912,"Ġbadly":7913,"zed":7914,"Ġcommittee":7915,"Ġyouth":7916,"Ġcollaps":7917,"Ġguidance":7918,"lymp":7919,"Ġcounting":7920,"Ġrubber":7921,"Ġgab":7922,"Ġbaseball":7923,"Ġattorney":7924,"Ġgenerating":7925,"Ġmarvel":7926,"Ġdeclare":7927,"Ġharris":7928,"Ġfundamentally":7929,"Ġalumin":7930,"Ġplates":7931,"Ġdrama":7932,"Ġreferring":7933,"Ġkilometers":7934,"Ġ800":7935,"amps":7936,"Ġamongst":7937,"Ġbeam":7938,"Ġflutter":7939,"Ġabraham":7940,"Ġquran":7941,"Ġpixels":7942,"alous":7943,"opes":7944,"Ġgifts":7945,"Ġsubtle":7946,"Ġvend":7947,"Ġthreads":7948,"uk":7949,"Ġslot":7950,"Ġhardly":7951,"Ġdigging":7952,"gie":7953,"Ġhmm":7954,"Ġswap":7955,"Ġimplic":7956,"Ġsketch":7957,"Ġdoom":7958,"Ġentrance":7959,"Ġclassical":7960,"Ġthumbs":7961,"Ġdensity":7962,"attered":7963,"Ġdatabases":7964,"hammad":7965,"Ġvital":7966,"Ġenhance":7967,"za":7968,"icks":7969,"Ġfence":7970,"Ġorganic":7971,"Ġsufficient":7972,"Ġgp":7973,"ivers":7974,"Ġstroke":7975,"aping":7976,"Ġcompat":7977,"Ġpropag":7978,"Ġdavis":7979,"Ġpermanent":7980,"Ġautomation":7981,"Ġintegrated":7982,"Ġawa":7983,"Ġolymp":7984,"vy":7985,"Ġyield":7986,"Ġspacex":7987,"Ġbuilder":7988,"Ġresolve":7989,"Ġsweep":7990,"Ġreminder":7991,"Ġshocking":7992,"Ġbuffer":7993,"iences":7994,"Ġtweet":7995,"Ġnons":7996,"Ġrepublican":7997,"geon":7998,"Ġawk":7999,"Ġsizes":8000,"Ġpiss":8001,"Ġregarding":8002,"Ġrepresentation":8003,"Ġlazy":8004,"Ġdishes":8005,"Ġblur":8006,"Ġperformed":8007,"Ġvoices":8008,"ppy":8009,"Ġinstalling":8010,"Ġswimming":8011,"Ġskelet":8012,"Ġtriple":8013,"Ġradius":8014,"Ġcyl":8015,"Ġfinishing":8016,"Ġbinary":8017,"Ġandy":8018,"Ġmessed":8019,"Ġensuring":8020,"Ġgradually":8021,"Ġcasual":8022,"ifact":8023,"Ġactors":8024,"Ġfeeding":8025,"Ġconsistency":8026,"Ġdistributed":8027,"lation":8028,"va":8029,"Ġreck":8030,"unction":8031,"Ġoutdo":8032,"Ġmathematical":8033,"Ġbrutal":8034,"Ġadh":8035,"Ġadvoc":8036,"Ġsacrific":8037,"lon":8038,"Ġmaneuver":8039,"Ġgary":8040,"Ġterrifying":8041,"Ġdeployed":8042,"Ġgravit":8043,"Ġwrest":8044,"uting":8045,"Ġgarlic":8046,"Ġmiami":8047,"Ġeag":8048,"Ġallah":8049,"Ġsemic":8050,"Ġfears":8051,"Ġmos":8052,"Ġmagical":8053,"Ġessence":8054,"Ġ2017":8055,"Ġought":8056,"Ġstepped":8057,"aneously":8058,"Ġsurviv":8059,"backs":8060,"Ġrepresented":8061,"Ġsubstant":8062,"Ġemily":8063,"Ġsprint":8064,"Ġcertific":8065,"oming":8066,"amine":8067,"Ġfaithful":8068,"Ġstability":8069,"Ġbiz":8070,"Ġbounce":8071,"Ġmovements":8072,"lied":8073,"Ġbund":8074,"Ġ44":8075,"Ġimmune":8076,"Ġsophisticated":8077,"Ġawkward":8078,"Ġinputs":8079,"Ġstadium":8080,"Ġpartnership":8081,"Ġcalend":8082,"Ġwoo":8083,"Ġdy":8084,"Ġvs":8085,"Ġovernight":8086,"mond":8087,"Ġmusk":8088,"iture":8089,"Ġlists":8090,"Ġreporting":8091,"Ġcollected":8092,"Ġrotation":8093,"Ġpixel":8094,"Ġtemporary":8095,"Ġbetray":8096,"Ġinherit":8097,"Ġtoss":8098,"Ġcrimes":8099,"nie":8100,"Ġmuhammad":8101,"Ġfluid":8102,"Ġsurrender":8103,"arian":8104,"Ġstrongly":8105,"Ġcrop":8106,"Ġpaths":8107,"Ġhousing":8108,"Ġretirement":8109,"Ġgrows":8110,"fare":8111,"Ġpressing":8112,"Ġaccuracy":8113,"Ġintellectual":8114,"Ġprophec":8115,"eff":8116,"Ġbilly":8117,"Ġdrunk":8118,"comes":8119,"part":8120,"Ġdawn":8121,"Ġartifact":8122,"Ġbeautifully":8123,"Ġsymptoms":8124,"ales":8125,"ads":8126,"Ġcompile":8127,"Ġdisappeared":8128,"Ġcreativity":8129,"emic":8130,"Ġleon":8131,"nar":8132,"Ġtongue":8133,"Ġsummary":8134,"Ġskull":8135,"Ġpublicly":8136,"ih":8137,"Ġdistant":8138,"etics":8139,"Ġcenters":8140,"Ġmissile":8141,"Ġacademy":8142,"Ġweld":8143,"Ġlisted":8144,"Ġrestore":8145,"Ġtournament":8146,"Ġfridge":8147,"Ġunl":8148,"Ġ1980":8149,"Ġhorsepower":8150,"equ":8151,"Ġbake":8152,"Ġreign":8153,"Ġinterv":8154,"Ġdiabetes":8155,"14":8156,"rations":8157,"Ġcrunch":8158,"Ġsync":8159,"Ġbolt":8160,"Ġwrapped":8161,"Ġdense":8162,"Ġblocking":8163,"Ġknees":8164,"Ġcriter":8165,"Ġmarcus":8166,"Ġrotate":8167,"Ġnavigation":8168,"Ġmuscles":8169,"Ġgratitude":8170,"Ġfilming":8171,"cr":8172,"Ġcops":8173,"Ġbeta":8174,"ctr":8175,"Ġcognitive":8176,"inction":8177,"Ġanalyst":8178,"etric":8179,"Ġretreat":8180,"Ġexpanding":8181,"pit":8182,"Ġboo":8183,"Ġattributes":8184,"Ġpak":8185,"Ġunderlying":8186,"Ġwoods":8187,"Ġtestimony":8188,"Ġtheta":8189,"umes":8190,"Ġcrick":8191,"Ġcommonly":8192,"Ġstreams":8193,"Ġclimbing":8194,"Ġrus":8195,"Ġcrust":8196,"Ġjupiter":8197,"Ġscot":8198,"Ġprecisely":8199,"Ġvocal":8200,"Ġrarely":8201,"Ġwicked":8202,"Ġsuffered":8203,"Ġthou":8204,"Ġmaker":8205,"Ġleverage":8206,"Ġblown":8207,"Ġrelate":8208,"inent":8209,"Ġtooth":8210,"70":8211,"Ġ2015":8212,"Ġimproving":8213,"Ġgorge":8214,"Ġcatching":8215,"Ġbrave":8216,"Ġscheme":8217,"Ġfork":8218,"Ġapproaching":8219,"Ġsel":8220,"Ġsmoking":8221,"Ġrolled":8222,"Ġskept":8223,"iosity":8224,"Ġmissiles":8225,"Ġpars":8226,"Ġdescribing":8227,"Ġcookies":8228,"Ġcodes":8229,"Ġexpon":8230,"Ġisolated":8231,"Ġjohnny":8232,"Ġbrid":8233,"Ġhated":8234,"Ġdart":8235,"Ġdismiss":8236,"Ġprocessed":8237,"Ġspectrum":8238,"Ġconservative":8239,"Ġhover":8240,"Ġleaf":8241,"Ġsquares":8242,"tery":8243,"Ġdefining":8244,"Ġgreet":8245,"ila":8246,"Ġderiv":8247,"bie":8248,"Ġdiscipline":8249,"Ġmeasured":8250,"Ġpile":8251,"Ġpor":8252,"Ġmarine":8253,"Ġhorses":8254,"Ġmeals":8255,"Ġapproaches":8256,"Ġeleph":8257,"Ġautonom":8258,"Ġextensive":8259,"Ġkills":8260,"Ġlag":8261,"Ġrenew":8262,"Ġmatching":8263,"Ġnotebook":8264,"Ġcruise":8265,"Ġtrucks":8266,"Ġbooster":8267,"Ġdownt":8268,"Ġpatre":8269,"Ġexperiencing":8270,"Ġalexander":8271,"Ġpanic":8272,"Ġodds":8273,"apes":8274,"Ġflowing":8275,"Ġpir":8276,"Ġbiology":8277,"Ġego":8278,"Ġbobby":8279,"Ġbrackets":8280,"ented":8281,"stop":8282,"Ġcanad":8283,"Ġinterests":8284,"Ġshelf":8285,"Ġtuned":8286,"Ġzomb":8287,"Ġaddresses":8288,"Ġ--":8289,"Ġcooler":8290,"Ġblocked":8291,"Ġproductivity":8292,"Ġtitles":8293,"thony":8294,"Ġtends":8295,"uge":8296,"Ġhip":8297,"Ġrival":8298,"Ġreaches":8299,"Ġjerry":8300,"Ġcats":8301,"Ġaccum":8302,"Ġtelescope":8303,"Ġoldest":8304,"Ġampl":8305,"Ġstolen":8306,"Ġmighty":8307,"Ġbroadcast":8308,"Ġlongest":8309,"Ġsynchron":8310,"Ġjunior":8311,"Ġcopies":8312,"Ġsurprisingly":8313,"Ġbitter":8314,"Ġedition":8315,"Ġnod":8316,"Ġpassenger":8317,"Ġferr":8318,"front":8319,"Ġhousehold":8320,"Ġthreatening":8321,"Ġfiguring":8322,"Ġseemingly":8323,"Ġheating":8324,"Ġdoo":8325,"Ġdrain":8326,"Ġfreeze":8327,"Ġoperators":8328,"Ġpassage":8329,"Ġdialogue":8330,"Ġnarciss":8331,"Ġfinance":8332,"Ġgrandm":8333,"Ġpeel":8334,"Ġstocks":8335,"Ġwreck":8336,"Ġpsychological":8337,"Ġquotes":8338,"Ġsd":8339,"ez":8340,"Ġinstinct":8341,"Ġvolun":8342,"Ġcoinc":8343,"huh":8344,"Ġdamaged":8345,"Ġevolve":8346,"Ġopinions":8347,"Ġthorough":8348,"Ġscenarios":8349,"Ġroger":8350,"clock":8351,"Ġanthony":8352,"Ġvolunte":8353,"hi":8354,"Ġangeles":8355,"Ġritual":8356,"Ġstake":8357,"Ġhighway":8358,"Ġxbox":8359,"Ġgeorg":8360,"Ġgained":8361,"Ġwrites":8362,"onym":8363,"Ġblew":8364,"mes":8365,"Ġmanagers":8366,"Ġcanvas":8367,"Ġconspir":8368,"Ġsoldier":8369,"Ġapost":8370,"Ġdisord":8371,"Ġremembered":8372,"ello":8373,"Ġpsalm":8374,"Ġintr":8375,"ologically":8376,"Ġhopes":8377,"Ġsummar":8378,"Ġcig":8379,"umber":8380,"Ġexcite":8381,"Ġsemi":8382,"Ġkat":8383,"Ġquantity":8384,"athers":8385,"Ġhurts":8386,"ieties":8387,"Ġfewer":8388,"Ġstunning":8389,"Ġbing":8390,"Ġmining":8391,"Ġphenomenon":8392,"Ġstepping":8393,"Ġalignment":8394,"Ġtouchdown":8395,"Ġvitamin":8396,"Ġunw":8397,"Ġinvasion":8398,"Ġquicker":8399,"Ġcuriosity":8400,"Ġga":8401,"Ġatoms":8402,"Ġcoverage":8403,"Ġstairs":8404,"Ġconfusion":8405,"ruption":8406,"Ġshadows":8407,"Ġbibl":8408,"Ġabundance":8409,"Ġtomm":8410,"Ġdisg":8411,"Ġretail":8412,"Ġvisited":8413,"Ġschedul":8414,"aron":8415,"Ġjunk":8416,"Ġunh":8417,"Ġwider":8418,"elle":8419,"Ġties":8420,"Ġqueries":8421,"Ġsimpler":8422,"Ġblessing":8423,"pie":8424,"Ġfilters":8425,"Ġcass":8426,"free":8427,"Ġfunding":8428,"Ġcandidate":8429,"Ġpatreon":8430,"Ġfeat":8431,"Ġliterature":8432,"Ġvelocity":8433,"Ġmans":8434,"Ġti":8435,"Ġenabled":8436,"Ġearned":8437,"Ġcounts":8438,"Ġintel":8439,"Ġhelicopter":8440,"west":8441,"Ġirr":8442,"Ġsamples":8443,"Ġwaited":8444,"Ġpeaceful":8445,"ulus":8446,"Ġaccomm":8447,"Ġtemplates":8448,"irts":8449,"Ġmetrics":8450,"Ġcollecting":8451,"atile":8452,"Ġaccommod":8453,"ancer":8454,"Ġvault":8455,"Ġvalve":8456,"Ġtablesp":8457,"Ġpropell":8458,"ched":8459,"Ġcreators":8460,"Ġsole":8461,"Ġpromote":8462,"Ġpursue":8463,"Ġdisgust":8464,"Ġdemocratic":8465,"Ġresume":8466,"Ġtickets":8467,"gl":8468,"Ġsometime":8469,"Ġcrossed":8470,"Ġpyramid":8471,"Ġrecru":8472,"Ġcarr":8473,"Ġrepublicans":8474,"Ġdeadly":8475,"dam":8476,"Ġrefused":8477,"Ġsanta":8478,"alf":8479,"Ġhealed":8480,"liest":8481,"Ġinstruction":8482,"nders":8483,"Ġrag":8484,"Ġlonely":8485,"Ġcott":8486,"Ġours":8487,"Ġhorr":8488,"Ġexploration":8489,"Ġ1970":8490,"Ġreducing":8491,"Ġseparation":8492,"Ġnotification":8493,"Ġgrandma":8494,"Ġdiamonds":8495,"Ġkorean":8496,"bu":8497,"Ġwatt":8498,"Ġbum":8499,"Ġlew":8500,"Ġ2010":8501,"Ġjewel":8502,"Ġwealthy":8503,"Ġthrows":8504,"Ġcables":8505,"Ġsisters":8506,"Ġhiring":8507,"oding":8508,"Ġendless":8509,"Ġric":8510,"Ġconsume":8511,"Ġsupreme":8512,"Ġlips":8513,"vp":8514,"Ġbizar":8515,"donald":8516,"Ġmicros":8517,"mble":8518,"Ġfry":8519,"Ġdistrict":8520,"Ġpatience":8521,"Ġfarmers":8522,"Ġadmitted":8523,"Ġserves":8524,"Ġproduces":8525,"Ġhypothesis":8526,"Ġsalvation":8527,"Ġlid":8528,"Ġ192":8529,"Ġobserved":8530,"Ġdesires":8531,"Ġveter":8532,"Ġvalidation":8533,"Ġrecommended":8534,"Ġdor":8535,"Ġsector":8536,"nesday":8537,"Ġreform":8538,"Ġmoder":8539,"Ġinteractions":8540,"++":8541,"Ġdefending":8542,"Ġfuse":8543,"Ġshuttle":8544,"Ġreload":8545,"agan":8546,"ashed":8547,"Ġwednesday":8548,"Ġpreview":8549,"Ġactivate":8550,"Ġonion":8551,"Ġtyson":8552,"Ġlever":8553,"Ġsettled":8554,"Ġgra":8555,"phy":8556,"thy":8557,"Ġperiods":8558,"Ġsqueeze":8559,"Ġtrusted":8560,"Ġfortunately":8561,"Ġexposure":8562,"Ġinvestors":8563,"Ġfruits":8564,"Ġ1990":8565,"Ġdwell":8566,"eses":8567,"Ġrud":8568,"Ġperception":8569,"Ġserge":8570,"Ġorganize":8571,"Ġmagazine":8572,"icking":8573,"Ġaligned":8574,"Ġtommy":8575,"Ġcontribute":8576,"irm":8577,"Ġprosper":8578,"Ġapproached":8579,"Ġimmense":8580,"Ġelectrons":8581,"Ġcia":8582,"Ġbacks":8583,"Ġshoe":8584,"Ġrestaurants":8585,"Ġgathered":8586,"Ġrevol":8587,"Ġbanana":8588,"achel":8589,"Ġdistingu":8590,"Ġbears":8591,"Ġpakistan":8592,"eem":8593,"Ġnvid":8594,"Ġstated":8595,"Ġwand":8596,"Ġrope":8597,"Ġjazz":8598,"Ġprisoners":8599,"Ġformal":8600,"Ġnvidia":8601,"Ġagenda":8602,"Ġpants":8603,"Ġvary":8604,"Ġarticles":8605,"Ġpriorit":8606,"Ġrendering":8607,"Ġflame":8608,"ipper":8609,"Ġaesth":8610,"Ġthankfully":8611,"Ġmixing":8612,"Ġanchor":8613,"Ġjacket":8614,"Ġtues":8615,"Ġdependencies":8616,"Ġmuslims":8617,"Ġpunishment":8618,"ilation":8619,"Ġtranslate":8620,"Ġswitching":8621,"Ġinstruments":8622,"Ġdisciples":8623,"ita":8624,"Ġcorrupt":8625,"bled":8626,"Ġdeclared":8627,"Ġcalendar":8628,"35":8629,"Ġfires":8630,"Ġtuesday":8631,"Ġgm":8632,"Ġark":8633,"gent":8634,"Ġprey":8635,"Ġvacation":8636,"oe":8637,"Ġclips":8638,"Ġblowing":8639,"Ġinqu":8640,"Ġjokes":8641,"Ġhills":8642,"Ġjustin":8643,"Ġsecretary":8644,"Ġhybr":8645,"Ġnonsense":8646,"boards":8647,";#":8648,"sen":8649,"Ġmonkey":8650,"Ġlifting":8651,"Ġnether":8652,"Ġjaw":8653,"Ġct":8654,"Ġ2014":8655,"aine":8656,"Ġengaging":8657,"Ġtransformed":8658,"Ġpuff":8659,"Ġwarfare":8660,"Ġpean":8661,"Ġcurly":8662,"lands":8663,"Ġcontroversial":8664,"18":8665,"illing":8666,"Ġaddiction":8667,"Ġnazi":8668,"base":8669,"look":8670,"Ġtiss":8671,"Ġjere":8672,"Ġlarry":8673,"Ġprospect":8674,"eness":8675,"Ġnah":8676,"Ġstrikes":8677,"Ġrecipes":8678,"station":8679,"Ġcatast":8680,"Ġruin":8681,"Ġbizarre":8682,"=&":8683,"Ġaqu":8684,"Ġalter":8685,"Ġbehave":8686,"Ġproductive":8687,"etr":8688,"Ġswed":8689,"fia":8690,"Ġloops":8691,"Ġclarity":8692,"Ġnasty":8693,"Ġdescribes":8694,"Ġenvironmental":8695,"Ġdiscussing":8696,"Ġcrab":8697,"Ġalgorithms":8698,"Ġfame":8699,"ckets":8700,"Ġwidely":8701,"Ġnightmare":8702,"Ġ700":8703,"Ġuseless":8704,"Ġinvested":8705,"Ġexercises":8706,"Ġcosine":8707,"Ġupstairs":8708,"Ġrobust":8709,"Ġcatastroph":8710,"kel":8711,"Ġtuning":8712,"Ġ360":8713,"Ġdisrupt":8714,"Ġpacket":8715,"Ġmotors":8716,"Ġ39":8717,"Ġobsessed":8718,"Ġroutes":8719,"Ġusage":8720,"Ġtimer":8721,"Ġcompens":8722,"Ġrif":8723,"Ġvanilla":8724,"Ġforcing":8725,"Ġintro":8726,"Ġ2012":8727,"Ġapplies":8728,"Ġknee":8729,"Ġboots":8730,"nic":8731,"Ġaunt":8732,"Ġchains":8733,"Ġvm":8734,"Ġcouch":8735,"Ġunfold":8736,"Ġsaud":8737,"Ġangles":8738,"Ġfunds":8739,"Ġobservation":8740,"Ġongoing":8741,"Ġdivorce":8742,"Ġresilience":8743,"rons":8744,"Ġgorgeous":8745,"cs":8746,"Ġanxious":8747,"Ġclut":8748,"Ġguessing":8749,"Ġreprod":8750,"actor":8751,"Ġtiger":8752,"Ġsphere":8753,"Ġinstitutions":8754,"Ġoutcomes":8755,"Ġchrome":8756,"Ġtorn":8757,"Ġandre":8758,"Ġputin":8759,"Ġpalestinian":8760,"Ġnoah":8761,"Ġbranches":8762,"ito":8763,"Ġsean":8764,"Ġlastly":8765,"Ġvibe":8766,"Ġgrabbed":8767,"Ġsimult":8768,"Ġcustomize":8769,"Ġprototype":8770,"Ġlind":8771,"Ġcircles":8772,"Ġmall":8773,"Ġcrank":8774,"Ġeaten":8775,"Ġfortune":8776,"Ġtrials":8777,"Ġflavors":8778,"erable":8779,"Ġlined":8780,"unks":8781,"arter":8782,"Ġmong":8783,"acular":8784,"Ġintrig":8785,"struct":8786,"Ġtroubles":8787,"Ġcul":8788,"Ġdressed":8789,"Ġmcdonald":8790,"Ġpreparation":8791,"Ġcriteria":8792,"Ġsymm":8793,"Ġevolutionary":8794,"Ġtransaction":8795,"Ġutility":8796,"Ġcharts":8797,"Ġdisappointed":8798,"zo":8799,"Ġpops":8800,"Ġproducer":8801,"Ġdj":8802,"Ġelastic":8803,"Ġillness":8804,"Ġinjured":8805,"beat":8806,"Ġdall":8807,"Ġyam":8808,"Ġcheating":8809,"Ġhamas":8810,"Ġwipe":8811,"istically":8812,"Ġreferences":8813,"Ġlosses":8814,"Ġacknowled":8815,"Ġinterpretation":8816,"Ġthrone":8817,"Ġcleaner":8818,"Ġaluminum":8819,"Ġroy":8820,"Ġboun":8821,"Ġshiny":8822,"Ġdomestic":8823,"Ġsadly":8824,"cal":8825,"Ġtoast":8826,"Ġteasp":8827,"Ġcrit":8828,"Ġcharacteristics":8829,"Ġjs":8830,"Ġvessels":8831,"Ġjr":8832,"Ġjealous":8833,"Ġoccasionally":8834,"Ġsatellite":8835,"Ġcousin":8836,"Ġhandful":8837,"Ġintegrity":8838,"Ġcabinet":8839,"Ġbrew":8840,"mers":8841,"Ġsheets":8842,"Ġunderwater":8843,"Ġstole":8844,"Ġscored":8845,"Ġapis":8846,"Ġ85":8847,"Ġcaptures":8848,"Ġgathering":8849,"Ġcel":8850,"Ġzip":8851,"missions":8852,"Ġware":8853,"Ġcoven":8854,"anging":8855,"Ġorchest":8856,"Ġrandomly":8857,"Ġdiameter":8858,"bath":8859,"Ġmapping":8860,"Ġzer":8861,"ships":8862,"Ġcockpit":8863,"Ġpandemic":8864,"Ġprogression":8865,"Ġdesigning":8866,"Ġintercept":8867,"Ġgeneric":8868,"Ġeliminate":8869,"Ġbias":8870,"Ġmasc":8871,"Ġcriticism":8872,"Ġatlantic":8873,"Ġcrypto":8874,"Ġcrossing":8875,"itarian":8876,"Ġbiblical":8877,"Ġcleaned":8878,"Ġdefeated":8879,"Ġfusion":8880,"Ġfailing":8881,"Ġunlikely":8882,"Ġexcitement":8883,"Ġtuck":8884,"Ġvirtually":8885,"Ġoccurs":8886,"Ġliteral":8887,"Ġtoys":8888,"Ġfollowers":8889,"Ġdiving":8890,"Ġfeatured":8891,"Ġproposed":8892,"Ġresponses":8893,"Ġnegoti":8894,"Ġthro":8895,"Ġidiot":8896,"rd":8897,"Ġconsult":8898,"Ġflexibility":8899,"Ġaston":8900,"Ġdimin":8901,"Ġstall":8902,"Ġsessions":8903,"Ġbio":8904,"imensional":8905,"Ġsubtract":8906,"Ġworkflow":8907,"Ġunderstands":8908,"Ġglow":8909,"Ġrevenge":8910,"Ġdots":8911,"ricult":8912,"Ġspy":8913,"Ġinsist":8914,"Ġannual":8915,"iking":8916,"Ġcontrad":8917,"Ġonions":8918,"Ġspain":8919,"Ġbarrel":8920,"elly":8921,"oster":8922,"Ġinstitution":8923,"Ġaffects":8924,"Ġconsumption":8925,"Ġhou":8926,"Ġequations":8927,"Ġsprink":8928,"Ġlimitations":8929,"rey":8930,"Ġkern":8931,"Ġconventional":8932,"Ġls":8933,"Ġaggreg":8934,"Ġmerge":8935,"Ġlewis":8936,"Ġanswering":8937,"Ġspare":8938,"Ġagricult":8939,"Ġworldwide":8940,"Ġshrink":8941,"Ġhelmet":8942,"Ġhumble":8943,"Ġrefers":8944,"Ġshelter":8945,"Ġrequirement":8946,"Ġflights":8947,"Ġscaling":8948,"Ġtackle":8949,"Ġinfinity":8950,"mented":8951,"ango":8952,"Ġrockets":8953,"Ġintuitive":8954,"Ġpets":8955,"Ġbeats":8956,"Ġprediction":8957,"Ġgpu":8958,"Ġstruggled":8959,"Ġmim":8960,"hey":8961,"Ġmarg":8962,"Ġasp":8963,"Ġthrott":8964,"Ġ43":8965,"Ġboyfriend":8966,"Ġjungle":8967,"Ġpurely":8968,"Ġlen":8969,"Ġpanc":8970,"Ġdallas":8971,"Ġtraveled":8972,"Ġshy":8973,"Ġpresum":8974,"Ġsuggesting":8975,"Ġfurniture":8976,"Ġdoz":8977,"Ġbor":8978,"Ġdecline":8979,"Ġruntime":8980,"Ġsingular":8981,"you":8982,"Ġcheat":8983,"Ġstoring":8984,"Ġrepet":8985,"Ġassumption":8986,"Ġhawai":8987,"Ġglitch":8988,"Ġstriking":8989,"Ġprocedure":8990,"inson":8991,"Ġbelongs":8992,"Ġfails":8993,"Ġchemistry":8994,"Ġsteak":8995,"Ġburger":8996,".\"":8997,"Ġgran":8998,"Ġemotionally":8999,"Ġheroes":9000,"Ġnurs":9001,"Ġstitch":9002,"Ġladder":9003,"Ġronald":9004,"Ġlisa":9005,"leg":9006,"Ġsigning":9007,"hs":9008,"Ġalarm":9009,"Ġboxing":9010,"Ġaliens":9011,"Ġthermal":9012,"Ġgravitational":9013,"Ġshoulders":9014,"Ġprincipal":9015,"cont":9016,"osc":9017,"Ġcurrency":9018,"Ġspeakers":9019,"Ġ1960":9020,"Ġdemons":9021,"Ġ72":9022,"Ġparag":9023,"Ġcomparing":9024,"aches":9025,"Ġpsychology":9026,"oured":9027,"Ġcredential":9028,"Ġrewr":9029,"Ġdoctr":9030,"Ġhybrid":9031,"cery":9032,"class":9033,"active":9034,"shot":9035,"narrator":9036,"Ġgently":9037,"Ġsteep":9038,"Ġsonic":9039,"Ġfranchise":9040,"Ġsack":9041,"Ġwhil":9042,"Ġbean":9043,"akin":9044,"Ġinjuries":9045,"Ġrussians":9046,"Ġengagement":9047,"Ġelectronic":9048,"Ġtroll":9049,"Ġapples":9050,"Ġlegitimate":9051,"link":9052,"Ġliberal":9053,"Ġmounted":9054,"Ġsteering":9055,"Ġsuspicious":9056,"Ġwitch":9057,"Ġrug":9058,"Ġtwitch":9059,"Ġbreast":9060,"Ġdeny":9061,"Ġbuddh":9062,"Ġbloody":9063,"Ġoptimize":9064,"ifer":9065,"Ġceremon":9066,"Ġoblig":9067,"asm":9068,"Ġcine":9069,"Ġfou":9070,"owned":9071,"Ġmodified":9072,"Ġinvestigate":9073,"Ġsuicide":9074,"Ġspac":9075,"Ġshaft":9076,"de":9077,"Ġtrench":9078,"Ġsubsequ":9079,"Ġmotivated":9080,"dri":9081,"Ġhay":9082,"Ġqueue":9083,"Ġdiseases":9084,"Ġdozens":9085,"Ġdent":9086,"Ġaviation":9087,"Ġanth":9088,"erences":9089,"Ġboats":9090,"Ġnfl":9091,"keep":9092,"Ġstal":9093,"Ġkeywords":9094,"Ġtactics":9095,"Ġsmallest":9096,"Ġhilar":9097,"Ġfriendship":9098,"Ġlambda":9099,"Ġ49":9100,"Ġelsewhere":9101,"Ġmitch":9102,"Ġcannon":9103,"Ġnetworking":9104,"Ġvolcano":9105,"Ġ2008":9106,"Ġpenet":9107,"Ġjonathan":9108,"Ġintegrate":9109,"vi":9110,"Ġjury":9111,"Ġclaiming":9112,"Ġenforcement":9113,"Ġpenc":9114,"mart":9115,"Ġbored":9116,"Ġraces":9117,"Ġstain":9118,"Ġinterestingly":9119,"Ġmodes":9120,"empt":9121,"Ġintimid":9122,"Ġfel":9123,"orters":9124,"agers":9125,"Ġsatisfied":9126,"Ġutter":9127,"Ġinnovative":9128,"Ġwiz":9129,"Ġcompeting":9130,"Ġchemicals":9131,"Ġfrustrated":9132,"Ġsacred":9133,"ffff":9134,"Ġnewton":9135,"Ġconstructed":9136,"Ġtomb":9137,"Ġlions":9138,"ani":9139,"Ġrecept":9140,"Ġwitnesses":9141,"Ġdebr":9142,"annah":9143,"Ġconverted":9144,"heim":9145,"Ġreasoning":9146,"Ġmessy":9147,"Ġadditionally":9148,"Ġmonthly":9149,"Ġdiscour":9150,"Ġattempted":9151,"Ġnaval":9152,"Ġcultiv":9153,"Ġaffordable":9154,"Ġinflammation":9155,"Ġdetective":9156,"Ġbehaviors":9157,"Ġexpanded":9158,"Ġspectacular":9159,"Ġthurs":9160,"Ġrefuge":9161,"17":9162,"urd":9163,"Ġautomated":9164,"Ġmolecules":9165,"Ġmentally":9166,"Ġoptional":9167,"Ġlucas":9168,"Ġreads":9169,"Ġthursday":9170,"Ġincent":9171,"Ġgeometry":9172,"Ġtac":9173,"Ġrecognition":9174,"Ġtalented":9175,"car":9176,"Ġjets":9177,"Ġchad":9178,"Ġfounder":9179,"Ġassociation":9180,"Ġfier":9181,"Ġbehalf":9182,"usions":9183,"Ġping":9184,"Ġtrag":9185,"Ġpopping":9186,",&":9187,"can":9188,"Ġak":9189,"Ġpartly":9190,"Ġfert":9191,"Ġkam":9192,"Ġmafia":9193,"Ġtrains":9194,"Ġmcc":9195,"alo":9196,"Ġsouls":9197,"Ġkelly":9198,"Ġshade":9199,"Ġshaking":9200,"Ġbelly":9201,"Ġbreakthrough":9202,"Ġspicy":9203,"Ġspirits":9204,"Ġmeets":9205,"fa":9206,"Ġ,":9207,"itated":9208,"Ġtwenty":9209,"Ġexpose":9210,"Ġretired":9211,"Ġfitting":9212,"Ġsabbath":9213,"Ġrobber":9214,"Ġhouston":9215,"Ġsaudi":9216,"Ġassert":9217,"Ġinfant":9218,"igen":9219,"Ġ52":9220,"Ġhumor":9221,"care":9222,"Ġles":9223,"Ġtrillion":9224,"Ġexhib":9225,"Ġdevops":9226,"Ġlinkedin":9227,"Ġcontents":9228,"hour":9229,"Ġairb":9230,"Ġmicrophone":9231,"Ġcollabor":9232,"Ġwhilst":9233,"east":9234,"Ġmes":9235,"rint":9236,"Ġrp":9237,"Ġvisualize":9238,"Ġdelivering":9239,"Ġgameplay":9240,"Ġadopted":9241,"gi":9242,"Ġforming":9243,"Ġbeside":9244,"Ġstructured":9245,"oved":9246,"Ġloses":9247,"Ġstations":9248,"cel":9249,"gies":9250,"Ġloan":9251,"Ġdrift":9252,"Ġschema":9253,"Ġstabil":9254,"Ġlegis":9255,"Ġarrows":9256,"Ġmelody":9257,"Ġblaz":9258,"Ġtup":9259,"ilton":9260,"Ġspit":9261,"Ġhaz":9262,"apor":9263,"Ġdynamics":9264,"Ġfrustrating":9265,"Ġentrepreneur":9266,"Ġfract":9267,"Ġalan":9268,"Ġfrancisco":9269,"Ġcents":9270,"this":9271,"Ġ/":9272,"Ġneeding":9273,"Ġacademic":9274,"lined":9275,"see":9276,"Ġtraged":9277,"Ġvisiting":9278,"dimensional":9279,"Ġtransact":9280,"Ġ190":9281,"Ġindicate":9282,"Ġchurches":9283,"Ġgau":9284,"thur":9285,"Ġpepp":9286,"Ġresort":9287,"Ġisaiah":9288,"Ġscare":9289,"Ġscoring":9290,"Ġrecre":9291,"Ġcovenant":9292,"Ġpayload":9293,"Ġtid":9294,"Ġhem":9295,"Ġattractive":9296,"Ġspike":9297,"Ġeliz":9298,"Ġsalad":9299,"Ġhilarious":9300,"Ġpork":9301,"edge":9302,"Ġpenalty":9303,"Ġ66":9304,"Ġdependency":9305,"Ġastero":9306,"Ġsmarter":9307,"Ġtargeting":9308,"Ġaustralian":9309,"Ġdeleted":9310,"Ġdecim":9311,"Ġlabels":9312,"Ġsooner":9313,"pan":9314,"Ġios":9315,"Ġregime":9316,"Ġweekly":9317,"Ġwireless":9318,"Ġnewer":9319,"Ġweights":9320,"Ġreinforce":9321,"conscious":9322,"Ġeru":9323,"Ġintuition":9324,"Ġincomp":9325,"Ġhandled":9326,"Ġkindness":9327,"Ġsymbols":9328,"gb":9329,"Ġdestroying":9330,"Ġmeasurement":9331,"Ġharmony":9332,"Ġyan":9333,"ayer":9334,"Ġevaluate":9335,"Ġdil":9336,"Ġgaps":9337,"Ġinformed":9338,"Ġlately":9339,"Ġ46":9340,"Ġconsequence":9341,"izable":9342,"Ġcanadian":9343,"gun":9344,"Ġmeantime":9345,"19":9346,"function":9347,"Ġsunny":9348,"ardo":9349,"Ġgenes":9350,"Ġtin":9351,"Ġconstitution":9352,"Ġnutrition":9353,"Ġconspiracy":9354,"Ġais":9355,"Ġeu":9356,"Ġoperational":9357,"Ġbabylon":9358,"ione":9359,"Ġurban":9360,"Ġgrocery":9361,"Ġmetabol":9362,"Ġsilicon":9363,"Ġfounded":9364,"Ġunfortunate":9365,"Ġstats":9366,"Ġreleasing":9367,"Ġhd":9368,"Ġcoil":9369,"Ġvariation":9370,"Ġbasement":9371,"Ġscrum":9372,"Ġofficials":9373,"Ġestimated":9374,"rates":9375,"Ġcage":9376,"owed":9377,"Ġcricket":9378,"Ġfog":9379,"Ġrejected":9380,"Ġelder":9381,"Ġpairs":9382,"Ġcurse":9383,"Ġromantic":9384,"Ġhandles":9385,"Ġexpertise":9386,"Ġsubstit":9387,"Ġoak":9388,"Ġstruggles":9389,"Ġassumed":9390,"Ġaaron":9391,"Ġtrades":9392,"Ġbricks":9393,"Ġintensity":9394,"Ġappet":9395,"Ġeighth":9396,"omin":9397,"Ġnutri":9398,"Ġbruce":9399,"Ġscand":9400,"Ġoffset":9401,"natural":9402,"Ġflush":9403,"Ġeleg":9404,"Ġdried":9405,"Ġglobe":9406,"Ġmurdered":9407,"Ġgene":9408,"Ġreveals":9409,"Ġtam":9410,"Ġib":9411,"Ġpalestinians":9412,"uman":9413,"Ġneedle":9414,"Ġoverview":9415,"respect":9416,"Ġarbit":9417,"Ġaging":9418,"Ġmodeling":9419,"Ġarts":9420,"Ġdigest":9421,"Ġbacon":9422,"Ġmasters":9423,"Ġadvantages":9424,"Ġsavings":9425,"isy":9426,"Ġpla":9427,"encer":9428,"Ġvisualization":9429,"Ġpalm":9430,"Ġbulk":9431,"Ġtai":9432,"Ġapoll":9433,"Ġbottles":9434,"Ġsubstance":9435,"Ġillusion":9436,"Ġling":9437,"Ġpractically":9438,"Ġmerely":9439,"Ġgib":9440,"aka":9441,"Ġcleared":9442,"Ġideally":9443,"Ġfiction":9444,"Ġunne":9445,"Ġslave":9446,"Ġlocks":9447,"Ġmicroserv":9448,"Ġjoking":9449,"Ġscores":9450,"Ġhallow":9451,"rich":9452,"Ġanakin":9453,"Ġdestiny":9454,"Ġreplacement":9455,"Ġparagraph":9456,"giving":9457,"Ġstrang":9458,"Ġ51":9459,"Ġgord":9460,"Ġownership":9461,"Ġrelativity":9462,"Ġfraction":9463,"Ġcarolina":9464,"Ġinherent":9465,"Ġjustify":9466,"Ġchel":9467,"Ġgeorgia":9468,"Ġstrongest":9469,"Ġdutch":9470,"Ġduplicate":9471,"Ġmas":9472,"Ġfraud":9473,"Ġresign":9474,"Ġbeloved":9475,"Ġjumps":9476,"Ġpricing":9477,"Ġhomeless":9478,"Ġrelation":9479,"Ġcontained":9480,"?&":9481,"Ġdozen":9482,"ails":9483,"Ġgrandfather":9484,"Ġbalanced":9485,"fs":9486,"Ġgiants":9487,"iper":9488,"Ġburden":9489,"Ġbeneficial":9490,"Ġcomplain":9491,"Ġsavior":9492,"Ġsounded":9493,"Ġhistoric":9494,"Ġclinical":9495,"illance":9496,"Ġlocally":9497,"Ġwriters":9498,"Ġmagnific":9499,"Ġphenomenal":9500,"Ġscreensh":9501,"Ġnur":9502,"Ġancestors":9503,"Ġrussell":9504,"Ġcalculated":9505,"Ġsubscribers":9506,"Ġoccas":9507,"Ġescal":9508,"Ġcheers":9509,"Ġstatistics":9510,"Ġups":9511,"Ġmetric":9512,"Ġstealing":9513,"Ġbunk":9514,"Ġconcentration":9515,"Ġpearl":9516,"Ġ1950":9517,"Ġanalogy":9518,"Ġguilt":9519,"Ġrapt":9520,"Ġarrival":9521,"Ġisaac":9522,"Ġtender":9523,"Ġtransparent":9524,"Ġcountless":9525,"Ġdarwin":9526,"aire":9527,"igan":9528,"Ġrebe":9529,"Ġsealed":9530,"Ġencrypt":9531,"Ġusa":9532,"Ġspotted":9533,"Ġcoaching":9534,"Ġsurveillance":9535,"Ġmidnight":9536,"Ġimprovements":9537,"Ġpho":9538,"Ġmanipulate":9539,"Ġconversion":9540,"Ġcertificate":9541,"Ġkong":9542,"Ġdirected":9543,"Ġdeclar":9544,"Ġpins":9545,"state":9546,"Ġjelly":9547,"Ġstarter":9548,"Ġ2011":9549,"Ġdealt":9550,"Ġpatri":9551,"gered":9552,"Ġboil":9553,"Ġbases":9554,"Ġhanded":9555,"Ġvectors":9556,"Ġfalcon":9557,"Ġtags":9558,"olon":9559,"Ġfee":9560,"Ġprophecy":9561,"Ġmillenn":9562,"Ġempathy":9563,"Ġethical":9564,"Ġlaunching":9565,"rup":9566,"Ġstressed":9567,"being":9568,"Ġgauge":9569,"Ġbubbles":9570,"Ġsupposedly":9571,"Ġrivers":9572,"Ġrated":9573,"appy":9574,"Ġencl":9575,"Ġgad":9576,"Ġdol":9577,"Ġoutfit":9578,"Ġrecy":9579,"Ġcheckmate":9580,"Ġsustainable":9581,"Ġbern":9582,"Ġmonsters":9583,"Ġsensor":9584,"Ġfib":9585,"Ġfirstly":9586,"Ġroller":9587,"Ġlifted":9588,"Ġhighlights":9589,"Ġdining":9590,"Ġegyptian":9591,"erer":9592,"Ġpadding":9593,"iox":9594,"Ġelevator":9595,"Ġanna":9596,"Ġsenator":9597,"Ġconsuming":9598,"erning":9599,"Ġbanned":9600,"Ġweed":9601,"Ġkicking":9602,"Ġstamp":9603,"Ġorg":9604,"Ġindo":9605,"Ġsurvey":9606,"Ġsubnet":9607,"Ġsticky":9608,"Ġanalytics":9609,"abeth":9610,"Ġmisunder":9611,"Ġstew":9612,"Ġafg":9613,"Ġpressed":9614,"Ġswitched":9615,"Ġwilder":9616,"Ġexplicitly":9617,"Ġtrop":9618,"Ġreduction":9619,"Ġexcav":9620,"sea":9621,"Ġcontinent":9622,"Ġcatal":9623,"Ġunnecess":9624,"Ġtranslation":9625,"Ġcollaboration":9626,"ti":9627,"Ġbearing":9628,"eel":9629,"las":9630,"Ġmoisture":9631,"Ġneil":9632,"Ġaccent":9633,"Ġlistened":9634,"Ġestimate":9635,"iable":9636,"ethe":9637,"Ġbehold":9638,"Ġduration":9639,"Ġperpet":9640,"Ġaccomp":9641,"Ġredirect":9642,"Ġhurric":9643,"Ġoscill":9644,"Ġbegun":9645,"Ġnan":9646,"Ġpatrick":9647,"Ġfixing":9648,"Ġdemocrats":9649,"Ġrebell":9650,"rection":9651,"bec":9652,"13":9653,"Ġdevot":9654,"matic":9655,"Ġtraject":9656,"Ġcycles":9657,"Ġderivative":9658,"Ġdesigners":9659,"Ġirre":9660,"Ġexpressions":9661,"Ġrails":9662,"Ġresulting":9663,"Ġninja":9664,"gments":9665,"Ġwasting":9666,"Ġdesired":9667,"rants":9668,"Ġyah":9669,"Ġwarriors":9670,"Ġgrandmother":9671,"Ġplugin":9672,"Ġ47":9673,"Ġinhab":9674,"Ġdess":9675,"ipher":9676,"breaking":9677,"Ġincorrect":9678,"Ġastronauts":9679,"Ġreplied":9680,"Ġfrost":9681,"Ġniche":9682,"Ġbast":9683,"Ġgreatly":9684,"Ġrebecca":9685,"aware":9686,"Ġnik":9687,"Ġfright":9688,"Ġspat":9689,"Ġinterval":9690,"Ġpoliticians":9691,"Ġsuits":9692,"Ġrecognizing":9693,"Ġpredicted":9694,"Ġelizabeth":9695,"Ġlogging":9696,"Ġstaring":9697,"Ġneurons":9698,"Ġworkshop":9699,"Ġcin":9700,"Ġpassive":9701,"Ġhorn":9702,"Ġmacro":9703,"Ġbent":9704,"Ġohio":9705,"Ġwheat":9706,"Ġjersey":9707,"Ġmetaphor":9708,"Ġtransmission":9709,"Ġpleased":9710,"Ġmorgan":9711,"Ġslope":9712,"Ġcondem":9713,"Ġresponded":9714,"Ġexter":9715,"Ġoutline":9716,"Ġconnects":9717,"Ġcoc":9718,"zilla":9719,"Ġdudes":9720,"Ġ350":9721,"Ġelected":9722,"Ġsatisfying":9723,"Ġcarb":9724,"Ġnails":9725,"estone":9726,"Ġleap":9727,"Ġmature":9728,"Ġvader":9729,"ulates":9730,"Ġadvis":9731,"Ġapollo":9732,"Ġgenerous":9733,"Ġarguing":9734,"Ġcultures":9735,"Ġbomber":9736,"Ġoptimal":9737,"Ġarena":9738,"Ġhistorically":9739,"Ġoverr":9740,"Ġchew":9741,"Ġchronic":9742,"Ġembarrassing":9743,"ching":9744,"Ġcaes":9745,"Ġequity":9746,"Ġborders":9747,"bey":9748,"Ġlogged":9749,"Ġprivilege":9750,"pool":9751,"orted":9752,"Ġsheer":9753,"Ġimplementing":9754,"boy":9755,"Ġbreakdown":9756,"Ġdreaming":9757,"Ġkir":9758,"Ġinterviewed":9759,"Ġhust":9760,"Ġshore":9761,"Ġphilipp":9762,"Ġearliest":9763,"Ġqualified":9764,"Ġding":9765,"Ġgd":9766,"Ġarsen":9767,"Ġgovernor":9768,"Ġensures":9769,"Ġcloset":9770,"Ġpassionate":9771,"Ġnerve":9772,"Ġupcoming":9773,"Ġfoam":9774,"Ġtile":9775,"Ġplacing":9776,"piece":9777,"Ġsergeant":9778,"Ġsto":9779,"proof":9780,"itating":9781,"Ġstephen":9782,"Ġgentleman":9783,"Ġwithdraw":9784,"inge":9785,"Ġsimultaneously":9786,"Ġdessert":9787,"Ġoo":9788,"Ġresid":9789,"Ġnaked":9790,"Ġballoon":9791,"uj":9792,"Ġpushes":9793,"Ġsony":9794,"Ġpope":9795,"Ġatomic":9796,"Ġindependence":9797,"Ġwarrior":9798,"Ġbisc":9799,"Ġcp":9800,"Ġaccused":9801,"lements":9802,"Ġinteractive":9803,"Ġmayor":9804,"Ġdiverse":9805,"Ġuncertainty":9806,"Ġagile":9807,"Ġquarterback":9808,"Ġembedded":9809,"Ġkr":9810,"Ġworries":9811,"Ġcheer":9812,"Ġbeginner":9813,"Ġprol":9814,"Ġicons":9815,"Ġspoon":9816,"Ġvillain":9817,"Ġassignment":9818,"Ġvulnerability":9819,"onymous":9820,"iley":9821,"Ġtreating":9822,"Ġmembership":9823,"Ġresident":9824,"Ġgains":9825,"Ġ2013":9826,"Ġtatt":9827,"vet":9828,"Ġpremier":9829,"Ġruined":9830,"itivity":9831,"Ġbark":9832,"Ġterra":9833,"Ġabsurd":9834,"Ġcalculation":9835,"Ġindicator":9836,"Ġthroat":9837,"Ġbats":9838,"Ġmant":9839,"orph":9840,"Ġvirginia":9841,"Ġthresh":9842,"Ġteaches":9843,"Ġkate":9844,"Ġcandle":9845,"Ġginger":9846,"Ġavailability":9847,"Ġadvertising":9848,"Ġinstitute":9849,"Ġbaked":9850,"Ġdns":9851,"Ġovert":9852,"bron":9853,"Ġconcert":9854,"Ġtaxi":9855,"Ġtasty":9856,"Ġdebris":9857,"section":9858,"Ġgloves":9859,"Ġinfluenced":9860,"Ġdissol":9861,"Ġallen":9862,"Ġinternally":9863,"Ġyeast":9864,"Ġsensors":9865,"Ġterrain":9866,"Ġapproved":9867,"ribly":9868,"Ġhunger":9869,"Ġdarth":9870,"Ġisolation":9871,"Ġdug":9872,"Ġfiref":9873,"Ġcure":9874,"Ġpurchased":9875,"Ġmedication":9876,"Ġsafer":9877,"Ġteaspoon":9878,"Ġnood":9879,"mind":9880,"Ġmah":9881,"Ġdemands":9882,"Ġcomposition":9883,"22":9884,"Ġloot":9885,"Ġrunner":9886,"Ġutilize":9887,"Ġdecrease":9888,"tered":9889,"Ġaddict":9890,"Ġachievement":9891,"Ġ54":9892,"Ġbattlefield":9893,"Ġheavier":9894,"Ġcn":9895,"Ġdion":9896,"Ġgum":9897,"Ġdeserves":9898,"Ġtransportation":9899,"Ġflies":9900,"Ġtransformer":9901,"Ġvisitors":9902,"Ġmol":9903,"Ġpond":9904,"Ġstarship":9905,"efined":9906,"Ġcanon":9907,"Ġorth":9908,"Ġreleases":9909,"Ġcollective":9910,"Ġarbitr":9911,"pow":9912,"Ġbackend":9913,"Ġlied":9914,"Ġruby":9915,"iac":9916,"Ġspice":9917,"Ġrepresenting":9918,"Ġperm":9919,"Ġvoted":9920,"Ġoutdoor":9921,"level":9922,"Ġclamp":9923,"Ġfinals":9924,"Ġ58":9925,"Ġafghan":9926,"pat":9927,"rus":9928,"Ġlamp":9929,"Ġrobin":9930,"bound":9931,"Ġlisteners":9932,"Ġawake":9933,"Ġtragedy":9934,"Ġstump":9935,"Ġpredictions":9936,"Ġgor":9937,"Ġinsect":9938,"Ġblades":9939,"Ġchin":9940,"aved":9941,"Ġ98":9942,"Ġiteration":9943,"Ġdinosaurs":9944,"Ġoz":9945,"Ġemerged":9946,"Ġtexts":9947,"Ġhence":9948,"Ġcompelling":9949,"Ġcarries":9950,"Ġhallel":9951,"Ġacquired":9952,"Ġthreshold":9953,"Ġgovernments":9954,"Ġbeaten":9955,"Ġdipl":9956,"Ġbure":9957,"Ġaffili":9958,"chester":9959,"Ġguaranteed":9960,"Ġphoen":9961,"Ġcounsel":9962,"uan":9963,"Ġconstraints":9964,"cha":9965,"Ġoverhead":9966,"ogram":9967,"Ġsubmarine":9968,"aver":9969,"gage":9970,"Ġexped":9971,"Ġdisk":9972,"Ġirish":9973,"Ġmicrow":9974,"Ġpreserve":9975,"Ġcontinuously":9976,"Ġcherry":9977,"apers":9978,"Ġsynd":9979,"Ġlegends":9980,"Ġwarrant":9981,"Ġwaking":9982,"Ġeb":9983,"Ġpredic":9984,"Ġdramatically":9985,"Ġcreepy":9986,"Ġrighteousness":9987,"Ġpasta":9988,"Ġtypescript":9989,"world":9990,"Ġencryption":9991,"vable":9992,"cher":9993,"Ġcurry":9994,"Ġposting":9995,"Ġaver":9996,"Ġbarbar":9997,"gus":9998,"Ġdys":9999,"Ġhosting":10000,"Ġtoe":10001,"vity":10002,"omatic":10003,"Ġcrashed":10004,"Ġleather":10005,"Ġfemin":10006,"Ġdiversity":10007,"Ġradi":10008,"Ġhierarchy":10009,"orous":10010,"ador":10011,"Ġboole":10012,"Ġgest":10013,"ogy":10014,"Ġrookie":10015,"Ġdenied":10016,"Ġamy":10017,"Ġverses":10018,"Ġrage":10019,"Ġsaves":10020,"Ġreserve":10021,"Ġfossil":10022,"Ġnewspaper":10023,"Ġbm":10024,"Ġjur":10025,"Ġlex":10026,"Ġcontracts":10027,"Ġsinger":10028,"Ġdisplayed":10029,"Ġcoordinate":10030,"Ġdanny":10031,"ols":10032,"Ġpleasant":10033,"Ġspiral":10034,"Ġrumors":10035,"oard":10036,"Ġdere":10037,"Ġenables":10038,"Ġraid":10039,"Ġpermissions":10040,"Ġbullets":10041,"Ġaccomplished":10042,"Ġhormones":10043,"Ġsponge":10044,"Ġchili":10045,"Ġgrief":10046,"Ġsoap":10047,"Ġalliance":10048,"Ġdocumentary":10049,"Ġconsumers":10050,"Ġuncons":10051,"Ġfacilities":10052,"Ġhydra":10053,"Ġmigration":10054,"Ġoverwhelmed":10055,"Ġka":10056,"Ġslam":10057,"Ġwondered":10058,"Ġharbor":10059,"Ġexperimental":10060,"Ġscholar":10061,"Ġeager":10062,"Ġannot":10063,"Ġefficiently":10064,"32":10065,"Ġneon":10066,"Ġcarn":10067,"Ġorigins":10068,"bitious":10069,"Ġcursor":10070,"Ġcocon":10071,"Ġshifted":10072,"Ġassumptions":10073,"Ġsharks":10074,"ending":10075,"Ġclicked":10076,"Ġwore":10077,"iner":10078,"Ġporn":10079,"Ġpalestine":10080,"Ġportray":10081,"Ġvoy":10082,"Ġdevastating":10083,"Ġlebron":10084,"Ġlily":10085,"Ġrectangle":10086,"Ġpossession":10087,"Ġwallet":10088,"Ġthanksgiving":10089,"Ġaffirm":10090,"atar":10091,"Ġcraig":10092,"minute":10093,"Ġvirus":10094,"Ġignor":10095,"Ġcompli":10096,"Ġowe":10097,"Ġdop":10098,"Ġpover":10099,"Ġmun":10100,"Ġthemes":10101,"Ġdetro":10102,"Ġthreatened":10103,"umble":10104,"Ġowns":10105,"Ġrevolutionary":10106,"Ġpoverty":10107,"Ġambitious":10108,"Ġindustries":10109,"Ġpursuit":10110,"Ġcompressor":10111,"Ġobstacles":10112,"Ġthee":10113,"Ġvegetable":10114,"Ġcancell":10115,"Ġmild":10116,"Ġoverse":10117,"Ġobama":10118,"Ġearthqu":10119,"Ġsunlight":10120,"Ġlatin":10121,"Ġparadise":10122,"Ġbloom":10123,"Ġminer":10124,"ochond":10125,"Ġconceal":10126,"Ġhoward":10127,"Ġawaken":10128,"Ġiv":10129,"Ġlightweight":10130,"Ġdistinction":10131,"Ġrocky":10132,"Ġallegedly":10133,"Ġsham":10134,"Ġhurting":10135,"Ġasync":10136,"Ġmarker":10137,"Ġdiesel":10138,"Ġlon":10139,"think":10140,"Ġzones":10141,"Ġpalette":10142,"Ġstranger":10143,"Ġsanct":10144,"Ġcandidates":10145,"Ġrebound":10146,"Ġkernel":10147,"oned":10148,"Ġpersu":10149,"Ġentities":10150,"Ġcoral":10151,"Ġgrounded":10152,"Ġbroader":10153,"Ġdisgusting":10154,"Ġpopped":10155,"Ġviral":10156,"Ġwalmart":10157,"Ġvin":10158,"Ġcoco":10159,"Ġnewly":10160,"Ġtechnological":10161,"Ġmessing":10162,"hett":10163,"isecond":10164,"Ġcolored":10165,"Ġrotating":10166,"Ġbands":10167,"Ġopposition":10168,"Ġshifts":10169,"Ġsuite":10170,"ropy":10171,"Ġshifting":10172,"Ġasian":10173,"Ġhooked":10174,"Ġpione":10175,"Ġwhip":10176,"Ġvim":10177,"Ġfid":10178,"Ġbrakes":10179,"Ġfavorites":10180,"Ġprescri":10181,"Ġdetroit":10182,"Ġmint":10183,"Ġforb":10184,"Ġmillisecond":10185,"Ġrisky":10186,"Ġcomplaining":10187,"Ġpale":10188,"Ġsimplest":10189,"Ġsas":10190,"Ġblink":10191,"Ġ53":10192,"Ġ56":10193,"Ġ2007":10194,"ieval":10195,"Ġhelen":10196,"Ġparentheses":10197,"Ġsig":10198,"Ġassociate":10199,"Ġparticipate":10200,"Ġflags":10201,"Ġintentions":10202,"Ġcigaret":10203,"Ġreserv":10204,"Ġpromising":10205,"Ġmitochond":10206,"page":10207,"keys":10208,"Ġperfection":10209,"Ġintroducing":10210,"Ġgan":10211,"Ġriv":10212,"Ġnotifications":10213,"Ġarthur":10214,"Ġmedieval":10215,"Ġgraphic":10216,"Ġpeanut":10217,"Ġuber":10218,"Ġbombers":10219,"arer":10220,"Ġcircular":10221,"Ġharvard":10222,"Ġsequel":10223,"Ġventure":10224,"Ġparadox":10225,"Ġconfirmation":10226,"pent":10227,"Ġtrips":10228,"Ġ41":10229,"Ġselfish":10230,"Ġinteracting":10231,"Ġariz":10232,"Ġmagnificent":10233,"Ġrepent":10234,"Ġmainstream":10235,"umbling":10236,"Ġunconscious":10237,"Ġunity":10238,"Ġelab":10239,"Ġarrays":10240,"Ġcompletion":10241,"ui":10242,"Ġmason":10243,"Ġstair":10244,"Ġsorted":10245,"Ġtowns":10246,"Ġcalculations":10247,"Ġwarehouse":10248,"ears":10249,"Ġintermedi":10250,"Ġmanufacturers":10251,"Ġpickup":10252,"Ġprayed":10253,"Ġmarshall":10254,"Ġadvers":10255,"Ġgenerative":10256,"Ġkidna":10257,"Ġassistance":10258,"Ġminimize":10259,"Ġtissue":10260,"Ġcer":10261,"Ġenlight":10262,"hyd":10263,"Ġtabs":10264,"Ġdemonstration":10265,"ima":10266,"Ġbytes":10267,"aki":10268,"Ġregression":10269,"Ġreass":10270,"Ġnoted":10271,"Ġquestioning":10272,"Ġprocessor":10273,"Ġaustin":10274,"heimer":10275,"ctic":10276,"Ġstatue":10277,"Ġic":10278,"Ġchunks":10279,"Ġquarters":10280,"Ġjane":10281,"Ġedward":10282,"Ġcylinder":10283,"Ġmeasurements":10284,"Ġbacking":10285,"Ġphara":10286,"Ġburnt":10287,"Ġscrewed":10288,"Ġscholars":10289,"Ġstove":10290,"Ġplugins":10291,"Ġbolts":10292,"Ġhalloween":10293,"Ġreactions":10294,"Ġclubs":10295,"Ġairplanes":10296,"Ġaiming":10297,"ucky":10298,"Ġ2009":10299,"mun":10300,"Ġtoes":10301,"Ġzach":10302,"Ġcraz":10303,"Ġqueens":10304,"Ġvacc":10305,"Ġprogrammer":10306,"Ġimagined":10307,"Ġsignificance":10308,"Ġmechanisms":10309,"Ġtactical":10310,"Ġfreely":10311,"Ġblows":10312,"Ġcleans":10313,"Ġnurse":10314,"Ġtense":10315,"Ġpharaoh":10316,"Ġkeen":10317,"Ġabsorb":10318,"Ġrepeating":10319,"Ġgt":10320,"Ġarizona":10321,"Ġgoat":10322,"Ġphilip":10323,"Ġhormone":10324,"Ġire":10325,"Ġdiana":10326,"Ġanderson":10327,"Ġseas":10328,"Ġavoiding":10329,"iat":10330,"actic":10331,"Ġbrun":10332,"vor":10333,"Ġruth":10334,"Ġpencil":10335,"Ġheadqu":10336,"Ġ88":10337,"Ġintentionally":10338,"ujah":10339,"Ġsoda":10340,"Ġstructural":10341,"oly":10342,"Ġbacked":10343,"Ġplaystation":10344,"Ġ2025":10345,"ique":10346,"range":10347,"Ġtweak":10348,"Ġelephant":10349,"Ġraz":10350,"Ġshining":10351,"Ġbaseline":10352,"elect":10353,"Ġcontrollers":10354,"Ġattraction":10355,"Ġsna":10356,"Ġsubconscious":10357,"hello":10358,"Ġwhist":10359,"Ġaccepting":10360,"Ġthrottle":10361,"Ġwasted":10362,"Ġaboard":10363,"Ġclark":10364,"Ġlaund":10365,"Ġnicer":10366,"Ġpedal":10367,"Ġpresents":10368,"Ġchelsea":10369,"Ġbenchmark":10370,"Ġtale":10371,"Ġsupplement":10372,"Ġvisually":10373,"Ġprotective":10374,"Ġreplacing":10375,"Ġrapp":10376,"Ġargu":10377,"Ġoriented":10378,"Ġmidst":10379,"Ġautomate":10380,"Ġberlin":10381,"Ġsemicolon":10382,"Ġdeer":10383,"Ġpreferred":10384,"Ġfluff":10385,"Ġversatile":10386,"Ġtraded":10387,"Ġcompatible":10388,"Ġkyle":10389,"Ġshops":10390,"theless":10391,"Ġcaesar":10392,"Ġbail":10393,"Ġstink":10394,"Ġsecondly":10395,"Ġtribe":10396,"Ġian":10397,"Ġnevertheless":10398,"Ġcentered":10399,"Ġlieuten":10400,"Ġmindfulness":10401,"Ġsought":10402,"Ġrachel":10403,"Ġshep":10404,"Ġexceptions":10405,"Ġtcp":10406,"adel":10407,"Ġsimulation":10408,"Ġartic":10409,"Ġconcerning":10410,"Ġexpectation":10411,"Ġhoped":10412,"rome":10413,"Ġdepressed":10414,"handed":10415,"oric":10416,"Ġbackpack":10417,"Ġapproval":10418,"Ġbuddha":10419,"Ġinterfaces":10420,"Ġcocaine":10421,"Ġrepo":10422,"Ġgraduate":10423,"olith":10424,"Ġcredentials":10425,"Ġfirewall":10426,"Ġmanh":10427,"aughters":10428,"Ġhallelujah":10429,"Ġslap":10430,"Ġunfair":10431,"300":10432,"Ġlobby":10433,"Ġabd":10434,"Ġclues":10435,"Ġdiscussions":10436,"Ġattempting":10437,"Ġhollow":10438,"Ġpel":10439,"Ġinex":10440,"Ġcharger":10441,"Ġingredient":10442,"Ġunm":10443,"Ġ2006":10444,"Ġcoordinates":10445,"Ġadhd":10446,"Ġindividually":10447,"Ġreminded":10448,"Ġduke":10449,"Ġprops":10450,"Ġfees":10451,"Ġsla":10452,"Ġmessiah":10453,"Ġfairy":10454,"Ġmercury":10455,"Ġgordon":10456,"Ġtrajectory":10457,"Ġmph":10458,"Ġds":10459,"ept":10460,"Ġbeliever":10461,"Ġcamps":10462,"Ġterraform":10463,"Ġproviders":10464,"Ġscripts":10465,"Ġcontacts":10466,"Ġrim":10467,"Ġpockets":10468,"Ġpenny":10469,"Ġterrified":10470,"Ġburns":10471,"aneous":10472,"Ġcompetitors":10473,"Ġimplications":10474,"Ġunqu":10475,"Ġspecialized":10476,"Ġrevealing":10477,"Ġtiles":10478,"Ġprominent":10479,"Ġtriggered":10480,"Ġeddie":10481,"Ġliking":10482,"oli":10483,"Ġgaining":10484,"Ġsoy":10485,"asts":10486,"Ġgrounds":10487,"Ġtraditions":10488,"Ġtargeted":10489,"Ġspreading":10490,"Ġpipes":10491,"wa":10492,"omy":10493,"Ġblues":10494,"ountered":10495,"Ġspreadsh":10496,"Ġsubjects":10497,"iously":10498,"Ġcarbo":10499,"Ġattracted":10500,"Ġcorporation":10501,"Ġdisorder":10502,"Ġlyn":10503,"Ġtrusting":10504,"Ġcontaining":10505,"Ġphilosophical":10506,"Ġintake":10507,"Ġphenomena":10508,"Ġexplosive":10509,"Ġdowntown":10510,"Ġarrives":10511,"Ġpupp":10512,"Ġencountered":10513,"Ġforgiveness":10514,"Ġdetection":10515,"Ġislamic":10516,"Ġinitialize":10517,"Ġhans":10518,"Ġachieving":10519,"Ġwashed":10520,"jack":10521,"Ġbree":10522,"neys":10523,"Ġ76":10524,"Ġsuggestions":10525,"Ġphoenix":10526,"47":10527,"Ġresidents":10528,"Ġprayers":10529,"Ġlabs":10530,"Ġplugged":10531,"Ġresistant":10532,"Ġchilling":10533,"irst":10534,"agen":10535,"Ġgreed":10536,"rane":10537,").":10538,"nels":10539,"stick":10540,"Ġcanal":10541,"Ġmetabolic":10542,"Ġdwar":10543,"alt":10544,"Ġwicket":10545,"Ġinsec":10546,"Ġtriv":10547,"Ġreceiver":10548,"Ġmelted":10549,"Ġvpn":10550,"Ġsubstantial":10551,"Ġbridges":10552,"Ġabsence":10553,"Ġpolish":10554,"Ġinvestments":10555,"Ġreinfor":10556,"Ġdesperately":10557,"Ġprofessionals":10558,"uate":10559,"Ġpud":10560,"Ġhacker":10561,"Ġski":10562,"Ġpouring":10563,"Ġmexican":10564,"Ġunnecessary":10565,"Ġjing":10566,"esty":10567,"Ġdeaths":10568,"Ġboolean":10569,"nding":10570,"Ġframeworks":10571,"Ġpdf":10572,"uto":10573,"Ġconvey":10574,"Ġfailures":10575,"Ġvoting":10576,"ansas":10577,"Ġsaturn":10578,"Ġswall":10579,"Ġempower":10580,"Ġslee":10581,"Ġfitness":10582,"Ġbowling":10583,"Ġquietly":10584,"aham":10585,"etically":10586,"Ġstere":10587,"Ġzig":10588,"Ġhooks":10589,"Ġreply":10590,"check":10591,"Ġallied":10592,"Ġgenoc":10593,"Ġpayments":10594,"Ġprimitive":10595,"Ġpopularity":10596,"log":10597,"arters":10598,"imited":10599,"Ġspam":10600,"pilot":10601,"licity":10602,"Ġscriptures":10603,"Ġsatisfact":10604,"space":10605,"zes":10606,"Ġeconomics":10607,"Ġnotor":10608,"issions":10609,"Ġfortress":10610,"Ġproteins":10611,"arest":10612,"Ġbarry":10613,"vania":10614,"Ġresponding":10615,"po":10616,"Ġgee":10617,"Ġglob":10618,"Ġcondens":10619,"Ġvariations":10620,"Ġrecovered":10621,"Ġfrog":10622,"Ġatlanta":10623,"Ġrever":10624,"Ġtray":10625,"screen":10626,"Ġgrandpa":10627,"Ġnazis":10628,"Ġlawyers":10629,"Ġworm":10630,"Ġcorp":10631,"Ġobservations":10632,"Ġplayoffs":10633,"Ġchron":10634,"Ġrename":10635,"etheless":10636,"odynam":10637,"Ġforecast":10638,"Ġsuitable":10639,"ranean":10640,"found":10641,"opy":10642,"Ġvr":10643,"Ġcolleague":10644,"Ġknots":10645,"Ġfreezing":10646,"Ġaudiences":10647,"Ġnonetheless":10648,"Ġnickn":10649,"Ġpossess":10650,"Ġfacil":10651,"Ġni":10652,"Ġcasting":10653,"Ġtrends":10654,"Ġrifle":10655,"Ġboiling":10656,"Ġstanford":10657,"Ġcomic":10658,"Ġmorality":10659,"Ġtomatoes":10660,"Ġconvenience":10661,"Ġpacks":10662,"Ġangular":10663,"Ġrefuse":10664,"Ġflick":10665,"Ġdome":10666,"Ġgel":10667,"rage":10668,"Ġobsc":10669,"Ġgenerates":10670,"Ġbeds":10671,"Ġinevitable":10672,"Ġagencies":10673,"Ġjesse":10674,"cedes":10675,"Ġdaughters":10676,"Ġdowns":10677,"Ġphant":10678,"Ġbreaker":10679,"Ġworkout":10680,"Ġworn":10681,"Ġbanking":10682,"Ġintegral":10683,"Ġmushrooms":10684,"inging":10685,"osition":10686,"Ġtempt":10687,"Ġsponsored":10688,"Ġhp":10689,"Ġditch":10690,"Ġcommunications":10691,"Ġcolonel":10692,"Ġhacking":10693,"Ġmanufacturer":10694,"Ġgil":10695,"Ġherit":10696,"Ġfrustration":10697,"Ġcarpet":10698,"Ġthankful":10699,"Ġredd":10700,"Ġportable":10701,"Ġheated":10702,"Ġ57":10703,"Ġdiagon":10704,"Ġportug":10705,"mat":10706,"Ġkobe":10707,"Ġpredators":10708,"Ġsurfaces":10709,"Ġmansion":10710,"amel":10711,"Ġsnacks":10712,"Ġferrari":10713,"speed":10714,"Ġprocedures":10715,"zzy":10716,"Ġprobe":10717,"Ġcoolest":10718,"Ġracist":10719,"Ġbronze":10720,"Ġdread":10721,"arted":10722,"Ġstandpoint":10723,"anted":10724,"Ġincoming":10725,"Ġfarmer":10726,"Ġdownloaded":10727,"Ġhawaii":10728,"ali":10729,"Ġeducational":10730,"Ġheights":10731,"Ġstiff":10732,"Ġoccupied":10733,"Ġfisher":10734,"opl":10735,"Ġsubscribed":10736,"mic":10737,"Ġgenre":10738,"fo":10739,"Ġgna":10740,"Ġfuneral":10741,"Ġmaintained":10742,"Ġintentional":10743,"Ġarguably":10744,"rous":10745,"Ġxp":10746,"Ġcrispy":10747,"Ġbeth":10748,"Ġbows":10749,"Ġamps":10750,"Ġdoctrine":10751,"Ġwilderness":10752,"Ġlakers":10753,"Ġpors":10754,"Ġsenses":10755,"Ġexhausted":10756,"Ġtaiwan":10757,"Ġdeciding":10758,"Ġprofits":10759,"Ġprofitable":10760,"izers":10761,"Ġregulation":10762,"Ġranking":10763,"Ġsliding":10764,"Ġoils":10765,"24":10766,"Ġ#":10767,"Ġgigantic":10768,"Ġruled":10769,"Ġpine":10770,"Ġexpressed":10771,"Ġslim":10772,"Ġnarrator":10773,"Ġvenus":10774,"Ġdifficulties":10775,"ulously":10776,"Ġboeing":10777,"Ġindication":10778,"Ġelectronics":10779,"agnet":10780,"Ġrelaxed":10781,"Ġcoh":10782,"Ġimpacts":10783,"Ġbos":10784,"Ġdose":10785,"Ġmentioning":10786,"Ġtreas":10787,"Ġcertification":10788,"Ġmonet":10789,"Ġsie":10790,"Ġfade":10791,"eday":10792,"Ġascend":10793,"Ġpatrol":10794,"Ġmiracles":10795,"Ġsovere":10796,"Ġescaped":10797,"Ġinspire":10798,"Ġconquer":10799,"Ġsomeday":10800,"Ġ900":10801,"Ġtragic":10802,"Ġoutputs":10803,"Ġmaximize":10804,"ruit":10805,"Ġunle":10806,"Ġseparately":10807,"Ġarabia":10808,"Ġlieutenant":10809,"berries":10810,"Ġresurrection":10811,"Ġfeaturing":10812,"Ġconsists":10813,"Ġ67":10814,"verted":10815,"Ġcontempor":10816,"Ġdownside":10817,"Ġupdating":10818,"Ġtheoretical":10819,"Ġtransactions":10820,"Ġprophets":10821,"Ġwilson":10822,"Ġwhatnot":10823,"Ġtowers":10824,"Ġafghanistan":10825,"Ġtowel":10826,"Ġbonds":10827,"Ġcompromise":10828,"Ġportra":10829,"Ġemerge":10830,"col":10831,"Ġdisrespect":10832,"Ġgodzilla":10833,"Ġinjection":10834,"Ġunlimited":10835,"Ġstalin":10836,"Ġvic":10837,"Ġrainbow":10838,"pers":10839,"Ġworkspace":10840,"aser":10841,"storm":10842,"kind":10843,"Ġconsol":10844,"Ġfactories":10845,"Ġarsenal":10846,"Ġgy":10847,"shirt":10848,"Ġfloors":10849,"ills":10850,"Ġvint":10851,"Ġheavenly":10852,"Ġpresumably":10853,"Ġwizard":10854,"Ġcache":10855,"othy":10856,"Ġheadquarters":10857,"Ġpee":10858,"Ġmamm":10859,"Ġdownstairs":10860,"Ġcorruption":10861,"Ġnapole":10862,"Ġsurvivors":10863,"cause":10864,"Ġclaw":10865,"Ġworrying":10866,"Ġinheritance":10867,"ached":10868,"Ġcapturing":10869,"aska":10870,"tz":10871,"Ġtransm":10872,"abytes":10873,"tic":10874,"Ġregulations":10875,"Ġexplode":10876,"Ġraises":10877,"Ġtouches":10878,"Ġmiserable":10879,"Ġslaves":10880,"Ġthickness":10881,"Ġireland":10882,"inth":10883,"Ġanimations":10884,"Ġtransferred":10885,"Ġcriminals":10886,"Ġfulfillment":10887,"Ġsimplify":10888,"Ġtribes":10889,"Ġeagle":10890,"Ġcovid":10891,"Ġdestruct":10892,"Ġcrushed":10893,"Ġgrabbing":10894,"holders":10895,"Ġhamilton":10896,"Ġnoticing":10897,"Ġhomework":10898,"Ġsupernatural":10899,"Ġinspiring":10900,"Ġcoconut":10901,"Ġservant":10902,"Ġnato":10903,"Ġsurviving":10904,"Ġimmers":10905,"Ġjewelry":10906,"Ġmiller":10907,"Ġcruel":10908,"Ġkaren":10909,"Ġselecting":10910,"Ġscheduled":10911,"Ġfav":10912,"Ġcany":10913,"Ġsaus":10914,"Ġdiego":10915,"Ġhospit":10916,"Ġguides":10917,"Ġskilled":10918,"isons":10919,"Ġtorque":10920,"Ġparadig":10921,"alg":10922,"Ġanton":10923,"Ġevident":10924,"Ġcompliment":10925,"Ġ2005":10926,"Ġevolving":10927,"Ġwounded":10928,"Ġbarn":10929,"Ġcommunicating":10930,"Ġelectrom":10931,"Ġrecruit":10932,"Ġaccus":10933,"Ġmotorcy":10934,"ials":10935,"Ġmaria":10936,"Ġexceptional":10937,"Ġtrium":10938,"Ġrejo":10939,"Ġspar":10940,"Ġdism":10941,"Ġskies":10942,"Ġimmigration":10943,"Ġhannah":10944,"Ġrecommendation":10945,"Ġmagnitude":10946,"holder":10947,"Ġunreal":10948,"Ġsuggestion":10949,"Ġmicrowave":10950,"imm":10951,"Ġclo":10952,"Ġmaya":10953,"ensus":10954,"Ġpays":10955,"Ġcolorado":10956,"uity":10957,"Ġleo":10958,"Ġacceptable":10959,"Ġoptimization":10960,"Ġdice":10961,"Ġresemb":10962,"Ġlaundry":10963,"Ġwayne":10964,"Ġcotton":10965,"child":10966,"Ġcompart":10967,"Ġ96":10968,"Ġpods":10969,"Ġcatalog":10970,"Ġdecay":10971,"Ġharness":10972,"Ġignored":10973,"break":10974,"Ġhaun":10975,"Ġkin":10976,"Ġdefender":10977,"uch":10978,"velope":10979,"Ġcared":10980,"Ġreflected":10981,"Ġdistracted":10982,"Ġwax":10983,"Ġviewed":10984,"Ġrouting":10985,"Ġpeng":10986,"Ġreh":10987,"Ġfriction":10988,"Ġdennis":10989,"Ġfolk":10990,"Ġhydraul":10991,"loying":10992,"Ġlasting":10993,"Ġjig":10994,"Ġenvelope":10995,"Ġmonument":10996,"Ġsentences":10997,"Ġgradient":10998,"Ġannouncement":10999,"ashes":11000,"Ġsheriff":11001,"Ġartifacts":11002,"uli":11003,"Ġhandler":11004,"Ġtakeoff":11005,"Ġimported":11006,"Ġshorts":11007,"Ġhosts":11008,"Ġundo":11009,"Ġdetected":11010,"Ġthomp":11011,"Ġaa":11012,"Ġemerging":11013,"hero":11014,"Ġreduces":11015,"Ġassessment":11016,"ester":11017,"apore":11018,"Ġsimplicity":11019,"Ġalternate":11020,"Ġpartially":11021,"Ġdetermination":11022,"Ġqualities":11023,"Ġfestival":11024,"Ġpoured":11025,"Ġbabe":11026,"Ġthompson":11027,"Ġcomputation":11028,"Ġoptimistic":11029,"Ġheritage":11030,"Ġhex":11031,"Ġguided":11032,"Ġcharm":11033,"Ġfunctioning":11034,"Ġbrandon":11035,"Ġrandy":11036,"Ġmentality":11037,"Ġconnector":11038,"Ġdigit":11039,"Ġjean":11040,"Ġperceive":11041,"Ġcoaster":11042,"Ġtranscend":11043,"Ġearnings":11044,"Ġadmir":11045,"Ġcivilian":11046,"Ġvintage":11047,"Ġtrunk":11048,"Ġworkload":11049,"ellar":11050,"Ġairlines":11051,"Ġreader":11052,"Ġjudges":11053,"Ġactivated":11054,"Ġlaughs":11055,"Ġion":11056,"Ġlith":11057,"Ġ68":11058,"Ġdouglas":11059,"Ġpulse":11060,"utors":11061,"Ġstrengths":11062,"Ġevenly":11063,"Ġcafe":11064,"Ġindicates":11065,"Ġuncover":11066,"Ġclint":11067,"Ġcompression":11068,"ographic":11069,"Ġpm":11070,"Ġscattered":11071,"rah":11072,"Ġzion":11073,"Ġturret":11074,"Ġencouraged":11075,"Ġtyler":11076,"Ġreactor":11077,"Ġoptimized":11078,"Ġprompts":11079,"Ġobey":11080,"Ġspecified":11081,"Ġregards":11082,"Ġpromotion":11083,"Ġincorporate":11084,"Ġheater":11085,"abs":11086,"Ġtumor":11087,"Ġpic":11088,"Ġcombo":11089,"Ġ62":11090,"erving":11091,"Ġwrist":11092,"Ġsecured":11093,"Ġlisting":11094,"itudes":11095,"Ġguit":11096,"Ġsmack":11097,"Ġwatches":11098,"Ġtraits":11099,"Ġliberty":11100,"imeters":11101,"Ġcapsule":11102,"Ġproxy":11103,"mons":11104,"Ġbeep":11105,"Ġvotes":11106,"Ġextends":11107,"otive":11108,"Ġripped":11109,"umbled":11110,"Ġencouraging":11111,"Ġbash":11112,"Ġlunar":11113,"foot":11114,"Ġwired":11115,"market":11116,"Ġpharm":11117,"Ġkicks":11118,"Ġllm":11119,"Ġcomprehensive":11120,"Ġvinegar":11121,"Ġplun":11122,"Ġdescent":11123,"Ġstressful":11124,"Ġyoga":11125,"Ġhud":11126,"Ġknocking":11127,"Ġaesthetic":11128,"Ġlimiting":11129,"Ġchapters":11130,"Ġreferen":11131,"ender":11132,"Ġfulfilled":11133,"rap":11134,"Ġcosmos":11135,"Ġdopamine":11136,"Ġretrieve":11137,"Ġwatts":11138,"Ġdecimal":11139,"Ġnathan":11140,"Ġshowc":11141,"Ġanimated":11142,"Ġyoutuber":11143,"Ġlasted":11144,"Ġextensions":11145,"Ġ2001":11146,"Ġtendency":11147,"Ġfoundations":11148,"Ġsoccer":11149,"Ġcopied":11150,"Ġrespected":11151,"Ġcelt":11152,"Ġfarming":11153,"Ġwalker":11154,"Ġbombing":11155,"Ġtennis":11156,"Ġalice":11157,"Ġtrophy":11158,"Ġdisturbing":11159,"Ġpose":11160,"Ġconfess":11161,"Ġpsychiat":11162,"Ġshells":11163,"idays":11164,"Ġscram":11165,"Ġpoland":11166,"Ġweaknesses":11167,"Ġflown":11168,"Ġcommunist":11169,"Ġguitars":11170,"Ġrs":11171,"Ġbrow":11172,"Ġchees":11173,"Ġcollision":11174,"Ġconcur":11175,"Ġpoorly":11176,"Ġnord":11177,"Ġshin":11178,"ressing":11179,"Ġcritics":11180,"Ġrepeatedly":11181,"Ġlaps":11182,"Ġstrand":11183,"Ġrelie":11184,"Ġclicks":11185,"Ġcalci":11186,"Ġscrub":11187,"Ġexclus":11188,"Ġfet":11189,"Ġ1930":11190,"Ġpete":11191,"Ġrebel":11192,"Ġ1940":11193,"Ġexpenses":11194,"zzle":11195,"Ġstakes":11196,"Ġmoons":11197,"Ġathletes":11198,"Ġki":11199,"Ġcole":11200,"Ġprest":11201,"Ġcolumb":11202,"Ġwalter":11203,"Ġallegations":11204,"Ġgren":11205,"acity":11206,"Ġabroad":11207,"Ġvague":11208,"Ġcarriers":11209,"Ġintervention":11210,"Ġmitchell":11211,"Ġyarn":11212,"Ġnaming":11213,"elled":11214,"Ġ78":11215,"Ġsocieties":11216,"Ġcolorful":11217,"75":11218,"prod":11219,"itories":11220,"lda":11221,"Ġinfer":11222,"Ġtriumph":11223,"Ġsquir":11224,"Ġtrav":11225,"Ġblanket":11226,"Ġdistances":11227,"Ġsmiling":11228,"Ġnickel":11229,"Ġmete":11230,"Ġdraws":11231,"Ġelaborate":11232,"Ġcrane":11233,"Ġclassroom":11234,"Ġross":11235,"eprint":11236,"Ġoperated":11237,"Ġscrap":11238,"Ġskeleton":11239,"Ġdean":11240,"Ġdisplays":11241,"Ġcoaches":11242,"kers":11243,"Ġtilt":11244,"opol":11245,"Ġraf":11246,"Ġrepresentative":11247,"Ġdemonstrated":11248,"Ġemphasize":11249,"Ġmodular":11250,"Ġblueprint":11251,"Ġexpense":11252,"Ġdealer":11253,"Ġplanted":11254,"Ġcapitalism":11255,"Ġreckon":11256,"Ġbs":11257,"Ġmesh":11258,"Ġjum":11259,"Ġjango":11260,"Ġentropy":11261,"Ġwik":11262,"Ġdign":11263,"Ġsod":11264,"Ġnotable":11265,"oline":11266,"Ġdrums":11267,"Ġdefect":11268,"Ġyelling":11269,"Ġreconc":11270,"Ġcalcium":11271,"Ġyourselves":11272,"Ġplague":11273,"Ġstrain":11274,"issance":11275,"Ġstudios":11276,"fold":11277,"Ġearning":11278,"Ġinvention":11279,"Ġcorresponding":11280,"Ġreplay":11281,"Ġcredits":11282,"Ġwhit":11283,"Ġsingapore":11284,"Ġ73":11285,"Ġxia":11286,"Ġ2004":11287,"Ġcelebration":11288,"Ġscotland":11289,"Ġridge":11290,"Ġfortunate":11291,"Ġpengu":11292,"Ġslept":11293,"Ġ110":11294,"cling":11295,"ante":11296,"Ġdisgu":11297,"Ġaccurately":11298,"Ġwiring":11299,"urp":11300,"Ġchim":11301,"Ġscrolling":11302,"Ġwhisper":11303,"Ġdurable":11304,"Ġbrooklyn":11305,"Ġbackst":11306,"Ġlev":11307,"Ġdrawer":11308,"Ġpreference":11309,"Ġpoop":11310,"Ġmediter":11311,"Ġstealth":11312,"Ġconsideration":11313,"Ġpretending":11314,"Ġorientation":11315,"Ġoverflow":11316,"Ġbaker":11317,"Ġyol":11318,"Ġdm":11319,"Ġspacing":11320,"Ġunhe":11321,"Ġevange":11322,"Ġshallow":11323,"Ġannoy":11324,"Ġanten":11325,"Ġmales":11326,"Ġresent":11327,"Ġconducted":11328,"Ġobtain":11329,"Ġelectromagnet":11330,"alid":11331,"Ġphd":11332,"pedo":11333,"Ġregistered":11334,"Ġincons":11335,"Ġbelievers":11336,"Ġfarther":11337,"Ġwaterfall":11338,"Ġcracks":11339,"Ġelegant":11340,"Ġexecuting":11341,"400":11342,"Ġprank":11343,"Ġflop":11344,"Ġcrews":11345,"Ġvibrant":11346,"Ġbinding":11347,"Ġ...":11348,"Ġposter":11349,"Ġconfigured":11350,"Ġdarling":11351,"una":11352,"aching":11353,"Ġrelay":11354,"Ġstoryt":11355,"Ġsummarize":11356,"icism":11357,"Ġmanchester":11358,"Ġprotocols":11359,"abul":11360,"Ġlaboratory":11361,"Ġtheor":11362,"Ġknights":11363,"Ġcartoon":11364,"Ġreuse":11365,"amous":11366,"Ġenters":11367,"Ġtorpedo":11368,"Ġreun":11369,"Ġrailroad":11370,"Ġacceleration":11371,"Ġpartial":11372,"Ġmarketplace":11373,"hill":11374,"Ġdeleg":11375,"Ġpriced":11376,"Ġlightly":11377,"Ġarriving":11378,"Ġtablet":11379,"Ġexploit":11380,"buck":11381,"Ġprogrammers":11382,"Ġreceives":11383,"Ġattachment":11384,"Ġlaura":11385,"Ġsounding":11386,"Ġaddressing":11387,"Ġeducated":11388,"Ġglorious":11389,"Ġvisibility":11390,"Ġinfluential":11391,"Ġhighlighted":11392,"Ġlob":11393,"Ġcone":11394,"Ġentit":11395,"Ġaffairs":11396,"Ġcollector":11397,"Ġcitizen":11398,"Ġphysicists":11399,"Ġoutstanding":11400,"Ġbackyard":11401,"attan":11402,"Ġidentifying":11403,"incing":11404,"Ġauthorization":11405,"Ġvlad":11406,"ran":11407,"Ġinmates":11408,"Ġcaring":11409,"Ġcopying":11410,"Ġresponsibilities":11411,"Ġtubes":11412,"orse":11413,"Ġexagger":11414,"Ġnost":11415,"Ġvariant":11416,"Ġfatty":11417,"Ġporsche":11418,"Ġsaint":11419,"asting":11420,"Ġpreventing":11421,"Ġpreaching":11422,"Ġdrown":11423,"Ġteenager":11424,"Ġphp":11425,"orship":11426,"balls":11427,"Ġthicker":11428,"Ġtriang":11429,"Ġelevated":11430,"Ġbeard":11431,"Ġnapoleon":11432,"Ġalar":11433,"Ġcampus":11434,"loc":11435,"Ġproblematic":11436,"Ġminerals":11437,"mel":11438,"Ġhobby":11439,"Ġscanning":11440,"Ġtranslated":11441,"anas":11442,"Ġpreced":11443,"Ġbankrupt":11444,"Ġmercedes":11445,"Ġdelicate":11446,"Ġfirmly":11447,"Ġrefrigerator":11448,"Ġnp":11449,"Ġproving":11450,"Ġdisab":11451,"Ġ69":11452,"Ġloyalty":11453,"Ġdeliberately":11454,"Ġmediterranean":11455,"Ġrc":11456,"oln":11457,"Ġprovision":11458,"Ġgle":11459,"Ġflames":11460,"Ġdolph":11461,"Ġpasswords":11462,"Ġpinch":11463,"Ġclusters":11464,"Ġtravels":11465,"Ġstrengthen":11466,"Ġdrake":11467,"Ġinsult":11468,"Ġcatches":11469,"Ġwitnessed":11470,"Ġinverse":11471,"acent":11472,"ella":11473,"Ġprints":11474,"Ġmicroservices":11475,"udge":11476,"Ġfatal":11477,"Ġcelebrity":11478,"Ġfathers":11479,"orus":11480,"uding":11481,"Ġphysi":11482,"Ġjess":11483,"Ġskeptical":11484,"Ġcinnam":11485,"Ġdomains":11486,"Ġmichigan":11487,"Ġmetabolism":11488,"Ġrushing":11489,"Ġsmoothly":11490,"Ġleaning":11491,"Ġmanhattan":11492,"Ġvig":11493,"resso":11494,"Ġcows":11495,"Ġrally":11496,"Ġcombining":11497,"ulsion":11498,"Ġthoroughly":11499,"Ġawards":11500,"istical":11501,"version":11502,"Ġsuperhero":11503,"Ġuniversities":11504,"Ġcracked":11505,"Ġrasp":11506,"Ġalz":11507,"Ġibm":11508,"Ġhaul":11509,"Ġ63":11510,"Ġhydro":11511,"Ġpropaganda":11512,"Ġjd":11513,"Ġaffecting":11514,"Ġbuffalo":11515,"Ġsatellites":11516,"Ġcaut":11517,"Ġlistener":11518,"Ġadjustments":11519,"Ġjeremy":11520,"Ġzeros":11521,"Ġwu":11522,"Ġub":11523,"Ġrude":11524,"Ġplum":11525,"Ġheavens":11526,"Ġadapter":11527,"Ġclutch":11528,"Ġply":11529,"vised":11530,"opher":11531,"Ġunst":11532,"Ġpreserved":11533,"Ġoperates":11534,"Ġipad":11535,"Ġopponents":11536,"Ġasynchron":11537,"Ġintric":11538,"Ġpathway":11539,"Ġdemanding":11540,"Ġshaping":11541,"Ġthumbn":11542,"Ġauction":11543,"atherine":11544,"Ġtones":11545,"Ġstreak":11546,"Ġbroker":11547,"Ġzelda":11548,"Ġoverload":11549,"Ġtwins":11550,"Ġ2003":11551,"Ġoceans":11552,"Ġchairman":11553,"Ġhates":11554,"Ġslack":11555,"Ġcrafts":11556,"rend":11557,"Ġkai":11558,"Ġsciss":11559,"Ġanonymous":11560,"Ġcharity":11561,"Ġarranged":11562,"Ġlinc":11563,"Ġobjectives":11564,"Ġteachings":11565,"Ġmichelle":11566,"Ġcategor":11567,"Ġlabeled":11568,"Ġsells":11569,"exist":11570,"Ġfinancially":11571,"Ġrestricted":11572,"Ġcoincidence":11573,"Ġlaure":11574,"Ġgrinding":11575,"Ġphantom":11576,"Ġmakers":11577,"Ġ140":11578,"Ġceremony":11579,"Ġthri":11580,"oda":11581,"Ġwarren":11582,"Ġaccelerate":11583,"Ġexterior":11584,"Ġtorch":11585,"Ġmutual":11586,"Ġhurricane":11587,"Ġpolit":11588,"Ġdiver":11589,"cat":11590,"Ġsprings":11591,"Ġrushed":11592,"Ġcinnamon":11593,"Ġshred":11594,"Ġkel":11595,"Ġclinic":11596,"inery":11597,"pple":11598,"Ġshepher":11599,"Ġmp":11600,"Ġdv":11601,"Ġkent":11602,"Ġturtle":11603,"Ġconvincing":11604,"ijah":11605,"Ġrober":11606,"Ġlatency":11607,"odox":11608,"Ġgrasp":11609,"Ġphases":11610,"Ġshooter":11611,"Ġmilliseconds":11612,"Ġendea":11613,"Ġneglect":11614,"Ġweighs":11615,"Ġanom":11616,"Ġglance":11617,"Ġsuspension":11618,"Ġpissed":11619,"Ġslavery":11620,"inate":11621,"athetic":11622,"Ġarbitrary":11623,"Ġarise":11624,"Ġaddicted":11625,"books":11626,"Ġeliminated":11627,"Ġbees":11628,"Ġchen":11629,"Ġomeg":11630,"ĠĠĠĠĠĠĠĠĠĠĠĠĠĠĠĠ":11631,"Ġpersonnel":11632,"Ġviewing":11633,"Ġrecommendations":11634,"Ġvalidate":11635,"Ġpaintings":11636,"Ġrigid":11637,"Ġkay":11638,"Ġsquid":11639,"Ġjamie":11640,"Ġlincoln":11641,"Ġstap":11642,"Ġids":11643,"Ġarmored":11644,"Ġpads":11645,"Ġdepths":11646,"Ġjournalist":11647,"Ġruler":11648,"Ġmysteries":11649,"Ġgbt":11650,"Ġsweden":11651,"Ġlining":11652,"Ġtodd":11653,"Ġphiladel":11654,"Ġtorture":11655,"Ġgenocide":11656,"Ġspices":11657,"Ġordering":11658,"Ġshoots":11659,"Ġrounded":11660,"gles":11661,"Ġssh":11662,"phia":11663,"Ġtutorials":11664,"Ġsyndrome":11665,"Ġsocket":11666,"Ġaller":11667,"Ġcomposed":11668,"Ġhr":11669,"Ġhipp":11670,"oto":11671,"anges":11672,"Ġspeedrun":11673,"Ġdelayed":11674,"Ġrobbery":11675,"acies":11676,"Ġstalk":11677,"Ġfifty":11678,"Ġnutrients":11679,"Ġtunnels":11680,"Ġinitiative":11681,"Ġsplash":11682,"Ġcasino":11683,"Ġintermediate":11684,"Ġlump":11685,"Ġpersec":11686,"Ġlocker":11687,"Ġstretching":11688,"Ġsaints":11689,"oman":11690,"Ġpodcasts":11691,"Ġanalyzing":11692,"Ġstorms":11693,"Ġhut":11694,"Ġtractor":11695,"Ġappend":11696,"Ġespresso":11697,"Ġinevit":11698,"orient":11699,"Ġelijah":11700,"Ġmatched":11701,"Ġrats":11702,"Ġsine":11703,"Ġhats":11704,"Ġspear":11705,"Ġcamping":11706,"Ġethics":11707,"Ġfundamentals":11708,"Ġtwisted":11709,"anks":11710,"Ġcalculator":11711,"Ġcozy":11712,"Ġrecap":11713,"Ġexplored":11714,"Ġ1500":11715,"Ġappearing":11716,"Ġgreece":11717,"Ġbuns":11718,"Ġwrestling":11719,"aving":11720,"Ġbrace":11721,"Ġpackaging":11722,"Ġpredator":11723,"Ġentertaining":11724,"Ġhappier":11725,"Ġorganizing":11726,"Ġchaotic":11727,"Ġindiana":11728,"Ġarrangement":11729,"Ġastonishing":11730,"Ġprestig":11731,"Ġuss":11732,"Ġvirtue":11733,"Ġfoul":11734,"Ġya":11735,"Ġrecess":11736,"illery":11737,"Ġintend":11738,"Ġobi":11739,"Ġtriggers":11740,"Ġgears":11741,"Ġassembled":11742,"Ġcommod":11743,"Ġrecurs":11744,"Ġmicrosc":11745,"Ġadjustment":11746,"Ġtherapist":11747,"Ġtraditionally":11748,"Ġmd":11749,"Ġjag":11750,"Ġscoop":11751,"Ġdrones":11752,"Ġinvolving":11753,"Ġutah":11754,"Ġhatred":11755,"Ġseals":11756,"Ġ59":11757,"Ġcanyon":11758,"Ġflare":11759,"Ġretro":11760,"Ġargued":11761,"Ġaccountability":11762,"Ġaddressed":11763,"Ġprosperity":11764,"Ġreligions":11765,"Ġmathematic":11766,"Ġoscar":11767,"Ġscreenshot":11768,"itis":11769,"Ġappreciated":11770,"Ġphiladelphia":11771,"Ġhose":11772,"Ġamazed":11773,"Ġresulted":11774,"Ġsettlement":11775,"Ġgly":11776,"Ġkh":11777,"Ġnoble":11778,"Ġhosted":11779,"Ġcried":11780,"Ġjas":11781,"Ġrealization":11782,"Ġinvestor":11783,"Ġbounds":11784,"Ġsponsoring":11785,"Ġbount":11786,"Ġroth":11787,"Ġsyria":11788,"Ġconsent":11789,"Ġfounders":11790,"Ġwidgets":11791,"Ġavenue":11792,"Ġautonomous":11793,"Ġeph":11794,"ods":11795,"Ġclown":11796,"boo":11797,"Ġpromoting":11798,"Ġemma":11799,"Ġperformances":11800,"Ġelectro":11801,"Ġuploaded":11802,"Ġjoker":11803,"Ġguiding":11804,"Ġdefenses":11805,"Ġ240":11806,"Ġcelebrating":11807,"Ġdiscoveries":11808,"Ġcontroversy":11809,"Ġbraces":11810,"Ġholl":11811,"Ġfinite":11812,"Ġgambling":11813,"Ġprevents":11814,"Ġunhappy":11815,"45":11816,"Ġhog":11817,"Ġlatter":11818,"Ġdos":11819,"Ġquiz":11820,"born":11821,"anic":11822,"Ġshowcase":11823,"Ġsupporters":11824,"Ġchand":11825,"asses":11826,"Ġarmies":11827,"Ġcody":11828,"Ġlicens":11829,"Ġembarrassed":11830,"Ġpremise":11831,"Ġinterpre":11832,"Ġappointment":11833,"Ġdope":11834,"Ġneo":11835,"Ġcli":11836,"Ġwinners":11837,"Ġissued":11838,"Ġdominated":11839,"Ġclarify":11840,"Ġscout":11841,"Ġemo":11842,"Ġfierce":11843,"atched":11844,"Ġlocals":11845,"Ġdiagnosis":11846,"Ġfrancis":11847,"Ġsatisfaction":11848,"rative":11849,"Ġconsumed":11850,"Ġformatting":11851,"Ġlaught":11852,"Ġremembering":11853,"Ġconfigur":11854,"Ġufc":11855,"ulas":11856,"Ġbreed":11857,"Ġdiagnosed":11858,"Ġomega":11859,"Ġacceptance":11860,"Ġloser":11861,"Ġdistinguish":11862,"Ġanthrop":11863,"opic":11864,"wheel":11865,"Ġglimp":11866,"mi":11867,"Ġresting":11868,"Ġstacked":11869,"oral":11870,"Ġheaders":11871,"Ġrequested":11872,"Ġhostile":11873,"Ġmanifestation":11874,"ras":11875,"Ġsimulator":11876,"Ġdeclaration":11877,"Ġlaughter":11878,"Ġthirst":11879,"Ġbrake":11880,"Ġextrem":11881,"Ġfootprint":11882,"Ġ160":11883,"Ġrewards":11884,"Ġyoungest":11885,"Ġfatig":11886,"Ġconditioning":11887,"Ġevaluation":11888,"guard":11889,"Ġore":11890,"Ġfilmed":11891,"Ġconvicted":11892,"Ġsucked":11893,"Ġbri":11894,"ulative":11895,"Ġspe":11896,"Ġzen":11897,"Ġhealthcare":11898,"Ġhype":11899,"Ġnpm":11900,"Ġchristopher":11901,"game":11902,"Ġkg":11903,"Ġchairs":11904,"Ġmasses":11905,"Ġ130":11906,"rust":11907,"Ġrelying":11908,"Ġshen":11909,"Ġsue":11910,"Ġslots":11911,"Ġexamine":11912,"Ġsuspic":11913,"itzer":11914,"Ġtheoretically":11915,"Ġfrequent":11916,"Ġparadigm":11917,"Ġglimpse":11918,"person":11919,"Ġcarter":11920,"Ġrelent":11921,"Ġstrictly":11922,"Ġink":11923,"tha":11924,"Ġlineup":11925,"Ġsunset":11926,"Ġaccompan":11927,"Ġinhabit":11928,"acious":11929,"Ġgifted":11930,"Ġank":11931,"Ġshipped":11932,"Ġrealizes":11933,"Ġhumili":11934,"64":11935,"Ġwhichever":11936,"Ġflipping":11937,"Ġindones":11938,"Ġideology":11939,"Ġether":11940,"sql":11941,"Ġoun":11942,"amic":11943,"Ġtighten":11944,"Ġdimensional":11945,"Ġtablespoons":11946,"Ġker":11947,"Ġsew":11948,"oky":11949,"Ġmanages":11950,"Ġupgrades":11951,"dings":11952,"Ġthrive":11953,"Ġdynasty":11954,"ylvania":11955,"ogenic":11956,"atonic":11957,"Ġterribly":11958,"Ġwonders":11959,"Ġatm":11960,"Ġtelephone":11961,"Ġgramm":11962,"Ġinnings":11963,"rospect":11964,"hh":11965,"ete":11966,"Ġairline":11967,"Ġmotherboard":11968,"Ġprogressive":11969,"Ġpillow":11970,"fc":11971,"Ġgoof":11972,"Ġcali":11973,"Ġdragging":11974,"Ġunquote":11975,"Ġmast":11976,"Ġspecialist":11977,"Ġranks":11978,"Ġunpack":11979,"omes":11980,"Ġgraham":11981,"Ġapoc":11982,"Ġsr":11983,"Ġbore":11984,"itative":11985,"Ġral":11986,"Ġraining":11987,"Ġvibration":11988,"Ġenabling":11989,"Ġobserving":11990,"mines":11991,"esign":11992,"Ġhallway":11993,"Ġconflicts":11994,"Ġadvocate":11995,"Ġundert":11996,"Ġinvalid":11997,"abulary":11998,"fly":11999,"Ġanne":12000,"Ġholder":12001,"Ġlocking":12002,"Ġinfluences":12003,"Ġpiston":12004,"Ġoffices":12005,"Ġsyrup":12006,"Ġrewrite":12007,"Ġcompliance":12008,"Ġfries":12009,"Ġoffs":12010,"Ġhotels":12011,"Ġpackets":12012,"Ġannivers":12013,"Ġrooted":12014,"Ġranges":12015,"Ġatheist":12016,"Ġgulf":12017,"Ġembracing":12018,"Ġspreadsheet":12019,"Ġjj":12020,"Ġheadphones":12021,"Ġrestr":12022,"olester":12023,"Ġreliability":12024,"Ġneb":12025,"Ġscul":12026,"Ġreasonably":12027,"track":12028,"ighing":12029,"Ġsmugg":12030,"Ġbosses":12031,"Ġduct":12032,"Ġregional":12033,"Ġdressing":12034,"Ġsant":12035,"Ġpeer":12036,"Ġcrashing":12037,"shire":12038,"Ġbarbec":12039,"Ġencounters":12040,"Ġfoolish":12041,"Ġasteroid":12042,"oir":12043,"Ġwy":12044,"Ġuhhuh":12045,"Ġclap":12046,"Ġfled":12047,"Ġlyrics":12048,"Ġvocabulary":12049,"Ġsams":12050,"Ġalbert":12051,"Ġarist":12052,"Ġwarn":12053,"Ġfiled":12054,"Ġ77":12055,"Ġcontrary":12056,"Ġperceived":12057,"Ġzombie":12058,"lings":12059,"inos":12060,"Ġintact":12061,"Ġune":12062,"Ġmicrobi":12063,"Ġcircuits":12064,"Ġbleeding":12065,"Ġderek":12066,"Ġfitted":12067,"organ":12068,"grad":12069,"Ġ911":12070,"Ġdeliberate":12071,"Ġmascul":12072,"ho":12073,"Ġbypass":12074,"Ġfingerprint":12075,"Ġlonge":12076,"Ġflatten":12077,"Ġbait":12078,"Ġnostalg":12079,"Ġlan":12080,"Ġfolders":12081,"Ġpall":12082,"Ġjin":12083,"Ġacids":12084,"Ġperp":12085,"charge":12086,"Ġeats":12087,"Ġmosc":12088,"Ġconn":12089,"Ġexpo":12090,"asma":12091,"Ġprost":12092,"Ġbooth":12093,"Ġmistaken":12094,"Ġrailway":12095,"Ġadvertise":12096,"Ġcollapsed":12097,"Ġargent":12098,"Ġcholester":12099,"Ġphill":12100,"Ġsurge":12101,"Ġconviction":12102,"Ġcontribution":12103,"Ġproducers":12104,"osity":12105,"Ġshotgun":12106,"Ġcompleting":12107,"Ġsquadron":12108,"Ġlongevity":12109,"Ġgrease":12110,"Ġace":12111,"Ġwiped":12112,"Ġally":12113,"Ġcheckout":12114,"Ġretain":12115,"Ġchallenged":12116,"Ġreflects":12117,"Ġreflecting":12118,"Ġproposal":12119,"Ġprioritize":12120,"Ġphotographs":12121,"tim":12122,"inters":12123,"Ġscor":12124,"Ġyummy":12125,"asant":12126,"Ġliar":12127,"Ġja":12128,"Ġparenthesis":12129,"ippers":12130,"Ġdocumented":12131,"emption":12132,"Ġsap":12133,"Ġseo":12134,"ffe":12135,"Ġdiscl":12136,"Ġcabbage":12137,"Ġlikewise":12138,"ibles":12139,"Ġcombust":12140,"Ġlacking":12141,"Ġruins":12142,"Ġvulnerabilities":12143,"audience":12144,"osterone":12145,"Ġalzheimer":12146,"Ġrendered":12147,"Ġcoke":12148,"Ġarrog":12149,"Ġsecular":12150,"Ġtightly":12151,"Ġwrapping":12152,"Ġobstacle":12153,"Ġfinishes":12154,"Ġembedding":12155,"vm":12156,"Ġcareers":12157,"Ġtheorem":12158,"Ġio":12159,"Ġexploded":12160,"liers":12161,"Ġstrips":12162,"Ġgroove":12163,"Ġtangent":12164,"Ġinvolvement":12165,"Ġcholesterol":12166,"iro":12167,"Ġseattle":12168,"Ġgreatness":12169,"ograp":12170,"Ġcrus":12171,"Ġswiss":12172,"Ġamend":12173,"Ġoverlap":12174,"Ġproportion":12175,"laug":12176,"Ġtat":12177,"mph":12178,"Ġsocks":12179,"Ġstrat":12180,"Ġcompanion":12181,"Ġisraelis":12182,"Ġsculpt":12183,"atility":12184,"Ġsamuel":12185,"kyo":12186,"Ġbamboo":12187,"Ġko":12188,"chem":12189,"Ġcorrid":12190,"Ġhumility":12191,"Ġupgraded":12192,"Ġcathed":12193,"lage":12194,"Ġgrill":12195,"Ġinvitation":12196,"Ġblessings":12197,"Ġexplorer":12198,"Ġdungeon":12199,"Ġaccommodate":12200,"Ġprisoner":12201,"Ġcertified":12202,"Ġbart":12203,"Ġpositioned":12204,"Ġronaldo":12205,"Ġmetad":12206,"Ġcutter":12207,"Ġcsv":12208,"Ġuap":12209,"Ġbry":12210,"uctive":12211,"Ġsyd":12212,"Ġcontinually":12213,"Ġmaddie":12214,"Ġachievements":12215,"Ġjuicy":12216,"Ġmcl":12217,"Ġtraces":12218,"Ġfamously":12219,"Ġadjusted":12220,"Ġanime":12221,"Ġconcentrate":12222,"mentation":12223,"Ġperry":12224,"Ġbothered":12225,"Ġtransparen":12226,"Ġcontradict":12227,"isk":12228,"Ġbulb":12229,"Ġsprinkle":12230,"eto":12231,"Ġholidays":12232,"Ġmitochondria":12233,"Ġconsolid":12234,"Ġtokyo":12235,"Ġwhale":12236,"Ġredeem":12237,"Ġconditional":12238,"scale":12239,"Ġambition":12240,"Ġfemales":12241,"Ġemphasis":12242,"Ġphilippines":12243,"Ġcontemporary":12244,"Ġtread":12245,"chain":12246,"olas":12247,"Ġtraders":12248,"Ġdiagonal":12249,"Ġineff":12250,"Ġtechnic":12251,"Ġdispos":12252,"Ġsubsequent":12253,"Ġhalo":12254,"Ġmounting":12255,"Ġbalancing":12256,"Ġbrighter":12257,"Ġcontributed":12258,"Ġreplicate":12259,"Ġbundle":12260,"Ġinconsist":12261,"Ġanniversary":12262,"Ġiterate":12263,"Ġrelates":12264,"Ġslowing":12265,"Ġdebut":12266,"Ġwolves":12267,"Ġ1945":12268,"Ġjared":12269,"Ġindigen":12270,"Ġclassified":12271,"Ġcamel":12272,"Ġcivilizations":12273,"Ġsydney":12274,"sis":12275,"Ġbak":12276,"Ġripp":12277,"Ġamanda":12278,"auth":12279,"tech":12280,"Ġcontributing":12281,"Ġwarming":12282,"Ġsilk":12283,"Ġfurnace":12284,"Ġmak":12285,"ĠĠĠ":12286,"Ġsummit":12287,"Ġinhib":12288,"lication":12289,"Ġinviting":12290,"bridge":12291,"Ġscrape":12292,"Ġnaive":12293,"Ġoverly":12294,"Ġtyped":12295,"Ġpenns":12296,"Ġstripe":12297,"Ġlawn":12298,"Ġmonolith":12299,"Ġcurves":12300,"Ġartillery":12301,"Ġbehavioral":12302,"Ġstretched":12303,"Ġacquire":12304,"Ġscoot":12305,"Ġadmire":12306,"Ġpronounce":12307,"press":12308,"Ġmothers":12309,"Ġplaylist":12310,"Ġidol":12311,"Ġnamely":12312,"Ġcracking":12313,"Ġaffinity":12314,"Ġlightsab":12315,"sy":12316,"Ġrash":12317,"Ġdeposit":12318,"Ġmoscow":12319,"rels":12320,"kee":12321,"Ġliz":12322,"Ġmeteor":12323,"Ġnearest":12324,"Ġoverlo":12325,"Ġindependently":12326,"Ġharass":12327,"Ġjudging":12328,"Ġwounds":12329,"Ġstartups":12330,"Ġpresidential":12331,"Ġinterviewing":12332,"Ġmurders":12333,"Ġsausage":12334,"Ġtheology":12335,"rock":12336,"Ġspine":12337,"Ġpastry":12338,"Ġcommandments":12339,"Ġmassively":12340,"Ġairbn":12341,"Ġobed":12342,"Ġ1920":12343,"Ġrises":12344,"Ġignoring":12345,"Ġninth":12346,"Ġexponential":12347,"Ġcement":12348,"Ġcivilians":12349,"Ġbells":12350,"Ġtransparency":12351,"Ġjoints":12352,"Ġorgans":12353,"eets":12354,"aze":12355,"Ġorganisms":12356,"Ġdodge":12357,"Ġvik":12358,"Ġmentor":12359,"Ġindigenous":12360,"iated":12361,"Ġimplies":12362,"Ġfrequencies":12363,"Ġcelebrated":12364,"Ġdiscovering":12365,"Ġnegotiate":12366,"Ġeternity":12367,"Ġweaken":12368,"Ġslop":12369,"Ġjackie":12370,"Ġsickness":12371,"Ġwarmth":12372,"Ġlouder":12373,"Ġrecreate":12374,"Ġteleport":12375,"nite":12376,"Ġpursuing":12377,"Ġstead":12378,"oder":12379,"Ġfarms":12380,"Ġoccasions":12381,"vie":12382,"Ġclosure":12383,"Ġjee":12384,"Ġcooperation":12385,"Ġmemorize":12386,"Ġstainless":12387,"Ġglobally":12388,"hmm":12389,"Ġintimate":12390,"Ġmusicians":12391,"Ġpalpat":12392,"Ġtourists":12393,"Ġfluffy":12394,"Ġtraps":12395,"Ġclearing":12396,"Ġamid":12397,"Ġlocate":12398,"Ġjeans":12399,"Ġemployed":12400,"gh":12401,"Ġtoll":12402,"Ġsammy":12403,"Ġwen":12404,"Ġdeploying":12405,"Ġpalpatine":12406,"parent":12407,"Ġchass":12408,"aha":12409,"Ġsadness":12410,"Ġhears":12411,"americ":12412,"Ġflipped":12413,"Ġshelves":12414,"Ġexclusively":12415,"Ġpennsylvania":12416,"map":12417,"Ġabortion":12418,"Ġmuff":12419,"Ġobes":12420,"Ġregul":12421,"Ġmetadata":12422,"Ġsulf":12423,"Ġcrisp":12424,"Ġconclude":12425,"Ġwii":12426,"Ġslices":12427,"Ġselen":12428,"Ġtu":12429,"Ġthirty":12430,"Ġwat":12431,"Ġinsulation":12432,"Ġcardio":12433,"Ġdefines":12434,"Ġconsensus":12435,"Ġ101":12436,"Ġgloss":12437,"Ġtrainer":12438,"Ġremotely":12439,"Ġbreeze":12440,"Ġnash":12441,"Ġaka":12442,"Ġrecur":12443,"Ġawait":12444,"Ġporter":12445,"Ġrural":12446,"Ġkansas":12447,"Ġgram":12448,"uda":12449,"Ġmortgage":12450,"ias":12451,"Ġmorph":12452,"Ġantib":12453,"Ġtactic":12454,"Ġoutlet":12455,"onto":12456,"Ġshook":12457,"Ġ2002":12458,"Ġstrawberry":12459,"Ġtamp":12460,"Ġentries":12461,"Ġguessed":12462,"Ġ97":12463,"Ġsuspected":12464,"Ġinherited":12465,"Ġweighing":12466,"Ġdisable":12467,"Ġpassport":12468,"Ġhumid":12469,"Ġstyling":12470,"Ġparked":12471,"Ġacquis":12472,"Ġribbon":12473,"Ġinteg":12474,"Ġnewest":12475,"Ġsecretly":12476,"Ġuran":12477,"Ġsubjective":12478,"Ġcorporations":12479,"Ġpreferences":12480,"ko":12481,"Ġexcus":12482,"redict":12483,"Ġpressures":12484,"nut":12485,"tail":12486,"Ġdetectives":12487,"Ġinsects":12488,"Ġidi":12489,"Ġcooled":12490,"Ġbarriers":12491,"Ġpeterson":12492,"Ġmum":12493,"Ġstark":12494,"Ġadobe":12495,"Ġcorinth":12496,"Ġench":12497,"otherap":12498,"Ġparks":12499,"Ġtennes":12500,"Ġcrafted":12501,"Ġdisabled":12502,"Ġopenly":12503,"Ġinspection":12504,"Ġtestosterone":12505,"Ġraven":12506,"Ġfills":12507,"Ġscissors":12508,"Ġhass":12509,"Ġmonkeys":12510,"Ġenhanced":12511,"Ġsalmon":12512,"Ġenvision":12513,"Ġappointed":12514,"Ġtheft":12515,"advant":12516,"veland":12517,"Ġmentions":12518,"Ġdominance":12519,"Ġarcade":12520,"Ġnoodles":12521,"Ġtide":12522,"oka":12523,"Ġdisappointing":12524,"Ġabstraction":12525,"Ġhydraulic":12526,"Ġlakes":12527,"rett":12528,"Ġdated":12529,"Ġpopulations":12530,"Ġmachinery":12531,"lem":12532,"Ġdefended":12533,"Ġvendor":12534,"Ġhorrific":12535,"Ġpse":12536,"Ġblitz":12537,"Ġtoggle":12538,"Ġfascinated":12539,"Ġpant":12540,"Ġgps":12541,"aro":12542,"irl":12543,"opath":12544,"Ġacted":12545,"Ġevac":12546,"Ġredund":12547,"Ġlegally":12548,"Ġcollections":12549,"800":12550,"Ġpermanently":12551,"Ġpersistent":12552,"Ġdyl":12553,"Ġforemost":12554,"minded":12555,"ked":12556,"Ġced":12557,"Ġdisadvant":12558,"Ġpresenting":12559,"Ġtruths":12560,"Ġdoubts":12561,"Ġunpredict":12562,"ington":12563,"Ġvest":12564,"Ġfortnite":12565,"Ġadventures":12566,"Ġinevitably":12567,"Ġshakes":12568,"Ġhealthier":12569,"Ġfurthermore":12570,"Ġfacial":12571,"Ġescort":12572,"Ġ1944":12573,"Ġextending":12574,"Ġadmiral":12575,"omon":12576,"Ġinfr":12577,"Ġaccessing":12578,"Ġaccountable":12579,"Ġsentiment":12580,"Ġaffair":12581,"Ġwishes":12582,"Ġinvestigating":12583,"Ġweaker":12584,"Ġterrorist":12585,"Ġproves":12586,"Ġpubl":12587,"Ġathlete":12588,"Ġpeach":12589,"Ġcustody":12590,"Ġsinking":12591,"Ġcarlos":12592,"Ġdylan":12593,"Ġmineral":12594,"Ġzh":12595,"Ġrefres":12596,"Ġmarking":12597,"Ġnurt":12598,"urb":12599,"Ġ93":12600,"sl":12601,"ometer":12602,"Ġconj":12603,"Ġcommentary":12604,"Ġharmful":12605,"Ġsucceeded":12606,"Ġevangel":12607,"Ġwhites":12608,"acon":12609,"Ġupwards":12610,"Ġoutrage":12611,"shine":12612,"Ġterry":12613,"Ġviewer":12614,"Ġmvp":12615,"Ġyum":12616,"Ġdiox":12617,"Ġjong":12618,"Ġalge":12619,"Ġincidents":12620,"Ġpublishing":12621,"Ġinfantry":12622,"odus":12623,"Ġvalued":12624,"Ġmaid":12625,"Ġdeparture":12626,"Ġnotic":12627,"Ġeaster":12628,"Ġspeculation":12629,"Ġtransforming":12630,"mitt":12631,"Ġcv":12632,"Ġtock":12633,"Ġnailed":12634,"600":12635,"Ġunderest":12636,"Ġpumpkin":12637,"walker":12638,"Ġpolitically":12639,"Ġwides":12640,"Ġcattle":12641,"Ġconsc":12642,"Ġformulas":12643,"Ġversa":12644,"Ġelections":12645,"Ġexceed":12646,"Ġbunker":12647,"Ġmarkers":12648,"Ġbeginners":12649,"Ġchickens":12650,"Ġlegislation":12651,"bird":12652,"Ġemissions":12653,"Ġcolony":12654,"Ġinfamous":12655,"Ġtriad":12656,"Ġutterly":12657,"Ġpony":12658,"Ġmoreover":12659,"Ġspotlight":12660,"Ġmelting":12661,"Ġmultipl":12662,"Ġpromoted":12663,"Ġhong":12664,"Ġvisa":12665,"Ġforgetting":12666,"Ġsexy":12667,"Ġmalicious":12668,"Ġdrilling":12669,"iets":12670,"Ġ82":12671,"Ġvet":12672,"Ġimmort":12673,"Ġresponds":12674,"Ġtemporarily":12675,"Ġnam":12676,"uru":12677,"Ġintersection":12678,"borne":12679,"Ġtennessee":12680,"Ġhappily":12681,"Ġphilosopher":12682,"Ġadapted":12683,"Ġwarned":12684,"Ġtravis":12685,"Ġvamp":12686,"Ġintensive":12687,"Ġimpl":12688,"Ġhighs":12689,"Ġsideways":12690,"employ":12691,"Ġbalancer":12692,"Ġbarbecue":12693,"Ġdigits":12694,"Ġphysicist":12695,"Ġzombies":12696,"iances":12697,"Ġwarmer":12698,"Ġdoubled":12699,"Ġ1999":12700,"Ġadren":12701,"Ġlasts":12702,"Ġcleveland":12703,"Ġcolonial":12704,"Ġaimed":12705,"Ġmanipulation":12706,"Ġgoose":12707,"Ġcaramel":12708,"Ġlawrence":12709,"Ġmixer":12710,"Ġguidelines":12711,"Ġagriculture":12712,"Ġpseud":12713,"Ġcape":12714,"Ġparach":12715,"Ġdamaging":12716,"Ġsentenced":12717,"Ġcelest":12718,"aline":12719,"Ġlearns":12720,"burn":12721,"amation":12722,"Ġhunters":12723,"Ġdragged":12724,"Ġalike":12725,"Ġaltar":12726,"Ġwhiskey":12727,"Ġdunk":12728,"Ġsober":12729,"Ġsegments":12730,"reek":12731,"attering":12732,"Ġmarble":12733,"Ġdamp":12734,"itan":12735,"Ġmines":12736,"Ġfocuses":12737,"Ġtitanic":12738,"ihil":12739,"Ġalgebra":12740,"Ġaspir":12741,"Ġfunn":12742,"Ġrefined":12743,"Ġbandw":12744,"Ġkhan":12745,"Ġtroop":12746,"Ġdominate":12747,"Ġmitig":12748,"Ġobesity":12749,"Ġog":12750,"opard":12751,"Ġcorrection":12752,"Ġrav":12753,"Ġentang":12754,"Ġmeme":12755,"Ġbald":12756,"Ġmechanic":12757,"Ġpills":12758,"Ġaffiliate":12759,"Ġdummy":12760,"Ġcoron":12761,"Ġbrightness":12762,"Ġarchaeologists":12763,"Ġcarrots":12764,"Ġ92":12765,"Ġturk":12766,"Ġsubscribing":12767,"Ġtourist":12768,"Ġnerd":12769,"Ġcatastrophic":12770,"Ġstrangers":12771,"Ġfaint":12772,"isive":12773,"Ġsemin":12774,"Ġregener":12775,"Ġvisuals":12776,"Ġoctop":12777,"Ġlust":12778,"uty":12779,"Ġteammates":12780,"Ġhistorian":12781,"Ġhalluc":12782,"Ġderived":12783,"Ġintriguing":12784,"rose":12785,"Ġpositioning":12786,"Ġcarlson":12787,"Ġtattoo":12788,"Ġdh":12789,"idian":12790,"Ġleban":12791,"Ġhopeless":12792,"Ġmedications":12793,"Ġinfrared":12794,"Ġumbre":12795,"Ġviable":12796,"Ġmemorable":12797,"Ġdestructive":12798,"Ġfeared":12799,"Ġgon":12800,"Ġparli":12801,"Ġhandsome":12802,"Ġprefix":12803,"Ġintegers":12804,"Ġsibl":12805,"Ġrides":12806,"Ġlover":12807,"Ġabc":12808,"Ġparas":12809,"Ġimpacted":12810,"Ġcampaigns":12811,"Ġimplicit":12812,"Ġunderway":12813,"Ġops":12814,"Ġrelatives":12815,"Ġequality":12816,"Ġpumps":12817,"Ġflaws":12818,"Ġpublisher":12819,"Ġknives":12820,"Ġdiscr":12821,"Ġcereal":12822,"hole":12823,"Ġsupportive":12824,"Ġrays":12825,"Ġexodus":12826,"lihood":12827,"Ġlur":12828,"Ġonboard":12829,"Ġmirrors":12830,"Ġchassis":12831,"obs":12832,"orie":12833,"Ġeject":12834,"Ġdaylight":12835,"Ġmodest":12836,"Ġmarx":12837,"Ġnewslet":12838,"Ġsoutheast":12839,"Ġdarn":12840,"Ġcrystals":12841,"Ġfuselage":12842,"Ġhustle":12843,"Ġplasma":12844,"Ġoverd":12845,"Ġfluct":12846,"Ġmultiplied":12847,"Ġpriests":12848,"Ġoverride":12849,"Ġsiblings":12850,"aid":12851,"Ġmorm":12852,"Ġstagger":12853,"Ġfond":12854,"Ġmessaging":12855,"Ġflee":12856,"Ġveteran":12857,"Ġrebellion":12858,"Ġportrait":12859,"Ġfern":12860,"Ġfreezer":12861,"Ġsensation":12862,"Ġov":12863,"erting":12864,"Ġcc":12865,"Ġstance":12866,"Ġamd":12867,"Ġsuspended":12868,"Ġstewart":12869,"cur":12870,"Ġneph":12871,"Ġcoloss":12872,"Ġsoviets":12873,"Ġwag":12874,"Ġreef":12875,"Ġunb":12876,"Ġstrap":12877,"Ġskate":12878,"Ġ87":12879,"Ġegyptians":12880,"Ġclinton":12881,"Ġlikelihood":12882,"changing":12883,"Ġfirebase":12884,"Ġdeepest":12885,"Ġsensitivity":12886,"Ġaggression":12887,"ng":12888,"Ġyu":12889,"Ġreporter":12890,"Ġfreel":12891,"Ġvoters":12892,"Ġoccupation":12893,"Ġfragile":12894,"Ġcri":12895,"Ġalab":12896,"ulum":12897,"Ġdealers":12898,"Ġconcentrated":12899,"Ġcater":12900,"Ġjoel":12901,"Ġwhoops":12902,"Ġaccounting":12903,"itives":12904,"Ġalf":12905,"Ġpartition":12906,"Ġplayoff":12907,"Ġseller":12908,"Ġdocs":12909,"Ġsiege":12910,"ographer":12911,"Ġthief":12912,"Ġwrench":12913,"Ġpots":12914,"Ġspouse":12915,"ashi":12916,"Ġlut":12917,"Ġfeast":12918,"Ġtops":12919,"Ġsincere":12920,"Ġswell":12921,"Ġluca":12922,"Ġliverpool":12923,"asse":12924,"urious":12925,"Ġammun":12926,"Ġsearched":12927,"Ġpatches":12928,"Ġteenage":12929,"Ġappealing":12930,"Ġmotorcycle":12931,"dles":12932,"oub":12933,"Ġvapor":12934,"Ġflux":12935,"Ġdaw":12936,"Ġorthodox":12937,"ju":12938,"lash":12939,"isen":12940,"Ġunic":12941,"ostic":12942,"Ġswept":12943,"roc":12944,"Ġbelg":12945,"Ġimmun":12946,"Ġshrimp":12947,"Ġdignity":12948,"Ġparliament":12949,"host":12950,"Ġanoint":12951,"Ġbrass":12952,"Ġsniper":12953,"Ġbeck":12954,"Ġdelivers":12955,"Ġfiltering":12956,"Ġpredictable":12957,"Ġsixt":12958,"Ġairbnb":12959,"acht":12960,"Ġindians":12961,"Ġappreciation":12962,"Ġphrases":12963,"Ġgemini":12964,"imination":12965,"Ġcler":12966,"Ġfunnel":12967,"Ġthinner":12968,"Ġgaze":12969,"Ġconverting":12970,"Ġcrops":12971,"Ġbounty":12972,"watch":12973,"Ġreagan":12974,"Ġji":12975,"Ġframing":12976,"Ġhomepage":12977,"Ġencaps":12978,"Ġenjoyable":12979,"Ġcloses":12980,"Ġtoronto":12981,"Ġsized":12982,"Ġentirety":12983,"Ġcompetitor":12984,"Ġfeeds":12985,"Ġmirac":12986,"Ġmoistur":12987,"Ġmoderate":12988,"Ġcores":12989,"Ġauthors":12990,"Ġants":12991,"Ġhonored":12992,"Ġ1800":12993,"Ġsynthes":12994,"Ġestimates":12995,"Ġhik":12996,"Ġparker":12997,"Ġdisturb":12998,"Ġunstable":12999,"Ġbots":13000,"Ġcakes":13001,"Ġrestored":13002,"Ġcaffe":13003,"Ġhistorians":13004,"Ġcontributions":13005,"Ġrestrictions":13006,"Ġdisconnected":13007,"ller":13008,"Ġhav":13009,"Ġfoster":13010,"Ġranch":13011,"uffle":13012,"Ġud":13013,"Ġfabulous":13014,"Ġshak":13015,"Ġaccidents":13016,"Ġasynchronous":13017,"Ġsolomon":13018,"Ġ79":13019,"Ġexistential":13020,"worth":13021,"Ġwales":13022,"oust":13023,"Ġgrim":13024,"Ġincon":13025,"Ġmillimeter":13026,"Ġprojection":13027,"Ġsteer":13028,"Ġentitled":13029,"Ġammunition":13030,"Ġiq":13031,"Ġ84":13032,"eder":13033,"Ġsof":13034,"Ġfreight":13035,"Ġlocom":13036,"Ġsolely":13037,"icit":13038,"achi":13039,"Ġappearances":13040,"Ġlawsuit":13041,"Ġlucy":13042,"Ġscent":13043,"atted":13044,"Ġreserved":13045,"ushi":13046,"Ġimaginary":13047,"Ġmusician":13048,"Ġgraduated":13049,"Ġdioxide":13050,"Ġfist":13051,"Ġreed":13052,"Ġplacement":13053,"olds":13054,"Ġdrying":13055,"Ġashamed":13056,"Ġmicrobiome":13057,"Ġsorting":13058,"Ġhyphen":13059,"Ġrental":13060,"Ġchopped":13061,"metry":13062,"Ġmedal":13063,"Ġmerry":13064,"Ġgems":13065,"Ġencrypted":13066,"Ġvegan":13067,"Ġantar":13068,"Ġkilo":13069,"Ġcursed":13070,"tor":13071,"olis":13072,"Ġsuited":13073,"astically":13074,"Ġwallace":13075,"Ġdemocrat":13076,"Ġolympics":13077,"Ġtablespoon":13078,"Ġoverseas":13079,"Ġstorytelling":13080,"Ġbeams":13081,"aste":13082,"Ġoffline":13083,"Ġcaution":13084,"Ġassemble":13085,"rise":13086,"Ġknead":13087,"Ġpeg":13088,"Ġannoun":13089,"Ġtalents":13090,"Ġtak":13091,"Ġseated":13092,"Ġsplitting":13093,"Ġctr":13094,"arts":13095,"Ġscrut":13096,"Ġlithium":13097,"Ġtk":13098,"ench":13099,"Ġpersons":13100,"annon":13101,"Ġtrader":13102,"Ġhighlighting":13103,"Ġspikes":13104,"ersonic":13105,"making":13106,"Ġkeeper":13107,"Ġsunshine":13108,"Ġcorrel":13109,"Ġbru":13110,"Ġglac":13111,"Ġneurosc":13112,"Ġrejection":13113,"Ġpuzzles":13114,"Ġlungs":13115,"asis":13116,"Ġanat":13117,"Ġcoord":13118,"Ġshovel":13119,"Ġdistribute":13120,"Ġvolcanic":13121,"Ġaccordingly":13122,"Ġbroadly":13123,"Ġgardens":13124,"Ġforests":13125,"Ġjournalists":13126,"Ġresilient":13127,"Ġinfection":13128,"Ġturbine":13129,"Ġdiminished":13130,"Ġwhistle":13131,"bot":13132,"code":13133,"Ġembark":13134,"human":13135,"arity":13136,"etical":13137,"Ġerase":13138,"Ġarchitectural":13139,"rad":13140,"Ġoreg":13141,"Ġzam":13142,"Ġsnakes":13143,"Ġproport":13144,"Ġresolved":13145,"Ġmug":13146,"Ġtitled":13147,"Ġoccurring":13148,"Ġbt":13149,"Ġcaves":13150,"Ġstur":13151,"Ġenrich":13152,"Ġmedian":13153,"Ġtaller":13154,"Ġmythical":13155,"Ġenlighten":13156,"Ġoregon":13157,"38":13158,"Ġnets":13159,"ithm":13160,"Ġadvise":13161,"Ġgreens":13162,"Ġprinter":13163,"Ġcathedral":13164,"Ġarctic":13165,"ishes":13166,"lessness":13167,"Ġskywalker":13168,"Ġ1998":13169,"Ġcaval":13170,"xual":13171,"Ġwives":13172,"Ġinterven":13173,"Ġcelebrities":13174,"Ġinfinitely":13175,"Ġtoyota":13176,"Ġkyrie":13177,"Ġconform":13178,"Ġdefinitive":13179,"Ġ1994":13180,"leton":13181,"Ġvillages":13182,"Ġethnic":13183,"oning":13184,"Ġconsec":13185,"Ġbrag":13186,"Ġironically":13187,"Ġspoil":13188,"Ġadoption":13189,"Ġexpedition":13190,"itary":13191,"Ġfindings":13192,"Ġcourts":13193,"Ġclearance":13194,"Ġgdp":13195,"essa":13196,"Ġpec":13197,"Ġresponsive":13198,"Ġnested":13199,"Ġconfigurations":13200,"Ġdonate":13201,"Ġrefine":13202,"Ġcombinations":13203,"Ġindicated":13204,"Ġunpre":13205,"Ġpigs":13206,"Ġinterference":13207,"Ġreluct":13208,"Ġperspectives":13209,"Ġreus":13210,"Ġdiscom":13211,"Ġnorway":13212,"Ġchurchill":13213,"Ġsubmitted":13214,"Ġaggregate":13215,"Ġearthquake":13216,"Ġsodium":13217,"Ġraspberry":13218,"Ġsubd":13219,"Ġorbital":13220,"Ġcorps":13221,"Ġpapa":13222,"Ġgallery":13223,"Ġunlocked":13224,"Ġentrepreneurs":13225,"inform":13226,"Ġpas":13227,"Ġchee":13228,"Ġlesser":13229,"axis":13230,"Ġswinging":13231,"agne":13232,"Ġtextures":13233,"conf":13234,"ascular":13235,"Ġcubic":13236,"Ġcroc":13237,"Ġcompose":13238,"Ġsimulate":13239,"Ġquestioned":13240,"Ġpinned":13241,"Ġmarin":13242,"Ġdroid":13243,"Ġtrivial":13244,"Ġsamsung":13245,"pread":13246,"Ġmasks":13247,"Ġactress":13248,"speak":13249,"Ġfulfilling":13250,"Ġvictoria":13251,"Ġselenium":13252,"Ġaj":13253,"Ġtran":13254,"Ġremn":13255,"Ġparse":13256,"damn":13257,"Ġwidespread":13258,"Ġchalk":13259,"Ġarp":13260,"Ġcling":13261,"Ġgrapp":13262,"Ġtolerance":13263,"Ġintrins":13264,"Ġbik":13265,"Ġjp":13266,"Ġheadlines":13267,"Ġkenny":13268,"Ġbingo":13269,"Ġclause":13270,"Ġwarp":13271,"Ġvariance":13272,"Ġwesley":13273,"Ġdl":13274,"Ġcolomb":13275,"Ġcharming":13276,"Ġinference":13277,"Ġremoval":13278,"Ġmarty":13279,"Ġjw":13280,"Ġaffection":13281,"Ġlifes":13282,"ni":13283,"Ġrene":13284,"Ġjab":13285,"Ġthoughtful":13286,"Ġcrafting":13287,"uation":13288,"Ġlor":13289,"Ġliv":13290,"Ġcorrelation":13291,"Ġspends":13292,"Ġqualify":13293,"Ġbouncing":13294,"Ġsip":13295,"onal":13296,"Ġgases":13297,"Ġjoins":13298,"Ġgenetics":13299,"Ġinterviewer":13300,"Ġnebula":13301,"Ġunpreced":13302,"Ġrex":13303,"Ġmoss":13304,"Ġtempted":13305,"Ġhugh":13306,"Ġdefinitions":13307,"Ġcease":13308,"gling":13309,"Ġdeem":13310,"Ġsymbolic":13311,"Ġextraction":13312,"Ġbuddhism":13313,"aru":13314,"Ġcommitting":13315,"Ġyacht":13316,"Ġ125":13317,"Ġalphabet":13318,"Ġfertil":13319,"Ġjustified":13320,"Ġphotography":13321,"zek":13322,"Ġctrl":13323,"Ġecl":13324,"Ġcharacteristic":13325,"Ġrevis":13326,"Ġcapacitor":13327,"Ġruling":13328,"Ġlectures":13329,"Ġlaz":13330,"Ġdeadline":13331,"Ġpere":13332,"Ġgian":13333,"Ġlore":13334,"Ġpeers":13335,"roy":13336,"Ġdecomp":13337,"hop":13338,"pable":13339,"Ġhardcore":13340,"Ġeyel":13341,"Ġfs":13342,"aria":13343,"Ġmecca":13344,"Ġ61":13345,"Ġvibes":13346,"Ġabsorbed":13347,"Ġinvoke":13348,"shell":13349,"held":13350,"Ġoxid":13351,"Ġjeez":13352,"Ġunprecedented":13353,"Ġdonkey":13354,"Ġslime":13355,"Ġdenver":13356,"Ġtelemetry":13357,"Ġsatisfy":13358,"otherapy":13359,"Ġgs":13360,"idth":13361,"quis":13362,"Ġpeek":13363,"Ġprotects":13364,"Ġskew":13365,"Ġdistinctive":13366,"Ġnotorious":13367,"Ġcarved":13368,"Ġspotify":13369,"Ġcandles":13370,"Ġcreamy":13371,"Ġcortex":13372,"Ġfury":13373,"Ġloun":13374,"Ġlogan":13375,"Ġswords":13376,"Ġestablishment":13377,"Ġuv":13378,"Ġsoak":13379,"Ġknob":13380,"Ġuhoh":13381,"Ġfever":13382,"Ġattended":13383,"Ġproxim":13384,"Ġelderly":13385,"Ġsubstitute":13386,"Ġtemptation":13387,"Ġtox":13388,"Ġclassification":13389,"Ġsniff":13390,"Ġharrison":13391,"Ġadjacent":13392,"Ġgroom":13393,"otes":13394,"Ġcrushing":13395,"Ġemployer":13396,"Ġmultiplication":13397,"Ġexotic":13398,"Ġsper":13399,"Ġdifferential":13400,"Ġgrabs":13401,"Ġadjusting":13402,"Ġparticipants":13403,"Ġprover":13404,"Ġcompiled":13405,"Ġ86":13406,"Ġbarbie":13407,"Ġtreats":13408,"Ġ1995":13409,"Ġcautious":13410,"Ġshit":13411,"Ġgoddamn":13412,"shaped":13413,"Ġdisappears":13414,"sized":13415,"Ġadul":13416,"dog":13417,"Ġhm":13418,"Ġvicious":13419,"Ġimpul":13420,"Ġperse":13421,"ogether":13422,"Ġfunded":13423,"Ġhike":13424,"Ġexpressing":13425,"Ġreverb":13426,"sight":13427,"Ġhid":13428,"Ġdre":13429,"Ġplag":13430,"Ġtimber":13431,"Ġlookup":13432,"Ġquack":13433,"Ġcounted":13434,"Ġ94":13435,"Ġharvey":13436,"Ġconclusions":13437,"Ġmutation":13438,"Ġlethal":13439,"Ġbuilders":13440,"Ġdemol":13441,"bone":13442,"Ġagrees":13443,"Ġmaze":13444,"Ġconnectivity":13445,"Ġurg":13446,"Ġhackers":13447,"Ġobserver":13448,"Ġcombustion":13449,"Ġalley":13450,"Ġmysql":13451,"Ġperimeter":13452,"Ġfinest":13453,"Ġ1989":13454,"Ġdubai":13455,"Ġenthusiasm":13456,"Ġwip":13457,"Ġimporting":13458,"Ġaha":13459,"Ġhomeland":13460,"commer":13461,"flows":13462,"Ġterrific":13463,"Ġlaughed":13464,"Ġrods":13465,"auc":13466,"ridge":13467,"Ġprohib":13468,"Ġluxurious":13469,"Ġhubble":13470,"Ġbuckets":13471,"Ġlinda":13472,"Ġingen":13473,"Ġpointers":13474,"Ġhopeful":13475,"working":13476,"Ġphotons":13477,"Ġ1996":13478,"Ġveterans":13479,"commerce":13480,"Ġconquered":13481,"lene":13482,"Ġcasc":13483,"Ġpotion":13484,"Ġcomputational":13485,"Ġtasting":13486,"Ġpaperwork":13487,"Ġheroin":13488,"Ġsnapshot":13489,"Ġmargaret":13490,"Ġsleeve":13491,"Ġantenna":13492,"Ġalaska":13493,"Ġspill":13494,"Ġsaul":13495,"Ġswitzer":13496,"Ġreadable":13497,"Ġrichest":13498,"Ġhazard":13499,"tent":13500,"Ġwhack":13501,"Ġminnes":13502,"Ġhuber":13503,"Ġservants":13504,"Ġarabic":13505,"Ġaerodynam":13506,"Ġanticipated":13507,"Ġshortcuts":13508,"Ġoli":13509,"Ġmice":13510,"Ġquir":13511,"Ġcarbs":13512,"Ġhomemade":13513,"Ġholoc":13514,"Ġbasil":13515,"Ġambul":13516,"Ġfatigue":13517,"rawn":13518,"Ġexecutable":13519,"Ġpon":13520,"Ġbrady":13521,"Ġblob":13522,"Ġgrandparent":13523,"Ġdetermines":13524,"Ġdisappointment":13525,"Ġmute":13526,"Ġmembr":13527,"Ġundefined":13528,"frame":13529,"Ġmonitors":13530,"gence":13531,"overs":13532,"Ġknuck":13533,"Ġessay":13534,"Ġlowercase":13535,"Ġeyebr":13536,"Ġimperfect":13537,"Ġjenkins":13538,"Ġdangers":13539,"Ġregistration":13540,"Ġreddit":13541,"33":13542,"Ġdorm":13543,"Ġrogue":13544,"Ġfinances":13545,"Ġcharism":13546,"Ġproton":13547,"Ġvertically":13548,"Ġinherently":13549,"Ġantonio":13550,"Ġshepherd":13551,"Ġminnesota":13552,"Ġbackward":13553,"Ġcontacted":13554,"Ġaltogether":13555,"Ġdiscomfort":13556,"Ġale":13557,"esive":13558,"Ġblond":13559,"Ġidle":13560,"Ġpacking":13561,"Ġphotosh":13562,"Ġdevoted":13563,"Ġbould":13564,"Ġcels":13565,"Ġvon":13566,"Ġpotent":13567,"Ġmattress":13568,"Ġsacrifices":13569,"Ġnodded":13570,"Ġster":13571,"Ġprovin":13572,"Ġgalile":13573,"Ġconcluded":13574,"Ġnitrogen":13575,"ckey":13576,"Ġwithstand":13577,"Ġbrig":13578,"Ġchrom":13579,"Ġlinking":13580,"Ġcurtain":13581,"Ġpeppa":13582,"Ġgluten":13583,"Ġcalorie":13584,"Ġglove":13585,"Ġuniverses":13586,"Ġinquir":13587,"Ġlib":13588,"Ġboiler":13589,"Ġtransit":13590,"oxy":13591,"Ġelevate":13592,"Ġbmw":13593,"Ġnel":13594,"Ġtril":13595,"bean":13596,"Ġwaff":13597,"Ġbadge":13598,"Ġufo":13599,"Ġcreek":13600,"Ġhedge":13601,"Ġbites":13602,"Ġglam":13603,"Ġimagining":13604,"Ġenzy":13605,"Ġgraphs":13606,"Ġrelaxing":13607,"Ġjenn":13608,"Ġinspector":13609,"Ġnicholas":13610,"Ġdilig":13611,"Ġcompartment":13612,"Ġunse":13613,"athon":13614,"Ġmadness":13615,"Ġexecutives":13616,"Ġpregnancy":13617,"era":13618,"imag":13619,"iful":13620,"Ġprone":13621,"Ġcolin":13622,"Ġlaunches":13623,"mill":13624,"Ġwage":13625,"Ġflaps":13626,"shake":13627,"Ġreplica":13628,"Ġdescending":13629,"Ġpandas":13630,"Ġinexp":13631,"Ġcaffeine":13632,"Ġnotation":13633,"Ġusable":13634,"Ġlend":13635,"Ġdebates":13636,"Ġnerves":13637,"Ġappetite":13638,"Ġcens":13639,"Ġcans":13640,"Ġoracle":13641,"Ġunaware":13642,"Ġunderstandable":13643,"Ġredemption":13644,"Ġwool":13645,"Ġposture":13646,"Ġtreaty":13647,"Ġillumin":13648,"Ġalternatives":13649,"Ġfreddy":13650,"Ġintricate":13651,"Ġtheo":13652,"Ġlame":13653,"Ġalmond":13654,"Ġaged":13655,"steps":13656,"oriented":13657,"Ġdair":13658,"Ġstating":13659,"Ġtempo":13660,"Ġregarded":13661,"Ġnotably":13662,"Ġdrip":13663,"Ġdespair":13664,"Ġdebugging":13665,"Ġagricultural":13666,"Ġceltics":13667,"Ġhers":13668,"Ġtrait":13669,"ciation":13670,"affe":13671,"Ġpyramids":13672,"Ġhamb":13673,"Ġtwel":13674,"Ġtongues":13675,"Ġincorporated":13676,"Ġvivid":13677,"Ġaccessories":13678,"Ġbananas":13679,"Ġmolecule":13680,"Ġcompounds":13681,"Ġirrele":13682,"Ġtapping":13683,"orable":13684,"Ġinequ":13685,"omed":13686,"Ġgoo":13687,"Ġcarib":13688,"Ġassy":13689,"Ġnewsletter":13690,"Ġmck":13691,"Ġvinc":13692,"Ġmankind":13693,"Ġflock":13694,"Ġexplanations":13695,"Ġstanley":13696,"Ġbruno":13697,"eon":13698,"Ġlenses":13699,"Ġassured":13700,"Ġrestoration":13701,"Ġcalculus":13702,"Ġyogurt":13703,"Ġplywood":13704,"lle":13705,"Ġtraction":13706,"Ġplayground":13707,"Ġjeffrey":13708,"Ġnickname":13709,"Ġmoore":13710,"Ġspite":13711,"icked":13712,"Ġwavel":13713,"Ġballoons":13714,"Ġgovernance":13715,"Ġgamble":13716,"Ġassassination":13717,"Ġintervals":13718,"Ġcorinthians":13719,"21":13720,"Ġbod":13721,"Ġcurved":13722,"Ġsalty":13723,"Ġranked":13724,"Ġrazor":13725,"Ġoliver":13726,"Ġthrilled":13727,"Ġregulate":13728,"Ġparan":13729,"Ġbuyers":13730,"Ġswitzerland":13731,"dad":13732,
[...]
