{"!":0,"\"":1,"#":2,"$":3,"%":4,"&":5,"'":6,"(":7,")":8,"*":9,"+":10,",":11,"-":12,".":13,"/":14,"0":15,"1":16,"2":17,"3":18,"4":19,"5":20,"6":21,"7":22,"8":23,"9":24,":":25,";":26,"<":27,"=":28,">":29,"?":30,"@":31,"A":32,"B":33,"C":34,"D":35,"E":36,"F":37,"G":38,"H":39,"I":40,"J":41,"K":42,"L":43,"M":44,"N":45,"O":46,"P":47,"Q":48,"R":49,"S":50,"T":51,"U":52,"V":53,"W":54,"X":55,"Y":56,"Z":57,"[":58,"\\":59,"]":60,"^":61,"_":62,"`":63,"a":64,"b":65,"c":66,"d":67,"e":68,"f":69,"g":70,"h":71,"i":72,"j":73,"k":74,"l":75,"m":76,"n":77,"o":78,"p":79,"q":80,"r":81,"s":82,"t":83,"u":84,"v":85,"w":86,"x":87,"y":88,"z":89,"{":90,"|":91,"}":92,"~":93,"¡":94,"¢":95,"£":96,"¤":97,"¥":98,"¦":99,"§":100,"¨":101,"©":102,"ª":103,"«":104,"¬":105,"®":106,"¯":107,"°":108,"±":109,"²":110,"³":111,"´":112,"µ":113,"¶":114,"·":115,"¸":116,"¹":117,"º":118,"»":119,"¼":120,"½":121,"¾":122,"¿":123,"À":124,"Á":125,"Â":126,"Ã":127,"Ä":128,"Å":129,"Æ":130,"Ç":131,"È":132,"É":133,"Ê":134,"Ë":135,"Ì":136,"Í":137,"Î":138,"Ï":139,"Ð":140,"Ñ":141,"Ò":142,"Ó":143,"Ô":144,"Õ":145,"Ö":146,"×":147,"Ø":148,"Ù":149,"Ú":150,"Û":151,"Ü":152,"Ý":153,"Þ":154,"ß":155,"à":156,"á":157,"â":158,"ã":159,"ä":160,"å":161,"æ":162,"ç":163,"è":164,"é":165,"ê":166,"ë":167,"ì":168,"í":169,"î":170,"ï":171,"ð":172,"ñ":173,"ò":174,"ó":175,"ô":176,"õ":177,"ö":178,"÷":179,"ø":180,"ù":181,"ú":182,"û":183,"ü":184,"ý":185,"þ":186,"ÿ":187,"Ā":188,"ā":189,"Ă":190,"ă":191,"Ą":192,"ą":193,"Ć":194,"ć":195,"Ĉ":196,"ĉ":197,"Ċ":198,"ċ":199,"Č":200,"č":201,"Ď":202,"ď":203,"Đ":204,"đ":205,"Ē":206,"ē":207,"Ĕ":208,"ĕ":209,"Ė":210,"ė":211,"Ę":212,"ę":213,"Ě":214,"ě":215,"Ĝ":216,"ĝ":217,"Ğ":218,"ğ":219,"Ġ":220,"ġ":221,"Ģ":222,"ģ":223,"Ĥ":224,"ĥ":225,"Ħ":226,"ħ":227,"Ĩ":228,"ĩ":229,"Ī":230,"ī":231,"Ĭ":232,"ĭ":233,"Į":234,"į":235,"İ":236,"ı":237,"Ĳ":238,"ĳ":239,"Ĵ":240,"ĵ":241,"Ķ":242,"ķ":243,"ĸ":244,"Ĺ":245,"ĺ":246,"Ļ":247,"ļ":248,"Ľ":249,"ľ":250,"Ŀ":251,"ŀ":252,"Ł":253,"ł":254,"Ń":255,"Ġt":256,"Ġth":257,"Ġa":258,"Ġi":259,"Ġthe":260,"Ġw":261,"Ġs":262,"re":263,"in":264,"Ġo":265,"at":266,"ou":267,"er":268,"Ġb":269,"nd":270,"Ġc":271,"ing":272,"Ġy":273,"Ġm":274,"Ġh":275,"on":276,"Ġp":277,"Ġl":278,"Ġto":279,"Ġd":280,"Ġand":281,"Ġf":282,"Ġyou":283,"ll":284,"en":285,"an":286,"es":287,"Ġg":288,"Ġthat":289,"or":290,"Ġit":291,"Ġof":292,"is":293,"it":294,"Ġin":295,"Ġn":296,"'s":297,"us":298,"Ġso":299,"ow":300,"Ġwh":301,"ed":302,"Ġis":303,"ar":304,"ve":305,"as":306,"le":307,"ut":308,"ic":309,"Ġe":310,"Ġwe":311,"Ġbe":312,"ke":313,"ot":314,"ay":315,"me":316,"Ġthis":317,"al":318,"Ġon":319,"ion":320,"Ġli":321,"ro":322,"Ġre":323,"ct":324,"all":325,"gh":326,"et":327,"Ġha":328,"Ġk":329,"ver":330,"Ġlike":331,"čĊ":332,"ly":333,"Ġgo":334,"Ġco":335,"ri":336,"Ġst":337,"ent":338,"ld":339,"Ġj":340,"Ġdo":341,"Ġhe":342,"ally":343,"st":344,"Ġfor":345,"se":346,"ght":347,"th":348,"id":349,"Ġbut":350,"ust":351,"ch":352,"'t":353,"Ġkn":354,"Ġhave":355,"mp":356,"Ġan":357,"ra":358,"Ġu":359,"Ġwhat":360,"ith":361,"Ġjust":362,"Ġcan":363,"ce":364,"Ġmo":365,"Ġknow":366,"Ġnot":367,"Ġwith":368,"ea":369,"Ġthey":370,"'re":371,"Ġme":372,"Ġthere":373,"Ġse":374,"Ġas":375,"Ġsome":376,"op":377,"Ġwas":378,"ur":379,"ould":380,"use":381,"Ġif":382,"Ġab":383,"Ġare":384,"ck":385,"ere":386,"Ġall":387,"Ġpro":388,"ir":389,"Ġat":390,"Ġne":391,"Ġma":392,"ter":393,"out":394,"ant":395,"Ġex":396,"Ġor":397,"Ġch":398,"Ġri":399,"ink":400,"Ġlo":401,"qu":402,"very":403,"Ġone":404,"Ġal":405,"ca":406,"ill":407,"ation":408,"Ġright":409,"Ġde":410,"pp":411,"Ġsh":412,"ind":413,"Ġthink":414,"Ġcon":415,"Ġthing":416,"Ġv":417,"Ġabout":418,"ess":419,"Ġget":420,"ok":421,"Ġwor":422,"od":423,"un":424,"ul":425,"ge":426,"Ġthen":427,"Ġdon":428,"il":429,"Ġ-":430,"cause":431,"ate":432,"'m":433,"ff":434,"ab":435,"ol":436,"Ġgoing":437,"est":438,"Ġnow":439,"Ġyour":440,"Ġbecause":441,"Ġpl":442,"ad":443,"Ġr":444,"Ġmy":445,"Ġint":446,"im":447,"art":448,"ers":449,"Ġsu":450,"pe":451,"Ġout":452,"ig":453,"Ġup":454,"ich":455,"ive":456,"thing":457,"eah":458,"Ġyeah":459,"ctu":460,"um":461,"Ġsa":462,"Ġhere":463,"Ġwhich":464,"rom":465,"el":466,"Ġcomp":467,"Ġhow":468,"ack":469,"Ġreally":470,"Ġus":471,"Ġsee":472,"ist":473,"ort":474,"os":475,"Ġfrom":476,"nt":477,"Ġsay":478,"Ġpe":479,"ight":480,"Ġtr":481,"ople":482,"am":483,"Ġpeople":484,"Ġqu":485,"Ġactu":486,"Ġwant":487,"Ġwould":488,"ard":489,"Ġdi":490,"ide":491,"Ġwhen":492,"Ġmore":493,"ine":494,"one":495,"Ġ1":496,"Ġway":497,"de":498,"Ġthese":499,"ain":500,"ity":501,"Ġno":502,"Ġti":503,"Ġta":504,"res":505,"co":506,"ven":507,"and":508,"Ġvery":509,"'ve":510,"Ġactually":511,"Ġmean":512,"Ġlook":513,"so":514,"Ġkind":515,"ment":516,"ci":517,"Ġle":518,"rou":519,"Ġby":520,"ect":521,"Ġany":522,"Ġtime":523,"ite":524,"Ġwell":525,"ast":526,"Ġhas":527,"Ġok":528,"our":529,"pt":530,"Ġokay":531,"king":532,"Ġwill":533,"Ġlet":534,"Ġwho":535,"ous":536,"Ġte":537,"ble":538,"Ġthem":539,"Ġthings":540,"ĠčĊ":541,"Ġen":542,"Ġfe":543,"Ġgot":544,"act":545,"her":546,"per":547,"Ġsomething":548,"Ġevery":549,"Ġcom":550,"ie":551,"Ġalso":552,"ose":553,"are":554,"Ġwhere":555,"Ġsp":556,"Ġdid":557,"Ġdoes":558,"Ġtw":559,"ure":560,"om":561,"itt":562,"ther":563,"Ġour":564,"Ġgood":565,"Ġinto":566,"Ġcould":567,"Ġthan":568,"int":569,"age":570,"Ġlot":571,"ame":572,"iz":573,"Ġman":574,"Ġdiff":575,"Ġ2":576,"Ġpre":577,"be":578,"Ġpo":579,"Ġag":580,"Ġcl":581,"'ll":582,"Ġeven":583,"Ġplay":584,"Ġother":585,"ĠĠ":586,"00":587,"Ġbu":588,"Ġneed":589,"Ġback":590,"na":591,"ore":592,"ies":593,"ms":594,"Ġun":595,"Ġwork":596,"ice":597,"ong":598,"Ġmake":599,"Ġoh":600,"ction":601,"Ġad":602,"Ġro":603,"Ġhad":604,"Ġover":605,"reat":606,"Ġtwo":607,"Ġuse":608,"Ġmu":609,"way":610,"Ġmuch":611,"ree":612,"Ġfir":613,"nder":614,"Ġdiffere":615,"Ġwere":616,"Ġph":617,"ber":618,"ag":619,"able":620,"Ġstart":621,"ip":622,"ittle":623,"Ġtheir":624,"Ġfirst":625,"Ġbet":626,"own":627,"ue":628,"Ġlittle":629,"ear":630,"Ġbl":631,"Ġper":632,"Ġpart":633,"Ġapp":634,"Ġimp":635,"Ġgu":636,"if":637,"Ġtake":638,"Ġmay":639,"Ġtal":640,"ace":641,"ep":642,"ick":643,"ang":644,"ens":645,"Ġcont":646,"ions":647,"ish":648,"Ġthose":649,"Ġtry":650,"ving":651,"onna":652,"ass":653,"Ġbit":654,"Ġam":655,"ase":656,"Ġstu":657,"ically":658,"Ġgonna":659,"Ġbeen":660,"ult":661,"ory":662,"Ġnew":663,"Ġbo":664,"Ġwhy":665,"ough":666,"Ġhapp":667,"ence":668,"Ġcall":669,"pl":670,"Ġdifferent":671,"Ġar":672,"wn":673,"orm":674,"ical":675,"vel":676,"em":677,"ting":678,"ty":679,"og":680,"ning":681,"Ġdown":682,"ry":683,"ans":684,"Ġsy":685,"Ġonly":686,"Ġoff":687,"cess":688,"Ġsame":689,"Ġfun":690,"Ġspe":691,"Ġac":692,"Ġpoint":693,"Ġdis":694,"Ġmost":695,"Ġput":696,"Ġbas":697,"ves":698,"kes":699,"cre":700,"Ġshould":701,"sel":702,"Ġke":703,"Ġyear":704,"Ġpos":705,"Ġagain":706,"Ġres":707,"ph":708,"ress":709,"Ġ[":710,"xt":711,"Ġunder":712,"ach":713,"ile":714,"ated":715,"Ġworld":716,"een":717,"Ġdoing":718,"Ġvide":719,"ance":720,"ition":721,"vers":722,"Ġwr":723,"Ġmaybe":724,"Ġstill":725,"round":726,"Ġtra":727,"Ġmat":728,"ower":729,"Ġhi":730,"Ġpa":731,"Ġbeing":732,"Ġbig":733,"ys":734,"mple":735,"ru":736,"nds":737,"Ġreal":738,"ign":739,"ious":740,"fe":741,"Ġrun":742,"rough":743,"Ġra":744,"Ġnum":745,"ap":746,"Ġdes":747,"te":748,"Ġhis":749,"Ġid":750,"Ġfeel":751,"ild":752,"du":753,"ire":754,"Ġob":755,"Ġthrough":756,"ations":757,"ably":758,"Ġpr":759,"Ġmight":760,"ead":761,"Ġgen":762,"Ġinst":763,"Ġgame":764,"Ġinter":765,"Ġsort":766,"si":767,"Ġprob":768,"Ġfo":769,"form":770,"ject":771,"Ġsi":772,"tty":773,"ull":774,"Ġ3":775,"Ġgreat":776,"ft":777,"Ġtalk":778,"other":779,"ces":780,"Ġpretty":781,"Ġdoesn":782,"Ġend":783,"ount":784,"Ġvideo":785,"Ġty":786,"Ġproble":787,"self":788,"Ġsm":789,"Ġwat":790,"Ġsaid":791,"Ġho":792,"Ġfl":793,"Ġset":794,"ary":795,"Ġmany":796,"cri":797,"Ġsyst":798,"ody":799,"Ġfa":800,"Ġpers":801,"imes":802,"fore":803,"ors":804,"erest":805,"Ġdat":806,"Ġprobably":807,"Ġbetter":808,"Ġsl":809,"ful":810,"Ġstuff":811,"Ġmove":812,"ram":813,"ating":814,"Ġim":815,"ial":816,"Ġinterest":817,"ever":818,"ways":819,"Ġhigh":820,"ks":821,"Ġdef":822,"Ġaround":823,"Ġbot":824,"Ġday":825,"Ġlong":826,"urn":827,"iv":828,"Ġpower":829,"Ġcomm":830,"Ġhard":831,"Ġthree":832,"Ġadd":833,"Ġhum":834,"Ġhappen":835,"ord":836,"Ġlear":837,"Ġquest":838,"ics":839,"Ġcode":840,"get":841,"ound":842,"Ġfind":843,"Ġdidn":844,"Ġtech":845,"Ġaf":846,"mo":847,"les":848,"Ġbefore":849,"Ġusing":850,"read":851,"Ġyes":852,"Ġtoo":853,"Ġunderst":854,"Ġind":855,"ense":856,"Ġfunction":857,"Ġjo":858,"Ġcour":859,"Ġop":860,"Ġser":861,"Ġyears":862,"Ġcome":863,"ize":864,"Ġexa":865,"Ġseco":866,"Ġval":867,"ange":868,"Ġnumber":869,"Ġsure":870,"Ġcar":871,"Ġche":872,"Ġ20":873,"red":874,"Ġgive":875,"Ġidea":876,"Ġeverything":877,"Ġcons":878,"Ġprog":879,"Ġgener":880,"Ġmod":881,"Ġnext":882,"Ġbuild":883,"Ġdata":884,"Ġlife":885,"Ġz":886,"Ġev":887,"ons":888,"ute":889,"Ġunderstand":890,"ert":891,"Ġable":892,"li":893,"Ġperson":894,"pect":895,"Ġfact":896,"Ġanother":897,"Ġalways":898,"lic":899,"Ġtell":900,"Ġshow":901,"Ġla":902,"Ġins":903,"Ġmin":904,"Ġhim":905,"bo":906,"Ġbel":907,"Ġproblem":908,"Ġcomple":909,"Ġtrying":910,"Ġafter":911,"Ġter":912,"Ġgra":913,"ought":914,"body":915,"Ġcourse":916,"Ġsupp":917,"ring":918,"Ġeng":919,"Ġread":920,"olog":921,"Ġbasically":922,"Ġexample":923,"Ġsystem":924,"ock":925,"Ġmar":926,"ise":927,"di":928,"Ġcomput":929,"Ġ(":930,"Ġreas":931,"wh":932,"Ġits":933,"Ġexper":934,"Ġeas":935,"Ġmade":936,"ular":937,"Ġgi":938,"Ġown":939,"cl":940,"Ġcool":941,"Ġ10":942,"Ġinteresting":943,"Ġshe":944,"Ġnever":945,"Ġent":946,"com":947,"ward":948,"Ġcalled":949,"ia":950,"Ġ4":951,"Ġknight":952,"Ġel":953,"Ġdone":954,"Ġear":955,"Ġhel":956,"Ġ5":957,"Ġgetting":958,"ual":959,"Ġcheck":960,"Ġwa":961,"day":962,"'d":963,"Ġhu":964,"ron":965,"ari":966,"Ġopen":967,"Ġtop":968,"Ġimport":969,"ved":970,"vious":971,"cy":972,"Ġfin":973,"Ġlove":974,"Ġsub":975,"Ġexact":976,"Ġprodu":977,"row":978,"ility":979,"Ġhelp":980,"ween":981,"ell":982,"ates":983,"Ġcase":984,"av":985,"Ġeach":986,"cent":987,"Ġcompan":988,"Ġwhole":989,"Ġkeep":990,"Ġused":991,"ents":992,"Ġbest":993,"iew":994,"Ġbetween":995,"Ġsol":996,"the":997,"Ġca":998,"Ġphone":999,"Ġquestion":1000,"Ġsecond":1001,"Ġtest":1002,"Ġsc":1003,"gn":1004,"Ġequ":1005,"Ġthought":1006,"Ġpawn":1007,"Ġanything":1008,"ger":1009,"Ġtrans":1010,"Ġrel":1011,"ath":1012,"Ġmeans":1013,"Ġprogram":1014,"Ġbish":1015,"Ġbishop":1016,"Ġside":1017,"Ġplus":1018,"Ġblack":1019,"Ġpossi":1020,"Ġlast":1021,"gin":1022,"Ġboth":1023,"ware":1024,"Ġgam":1025,"Ġcle":1026,"Ġspeci":1027,"Ġatt":1028,"Ġfour":1029,"Ġmet":1030,"Ġsense":1031,"Ġhuman":1032,"Ġeff":1033,"cept":1034,"Ġmon":1035,"ready":1036,"Ġlooking":1037,"Ġrook":1038,"ative":1039,"Ġqueen":1040,"Ġele":1041,"Ġdri":1042,"Ġalready":1043,"Ġtechn":1044,"Ġwhatever":1045,"ict":1046,"Ġsaying":1047,"Ġexp":1048,"ix":1049,"Ġthough":1050,"Ġvers":1051,"Ġext":1052,"Ġreason":1053,"Ġcre":1054,"Ġtri":1055,"Ġbad":1056,"Ġcor":1057,"Ġmakes":1058,"Ġlevel":1059,"ness":1060,"Ġlist":1061,"ments":1062,"ub":1063,"to":1064,"Ġwatch":1065,"velop":1066,"Ġtimes":1067,"hing":1068,"usic":1069,"ail":1070,"Ġfew":1071,"Ġinv":1072,"Ġdefin":1073,"Ġsur":1074,"Ġem":1075,"Ġwhile":1076,"ket":1077,"Ġbra":1078,"angu":1079,"Ġx":1080,"Ġever":1081,"Ġprocess":1082,"atter":1083,"oney":1084,"ertain":1085,"Ġnice":1086,"Ġimportant":1087,"Ġchar":1088,"Ġlangu":1089,"ced":1090,"unch":1091,"Ġtype":1092,"ak":1093,"Ġdevelop":1094,"ention":1095,"Ġguys":1096,"Ġturn":1097,"Ġscre":1098,"Ġcreat":1099,"Ġquite":1100,"Ġenough":1101,"Ġcam":1102,"rect":1103,"Ġsuper":1104,"Ġengine":1105,"up":1106,"Ġhand":1107,"Ġsmall":1108,"ope":1109,"Ġsw":1110,"als":1111,"Ġlearn":1112,"Ġtalking":1113,"ution":1114,"Ġwin":1115,"Ġgod":1116,"Ġexactly":1117,"Ġmoney":1118,"ud":1119,"Ġrep":1120,"cript":1121,"Ġless":1122,"Ġgoes":1123,"Ġmem":1124,"Ġpri":1125,"Ġlooks":1126,"ines":1127,"lo":1128,"Ġstand":1129,"its":1130,"Ġcontro":1131,"Ġtoday":1132,"nce":1133,"Ġline":1134,"Ġtakes":1135,"iss":1136,"Ġfar":1137,"Ġed":1138,"Ġhaving":1139,"Ġfull":1140,"Ġopt":1141,"ars":1142,"Ġcomplete":1143,"nect":1144,"ian":1145,"Ġlight":1146,"Ġcou":1147,"Ġexpl":1148,"Ġcur":1149,"Ġexperi":1150,"Ġobvious":1151,"Ġask":1152,"ird":1153,"Ġcamer":1154,"Ġdec":1155,"Ġonce":1156,"Ġwhite":1157,"Ġ6":1158,"ss":1159,"Ġcertain":1160,"Ġposition":1161,"iting":1162,"Ġpass":1163,"Ġbelie":1164,"Ġcomes":1165,"Ġhead":1166,"wor":1167,"most":1168,"Ġfu":1169,"iter":1170,"Ġkey":1171,"cus":1172,"..":1173,"Ġcreate":1174,"ately":1175,"Ġfive":1176,"Ġref":1177,"Ġcare":1178,"Ġspace":1179,"Ġaway":1180,"come":1181,"ually":1182,"ism":1183,"Ġmill":1184,"Ġmaking":1185,"Ġreg":1186,"Ġplace":1187,"Ġincre":1188,"Ġking":1189,"Ġworking":1190,"Ġpartic":1191,"Ġvalue":1192,"Ġsing":1193,"000":1194,"Ġchange":1195,"Ġstr":1196,"ized":1197,"ple":1198,"Ġform":1199,"Ġtea":1200,"Ġelse":1201,"Ġconf":1202,"Ġopp":1203,"Ġworks":1204,"Ġadv":1205,"Ġguess":1206,"ows":1207,"Ġconnect":1208,"ract":1209,"Ġsign":1210,"Ġtoget":1211,"Ġtogether":1212,"Ġcent":1213,"Ġaut":1214,"ac":1215,"mber":1216,"ering":1217,"Ġclass":1218,"Ġname":1219,"Ġcomputer":1220,"ited":1221,"hip":1222,"ump":1223,"ature":1224,"Ġalmost":1225,"Ġcra":1226,"Ġword":1227,"Ġabs":1228,"Ġdesign":1229,"Ġmult":1230,"Ġstarted":1231,"Ġlanguage":1232,"Ġpossible":1233,"gg":1234,"con":1235,"Ġass":1236,"ater":1237,"rie":1238,"Ġquick":1239,"Ġes":1240,"Ġjob":1241,"Ġcol":1242,"ten":1243,"ially":1244,"of":1245,"Ġmodel":1246,"ures":1247,"ages":1248,"Ġproject":1249,"Ġsomeone":1250,"Ġret":1251,"Ġacc":1252,"ash":1253,"ken":1254,"ology":1255,"Ġord":1256,"ered":1257,"Ġcr":1258,"Ġsci":1259,"Ġleast":1260,"Ġlar":1261,"Ġold":1262,"Ġpie":1263,"Ġuni":1264,"arch":1265,"Ġconst":1266,"Ġ19":1267,"Ġtyp":1268,"Ġreme":1269,"Ġstate":1270,"led":1271,"ues":1272,"Ġlea":1273,"Ġsim":1274,"less":1275,"Ġnet":1276,"Ġ\"":1277,"Ġmind":1278,"Ġinf":1279,"Ġstory":1280,"ote":1281,"ily":1282,"Ġsays":1283,"Ġwanted":1284,"Ġwent":1285,"Ġdet":1286,"Ġhope":1287,"Ġdra":1288,"Ġgets":1289,"Ġmach":1290,"Ġsuch":1291,"Ġfound":1292,"Ġbook":1293,"aster":1294,"Ġwithout":1295,"Ġcoming":1296,"ific":1297,"ities":1298,"Ġinstead":1299,"ying":1300,"Ġsingle":1301,"itely":1302,"Ġliter":1303,"Ġremember":1304,"Ġobject":1305,"ones":1306,"az":1307,"Ġpar":1308,"Ġbeh":1309,"ero":1310,"Ġperform":1311,"Ġsqu":1312,"bers":1313,"Ġstru":1314,"Ġisn":1315,"Ġcompany":1316,"Ġinside":1317,"sw":1318,"Ġtrue":1319,"Ġcommun":1320,"Ġcoll":1321,"Ġexperience":1322,"Ġcompletely":1323,"Ġhour":1324,"Ġwait":1325,"Ġart":1326,"ality":1327,"Ġnothing":1328,"ather":1329,"Ġbre":1330,"Ġhey":1331,"Ġfree":1332,"Ġspea":1333,"Ġplan":1334,"Ġseen":1335,"Ġobviously":1336,"ern":1337,"Ġ9":1338,"olute":1339,"Ġthinking":1340,"phone":1341,"Ġrec":1342,"Ġdist":1343,"Ġansw":1344,"Ġcamera":1345,"ters":1346,"Ġcount":1347,"Ġsomet":1348,"Ġwrite":1349,"Ġabsolute":1350,"Ġbelieve":1351,"Ġclear":1352,"Ġsimple":1353,"Ġsin":1354,"formation":1355,"Ġstop":1356,"Ġcame":1357,"Ġways":1358,"Ġbring":1359,"Ġsk":1360,"Ġexist":1361,"Ġsoft":1362,"Ġdefinitely":1363,"Ġchang":1364,"Ġoper":1365,"nding":1366,"Ġleft":1367,"Ġspecif":1368,"Ġlearning":1369,"Ġwar":1370,"ner":1371,"itch":1372,"Ġsometimes":1373,"Ġai":1374,"Ġeasy":1375,"cture":1376,"Ġdev":1377,"Ġthank":1378,"ming":1379,"Ġmagn":1380,"Ġseems":1381,"ices":1382,"Ġide":1383,"Ġcap":1384,"ps":1385,"ront":1386,"Ġ8":1387,"where":1388,"Ġproduct":1389,"Ġact":1390,"Ġwrong":1391,"osed":1392,"Ġve":1393,"Ġfil":1394,"cially":1395,"Ġscreen":1396,"ither":1397,"Ġhappens":1398,"Ġpress":1399,"Ġfast":1400,"ts":1401,"Ġair":1402,"ient":1403,"put":1404,"music":1405,"Ġdoll":1406,"pu":1407,"play":1408,"Ġguy":1409,"Ġsupport":1410,"Ġstre":1411,"Ġfig":1412,"Ġ7":1413,"cial":1414,"Ġhold":1415,"Ġchr":1416,"Ġentire":1417,"Ġvis":1418,"Ġphys":1419,"Ġrequ":1420,"Ġeveryone":1421,"ross":1422,"Ġstep":1423,"ether":1424,"erg":1425,"min":1426,"Ġcontrol":1427,"Ġorder":1428,"uring":1429,"Ġhal":1430,"Ġintern":1431,"lt":1432,"ush":1433,"ime":1434,"Ġlead":1435,"Ġfrie":1436,"Ġ$":1437,"Ġpol":1438,"Ġmemory":1439,"Ġfine":1440,"ling":1441,"ems":1442,"oc":1443,"Ġgames":1444,"pr":1445,"med":1446,"Ġitself":1447,"Ġrunning":1448,"Ġmed":1449,"Ġparticular":1450,"entially":1451,"ator":1452,"pecially":1453,"ilt":1454,"Ġmultip":1455,"Ġfront":1456,"Ġsit":1457,"Ġview":1458,"Ġwo":1459,"ude":1460,"Ġyourself":1461,"br":1462,"Ġliterally":1463,"Ġcurre":1464,"Ġap":1465,"Ġyet":1466,"Ġlater":1467,"Ġwater":1468,"Ġsch":1469,"Ġeffect":1470,"Ġespecially":1471,"ne":1472,"ake":1473,"Ġlink":1474,"Ġpres":1475,"ared":1476,"Ġ12":1477,"Ġsimp":1478,"cle":1479,"Ġimag":1480,"Ġterms":1481,"Ġsince":1482,"Ġweb":1483,"Ġinformation":1484,"Ġher":1485,"Ġmath":1486,"Ġplays":1487,"Ġeither":1488,"Ġzero":1489,"Ġcouple":1490,"Ġfra":1491,"ization":1492,"Ġfam":1493,"ler":1494,"Ġpy":1495,"Ġtool":1496,"Ġmess":1497,"Ġtot":1498,"Ġarg":1499,"Ġsoftware":1500,"aut":1501,"Ġhit":1502,"Ġsix":1503,"work":1504,"ann":1505,"view":1506,"Ġwhether":1507,"lex":1508,"Ġbunch":1509,"dd":1510,"Ġagainst":1511,"Ġcho":1512,"Ġclose":1513,"ark":1514,"Ġwon":1515,"Ġresult":1516,"Ġer":1517,"Ġiss":1518,"board":1519,"llow":1520,"that":1521,"Ġwasn":1522,"Ġmain":1523,"Ġfut":1524,"ier":1525,"Ġhist":1526,"Ġabsolutely":1527,"ave":1528,"for":1529,"Ġamount":1530,"Ġhalf":1531,"Ġwind":1532,"Ġplaying":1533,"Ġmoment":1534,"man":1535,"not":1536,"Ġamaz":1537,"Ġanswer":1538,"fect":1539,"Ġbri":1540,"Ġpay":1541,"itive":1542,"Ġmention":1543,"zy":1544,"cing":1545,"Ġfile":1546,"Ġvari":1547,"Ġult":1548,"Ġhuge":1549,"Ġresp":1550,"iness":1551,"Ġincl":1552,"Ġmic":1553,"Ġperformance":1554,"uck":1555,"Ġtaking":1556,"ome":1557,"Ġunt":1558,"thon":1559,"Ġmonth":1560,"icult":1561,"la":1562,"Ġevent":1563,"side":1564,"Ġpop":1565,"Ġnumbers":1566,"Ġfuture":1567,"Ġdeal":1568,"Ġori":1569,"Ġelect":1570,"Ġcurrent":1571,"Ġbr":1572,"Ġhon":1573,"Ġallow":1574,"Ġmachine":1575,"ank":1576,"ilar":1577,"wards":1578,"Ġess":1579,"Ġah":1580,"Ġversion":1581,"Ġfigure":1582,"bly":1583,"ouse":1584,"Ġbeaut":1585,"ural":1586,"Ġcontin":1587,"Ġaccess":1588,"Ġoften":1589,"lf":1590,"Ġtook":1591,"Ġbecome":1592,"Ġbus":1593,"atch":1594,"Ġchess":1595,"Ġplayed":1596,"Ġperfect":1597,"Ġrest":1598,"Ġav":1599,"line":1600,"Ġsca":1601,"Ġbuilding":1602,"ric":1603,"Ġgl":1604,"Ġmatter":1605,"Ġnorm":1606,"ument":1607,"Ġfollow":1608,"Ġexpect":1609,"Ġexc":1610,"Ġhappened":1611,"Ġemp":1612,"Ġlow":1613,"Ġfre":1614,"Ġrem":1615,"Ġappro":1616,"utes":1617,"Ġones":1618,"Ġdifficult":1619,"Ġmillion":1620,"idd":1621,"ctor":1622,"ousand":1623,"Ġbro":1624,"Ġreturn":1625,"ational":1626,"Ġdeep":1627,"oy":1628,"Ġstud":1629,"Ġintell":1630,"Ġpython":1631,"Ġbatter":1632,"Ġcost":1633,"Ġprot":1634,"Ġthousand":1635,"Ġstandard":1636,"Ġdays":1637,"Ġdirect":1638,"ond":1639,"Ġuntil":1640,"oot":1641,"Ġrecord":1642,"Ġlog":1643,"Ġpub":1644,"Ġbegin":1645,"selves":1646,"Ġ30":1647,"Ġchrist":1648,"ety":1649,"Ġdifference":1650,"Ġweird":1651,"Ġdisplay":1652,"Ġblock":1653,"Ġbuilt":1654,"Ġdepe":1655,"Ġsou":1656,"Ġspeed":1657,"Ġapple":1658,"Ġbuy":1659,"ield":1660,"ene":1661,"ube":1662,"Ġbased":1663,"Ġlive":1664,"Ġ100":1665,"Ġfocus":1666,"Ġwithin":1667,"ament":1668,"Ġpick":1669,"Ġcard":1670,"Ġattack":1671,"Ġlarge":1672,"ood":1673,"atic":1674,"ases":1675,"cur":1676,"ency":1677,"Ġbi":1678,"Ġwal":1679,"Ġwee":1680,"Ġtemp":1681,"Ġprof":1682,"ug":1683,"Ġgeneral":1684,"Ġago":1685,"Ġself":1686,"Ġeverybody":1687,"Ġconvers":1688,"Ġsmart":1689,"Ġcal":1690,"ex":1691,"Ġmagnus":1692,"Ġmiss":1693,"Ġpur":1694,"Ġps":1695,"Ġdraw":1696,"Ġfair":1697,"verse":1698,"Ġlim":1699,"Ġpast":1700,"Ġinte":1701,"Ġtext":1702,"cul":1703,"Ġcrazy":1704,"Ġthanks":1705,"ully":1706,"Ġhome":1707,"gan":1708,"eng":1709,"Ġactual":1710,"que":1711,"Ġsaw":1712,"Ġsimilar":1713,"Ġaw":1714,"Ġproblems":1715,"Ġshort":1716,"eric":1717,"Ġlisten":1718,"Ġrob":1719,"vid":1720,"Ġmass":1721,"Ġbreak":1722,"Ġconsid":1723,"Ġdollars":1724,"Ġsystems":1725,"Ġproper":1726,"Ġearly":1727,"Ġsomebody":1728,"gor":1729,"Ġquestions":1730,"Ġtrain":1731,"Ġhy":1732,"els":1733,"Ġhaven":1734,"Ġmeaning":1735,"ew":1736,"Ġcompanies":1737,"ton":1738,"Ġhonest":1739,"Ġhappening":1740,"Ġimagine":1741,"Ġsuc":1742,"Ġincredi":1743,"Ġvideos":1744,"Ġfeels":1745,"Ġwatching":1746,"ta":1747,"Ġmicro":1748,"Ġbox":1749,"reme":1750,"itting":1751,"olution":1752,"Ġorigin":1753,"ots":1754,"Ġlay":1755,"ists":1756,"mm":1757,"ortun":1758,"ability":1759,"Ġmeth":1760,"Ġstring":1761,"Ġimpro":1762,"Ġport":1763,"Ġtechnology":1764,"Ġboard":1765,"Ġideas":1766,"Ġwouldn":1767,"ode":1768,"Ġface":1769,"fully":1770,"Ġimage":1771,"ung":1772,"Ġstor":1773,"sh":1774,"ndred":1775,"Ġhear":1776,"Ġquickly":1777,"Ġwow":1778,"ugh":1779,"Ġloc":1780,"Ġminutes":1781,"Ġsour":1782,"Ġcenter":1783,"lement":1784,"Ġcorrect":1785,"Ġequal":1786,"Ġ201":1787,"Ġpull":1788,"Ġteam":1789,"Ġbrain":1790,"Ġkid":1791,"onent":1792,"Ġfight":1793,"Ġhundred":1794,"Ġbattery":1795,"you":1796,"Ġiphone":1797,"...":1798,"Ġmyself":1799,"Ġhigher":1800,"ied":1801,"Ġsize":1802,"lish":1803,"Ġhours":1804,"py":1805,"Ġhistory":1806,"Ġintellig":1807,"Ġmethod":1808,"Ġsubs":1809,"att":1810,"Ġcompet":1811,"par":1812,"Ġpatter":1813,"Ġswitch":1814,"Ġessentially":1815,"Ġstra":1816,"Ġleg":1817,"Ġpercent":1818,"Ġbeautif":1819,"Ġcir":1820,"Ġameric":1821,"Ġprogramming":1822,"cket":1823,"Ġcu":1824,"Ġhell":1825,"Ġpost":1826,"like":1827,"Ġmot":1828,"Ġbusiness":1829,"Ġple":1830,"yn":1831,"Ġ15":1832,"Ġpot":1833,"Ġgrou":1834,"Ġspeak":1835,"rib":1836,"Ġpattern":1837,"Ġbill":1838,"ding":1839,"Ġbott":1840,"Ġgives":1841,"vern":1842,"ane":1843,"ital":1844,"Ġchip":1845,"Ġroom":1846,"Ġchall":1847,"Ġalong":1848,"Ġchann":1849,"Ġscience":1850,"cious":1851,"Ġred":1852,"ible":1853,"Ġgoog":1854,"Ġamazing":1855,"ional":1856,"Ġbecom":1857,"Ġeight":1858,"Ġrather":1859,"Ġframe":1860,"arent":1861,"Ġgiven":1862,"Ġsor":1863,"Ġyout":1864,"Ġindust":1865,"Ġenj":1866,"we":1867,"Ġwonder":1868,"Ġbehind":1869,"Ġgraph":1870,"Ġfund":1871,"Ġcut":1872,"face":1873,"Ġmax":1874,"Ġgovern":1875,"Ġ'":1876,"Ġmusic":1877,"atures":1878,"Ġmarket":1879,"Ġimplement":1880,"ustom":1881,"Ġneeds":1882,"Ġtypes":1883,"Ġfall":1884,"gest":1885,"Ġgoogle":1886,"Ġpack":1887,"Ġversus":1888,"Ġcomb":1889,"Ġrand":1890,"Ġdrive":1891,"Ġste":1892,"ify":1893,"Ġpoints":1894,"Ġenerg":1895,"Ġsorry":1896,"Ġdou":1897,"Ġgrow":1898,"ax":1899,"Ġbeautiful":1900,"Ġphot":1901,"Ġslow":1902,"Ġbelow":1903,"cks":1904,"ray":1905,"Ġextra":1906,"Ġusually":1907,"Ġpiece":1908,"ident":1909,"ets":1910,"Ġtalked":1911,"Ġrepres":1912,"ume":1913,"Ġpush":1914,"Ġprint":1915,"ror":1916,"Ġfaster":1917,"ision":1918,"Ġstarting":1919,"Ġcomplex":1920,"ively":1921,"Ġhumans":1922,"Ġcustom":1923,"Ġdro":1924,"Ġfail":1925,"Ġleave":1926,"pped":1927,"Ġforward":1928,"tern":1929,"Ġoutside":1930,"bit":1931,"Ġcharact":1932,"Ġvir":1933,"pping":1934,"Ġrele":1935,"Ġwords":1936,"Ġsuccess":1937,"Ġsurpr":1938,"Ġenergy":1939,"ool":1940,"Ġanal":1941,"Ġgre":1942,"ctions":1943,"Ġexplain":1944,"mb":1945,"Ġspecific":1946,"Ġsitu":1947,"Ġoptim":1948,"Ġmoving":1949,"Ġ50":1950,"Ġnecess":1951,"Ġacross":1952,"Ġanyway":1953,"anna":1954,"lect":1955,"Ġdig":1956,"Ġstore":1957,"vert":1958,"ng":1959,"Ġwall":1960,"Ġpc":1961,"Ġinclud":1962,"Ġconcept":1963,"bility":1964,"Ġworth":1965,"Ġcolor":1966,"Ġfriends":1967,"Ġpath":1968,"Ġsimply":1969,"Ġrandom":1970,"ny":1971,"itor":1972,"Ġjav":1973,"ides":1974,"Ġstrong":1975,"Ġmentioned":1976,"Ġhor":1977,"Ġcy":1978,"Ġ202":1979,"no":1980,"aces":1981,"Ġseconds":1982,"Ġnight":1983,"Ġdeg":1984,"Ġsound":1985,"Ġslight":1986,"Ġgig":1987,"how":1988,"Ġmil":1989,"Ġfix":1990,"Ġspecial":1991,"Ġextreme":1992,"Ġupd":1993,"Ġcannot":1994,"Ġlose":1995,"Ġprice":1996,"Ġ0":1997,"Ġpublic":1998,"Ġfore":1999,"Ġbigger":2000,"Ġkill":2001,"Ġinstall":2002,"ee":2003,"Ġcpu":2004,"Ġpract":2005,"Ġphones":2006,"ior":2007,"lling":2008,"Ġyoutube":2009,"Ġload":2010,"ased":2011,"Ġuser":2012,"Ġcond":2013,"Ġsocial":2014,"ired":2015,"Ġmatch":2016,"ensive":2017,"ah":2018,"Ġenjoy":2019,"more":2020,"ins":2021,"Ġrespon":2022,"Ġapplic":2023,"Ġinvest":2024,"istic":2025,"ouch":2026,"Ġchannel":2027,"Ġneg":2028,"Ġpieces":2029,"cast":2030,"ivid":2031,"Ġnon":2032,"ined":2033,"Ġwriting":2034,"Ġ200":2035,"Ġstay":2036,"Ġsens":2037,"ings":2038,"Ġenv":2039,"Ġnetwork":2040,"Ġexcept":2041,"Ġmac":2042,"Ġenc":2043,"aps":2044,"Ġtheory":2045,"vor":2046,"Ġpowerful":2047,"Ġuseful":2048,"udi":2049,"Ġdetail":2050,"Ġmode":2051,"Ġdep":2052,"Ġlonger":2053,"Ġtrad":2054,"erial":2055,"Ġreality":2056,"ught":2057,"arily":2058,"Ġrecent":2059,"jor":2060,"load":2061,".\"":2062,"ati":2063,"Ġlost":2064,"Ġagree":2065,"Ġkinds":2066,"Ġfinally":2067,"ser":2068,"Ġtold":2069,"Ġdem":2070,"Ġsource":2071,"Ġremo":2072,"Ġmoves":2073,"Ġloop":2074,"Ġserv":2075,"Ġland":2076,"Ġcommon":2077,"Ġearth":2078,"gorith":2079,"Ġnat":2080,"Ġmultiple":2081,"gr":2082,"Ġrese":2083,"Ġtrack":2084,"Ġalgorith":2085,"Ġ11":2086,"Ġnormal":2087,"Ġdot":2088,"Ġconversation":2089,"book":2090,"Ġey":2091,"Ġfundament":2092,"chan":2093,"ential":2094,"Ġmajor":2095,"Ġindivid":2096,"Ġsha":2097,"ium":2098,"Ġstraight":2099,"iron":2100,"erence":2101,"Ġpred":2102,"Ġlibr":2103,"itions":2104,"Ġschool":2105,"Ġscient":2106,"Ġbody":2107,"Ġlab":2108,"iddle":2109,"Ġquality":2110,"Ġfr":2111,"Ġfield":2112,"Ġcha":2113,"Ġseeing":2114,"Ġrepl":2115,"Ġhowever":2116,"Ġapproach":2117,"medi":2118,"Ġcommunity":2119,"Ġrus":2120,"Ġreact":2121,"Ġseven":2122,"Ġsend":2123,"Ġfan":2124,"Ġhappy":2125,"Ġrid":2126,"Ġpressure":2127,"icient":2128,"cribe":2129,"Ġbottom":2130,"Ġcreated":2131,"Ġprin":2132,"Ġcore":2133,"Ġvol":2134,"Ġmonths":2135,"Ġbase":2136,"Ġgaming":2137,"Ġdam":2138,"Ġtrade":2139,"Ġgovernment":2140,"Ġpaper":2141,"Ġultim":2142,"Ġpod":2143,"Ġadvant":2144,"Ġtouch":2145,"Ġchild":2146,"cription":2147,"Ġmiddle":2148,"Ġconscious":2149,"Ġrelations":2150,"Ġtur":2151,"ables":2152,"izing":2153,"Ġstream":2154,"Ġfeatures":2155,"Ġdoc":2156,"Ġtotally":2157,"50":2158,"Ġpix":2159,"Ġvi":2160,"Ġmechan":2161,"Ġgr":2162,"Ġwanna":2163,"Ġinit":2164,"Ġaudi":2165,"Ġautom":2166,"Ġenviron":2167,"aby":2168,"Ġinternet":2169,"ptop":2170,"Ġresearch":2171,"Ġstructure":2172,"Ġinteract":2173,"ren":2174,"Ġident":2175,"Ġlaw":2176,"Ġtried":2177,"Ġrepresent":2178,"Ġrust":2179,"Ġsupposed":2180,"Ġmathem":2181,"Ġbar":2182,"Ġworked":2183,"Ġmaterial":2184,"Ġinput":2185,"Ġtowards":2186,"pro":2187,"gra":2188,"Ġthird":2189,"itical":2190,"Ġjump":2191,"po":2192,"Ġbutton":2193,"Ġnotice":2194,"Ġknew":2195,"Ġeasier":2196,"Ġsepar":2197,"Ġpain":2198,"Ġstates":2199,"my":2200,"Ġmust":2201,"rypt":2202,"Ġseries":2203,"Ġunderstanding":2204,"Ġthemselves":2205,"Ġtable":2206,"Ġgroup":2207,"Ġlaptop":2208,"ery":2209,"Ġparts":2210,"alth":2211,"Ġfavor":2212,"ateg":2213,"Ġclick":2214,"antly":2215,"Ġindividual":2216,"pid":2217,"Ġwindows":2218,"app":2219,"Ġprom":2220,"Ġready":2221,"Ġgone":2222,"Ġindustry":2223,"Ġduring":2224,"Ġsounds":2225,"Ġgiving":2226,"Ġsoon":2227,"ec":2228,"Ġconte":2229,"Ġbasic":2230,"ats":2231,"bed":2232,"Ġskill":2233,"Ġslightly":2234,"Ġaren":2235,"Ġthrow":2236,"verage":2237,"ising":2238,"aust":2239,"ries":2240,"Ġnear":2241,"Ġplat":2242,"Ġwants":2243,"Ġahead":2244,"Ġarea":2245,"Ġgotta":2246,"icle":2247,"conom":2248,"time":2249,"Ġrelationship":2250,"Ġexpress":2251,"Ġcompil":2252,"ted":2253,"Ġdest":2254,"Ġdire":2255,"by":2256,"Ġ16":2257,"Ġmodern":2258,"Ġcalcul":2259,"thers":2260,"Ġclean":2261,"Ġissue":2262,"ants":2263,"Ġserver":2264,"Ġreach":2265,"Ġseem":2266,"Ġlots":2267,"Ġcouldn":2268,"Ġdark":2269,"Ġprop":2270,"Ġothers":2271,"Ġfinish":2272,"go":2273,"asc":2274,"Ġanyone":2275,"Ġmeet":2276,"fer":2277,"Ġcult":2278,"Ġpi":2279,"Ġheard":2280,"ules":2281,"Ġdude":2282,"Ġmor":2283,"Ġmeas":2284,"Ġwalk":2285,"ging":2286,"Ġaff":2287,"Ġintelligence":2288,"Ġcomplic":2289,"Ġorgan":2290,"Ġinvol":2291,"Ġcertainly":2292,"Ġsent":2293,"Ġlines":2294,"Ġmanag":2295,"Ġpawns":2296,"Ġaspect":2297,"Ġunf":2298,"Ġeconom":2299,"Ġteach":2300,"Ġaccount":2301,"Ġbene":2302,"Ġclos":2303,"Ġ40":2304,"Ġsquare":2305,"Ġplease":2306,"umb":2307,"ised":2308,"Ġfire":2309,"Ġnam":2310,"Ġserious":2311,"Ġspons":2312,"Ġlower":2313,"Ġputting":2314,"Ġtools":2315,"Ġpodcast":2316,"Ġsave":2317,"Ġprevious":2318,"Ġimpress":2319,"Ġmag":2320,"oring":2321,"Ġknows":2322,"Ġscale":2323,"Ġprotect":2324,"Ġcell":2325,"ych":2326,"Ġfeature":2327,"Ġvalues":2328,"Ġshare":2329,"Ġbiggest":2330,"Ġimprove":2331,"Ġneeded":2332,"Ġcopy":2333,"Ġrange":2334,"Ġcontent":2335,"Ġfunny":2336,"Ġhardware":2337,"Ġrussi":2338,"mic":2339,"ream":2340,"Ġreco":2341,"Ġsituation":2342,"Ġincredible":2343,"Ġbecomes":2344,"Ġenvironment":2345,"uc":2346,"aring":2347,"Ġfur":2348,"cuss":2349,"ulation":2350,"ogra":2351,"Ġhonestly":2352,"ided":2353,"Ġsmaller":2354,"old":2355,"Ġterri":2356,"Ġhouse":2357,"Ġshoot":2358,"Ġunivers":2359,"Ġredu":2360,"Ġcla":2361,"oud":2362,"Ġrealize":2363,"Ġstarts":2364,"itional":2365,"Ġsearch":2366,"ma":2367,"Ġcountry":2368,"Ġsetting":2369,"oth":2370,"Ġnews":2371,"Ġdevelopment":2372,"Ġcollect":2373,"Ġmist":2374,"Ġfunctions":2375,"Ġcases":2376,"Ġpsych":2377,"Ġdefe":2378,"Ġsams":2379,"Ġability":2380,"Ġground":2381,"pre":2382,"Ġpict":2383,"astic":2384,"ences":2385,"Ġeventually":2386,"imens":2387,"Ġsolution":2388,"ledge":2389,"Ġweight":2390,"Ġbenef":2391,"Ġconc":2392,"Ġsamsung":2393,"Ġdeb":2394,"itten":2395,"Ġdiscuss":2396,"Ġimmedi":2397,"Ġtaken":2398,"Ġsomehow":2399,"Ġfinal":2400,"Ġep":2401,"Ġinterested":2402,"Ġweek":2403,"ral":2404,"Ġgave":2405,"ask":2406,"Ġsolve":2407,"Ġris":2408,"Ġcomplicated":2409,"Ġsoci":2410,"vide":2411,"Ġperspect":2412,"Ġwebs":2413,"Ġknown":2414,"elt":2415,"Ġkids":2416,"Ġbeginning":2417,"Ġdr":2418,"Ġadvantage":2419,"Ġavail":2420,"Ġuniverse":2421,"this":2422,"Ġonline":2423,"itter":2424,"Ġdisco":2425,"Ġcast":2426,"Ġnature":2427,"Ġturns":2428,"Ġforce":2429,"Ġdescription":2430,"Ġasked":2431,"Ġlearned":2432,"Ġant":2433,"Ġ60":2434,"Ġexec":2435,"uth":2436,"ivity":2437,"dden":2438,"Ġhot":2439,"Ġsomewhere":2440,"Ġspend":2441,"comp":2442,"here":2443,"Ġfasc":2444,"ians":2445,"Ġminute":2446,"Ġconstru":2447,"just":2448,"Ġoutput":2449,"rodu":2450,"Ġtrick":2451,"Ġsil":2452,"Ġlaugh":2453,"Ġchea":2454,"Ġallows":2455,"Ġtar":2456,"Ġang":2457,"Ġcreating":2458,"ina":2459,"Ġpriv":2460,"Ġfeeling":2461,"Ġchanges":2462,"Ġstick":2463,"nded":2464,"Ġoriginal":2465,"oid":2466,"Ġge":2467,"Ġfold":2468,"ule":2469,"Ġfamily":2470,"Ġcharacter":2471,"Ġextremely":2472,"Ġtrust":2473,"Ġchance":2474,"Ġopponent":2475,"Ġfoot":2476,"iny":2477,"Ġlin":2478,"Ġoc":2479,"Ġsudden":2480,"Ġreasons":2481,"lier":2482,"Ġerror":2483,"Ġrecom":2484,"Ġflo":2485,"Ġmedia":2486,"Ġspeaking":2487,"Ġintegr":2488,"Ġanymore":2489,"Ġanim":2490,"Ġda":2491,"omen":2492,"Ġattention":2493,"wise":2494,"lying":2495,"Ġdang":2496,"Ġkeyboard":2497,"Ġcapt":2498,"esome":2499,"set":2500,"Ġrate":2501,"80":2502,"Ġmassive":2503,"Ġlaunch":2504,"Ġfelt":2505,"Ġfascin":2506,"Ġsafe":2507,"Ġengineering":2508,"Ġavailable":2509,"ains":2510,"right":2511,"gs":2512,"core":2513,"iction":2514,"Ġlibrary":2515,"Ġphysical":2516,"Ġuh":2517,"Ġrecomme":2518,"Ġ14":2519,"Ġprinci":2520,"nter":2521,"Ġcommunic":2522,"Ġusb":2523,"Ġlooked":2524,"Ġsle":2525,"Ġgpu":2526,"Ġworse":2527,"Ġdevice":2528,"rees":2529,"Ġconsider":2530,"Ġperspective":2531,"ascript":2532,"Ġaddress":2533,"Ġplayer":2534,"bal":2535,"Ġpan":2536,"Ġ13":2537,"Ġfriend":2538,"Ġclearly":2539,"Ġawesome":2540,"Ġnegative":2541,"ses":2542,"Ġnote":2543,"Ġrobot":2544,"Ġcontext":2545,"Ġfurther":2546,"Ġchat":2547,"Ġjavascript":2548,"Ġwritten":2549,"Ġphil":2550,"back":2551,"ze":2552,"Ġtotal":2553,"Ġissues":2554,"Ġveh":2555,"though":2556,"Ġsat":2557,"Ġdirection":2558,"light":2559,"Ġreview":2560,"Ġcontinue":2561,"Ġnobody":2562,"kar":2563,"Ġmathemat":2564,"box":2565,"Ġsuff":2566,"Ġtor":2567,"haps":2568,"Ġargument":2569,"ove":2570,"Ġmanage":2571,"Ġmother":2572,"eak":2573,"what":2574,"he":2575,"ances":2576,"Ġce":2577,"Ġpurp":2578,"Ġhar":2579,"ift":2580,"Ġperhaps":2581,"Ġsymb":2582,"phones":2583,"ilities":2584,"ological":2585,"Ġinterview":2586,"Ġest":2587,"ried":2588,"Ġfit":2589,"Ġtwitter":2590,"Ġbillion":2591,"tes":2592,"Ġtarget":2593,"ground":2594,"Ġlikely":2595,"Ġtruth":2596,"ires":2597,"vered":2598,"do":2599,"Ġalthough":2600,"bra":2601,"Ġsignific":2602,"Ġauth":2603,"aking":2604,"Ġhate":2605,"Ġgrand":2606,"Ġmessage":2607,"Ġsymbol":2608,"Ġspent":2609,"Ġyoung":2610,"Ġdirectly":2611,"Ġuses":2612,"Ġprim":2613,"Ġcirc":2614,"usion":2615,"Ġdatab":2616,"ault":2617,"Ġgoal":2618,"Ġfavorite":2619,"Ġopening":2620,"Ġpresent":2621,"Ġstock":2622,"Ġscript":2623,"Ġsty":2624,"Ġexpensive":2625,"orn":2626,"Ġdeath":2627,"Ġeasily":2628,"uro":2629,"Ġrot":2630,"Ġgri":2631,"Ġpersonal":2632,"now":2633,"Ġequals":2634,"Ġnecessarily":2635,"etic":2636,"Ġwhe":2637,"Ġchanged":2638,"Ġworry":2639,"Ġbeat":2640,"Ġknowledge":2641,"Ġforget":2642,"Ġphysics":2643,"Ġplug":2644,"ograph":2645,"Ġsitting":2646,"des":2647,"ators":2648,"Ġfully":2649,"Ġexcited":2650,"Ġheav":2651,"Ġchoose":2652,"ified":2653,"vi":2654,"Ġsetup":2655,"Ġwinning":2656,"Ġstar":2657,"curity":2658,"Ġ000":2659,"Ġroad":2660,"Ġopportun":2661,"Ġdyn":2662,"Ġprofess":2663,"fort":2664,"Ġimmediately":2665,"iment":2666,"Ġflow":2667,"Ġearlier":2668,"Ġ25":2669,"Ġarch":2670,"Ġreading":2671,"Ġwrote":2672,"Ġstack":2673,"sible":2674,"Ġthreat":2675,"Ġhopefully":2676,"Ġmark":2677,"Ġcable":2678,"oph":2679,"Ġconv":2680,"ony":2681,"Ġpoin":2682,"Ġwebsite":2683,"enge":2684,"Ġrecently":2685,"Ġultimately":2686,"Ġsal":2687,"resh":2688,"Ġaverage":2689,"Ġhang":2690,"Ġbehav":2691,"Ġlock":2692,"Ġfascinating":2693,"Ġscrew":2694,"Ġshot":2695,"ls":2696,"Ġnatural":2697,"Ġdocument":2698,"Ġhands":2699,"Ġedge":2700,"Ġgenerally":2701,"Ġspot":2702,"Ġinstance":2703,"Ġunited":2704,"Ġnu":2705,"Ġjour":2706,"Ġquant":2707,"ili":2708,"Ġinstru":2709,"Ġonto":2710,"crif":2711,"air":2712,"Ġfill":2713,"Ġarray":2714,"word":2715,"Ġcatch":2716,"Ġann":2717,"Ġhealth":2718,"Ġbal":2719,"Ġtelling":2720,"Ġten":2721,"Ġdouble":2722,"Ġconcern":2723,"Ġmov":2724,"Ġsurface":2725,"Ġpixel":2726,"Ġliving":2727,"Ġabove":2728,"Ġappre":2729,"Ġdead":2730,"utions":2731,"Ġund":2732,"Ġsecurity":2733,"Ġterm":2734,"Ġmaster":2735,"Ġcontroll":2736,"Ġrev":2737,"Ġtesting":2738,"lli":2739,"Ġgear":2740,"Ġelectric":2741,"Ġintrodu":2742,"Ġcross":2743,"Ġciv":2744,"ese":2745,"Ġservice":2746,"Ġvector":2747,"Ġincluding":2748,"Ġram":2749,"Ġfuel":2750,"Ġfab":2751,"Ġultra":2752,"Ġcars":2753,"Ġsever":2754,"Ġmeasure":2755,"Ġblue":2756,"Ġip":2757,"Ġpage":2758,"Ġconsciousness":2759,"Ġmount":2760,"Ġpositive":2761,"Ġintel":2762,"ination":2763,"Ġchallenge":2764,"Ġhikar":2765,"mer":2766,"Ġcover":2767,"Ġheart":2768,"Ġplaces":2769,"Ġpopular":2770,"Ġshape":2771,"Ġresults":2772,"Ġrules":2773,"Ġsacrif":2774,"ury":2775,"Ġsociety":2776,"Ġvar":2777,"Ġdynam":2778,"Ġnor":2779,"Ġasking":2780,"Ġfeed":2781,"Ġsell":2782,"Ġprovid":2783,"end":2784,"came":2785,"Ġrecogn":2786,"land":2787,"Ġcameras":2788,"Ġmostly":2789,"Ġunfortun":2790,"Ġdisc":2791,"Ġtv":2792,"Ġsequ":2793,"Ġemail":2794,"Ġvariable":2795,"idence":2796,"Ġunique":2797,"Ġthread":2798,"Ġgeneration":2799,"Ġdie":2800,"Ġglo":2801,"Ġnar":2802,"Ġclaim":2803,"Ġprogress":2804,"Ġinfl":2805,"iod":2806,"Ġach":2807,"Ġdecided":2808,"Ġappreci":2809,"Ġseveral":2810,"rought":2811,"with":2812,"Ġcurrently":2813,"Ġtit":2814,"Ġaccept":2815,"ost":2816,"used":2817,"Ġali":2818,"Ġwire":2819,"ories":2820,"Ġrece":2821,"Ġdesigned":2822,"Ġcuri":2823,"ison":2824,"Ġupgra":2825,"Ġtraining":2826,"mples":2827,"Ġsolid":2828,"Ġpicture":2829,"Ġcoding":2830,"Ġvision":2831,"yond":2832,"Ġill":2833,"Ġprojects":2834,"Ġstrateg":2835,"Ġregular":2836,"Ġseparate":2837,"ength":2838,"Ġluck":2839,"Ġvo":2840,"ged":2841,"uf":2842,"Ġfundamental":2843,"ges":2844,"Ġbeyond":2845,"Ġselect":2846,"Ġinde":2847,"Ġotherwise":2848,"Ġstorage":2849,"Ġstupid":2850,"ping":2851,"Ġamerican":2852,"Ġcivil":2853,"Ġtiny":2854,"Ġrecommend":2855,"Ġefficient":2856,"Ġdriving":2857,"Ġcareer":2858,"eet":2859,"Ġgold":2860,"Ġapplication":2861,"Ġinfin":2862,"Ġperiod":2863,"Ġdefault":2864,"Ġtend":2865,"Ġrelative":2866,"Ġled":2867,"vent":2868,"Ġachie":2869,"Ġappear":2870,"Ġton":2871,"Ġmen":2872,"Ġmodels":2873,"Ġheat":2874,"Ġlocal":2875,"Ġyep":2876,"Ġvirt":2877,"anced":2878,"Ġcounter":2879,"Ġlanguages":2880,"asing":2881,"Ġanyways":2882,"Ġchristian":2883,"Ġdatabase":2884,"Ġdesk":2885,"rupt":2886,"Ġopin":2887,"Ġshouldn":2888,"Ġlarger":2889,"Ġsleep":2890,"Ġmis":2891,"Ġstat":2892,"Ġrich":2893,"Ġzo":2894,"Ġelements":2895,"Ġboy":2896,"Ġobjects":2897,"Ġinvolved":2898,"fl":2899,"onents":2900,"Ġallowed":2901,"Ġcrypt":2902,"Ġplayers":2903,"Ġcity":2904,"Ġwel":2905,"Ġbehavior":2906,"sing":2907,"Ġspecifically":2908,"Ġeth":2909,"Ġweak":2910,"dy":2911,"Ġcomputers":2912,"Ġ90":2913,"Ġbecame":2914,"Ġjud":2915,"Ġtravel":2916,"Ġinitial":2917,"Ġbrought":2918,"Ġrisk":2919,"io":2920,"Ġcommand":2921,"Ġdefine":2922,"Ġage":2923,"ites":2924,"Ġdrop":2925,"Ġimpact":2926,"sp":2927,"Ġradi":2928,"Ġnine":2929,"Ġapparent":2930,"erv":2931,"Ġwi":2932,"Ġworst":2933,"Ġfood":2934,"Ġrespect":2935,"Ġhandle":2936,"Ġstri":2937,"Ġconnection":2938,"Ġcapac":2939,"Ġspir":2940,"Ġnone":2941,"Ġball":2942,"Ġmeant":2943,"Ġstage":2944,"urch":2945,"iced":2946,"Ġindex":2947,"tle":2948,"inary":2949,"Ġvisual":2950,"Ġlistening":2951,"miss":2952,"Ġdepend":2953,"Ġwide":2954,"Ġshows":2955,"Ġresour":2956,"Ġment":2957,"Ġchina":2958,"Ġbrilli":2959,"igh":2960,"Ġproducts":2961,"Ġdanger":2962,"Ġbright":2963,"ously":2964,"Ġpredict":2965,"Ġwish":2966,"Ġgreen":2967,"Ġphilos":2968,"Ġtim":2969,"coin":2970,"Ġvarious":2971,"Ġmeg":2972,"Ġchoice":2973,"Ġchalleng":2974,"Ġapart":2975,"Ġalgorithm":2976,"Ġtour":2977,"icking":2978,"Ġdistance":2979,"Ġdream":2980,"uly":2981,"Ġmap":2982,"imate":2983,"Ġ24":2984,"Ġcat":2985,"Ġruns":2986,"Ġstories":2987,"Ġcred":2988,"met":2989,"Ġsupply":2990,"Ġlimit":2991,"Ġpat":2992,"Ġupdate":2993,"Ġdimens":2994,"Ġrole":2995,"unk":2996,"let":2997,"orts":2998,"Ġproduction":2999,"Ġmanuf":3000,"Ġadding":3001,"Ġdistrib":3002,"Ġmaxim":3003,"Ġpin":3004,"Ġelement":3005,"Ġtechnical":3006,"Ġcharge":3007,"Ġrelig":3008,"Ġpotential":3009,"Ġtemper":3010,"Ġhello":3011,"Ġfing":3012,"Ġq":3013,"Ġoptions":3014,"Ġmonitor":3015,"Ġrequest":3016,"Ġbrand":3017,"Ġturned":3018,"mpt":3019,"Ġcomments":3020,"Ġoption":3021,"cade":3022,"Ġbackground":3023,"Ġcontinu":3024,"Ġremove":3025,"icul":3026,"Ġroll":3027,"Ġgal":3028,"Ġchurch":3029,"Ġminus":3030,"Ġatte":3031,"Ġadded":3032,"Ġwelcome":3033,"Ġet":3034,"roid":3035,"Ġplatform":3036,"gen":3037,"Ġver":3038,"Ġdecision":3039,"uments":3040,"Ġcomment":3041,"Ġenter":3042,"Ġrequire":3043,"Ġhur":3044,"Ġculture":3045,"oh":3046,"Ġconnected":3047,"Ġben":3048,"Ġuk":3049,"Ġunless":3050,"Ġexciting":3051,"Ġlat":3052,"Ġlength":3053,"atically":3054,"Ġparame":3055,"austin":3056,"Ġusers":3057,"Ġresponse":3058,"ship":3059,"60":3060,"Ġfollowing":3061,"ife":3062,"Ġclock":3063,"Ġminim":3064,"Ġdevices":3065,"ension":3066,"ney":3067,"Ġarm":3068,"Ġtreat":3069,"Ġmaint":3070,"Ġwild":3071,"Ġglass":3072,"Ġcause":3073,"Ġpurpose":3074,"bb":3075,"Ġhimself":3076,"Ġbits":3077,"Ġspl":3078,"Ġpair":3079,"Ġut":3080,"aries":3081,"Ġunfortunately":3082,"Ġstyle":3083,"Ġgas":3084,"Ġrealized":3085,"off":3086,"Ġnode":3087,"works":3088,"Ġabst":3089,"Ġinc":3090,"Ġdegree":3091,"nces":3092,"Ġhop":3093,"Ġcuz":3094,"Ġcompiler":3095,"Ġcompared":3096,"itic":3097,"Ġger":3098,"pper":3099,"Ġscen":3100,"ux":3101,"Ġdigital":3102,"Ġobser":3103,"ped":3104,"Ġapparently":3105,"tt":3106,"Ġsus":3107,"Ġprime":3108,"Ġaudio":3109,"ooth":3110,"Ġapi":3111,"Ġlayer":3112,"Ġsecre":3113,"Ġrule":3114,"ently":3115,"Ġeduc":3116,"Ġapply":3117,"Ġaction":3118,"Ġdoor":3119,"Ġparticularly":3120,"Ġbrilliant":3121,"Ġdeter":3122,"Ġmine":3123,"Ġgotten":3124,"Ġends":3125,"Ġoverall":3126,"ners":3127,"Ġstatement":3128,"Ġended":3129,"Ġbitcoin":3130,"Ġintu":3131,"Ġimm":3132,"Ġandroid":3133,"Ġfactor":3134,"Ġincredibly":3135,"10":3136,"ster":3137,"Ġhd":3138,"Ġmouse":3139,"celer":3140,"Ġtough":3141,"Ġrout":3142,"Ġterrible":3143,"Ġpure":3144,"Ġ80":3145,"Ġfiles":3146,"got":3147,"zz":3148,"Ġoppos":3149,"Ġeyes":3150,"Ġshowing":3151,"Ġexamples":3152,"Ġtes":3153,"Ġdeveloper":3154,"rest":3155,"Ġjoh":3156,"Ġweeks":3157,"Ġbooks":3158,"Ġdeli":3159,"Ġdestro":3160,"Ġsna":3161,"apan":3162,"Ġsold":3163,"20":3164,"soft":3165,"Ġourselves":3166,"using":3167,"Ġphilosoph":3168,"Ġunit":3169,"Ġdetect":3170,"Ġrough":3171,"pend":3172,"Ġcomfort":3173,"yst":3174,"Ġwhoa":3175,"Ġavoid":3176,"Ġsubscribe":3177,"Ġnoise":3178,"Ġlives":3179,"Ġflag":3180,"Ġreference":3181,"racy":3182,"Ġzoom":3183,"Ġmiles":3184,"Ġdemo":3185,"cies":3186,"Ġplanet":3187,"Ġinch":3188,"point":3189,"Ġreplace":3190,"ares":3191,"Ġcontain":3192,"Ġgraphics":3193,"ggest":3194,"Ġpersonally":3195,"Ġregard":3196,"Ġran":3197,"Ġexperiment":3198,"Ġopportunity":3199,"Ġdollar":3200,"Ġhikaru":3201,"cise":3202,"Ġsuggest":3203,"Ġstrugg":3204,"ugg":3205,"laugh":3206,"Ġpolitical":3207,"Ġbought":3208,"Ġlate":3209,"Ġiter":3210,"ining":3211,"Ġprovide":3212,"ounds":3213,"gress":3214,"Ġtask":3215,"Ġdiv":3216,"Ġtheore":3217,"Ġanywhere":3218,"Ġdetails":3219,"Ġsignal":3220,"clear":3221,"Ġemot":3222,"Ġdom":3223,"Ġconfig":3224,"Ġdownload":3225,"Ġgar":3226,"Ġcheap":3227,"Ġanybody":3228,"Ġcapital":3229,"Ġjapan":3230,"sem":3231,"Ġstudi":3232,"Ġjohn":3233,"Ġcloud":3234,"Ġjobs":3235,"Ġsun":3236,"under":3237,"Ġlevels":3238,"Ġeat":3239,"Ġharder":3240,"Ġneural":3241,"late":3242,"ification":3243,"Ġfant":3244,"Ġcharging":3245,"oun":3246,"Ġmid":3247,"ked":3248,"Ġtests":3249,"Ġcamp":3250,"Ġmeta":3251,"loy":3252,"Ġlimited":3253,"val":3254,"Ġamd":3255,"Ġdele":3256,"Ġdescri":3257,"Ġparty":3258,"ival":3259,"Ġ17":3260,"Ġign":3261,"Ġdepending":3262,"Ġchildren":3263,"Ġcomponents":3264,"Ġgenerate":3265,"Ġmagic":3266,"Ġimages":3267,"Ġsubject":3268,"Ġsponsor":3269,"rast":3270,"Ġappreciate":3271,"Ġwilling":3272,"Ġtruly":3273,"isions":3274,"Ġhelps":3275,"Ġir":3276,"Ġmix":3277,"ulate":3278,"Ġmachines":3279,"Ġstudy":3280,"Ġbank":3281,"Ġvehicle":3282,"su":3283,"Ġpointer":3284,"Ġcurious":3285,"Ġcapacity":3286,"Ġproduce":3287,"Ġcapture":3288,"Ġmi":3289,"Ġpen":3290,"Ġpaid":3291,"Ġshut":3292,"Ġsaf":3293,"Ġridicul":3294,"Ġbroad":3295,"soci":3296,"Ġcalling":3297,"uted":3298,"Ġoperating":3299,"Ġcloser":3300,"Ġapps":3301,"Ġrelated":3302,"rew":3303,"Ġacceler":3304,"sc":3305,"Ġwomen":3306,"ml":3307,"Ġskills":3308,"Ġaust":3309,"Ġthousands":3310,"Ġthroughout":3311,"Ġgrab":3312,"Ġwhereas":3313,"Ġlif":3314,"Ġquantum":3315,"Ġmr":3316,"Ġchanging":3317,"ov":3318,"Ġbucks":3319,"Ġeye":3320,"Ġauthor":3321,"ister":3322,"Ġinterface":3323,"Ġopinion":3324,"Ġinsp":3325,"Ġincrease":3326,"pers":3327,"Ġround":3328,"ored":3329,"Ġresist":3330,"Ġeuro":3331,"Ġexce":3332,"Ġpractice":3333,"Ġcircle":3334,"Ġmer":3335,"Ġimpressive":3336,"Ġgalax":3337,"son":3338,"Ġparent":3339,"Ġadvice":3340,"Ġimpos":3341,"Ġpotentially":3342,"Ġmistake":3343,"Ġspirit":3344,"Ġdel":3345,"Ġcarry":3346,"Ġwindow":3347,"ox":3348,"Ġbud":3349,"Ġtesla":3350,"ives":3351,"Ġsumm":3352,"Ġsad":3353,"Ġtypically":3354,"Ġcand":3355,"Ġlosing":3356,"Ġepis":3357,"Ġblah":3358,"cer":3359,"ctures":3360,"Ġperfectly":3361,"Ġevolution":3362,"Ġforth":3363,"sm":3364,"Ġfal":3365,"Ġcards":3366,"acy":3367,"Ġconsist":3368,"Ġassume":3369,"Ġmus":3370,"Ġdog":3371,"Ġpackage":3372,"Ġengineer":3373,"some":3374,"Ġstrange":3375,"Ġaware":3376,"mi":3377,"lied":3378,"Ġamerica":3379,"sd":3380,"Ġheavy":3381,"Ġdoub":3382,"Ġmicrosoft":3383,"Ġglobal":3384,"Ġvac":3385,"Ġprivate":3386,"Ġban":3387,"Ġtransform":3388,"Ġpatterns":3389,"iliar":3390,"Ġfol":3391,"sequ":3392,"oles":3393,"Ġgoodness":3394,"Ġflat":3395,"Ġconstant":3396,"pus":3397,"Ġflip":3398,"Ġmoved":3399,"Ġweren":3400,"Ġmissing":3401,"Ġsuccessful":3402,"have":3403,"Ġexpand":3404,"rael":3405,"Ġnearly":3406,"Ġquote":3407,"Ġfreed":3408,"Ġdecide":3409,"Ġsyn":3410,"aining":3411,"Ġinflu":3412,"ived":3413,"aging":3414,"rams":3415,"Ġresolution":3416,"Ġprocessing":3417,"Ġwid":3418,"Ġdegrees":3419,"ded":3420,"Ġfairly":3421,"Ġexists":3422,"Ġwhenever":3423,"Ġmotherboard":3424,"Ġoffer":3425,"Ġbur":3426,"Ġrock":3427,"Ġaffect":3428,"Ġlens":3429,"Ġcash":3430,"Ġrepe":3431,"Ġsex":3432,"Ġsecret":3433,"Ġassoci":3434,"Ġkick":3435,"Ġ199":3436,"Ġbull":3437,"Ġsec":3438,"Ġloss":3439,"Ġcalls":3440,"Ġrati":3441,"Ġsuddenly":3442,"ici":3443,"Ġalex":3444,"Ġtells":3445,"Ġemploy":3446,"Ġemerg":3447,"Ġdevelopers":3448,"Ġelectron":3449,"Ġoil":3450,"Ġoffic":3451,"Ġchem":3452,"Ġbee":3453,"Ġkil":3454,"Ġpossibly":3455,"ography":3456,"Ġsteps":3457,"Ġboom":3458,"Ġvoice":3459,"Ġeffectively":3460,"tion":3461,"Ġmob":3462,"Ġfilm":3463,"Ġpolic":3464,"Ġgerman":3465,"ky":3466,"Ġmovie":3467,"char":3468,"Ġshad":3469,"Ġdecent":3470,"Ġpea":3471,"Ġaccord":3472,"Ġdemand":3473,"Ġviol":3474,"Ġstuck":3475,"Ġtree":3476,"Ġmanagement":3477,"Ġgalaxy":3478,"Ġfinding":3479,"Ġdescribe":3480,"Ġsmartphone":3481,"dge":3482,"roll":3483,"Ġtechnically":3484,"icles":3485,"Ġvalid":3486,"mar":3487,"Ġthr":3488,"Ġisrael":3489,"lin":3490,"Ġhost":3491,"Ġscal":3492,"Ġmulti":3493,"Ġphotos":3494,"Ġsurprising":3495,"Ġtopic":3496,"oss":3497,"Ġinsane":3498,"Ġsettings":3499,"Ġreport":3500,"Ġsn":3501,"Ġship":3502,"Ġolder":3503,"Ġphoto":3504,"Ġwra":3505,"eam":3506,"Ġwheel":3507,"Ġitem":3508,"Ġcompress":3509,"Ġtechni":3510,"Ġdiag":3511,"Ġrow":3512,"Ġbaby":3513,"Ġshowed":3514,"Ġder":3515,"Ġimplementation":3516,"but":3517,"Ġshop":3518,"sole":3519,"Ġdesp":3520,"Ġchips":3521,"ration":3522,"Ġconstruct":3523,"Ġsafety":3524,"ented":3525,"Ġhole":3526,"Ġnormally":3527,"Ġfamiliar":3528,"Ġimpossible":3529,"Ġexh":3530,"Ġcentury":3531,"Ġdu":3532,"Ġridiculous":3533,"Ġtrou":3534,"matt":3535,"enty":3536,"Ġoccur":3537,"Ġpu":3538,"inese":3539,"Ġbrings":3540,"Ġinclude":3541,"Ġcorner":3542,"Ġconstantly":3543,"Ġchamp":3544,"Ġden":3545,"Ġwaiting":3546,"uses":3547,"Ġenjoyed":3548,"Ġsequence":3549,"ises":3550,"Ġtherefore":3551,"Ġsurv":3552,"Ġspec":3553,"Ġevents":3554,"Ġsquares":3555,"Ġchris":3556,"Ġfreedom":3557,"Ġalone":3558,"Ġcompar":3559,"iring":3560,"Ġtruck":3561,"Ġconsum":3562,"Ġbalance":3563,"port":3564,"Ġachieve":3565,"Ġsemic":3566,"Ġoffice":3567,"Ġeffort":3568,"Ġaltern":3569,"Ġmovement":3570,"Ġnuclear":3571,"Ġdepends":3572,"Ġoperation":3573,"Ġbenefit":3574,"vant":3575,"Ġband":3576,"Ġchinese":3577,"Ġopposite":3578,"Ġcop":3579,"Ġdefinition":3580,"Ġproperly":3581,"Ġrelatively":3582,"da":3583,"icon":3584,"Ġbrow":3585,"Ġdrag":3586,"Ġtre":3587,"Ġareas":3588,"down":3589,"Ġpet":3590,"Ġcomplexity":3591,"Ġalgorithms":3592,"Ġdru":3593,"Ġgreater":3594,"Ġmillions":3595,"Ġtun":3596,"Ġupon":3597,"Ġpoor":3598,"Ġfolks":3599,"umn":3600,"Ġhighest":3601,"Ġanaly":3602,"Ġpassword":3603,"Ġeverywhere":3604,"izes":3605,"Ġeurope":3606,"Ġfrequ":3607,"eff":3608,"Ġht":3609,"Ġhack":3610,"Ġalright":3611,"ushing":3612,"Ġble":3613,"Ġdeveloped":3614,"Ġfans":3615,"Ġinterpre":3616,"Ġsides":3617,"lished":3618,"cr":3619,"ologies":3620,"Ġvirtual":3621,"cape":3622,"immy":3623,"Ġamazon":3624,"Ġapplications":3625,"Ġdestroy":3626,"Ġ500":3627,"Ġshar":3628,"Ġevol":3629,"Ġdriver":3630,"Ġencou":3631,"Ġanti":3632,"aw":3633,"Ġcentral":3634,"Ġspin":3635,"Ġuniversity":3636,"Ġjack":3637,"Ġfinan":3638,"Ġlogic":3639,"can":3640,"Ġkept":3641,"Ġgreatest":3642,"Ġxbox":3643,"bing":3644,"Ġcareful":3645,"Ġresources":3646,"Ġlu":3647,"icing":3648,"Ġfather":3649,"Ġmotiv":3650,"Ġthoughts":3651,"Ġpresident":3652,"Ġtalks":3653,"ckets":3654,"Ġstrategy":3655,"Ġcredit":3656,"anch":3657,"Ġnames":3658,"Ġknowing":3659,"they":3660,"Ġeval":3661,"Ġinternal":3662,"ech":3663,"bel":3664,"Ġpow":3665,"Ġec":3666,"Ġmodu":3667,"Ġunlike":3668,"oking":3669,"Ġmetal":3670,"Ġnamed":3671,"Ġrom":3672,"ints":3673,"Ġstudents":3674,"Ġetc":3675,"Ġcru":3676,"Ġarticle":3677,"Ġmodule":3678,"bs":3679,"Ġspread":3680,"Ġcontact":3681,"Ġprior":3682,"ondu":3683,"Ġbecoming":3684,"Ġfeet":3685,"Ġconvin":3686,"Ġipad":3687,"Ġcapable":3688,"mit":3689,"power":3690,"Ġcold":3691,"Ġhistor":3692,"Ġlam":3693,"Ġsovi":3694,"Ġnoticed":3695,"Ġdecl":3696,"inder":3697,"Ġbuying":3698,"Ġ70":3699,"Ġcolumn":3700,"Ġmate":3701,"Ġaccording":3702,"ops":3703,"ipping":3704,"ade":3705,"Ġroot":3706,"Ġleaders":3707,"Ġseg":3708,"Ġattach":3709,"Ġjourney":3710,"Ġsignificant":3711,"Ġexpected":3712,"Ġther":3713,"ork":3714,"Ġengineers":3715,"asks":3716,"Ġrefer":3717,"Ġsquared":3718,"ctors":3719,"Ġcompare":3720,"Ġfram":3721,"Ġcolors":3722,"itted":3723,"Ġadvanced":3724,"Ġprograms":3725,"Ġdue":3726,"++":3727,"Ġrequired":3728,"Ġcompetition":3729,"Ġangle":3730,"Ġfantastic":3731,"Ġepisode":3732,"Ġclasses":3733,"Ġdecisions":3734,"Ġupgrade":3735,"Ġrussia":3736,"ason":3737,"Ġshift":3738,"Ġfalse":3739,"Ġevil":3740,"Ġfinger":3741,"Ġalloc":3742,"Ġdefense":3743,"Ġholding":3744,"Ġdeeply":3745,"Ġpad":3746,"Ġexch":3747,"Ġeffects":3748,"Ġbudget":3749,"Ġautomatically":3750,"Ġconsequ":3751,"Ġ32":3752,"Ġparticip":3753,"onom":3754,"Ġtraditional":3755,"Ġforever":3756,"Ġrare":3757,"Ġhundreds":3758,"Ġpeace":3759,"Ġsmooth":3760,"Ġlack":3761,"Ġassem":3762,"Ġprevent":3763,"avid":3764,"Ġempty":3765,"angle":3766,"Ġaccur":3767,"tx":3768,"Ġcondition":3769,"mission":3770,"Ġtemperature":3771,"Ġgiant":3772,"Ġratio":3773,"ening":3774,"Ġcontroller":3775,"Ġprep":3776,"70":3777,"Ġur":3778,"Ġdisapp":3779,"pm":3780,"Ġfort":3781,"Ġsilicon":3782,"Ġsplit":3783,"Ġsum":3784,"ples":3785,"Ġbeings":3786,"Ġtorque":3787,"Ġdespite":3788,"Ġtom":3789,"Ġsemicondu":3790,"ball":3791,"Ġwes":3792,"Ġconsole":3793,"Ġrussian":3794,"Ġdangerous":3795,"Ġtele":3796,"eper":3797,"Ġflex":3798,"Ġdemon":3799,"Ġssd":3800,"itary":3801,"Ġsection":3802,"Ġproof":3803,"Ġpump":3804,"Ġmyst":3805,"Ġhighly":3806,"Ġsimpl":3807,"Ġdad":3808,"Ġdynamic":3809,"gb":3810,"Ġtrump":3811,"Ġinno":3812,"Ġcharacters":3813,"Ġheight":3814,"Ġatom":3815,"Ġchain":3816,"Ġukra":3817,"ley":3818,"Ġrelease":3819,"Ġwireless":3820,"Ġdamn":3821,"Ġcountries":3822,"arant":3823,"lection":3824,"Ġtwice":3825,"ays":3826,"about":3827,"Ġforgot":3828,"ties":3829,"arter":3830,"Ġcompile":3831,"cut":3832,"Ġadjust":3833,"Ġscientific":3834,"ris":3835,"Ġinstit":3836,"Ġhyd":3837,"Ġcreates":3838,"Ġrequires":3839,"abor":3840,"Ġlaughing":3841,"Ġmethods":3842,"Ġcritical":3843,"Ġexpert":3844,"Ġwest":3845,"Ġmorning":3846,"iciency":3847,"Ġnational":3848,"Ġscenari":3849,"mon":3850,"Ġgpt":3851,"andler":3852,"Ġsacrifice":3853,"Ġgrowing":3854,"Ġsurprised":3855,"Ġevalu":3856,"Ġkeeps":3857,"Ġslowly":3858,"akes":3859,"Ġfear":3860,"Ġboot":3861,"ai":3862,"Ġdram":3863,"Ġconvert":3864,"Ġkeeping":3865,"Ġnotion":3866,"Ġstars":3867,"Ġdomin":3868,"Ġclient":3869,"Ġparall":3870,"iest":3871,"Ġbatt":3872,"there":3873,"Ġevidence":3874,"Ġdrives":3875,"bu":3876,"Ġvert":3877,"bl":3878,"Ġprobability":3879,"Ġbroken":3880,"Ġcosts":3881,"Ġoperations":3882,"Ġhorse":3883,"Ġrace":3884,"Ġvolume":3885,"Ġmathematics":3886,"Ġson":3887,"itude":3888,"Ġfocused":3889,"Ġcri":3890,"Ġscr":3891,"Ġnetworks":3892,"Ġforeign":3893,"aced":3894,"Ġlocation":3895,"vation":3896,"ysis":3897,"Ġassum":3898,"Ġarguments":3899,"Ġwins":3900,"orrow":3901,"Ġhasn":3902,"Ġcolle":3903,"Ġdiscovered":3904,"Ġformat":3905,"bon":3906,"Ġnarr":3907,"itors":3908,"Ġmechanism":3909,"Ġmanaged":3910,"rag":3911,"Ġcomponent":3912,"Ġdual":3913,"Ġnecessary":3914,"Ġsensor":3915,"cra":3916,"lem":3917,"Ġbutt":3918,"Ġcontrib":3919,"Ġactiv":3920,"Ġarchite":3921,"flow":3922,"Ġaspects":3923,"Ġrobots":3924,"Ġcomputing":3925,"Ġrender":3926,"ngth":3927,"Ġodd":3928,"Ġshock":3929,"Ġgigs":3930,"Ġargue":3931,"Ġreleased":3932,"oke":3933,"Ġartific":3934,"Ġsorts":3935,"raid":3936,"Ġmal":3937,"Ġcooling":3938,"Ġframework":3939,"Ġprem":3940,"Ġseriously":3941,"Ġax":3942,"antic":3943,"por":3944,"Ġmanif":3945,"room":3946,"Ġrear":3947,"Ġadditional":3948,"Ġexhaust":3949,"Ġbringing":3950,"Ġpaying":3951,"wr":3952,"Ġpal":3953,"Ġdumb":3954,"Ġexte":3955,"Ġthinks":3956,"Ġbench":3957,"sa":3958,"Ġfi":3959,"Ġpipe":3960,"Ġcandid":3961,"Ġbound":3962,"ordan":3963,"Ġscore":3964,"Ġjava":3965,"Ġholy":3966,"Ġkeys":3967,"Ġtitle":3968,"Ġcoin":3969,"Ġweap":3970,"Ġprinciple":3971,"Ġwonderful":3972,"Ġyork":3973,"Ġgrav":3974,"Ġactive":3975,"Ġamong":3976,"Ġstrength":3977,"Ġidentity":3978,"cons":3979,"Ġnan":3980,"Ġtheoret":3981,"ughter":3982,"esh":3983,"Ġexcl":3984,"Ġmobile":3985,"top":3986,"Ġspeech":3987,"crete":3988,"lix":3989,"Ġrevolution":3990,"iding":3991,"Ġcastle":3992,"Ġproperty":3993,"Ġdiscussion":3994,"Ġbinary":3995,"Ġcrypto":3996,"30":3997,"lies":3998,"plus":3999,"Ġtherm":4000,"uration":4001,"Ġsubst":4002,"Ġreasonable":4003,"Ġcomfortable":4004,"Ġ120":4005,"Ġdefend":4006,"Ġaudience":4007,"bar":4008,"rate":4009,"Ġjordan":4010,"Ġmilitary":4011,"Ġque":4012,"Ġaggress":4013,"Ġexplore":4014,"Ġmaintain":4015,"Ġthin":4016,"esis":4017,"Ġvariables":4018,"Ġpushing":4019,"igned":4020,"Ġjoin":4021,"Ġremote":4022,"Ġlie":4023,"Ġcompl":4024,"Ġmini":4025,"Ġcurve":4026,"Ġcritic":4027,"Ġindepend":4028,"Ġmanufa":4029,"Ġassembly":4030,"Ġdepth":4031,"Ġprefer":4032,"Ġelon":4033,"encies":4034,"Ġboost":4035,"Ġfamous":4036,"Ġast":4037,"Ġentirely":4038,"Ġlamb":4039,"Ġanalog":4040,"Ġhorri":4041,"fi":4042,"eal":4043,"Ġguarant":4044,"Ġcollege":4045,"Ġdisag":4046,"Ġenglish":4047,"Ġbuff":4048,"Ġefficiency":4049,"Ġconditions":4050,"uine":4051,"Ġ64":4052,"Ġscene":4053,"Ġpossibility":4054,"Ġfilter":4055,"Ġjew":4056,"Ġeffective":4057,"Ġanalysis":4058,"uff":4059,"Ġsets":4060,"Ġtourn":4061,"dom":4062,"Ġdan":4063,"apt":4064,"Ġsharp":4065,"inst":4066,"Ġbeauty":4067,"Ġstress":4068,"Ġhelpful":4069,"force":4070,"Ġputs":4071,"Ġsong":4072,"Ġbag":4073,"Ġlex":4074,"und":4075,"Ġselling":4076,"aged":4077,"Ġdefined":4078,"Ġnorth":4079,"urally":4080,"ham":4081,"Ġtransfer":4082,"Ġyell":4083,"Ġtradition":4084,"Ġcach":4085,"Ġvalu":4086,"Ġstructures":4087,"Ġexpression":4088,"Ġwife":4089,"rix":4090,"Ġgenuine":4091,"Ġpanel":4092,"Ġafraid":4093,"Ġcoff":4094,"Ġcrash":4095,"Ġsynt":4096,"Ġgain":4097,"Ġprove":4098,"Ġplane":4099,"Ġsite":4100,"ils":4101,"Ġtrouble":4102,"Ġknock":4103,"Ġprecise":4104,"Ġreli":4105,"Ġlights":4106,"Ġbeast":4107,"Ġintelligent":4108,"Ġitems":4109,"Ġclip":4110,"Ġwalking":4111,"Ġindic":4112,"Ġconstra":4113,"Ġcells":4114,"Ġgir":4115,"Ġlegit":4116,"rors":4117,"zen":4118,"Ġtechnologies":4119,"Ġeditor":4120,"Ġexception":4121,"odes":4122,"Ġcustomers":4123,"term":4124,"Ġinject":4125,"Ġpolicy":4126,"Ġnav":4127,"Ġcontract":4128,"Ġfighting":4129,"Ġpractical":4130,"vidia":4131,"Ġfinancial":4132,"cking":4133,"Ġresponsi":4134,"ordin":4135,"has":4136,"Ġpunch":4137,"Ġstudio":4138,"Ġartificial":4139,"Ġtermin":4140,"Ġtransl":4141,"Ġparallel":4142,"Ġreve":4143,"Ġservices":4144,"Ġhanging":4145,"was":4146,"Ġfac":4147,"Ġcooler":4148,"Ġmaximum":4149,"utor":4150,"__":4151,"Ġconsidered":4152,"Ġunion":4153,"Ġaccident":4154,"izations":4155,"Ġopposed":4156,"Ġblocks":4157,"Ġdaily":4158,"Ġlad":4159,"lebr":4160,"icit":4161,"Ġsubscri":4162,"der":4163,"Ġhelped":4164,"Ġcivilization":4165,"laughs":4166,"Ġshared":4167,"Ġhyp":4168,"Ġviews":4169,"Ġbed":4170,"Ġdate":4171,"Ġsoviet":4172,"mers":4173,"pa":4174,"Ġcreative":4175,"Ġ2020":4176,"Ġsick":4177,"Ġprocessor":4178,"Ġnvidia":4179,"Ġdeeper":4180,"Ġfixed":4181,"Ġembed":4182,"Ġfunctional":4183,"che":4184,"year":4185,"Ġcanad":4186,"Ġdamage":4187,"ned":4188,"Ġauto":4189,"Ġgroups":4190,"Ġsand":4191,"inct":4192,"Ġunl":4193,"Ġversions":4194,"Ġscratch":4195,"Ġconcl":4196,"Ġspending":4197,"Ġdrink":4198,"abilities":4199,"Ġleads":4200,"Ġcycle":4201,"Ġsemiconductor":4202,"Ġcry":4203,"Ġsuppose":4204,"Ġdelete":4205,"Ġocc":4206,"Ġchallenges":4207,"omet":4208,"Ġcelebr":4209,"cient":4210,"Ġarri":4211,"Ġcorrectly":4212,"ternal":4213,"Ġmacbook":4214,"Ġrad":4215,"Ġmotion":4216,"mmet":4217,"Ġ21":4218,"Ġexcell":4219,"Ġlinus":4220,"Ġmeeting":4221,"Ġeconomy":4222,"ula":4223,"ertz":4224,"ocol":4225,"forms":4226,"ategory":4227,"Ġos":4228,"Ġtow":4229,"Ġcircu":4230,"Ġrecognize":4231,"Ġinfinite":4232,"Ġeducation":4233,"Ġhier":4234,"Ġsuffering":4235,"Ġken":4236,"iling":4237,"Ġjoe":4238,"Ġhertz":4239,"eth":4240,"Ġmatters":4241,"Ġmatrix":4242,"Ġmembers":4243,"Ġconsidering":4244,"gy":4245,"raction":4246,"Ġsurprise":4247,"ole":4248,"Ġframes":4249,"Ġfake":4250,"Ġcables":4251,"Ġaccurate":4252,"Ġ300":4253,"Ġcomputation":4254,"Ġsolutions":4255,"Ġequival":4256,"Ġlinux":4257,"Ġded":4258,"any":4259,"Ġrub":4260,"Ġfinished":4261,"atives":4262,"Ġding":4263,"rage":4264,"Ġworried":4265,"Ġtransact":4266,"Ġturbo":4267,"Ġcategory":4268,"Ġnut":4269,"Ġbranch":4270,"une":4271,"dri":4272,"Ġroughly":4273,"ceed":4274,"Ġdiscover":4275,"Ġhierarch":4276,"Ġplastic":4277,"Ġbare":4278,"Ġfundamentally":4279,"Ġborn":4280,"Ġfly":4281,"Ġclosed":4282,"Ġprofessional":4283,"Ġdavid":4284,"Ġsho":4285,"Ġleading":4286,"Ġeconomic":4287,"Ġburn":4288,"Ġmessages":4289,"Ġarchitecture":4290,"iw":4291,"Ġjoke":4292,"hood":4293,"Ġmajority":4294,"Ġfigured":4295,"Ġrapid":4296,"Ġmom":4297,"Ġheadphones":4298,"Ġautonom":4299,"Ġrespond":4300,"Ġfacebook":4301,"Ġguard":4302,"Ġchandler":4303,"?\"":4304,"Ġvict":4305,"Ġexperiences":4306,"Ġscientists":4307,"Ġexisting":4308,"Ġlayers":4309,"Ġconcepts":4310,"Ġestab":4311,"Ġturning":4312,"iet":4313,"Ġkar":4314,"ipped":4315,"irt":4316,"Ġpassed":4317,"Ġinstalled":4318,"Ġcoffee":4319,"Ġanno":4320,"Ġincreasing":4321,"Ġtemplate":4322,"Ġdisagree":4323,"omb":4324,"Ġpixels":4325,"Ġtasks":4326,"Ġplenty":4327,"Ġpoly":4328,"Ġcommer":4329,"Ġhun":4330,"Ġphen":4331,"Ġspeakers":4332,"Ġreduce":4333,"Ġwondering":4334,"Ġultimate":4335,"Ġstatic":4336,"Ġmember":4337,"Ġsyntax":4338,"Ġequation":4339,"Ġlinked":4340,"Ġmart":4341,"Ġexperien":4342,"Ġtries":4343,"Ġmoon":4344,"Ġblow":4345,"Ġstreet":4346,"mas":4347,"isf":4348,"Ġengines":4349,"Ġgrid":4350,"Ġmathematical":4351,"Ġmit":4352,"Ġinteger":4353,"Ġclassic":4354,"Ġpolit":4355,"Ġreturns":4356,"ques":4357,"Ġinsight":4358,"rief":4359,"Ġphase":4360,"ob":4361,"Ġlas":4362,"Ġsteam":4363,"Ġmanufacture":4364,"ev":4365,"oman":4366,"Ġdeveloping":4367,"Ġparameters":4368,"rome":4369,"Ġslash":4370,"Ġmotor":4371,"Ġicon":4372,"Ġcovered":4373,"urs":4374,"Ġmanual":4375,"Ġsignificantly":4376,"Ġconcerned":4377,"reg":4378,"Ġspect":4379,"Ġmanager":4380,"Ġparents":4381,"Ġaustin":4382,"istics":4383,"Ġqual":4384,"Ġfeedback":4385,"flix":4386,"Ġgent":4387,"Ġmole":4388,"Ġflu":4389,"Ġalph":4390,"eless":4391,"beat":4392,"Ġhurt":4393,"Ġhash":4394,"Ġsending":4395,"Ġbreaking":4396,"oses":4397,"Ġprinciples":4398,"ystem":4399,"abytes":4400,"Ġmystery":4401,"pri":4402,"ont":4403,"ounced":4404,"Ġnetflix":4405,"Ġtight":4406,"rel":4407,"ana":4408,"Ġreligious":4409,"Ġacade":4410,"Ġsony":4411,"Ġpromise":4412,"Ġcommunication":4413,"Ġsky":4414,"Ġannoying":4415,"ros":4416,"Ġrating":4417,"Ġcaught":4418,"Ġexplicit":4419,"Ġunders":4420,"Ġspeaker":4421,"Ġgap":4422,"Ġcance":4423,"Ġscan":4424,"Ġbenefits":4425,"Ġinstruction":4426,"gers":4427,"Ġtax":4428,"bi":4429,"atory":4430,"Ġleader":4431,"Ġskin":4432,"99":4433,"Ġloud":4434,"Ġtweet":4435,"umption":4436,"Ġcheaper":4437,"Ġideal":4438,"Ġtens":4439,"Ġneur":4440,"connect":4441,"Ġslide":4442,"Ġexchange":4443,"Ġinstructions":4444,"isms":4445,"Ġaddition":4446,"Ġconflic":4447,"Ġmanifest":4448,"Ġmir":4449,"Ġiron":4450,"icated":4451,"Ġry":4452,"Ġwatts":4453,"Ġproperties":4454,"ilot":4455,"ees":4456,"Ġpounds":4457,"Ġfailed":4458,"key":4459,"Ġcompute":4460,"Ġhighlight":4461,"Ġcomparison":4462,"ik":4463,"Ġfrank":4464,"Ġfloor":4465,"etime":4466,"Ġlinear":4467,"Ġwave":4468,"Ġflagship":4469,"Ġpurch":4470,"Ġphenomen":4471,"40":4472,"keting":4473,"Ġremind":4474,"Ġforces":4475,"onal":4476,"rial":4477,"Ġtires":4478,"Ġbattle":4479,"Ġoneplus":4480,"Ġattrib":4481,"Ġ198":4482,"Ġmanip":4483,"Ġadop":4484,"Ġmut":4485,"Ġafford":4486,"Ġcourses":4487,"Ġloved":4488,"vable":4489,"Ġsta":4490,"Ġstanding":4491,"bri":4492,"Ġhelping":4493,"part":4494,"Ġtutor":4495,"Ġsomewhat":4496,"Ġthick":4497,"neath":4498,"Ġwear":4499,"Ġconver":4500,"Ġshooting":4501,"Ġabstract":4502,"Ġliber":4503,"over":4504,"Ġmoments":4505,"ounce":4506,"Ġdivid":4507,"Ġhyper":4508,"Ġpopulation":4509,"Ġtab":4510,"Ġassist":4511,"Ġgrowth":4512,"Ġexcellent":4513,"Ġliked":4514,"ructure":4515,"Ġfish":4516,"Ġtransition":4517,"idden":4518,"Ġbrowser":4519,"Ġvia":4520,"ames":4521,"Ġmad":4522,"Ġraw":4523,"Ġstartup":4524,"ider":4525,"Ġbug":4526,"Ġports":4527,"Ġlabel":4528,"ctually":4529,"Ġsweet":4530,"Ġbroke":4531,"Ġring":4532,"Ġnaturally":4533,"iwan":4534,"Ġoperator":4535,"jo":4536,"ighb":4537,"Ġukraine":4538,"well":4539,"Ġunderneath":4540,"Ġice":4541,"cont":4542,"aven":4543,"mark":4544,"Ġbrief":4545,"Ġboys":4546,"Ġmistakes":4547,"Ġtoken":4548,"Ġcogn":4549,"nal":4550,"Ġpuzz":4551,"spe":4552,"Ġliqu":4553,"Ġtutorial":4554,"Ġpeak":4555,"Ġunity":4556,"Ġtournament":4557,"pi":4558,"Ġfailure":4559,"itable":4560,"ception":4561,"Ġjon":4562,"Ġequivalent":4563,"Ġheld":4564,"Ġconcrete":4565,"Ġ400":4566,"Ġpaul":4567,"ibility":4568,"Ġfaith":4569,"Ġdesktop":4570,"stand":4571,"Ġaside":4572,"Ġequip":4573,"Ġmultiply":4574,"Ġlatest":4575,"Ġstable":4576,"Ġsatisf":4577,"Ġhoriz":4578,"Ġnarrative":4579,"Ġvaluable":4580,"Ġcollection":4581,"head":4582,"Ġbelief":4583,"Ġincluded":4584,"Ġintuition":4585,"Ġhook":4586,"Ġthumb":4587,"ulations":4588,"Ġneighb":4589,"Ġrgb":4590,"Ġterrif":4591,"Ġwoman":4592,"Ġpand":4593,"Ġaccomp":4594,"Ġdealing":4595,"Ġthermal":4596,"Ġgun":4597,"Ġchecking":4598,"Ġmental":4599,"cond":4600,"Ġshap":4601,"Ġanswers":4602,"Ġfresh":4603,"Ġbasis":4604,"Ġcrap":4605,"Ġped":4606,"Ġtaiwan":4607,"Ġbob":4608,"Ġpicked":4609,"Ġcores":4610,"Ġdeca":4611,"Ġbuttons":4612,"Ġseemed":4613,"Ġtrip":4614,"ein":4615,"station":4616,"Ġsuck":4617,"Ġflash":4618,"run":4619,"Ġparad":4620,"Ġforms":4621,"Ġrpm":4622,"Ġhumanity":4623,"Ġelectr":4624,"Ġcombination":4625,"Ġslot":4626,"Ġwatched":4627,"Ġtyping":4628,"Ġimportantly":4629,"Ġkore":4630,"Ġcollabor":4631,"Ġmaterials":4632,"stream":4633,"Ġjapanese":4634,"based":4635,"mate":4636,"Ġcyber":4637,"Ġvehicles":4638,"Ġcyl":4639,"Ġhitting":4640,"Ġgosh":4641,"Ġfourth":4642,"forward":4643,"through":4644,"order":4645,"Ġhydro":4646,"Ġpositions":4647,"Ġerrors":4648,"Ġfootage":4649,"Ġsphere":4650,"Ġlinks":4651,"Ġcustomer":4652,"Ġdimensions":4653,"Ġassociated":4654,"Ġdemonst":4655,"Ġtransp":4656,"igning":4657,"osing":4658,"Ġens":4659,"Ġmatt":4660,"Ġconversations":4661,"Ġwaste":4662,"Ġcalculate":4663,"Ġboss":4664,"Ġrein":4665,"Ġlegal":4666,"Ġpleas":4667,"Ġdifferences":4668,"Ġsimulation":4669,"Ġunits":4670,"Ġbrother":4671,"ured":4672,"Ġsituations":4673,"Ġassuming":4674,"Ġprogrammer":4675,"Ġreflect":4676,"craft":4677,"Ġcook":4678,"Ġheaven":4679,"Ġleaving":4680,"Ġexistence":4681,"Ġhtml":4682,"Ġmissed":4683,"Ġliquid":4684,"Ġencrypt":4685,"Ġchair":4686,"Ġvolt":4687,"going":4688,"Ġdomain":4689,"ka":4690,"Ġlit":4691,"ifying":4692,"--":4693,"from":4694,"Ġ23":4695,"Ġcommit":4696,"Ġpremium":4697,"Ġdepl":4698,"za":4699,"Ġcarbon":4700,"Ġsales":4701,"Ġstopped":4702,"print":4703,"Ġcommunicate":4704,"aly":4705,"Ġtire":4706,"Ġequipment":4707,"Ġspecies":4708,"Ġrefresh":4709,"Ġdistribution":4710,"Ġvel":4711,"Ġnotes":4712,"Ġsaving":4713,"Ġcris":4714,"Ġwheels":4715,"ulated":4716,"Ġsolving":4717,"Ġteaching":4718,"Ġjan":4719,"Ġlic":4720,"brady":4721,"osition":4722,"Ġlucky":4723,"arian":4724,"Ġdetermin":4725,"aks":4726,"rs":4727,"Ġrelevant":4728,"Ġlikes":4729,"Ġsymmet":4730,"Ġanimals":4731,"Ġmarketing":4732,"erve":4733,"Ġunderstood":4734,"Ġmillime":4735,"Ġsched":4736,"Ġvacc":4737,"Ġreveal":4738,"erences":4739,"Ġholes":4740,"rop":4741,"Ġgradu":4742,"mos":4743,"Ġjoy":4744,"Ġsolar":4745,"ds":4746,"Ġbridge":4747,"Ġparameter":4748,"dr":4749,"net":4750,"utch":4751,"abyte":4752,"Ġhidden":4753,"acing":4754,"Ġalternative":4755,"Ġdrawing":4756,"Ġbackwards":4757,"Ġrecording":4758,"Ġtypescript":4759,"Ġintegrated":4760,"Ġ__":4761,"Ġexplan":4762,"Ġresponsibility":4763,"Ġmich":4764,"Ġchecks":4765,"Ġstudent":4766,"Ġimprovement":4767,"Ġprimary":4768,"Ġhans":4769,"Ġconsistent":4770,"Ġclever":4771,"Ġtons":4772,"Ġ22":4773,"Ġpassing":4774,"Ġorth":4775,"Ġfields":4776,"Ġinteraction":4777,"Ġhoping":4778,"Ġbegan":4779,"ished":4780,"Ġpassion":4781,"Ġorganization":4782,"Ġecos":4783,"bilities":4784,"Ġexternal":4785,"Ġadapt":4786,"agram":4787,"Ġsouth":4788,"Ġsnap":4789,"Ġox":4790,"Ġdied":4791,"Ġ27":4792,"Ġdescribed":4793,"illy":4794,"Ġsharing":4795,"Ġcli":4796,"Ġuniversal":4797,"Ġhypoth":4798,"roud":4799,"Ġconven":4800,"Ġcontains":4801,"Ġbump":4802,"Ġunderscore":4803,"Ġjes":4804,"Ġ45":4805,"Ġreverse":4806,"apter":4807,"Ġslower":4808,"Ġdriven":4809,"Ġsea":4810,"rated":4811,"Ġoled":4812,"Ġcoordin":4813,"Ġcreation":4814,"Ġfed":4815,"Ġenem":4816,"Ġhorrible":4817,"oint":4818,"af":4819,"aren":4820,"Ġdeliver":4821,"Ġcorres":4822,"Ġdecades":4823,"Ġhair":4824,"Ġinsert":4825,"Ġscreens":4826,"Ġstands":4827,"Ġattacking":4828,"bage":4829,"ndon":4830,"dimens":4831,"Ġfell":4832,"Ġconfident":4833,"Ġbir":4834,"Ġlaughs":4835,"Ġasyn":4836,"Ġplant":4837,"acturing":4838,"Ġletter":4839,"rastructure":4840,"your":4841,"Ġwrest":4842,"bm":4843,"Ġinterf":4844,"Ġwatt":4845,"90":4846,"nam":4847,"Ġkinda":4848,"Ġdifferently":4849,"Ġprocesses":4850,"Ġgoals":4851,"Ġshif":4852,"Ġshots":4853,"Ġsteel":4854,"Ġscenario":4855,"ki":4856,"Ġspan":4857,"Ġchristianity":4858,"Ġacqu":4859,"icate":4860,"Ġspeeds":4861,"Ġmars":4862,"iano":4863,"Ġdepart":4864,"Ġmoral":4865,"Ġjournal":4866,"Ġtaught":4867,"Ġapplied":4868,"Ġinternational":4869,"Ġstraightforward":4870,"Ġhide":4871,"Ġminimum":4872,"Ġjake":4873,"Ġalive":4874,"Ġtopics":4875,"Ġgrew":4876,"Ġscary":4877,"ius":4878,"Ġidi":4879,"Ġallowing":4880,"Ġsan":4881,"ession":4882,"Ġaggressive":4883,"imin":4884,"Ġincor":4885,"Ġancient":4886,"Ġescape":4887,"hand":4888,"Ġinher":4889,"Ġ]":4890,"Ġboring":4891,"Ġexecute":4892,"Ġformula":4893,"Ġgravity":4894,"Ġattacks":4895,"belie":4896,"Ġdeck":4897,"Ġtap":4898,"Ġupdates":4899,"Ġstreaming":4900,"Ġnic":4901,"Ġplugg":4902,"Ġmechanical":4903,"Ġdoubt":4904,"eable":4905,"Ġlibraries":4906,"ensity":4907,"really":4908,"Ġbiology":4909,"Ġalien":4910,"Ġindeed":4911,"Ġlets":4912,"Ġinfrastructure":4913,"Ġstruggle":4914,"Ġsecure":4915,"Ġlift":4916,"Ġexer":4917,"Ġedges":4918,"Ġlaws":4919,"Ġquiet":4920,"xim":4921,"istry":4922,"Ġexpecting":4923,"Ġannounced":4924,"Ġheads":4925,"Ġlargest":4926,"Ġactions":4927,"Ġprete":4928,"Ġfactory":4929,"Ġbrit":4930,"Ġfolder":4931,"pn":4932,"Ġoriginally":4933,"Ġ1080":4934,"usive":4935,"apix":4936,"Ġglad":4937,"know":4938,"Ġkilled":4939,"Ġpromot":4940,"Ġdestru":4941,"Ġoct":4942,"Ġmesh":4943,"Ġum":4944,"Ġfunctionality":4945,"gu":4946,"iles":4947,"Ġtact":4948,"Ġmanufacturing":4949,"Ġattemp":4950,"Ġintention":4951,"Ġimproved":4952,"Ġexecut":4953,"Ġrepresentation":4954,"Ġinterpret":4955,"Ġrise":4956,"Ġaim":4957,"Ġhall":4958,"Ġsam":4959,"Ġfault":4960,"Ġteams":4961,"Ġblind":4962,"Ġphilosophy":4963,"mine":4964,"Ġblood":4965,"Ġedit":4966,"Ġsees":4967,"Ġalt":4968,"Ġtransmission":4969,"Ġextent":4970,"100":4971,"Ġcommercial":4972,"Ġpolitics":4973,"ctive":4974,"Ġprotocol":4975,"Ġisol":4976,"Ġgenuinely":4977,"dimensional":4978,"Ġshit":4979,"Ġinstagram":4980,"Ġregion":4981,"Ġhierarchy":4982,"cles":4983,"Ġfru":4984,"Ġreligion":4985,"Ġbuffer":4986,"Ġhero":4987,"Ġconserv":4988,"Ġparticles":4989,"Ġgermany":4990,"Ġbid":4991,"Ġadm":4992,"Ġopened":4993,"Ġregister":4994,"Ġconference":4995,"Ġpulling":4996,"Ġfalling":4997,"Ġnavig":4998,"?)":4999,"Ġwood":5000,"ha":5001,"ib":5002,"Ġshout":5003,"Ġthreads":5004,"odox":5005,"Ġmyth":5006,"Ġfrust":5007,"12":5008,"Ġsme":5009,"Ġgenerated":5010,"Ġconfused":5011,"Ġrtx":5012,"fish":5013,"Ġbreat":5014,"Ġcutting":5015,"Ġbatteries":5016,"Ġarbit":5017,"itory":5018,"Ġdesire":5019,"ctual":5020,"Ġ2000":5021,"Ġsucks":5022,"athan":5023,"Ġlived":5024,"Ġvalve":5025,",\"":5026,"Ġgeomet":5027,"Ġwestern":5028,"Ġecosystem":5029,"mod":5030,"alled":5031,"people":5032,"Ġcorpor":5033,"Ġtypical":5034,"Ġplanning":5035,"Ġinvestment":5036,"Ġath":5037,"Ġfif":5038,"oding":5039,"Ġengage":5040,"Ġgarbage":5041,"Ġraise":5042,"Ġui":5043,"Ġfollowed":5044,"Ġfreaking":5045,"Ġmathematic":5046,"Ġvul":5047,"Ġblog":5048,"Ġwake":5049,"imp":5050,"Ġimplemented":5051,"Ġcircum":5052,"Ġresistance":5053,"Ġpool":5054,"Ġvariety":5055,"Ġlith":5056,"Ġediting":5057,"Ġarc":5058,"Ġfoundation":5059,"Ġrights":5060,"Ġfilmm":5061,"Ġwhose":5062,"Ġmegapix":5063,"Ġrig":5064,"Ġbarely":5065,"Ġproud":5066,"ened":5067,"Ġgate":5068,"Ġincent":5069,"Ġfat":5070,"Ġhorsepower":5071,"Ġstored":5072,"Ġeast":5073,"Ġspaces":5074,"Ġtrained":5075,"ql":5076,"range":5077,"Ġamp":5078,"Ġsen":5079,"Ġcart":5080,"Ġriver":5081,"Ġinitially":5082,"actually":5083,"cap":5084,"Ġbon":5085,"unt":5086,"Ġmission":5087,"Ġcompetitive":5088,"Ġveloc":5089,"Ġimplic":5090,"Ġpulled":5091,"urd":5092,"Ġdivide":5093,"Ġ26":5094,"ino":5095,"Ġbes":5096,"Ġna":5097,"Ġvast":5098,"Ġpros":5099,"osh":5100,"Ġsensors":5101,"Ġbirth":5102,"ithub":5103,"Ġappears":5104,"Ġregardless":5105,"ga":5106,"ker":5107,"Ġcorrupt":5108,"Ġreached":5109,"tch":5110,"Ġcandidates":5111,"Ġpci":5112,"Ġtraff":5113,"Ġchallenging":5114,"Ġbudd":5115,"Ġsurround":5116,"which":5117,"Ġrelationships":5118,"Ġmario":5119,"Ġrooks":5120,"Ġlimits":5121,"Ġkit":5122,"Ġvirus":5123,"Ġindependent":5124,"Ġquot":5125,"Ġprices":5126,"Ġmargin":5127,"Ġdeploy":5128,"Ġgithub":5129,"Ġstruct":5130,"Ġchemical":5131,"Ġsurvive":5132,"Ġmodules":5133,"sored":5134,"when":5135,"Ġchaos":5136,"Ġremain":5137,"Ġinvestig":5138,"Ġfloat":5139,"Ġibm":5140,"Ġjimmy":5141,"Ġshown":5142,"Ġfirm":5143,"Ġassign":5144,"Ġisland":5145,"Ġzig":5146,"ata":5147,"Ġtip":5148,"Ġargu":5149,"Ġshall":5150,"Ġprogrammers":5151,"Ġtriangle":5152,"Ġskip":5153,"Ġphysically":5154,"Ġbytes":5155,"phere":5156,"Ġcombined":5157,"upbeat":5158,"Ġconnections":5159,"Ġalpha":5160,"Ġjesus":5161,"Ġthera":5162,"Ġ2021":5163,"Ġintroduced":5164,"cal":5165,"Ġltt":5166,"Ġlondon":5167,"look":5168,"Ġlifetime":5169,"Ġtechnique":5170,"Ġlighting":5171,"Ġtic":5172,"lad":5173,"Ġmirror":5174,"Ġorthodox":5175,"case":5176,"Ġsoph":5177,"Ġmanner":5178,"Ġignore":5179,"chron":5180,"Ġproduced":5181,"Ġsurve":5182,"ey":5183,"Ġcos":5184,"Ġsto":5185,"Ġviolence":5186,"Ġoperate":5187,"Ġstrings":5188,"Ġcontrast":5189,"Ġcup":5190,"Ġtape":5191,"Ġ197":5192,"Ġscientist":5193,"Ġdrug":5194,"think":5195,"Ġphr":5196,"Ġindividuals":5197,"Ġmountain":5198,"Ġhom":5199,"Ġhits":5200,"Ġrank":5201,"Ġpropag":5202,"Ġconsumer":5203,"Ġtomorrow":5204,"Ġcub":5205,"abil":5206,"alex":5207,"Ġpun":5208,"Ġspiritual":5209,"Ġbang":5210,"Ġquit":5211,"Ġofficial":5212,"Ġii":5213,"Ġselection":5214,"Ġclar":5215,"Ġcontrols":5216,"Ġscam":5217,"Ġconflict":5218,"Ġsilly":5219,"Ġooh":5220,"Ġsample":5221,"Ġconstruction":5222,"Ġattract":5223,"Ġcircuit":5224,"don":5225,"every":5226,"Ġadvance":5227,"Ġarbitr":5228,"olt":5229,"Ġsteal":5230,"Ġchampions":5231,"Ġnovel":5232,"Ġpalest":5233,"Ġlambda":5234,"Ġsnow":5235,"Ġcas":5236,"Ġupload":5237,"Ġdropped":5238,"Ġcomplain":5239,"Ġminor":5240,"Ġmovies":5241,"Ġeating":5242,"umin":5243,"orge":5244,"Ġintake":5245,"Ġtechniques":5246,"Ġcache":5247,"Ġwis":5248,"Ġcrack":5249,"Ġpushed":5250,"Ġremoved":5251,"smc":5252,"bre":5253,"house":5254,"ulf":5255,"Ġsports":5256,"Ġfren":5257,"Ġshortcut":5258,"Ġcate":5259,"iped":5260,"Ġprofile":5261,"Ġflying":5262,"Ġresol":5263,"Ġactivity":5264,"Ġgrip":5265,"Ġdise":5266,"Ġsolved":5267,"kn":5268,"rict":5269,"Ġquad":5270,"Ġtested":5271,"lls":5272,"Ġsport":5273,"Ġsusp":5274,"Ġrated":5275,"Ġconfusing":5276,"Ġstatus":5277,"ael":5278,"Ġsubt":5279,"Ġfastest":5280,"Ġrepresents":5281,"Ġpause":5282,"coming":5283,"Ġyellow":5284,"Ġlord":5285,"Ġforced":5286,"cend":5287,"Ġtricky":5288,"Ġflaw":5289,"Ġattempt":5290,"Ġenorm":5291,"Ġmedium":5292,"bes":5293,"Ġange":5294,"gging":5295,"Ġemotion":5296,"Ġnope":5297,"Ġcombust":5298,"Ġdimension":5299,"Ġcube":5300,"Ġspon":5301,"Ġsucceed":5302,"speak":5303,"pack":5304,"Ġfactors":5305,"Ġlaptops":5306,"Ġdiction":5307,"Ġcheckmate":5308,"ometer":5309,"Ġthrot":5310,"place":5311,"Ġbreaks":5312,"Ġvelocity":5313,"Ġamb":5314,"Ġstudying":5315,"Ġvulner":5316,"Ġcharger":5317,"Ġpandem":5318,"rum":5319,"Ġinstant":5320,"Ġgenerator":5321,"Ġlocked":5322,"Ġprovides":5323,"Ġray":5324,"Ġlean":5325,"Ġlege":5326,"Ġpref":5327,"because":5328,"Ġconfidence":5329,"Ġtsmc":5330,"Ġfps":5331,"Ġbear":5332,"Ġprote":5333,"Ġheck":5334,"Ġdive":5335,"itation":5336,"oty":5337,"iments":5338,"Ġgrade":5339,"Ġlands":5340,"Ġdocumentary":5341,"Ġtraffic":5342,"osity":5343,"Ġmultiplic":5344,"Ġpaste":5345,"Ġstation":5346,"izer":5347,"Ġreaction":5348,"Ġcpus":5349,"Ġyo":5350,"Ġsymbolic":5351,"Ġsem":5352,"Ġservers":5353,"lemen":5354,"Ġruntime":5355,"xic":5356,"Ġadmin":5357,"Ġnerv":5358,"Ġgentlemen":5359,"Ġyester":5360,"Ġpaint":5361,"Ġindia":5362,"Ġexperienced":5363,"Ġvim":5364,"Ġreceive":5365,"linus":5366,"iate":5367,"Ġthus":5368,"Ġcontinues":5369,"Ġincludes":5370,"Ġawful":5371,"Ġfancy":5372,"Ġrecei":5373,"Ġqueens":5374,"Ġrates":5375,"Ġsaved":5376,"Ġpossibilities":5377,"Ġoptimize":5378,"Ġinputs":5379,"Ġconfiguration":5380,"Ġcanada":5381,"Ġ35":5382,"Ġlaser":5383,"Ġdebate":5384,"Ġunlock":5385,"Ġgpus":5386,"rant":5387,"Ġ99":5388,"Ġresponsible":5389,"Ġinfluence":5390,"Ġneuro":5391,"Ġdecade":5392,"Ġenable":5393,"idding":5394,"Ġsaint":5395,"Ġdivided":5396,"itz":5397,"Ġdies":5398,"Ġceo":5399,"Ġyesterday":5400,"Ġcomputational":5401,"Ġreward":5402,"Ġpreviously":5403,"Ġbind":5404,"Ġdust":5405,"Ġ2022":5406,"tr":5407,"Ġcert":5408,"Ġrepeat":5409,"Ġyours":5410,"Ġdisplays":5411,"orter":5412,"Ġneat":5413,"Ġoffers":5414,"Ġobjective":5415,"Ġplatforms":5416,"Ġweapons":5417,"hold":5418,"Ġhol":5419,"irty":5420,"Ġpray":5421,"Ġtro":5422,"Ġchrome":5423,"Ġtok":5424,"Ġadvert":5425,"Ġblur":5426,"Ġintroduce":5427,"Ġupper":5428,"Ġintelle":5429,"Ġsources":5430,"Ġfrench":5431,"chain":5432,"Ġmarch":5433,"Ġphysic":5434,"gment":5435,"Ġtempor":5436,"outh":5437,"Ġdial":5438,"Ġcategor":5439,"Ġride":5440,"Ġyoun":5441,"Ġfrequency":5442,"Ġchoices":5443,"water":5444,"Ġsponsoring":5445,"Ġdocumentation":5446,"Ġreven":5447,"Ġquery":5448,"Ġputin":5449,"Ġproducing":5450,"gged":5451,"Ġminds":5452,"ashion":5453,"Ġhearing":5454,"Ġlabor":5455,"Ġpages":5456,"Ġjson":5457,"Ġdelay":5458,"Ġwearing":5459,"Ġ2023":5460,"Ġlaunched":5461,"Ġloses":5462,"Ġstandards":5463,"Ġnervous":5464,"Ġske":5465,"Ġtown":5466,"Ġpocket":5467,"Ġpurely":5468,"Ġhat":5469,"Ġtracking":5470,"Ġconsequences":5471,"Ġjer":5472,"Ġarrow":5473,"Ġanimal":5474,"eg":5475,"Ġrolling":5476,"Ġgradi":5477,"Ġjonathan":5478,"Ġpill":5479,"Ġblo":5480,"Ġpictures":5481,"Ġweakness":5482,"Ġabstraction":5483,"Ġcute":5484,"Ġll":5485,"Ġletting":5486,"Ġentry":5487,"Ġsupports":5488,"Ġpointers":5489,"Ġaes":5490,"Ġdin":5491,"enture":5492,"Ġoffering":5493,"Ġlayout":5494,"Ġcine":5495,"aming":5496,"Ġrocket":5497,"Ġkeyword":5498,"Ġextension":5499,"Ġamericans":5500,"Ġprofessor":5501,"oper":5502,"Ġvs":5503,"Ġinvent":5504,"Ġderiv":5505,"Ġru":5506,"Ġadam":5507,"Ġsponsors":5508,"Ġswe":5509,"Ġfluid":5510,"ication":5511,"Ġdedicated":5512,"Ġsophistic":5513,"Ġrain":5514,"Ġflood":5515,"Ġ2019":5516,"Ġplate":5517,"gue":5518,"Ġdebug":5519,"Ġharm":5520,"Ġwrap":5521,"anges":5522,"Ġstretch":5523,"rable":5524,"Ġshipping":5525,"intend":5526,"otic":5527,"Ġindustrial":5528,"Ġcompression":5529,"Ġmort":5530,"Ġpublished":5531,"11":5532,"Ġbab":5533,"Ġunbelie":5534,"Ġsubtle":5535,"Ġupdated":5536,"Ġmichael":5537,"Ġmile":5538,"Ġfloating":5539,"iation":5540,"ipp":5541,"Ġtag":5542,"Ġhadn":5543,"Ġcurren":5544,"Ġdisappoint":5545,"Ġshel":5546,"log":5547,"Ġweather":5548,"Ġblu":5549,"Ġcarls":5550,"Ġexecution":5551,"atible":5552,"Ġatmos":5553,"Ġanytime":5554,"Ġdepress":5555,"Ġprivacy":5556,"Ġtast":5557,"Ġfork":5558,"Ġtail":5559,"working":5560,"Ġexplanation":5561,"Ġnation":5562,"Ġfacts":5563,"Ġloads":5564,"intendo":5565,"Ġprag":5566,"Ġnative":5567,"bert":5568,"Ġdrivers":5569,"Ġspecs":5570,"Ġtransist":5571,"Ġstockfish":5572,"Ġtick":5573,"Ġcombustion":5574,"Ġdar":5575,"thetic":5576,"Ġcolon":5577,"Ġhung":5578,"ips":5579,"Ġlargely":5580,"Ġwidth":5581,"Ġvertical":5582,"kind":5583,"Ġhood":5584,"Ġtransformation":5585,"Ġoptimization":5586,"Ġ28":5587,"Ġsponsored":5588,"Ġresume":5589,"Ġsimpler":5590,"Ġappropri":5591,"uct":5592,"Ġaug":5593,"Ġvot":5594,"Ġuns":5595,"Ġpapers":5596,"Ġimpressed":5597,"Ġdistributed":5598,"Ġbird":5599,"istically":5600,"Ġcylinder":5601,"Ġegg":5602,"Ġunc":5603,"Ġunderlying":5604,"Ġtrading":5605,"herent":5606,"Ġtall":5607,"Ġner":5608,"Ġeu":5609,"Ġintuitive":5610,"Ġsco":5611,"laughter":5612,"Ġsentence":5613,"gger":5614,"inian":5615,"Ġdrugs":5616,"Ġembedded":5617,"bble":5618,"Ġsupported":5619,"Ġdepartment":5620,"vere":5621,"Ġplaystation":5622,"Ġresource":5623,"Ġclimate":5624,"rating":5625,"Ġchunk":5626,"Ġfalls":5627,"Ġroute":5628,"speaker":5629,"Ġrect":5630,"laughing":5631,"Ġnegot":5632,"Ġscrews":5633,"Ġgree":5634,"Ġseed":5635,"Ġidentify":5636,"Ġdry":5637,"level":5638,"Ġkidding":5639,"Ġapproxim":5640,"Ġcaused":5641,"Ġdetermine":5642,"Ġacceleration":5643,"Ġmegapixel":5644,"Ġguide":5645,"Ġhua":5646,"lly":5647,"Ġprompt":5648,"Ġelectronics":5649,"Ġtang":5650,"Ġpip":5651,"Ġwealth":5652,"Ġads":5653,"pace":5654,"Ġgy":5655,"Ġplot":5656,"Ġwanting":5657,"Ġwhoever":5658,"Ġcourt":5659,"Ġexcuse":5660,"Ġseason":5661,"Ġscope":5662,"Ġpuzzle":5663,"Ġquarter":5664,"Ġstops":5665,"Ġmechanics":5666,"known":5667,"clock":5668,"Ġhuh":5669,"Ġsignals":5670,"Ġfabiano":5671,"lines":5672,"Ġgeneric":5673,"Ġcreator":5674,"Ġattached":5675,"Ġrobotics":5676,"Ġfits":5677,"Ġlesson":5678,"Ġhdmi":5679,"tra":5680,"Ġdump":5681,"Ġbiological":5682,"Ġreceived":5683,"Ġwisdom":5684,"jimmy":5685,"icious":5686,"rier":5687,"Ġmedical":5688,"Ġoce":5689,"Ġconfir":5690,"Ġstudies":5691,"Ġhydrogen":5692,"col":5693,"Ġperce":5694,"Ġperception":5695,"Ġpointing":5696,"Ġflight":5697,"Ġfocusing":5698,"500":5699,"vin":5700,"Ġsql":5701,"new":5702,"Ġnintendo":5703,"Ġhonor":5704,"Ġmeaningful":5705,"Ġfilled":5706,"Ġticket":5707,"Ġpicking":5708,"Ġweigh":5709,"Ġscared":5710,"Ġnuts":5711,"wei":5712,"Ġbrightness":5713,"will":5714,"Ġtension":5715,"Ġhous":5716,"Ġgray":5717,"Ġobs":5718,"Ġopens":5719,"Ġlatency":5720,"Ġryzen":5721,"tz":5722,"Ġrh":5723,"while":5724,"Ġcrow":5725,"Ġdecre":5726,"Ġthrowing":5727,"Ġ150":5728,"Ġrotate":5729,"Ġintense":5730,"Ġinstr":5731,"Ġgenius":5732,"Ġpercentage":5733,"Ġsufficient":5734,"Ġutil":5735,"Ġalign":5736,"Ġ2018":5737,"Ġgrant":5738,"rency":5739,"Ġopportunities":5740,"Ġconvenient":5741,"asion":5742,"Ġclassical":5743,"Ġauthority":5744,"Ġpandemic":5745,"Ġhealthy":5746,"Ġdictionary":5747,"real":5748,"eter":5749,"Ġdock":5750,"Ġain":5751,"Ġconclusion":5752,"jake":5753,"Ġera":5754,"Ġneither":5755,"itsu":5756,"Ġenormous":5757,"Ġdisk":5758,"Ġpolice":5759,"Ġchristmas":5760,"Ġchannels":5761,"Ġmask":5762,"Ġwarm":5763,"Ġemotional":5764,"Ġsteve":5765,"ulating":5766,"Ġboxes":5767,"Ġhuawei":5768,"Ġagent":5769,"Ġexpans":5770,"Ġcontrovers":5771,"Ġpurposes":5772,"Ġexperiments":5773,"Ġrely":5774,"Ġexplo":5775,"Ġinfluen":5776,"Ġchose":5777,"Ġfinds":5778,"Ġinterviews":5779,"gi":5780,"Ġcomed":5781,"Ġimprovements":5782,"Ġwars":5783,"Ġnodes":5784,"Ġprepar":5785,"Ġfaces":5786,"Ġdynamics":5787,"Ġclaims":5788,"these":5789,"Ġdemocr":5790,"Ġbez":5791,"Ġprovided":5792,"Ġadds":5793,"Ġmeters":5794,"Ġessential":5795,"see":5796,"Ġcrisis":5797,"away":5798,"Ġtrees":5799,"Ġsust":5800,"Ġdisci":5801,"Ġindian":5802,"aked":5803,"Ġguarantee":5804,"osure":5805,"Ġbugs":5806,"ublic":5807,"Ġpark":5808,"Ġrecords":5809,"Ġseal":5810,"Ġtips":5811,"Ġfacing":5812,"Ġowners":5813,"Ġcircumst":5814,"Ġapplying":5815,"Ġexport":5816,"Ġhandling":5817,"Ġleap":5818,"Ġdivision":5819,"something":5820,"Ġautonomous":5821,"Ġmouth":5822,"Ġstood":5823,"Ġji":5824,"Ġwherever":5825,"Ġupset":5826,"Ġedition":5827,"Ġoptical":5828,"instein":5829,"Ġmc":5830,"Ġtied":5831,"Ġradio":5832,"Ġpound":5833,"Ġcomprom":5834,"Ġtie":5835,"Ġscroll":5836,"Ġswap":5837,"ifications":5838,"Ġemphas":5839,"Ġcontrolled":5840,"Ġvan":5841,"ipher":5842,"Ġnarrow":5843,"aur":5844,"mr":5845,"Ġelimin":5846,"Ġpowered":5847,"Ġtheories":5848,"Ġzone":5849,"Ġnicely":5850,"Ġwise":5851,"Ġga":5852,"Ġinner":5853,"Ġestim":5854,"Ġprison":5855,"Ġblockchain":5856,"uracy":5857,"Ġrookie":5858,"Ġphilosophical":5859,"iler":5860,"Ġclust":5861,"Ġpowers":5862,"Ġensure":5863,"Ġdance":5864,"apse":5865,"zer":5866,"Ġlg":5867,"Ġmaps":5868,"hertz":5869,"Ġstatements":5870,"Ġpublish":5871,"airs":5872,"Ġaccidentally":5873,"Ġvisit":5874,"Ġmetaph":5875,"Ġinherit":5876,"pod":5877,"Ġconcerns":5878,"Ġthunder":5879,"Ġasus":5880,"things":5881,"Ġidentical":5882,"Ġpitch":5883,"Ġshadow":5884,"Ġfri":5885,"beast":5886,"Ġ600":5887,"Ġprepared":5888,"Ġtank":5889,"Ġsuit":5890,"Ġcompete":5891,"oration":5892,"Ġadult":5893,"Ġshell":5894,"Ġbillions":5895,"Ġspark":5896,"Ġleaves":5897,"Ġhdr":5898,"Ġspectrum":5899,"Ġcarlson":5900,"Ġvr":5901,"Ġspring":5902,"Ġvibr":5903,"arm":5904,"Ġwinner":5905,"Ġmagnetic":5906,"Ġadvantages":5907,"Ġrepresented":5908,"Ġtiming":5909,"Ġandrew":5910,"Ġbasics":5911,"Ġinev":5912,"Ġnowhere":5913,"Ġenab":5914,"Ġremaining":5915,"Ġarbitrary":5916,"eral":5917,"Ġtower":5918,"Ġthrottle":5919,"eme":5920,"Ġmm":5921,"Ġaccomplish":5922,"Ġ#":5923,"Ġspecify":5924,"Ġsymbolism":5925,"Ġelectricity":5926,"Ġtokens":5927,"Ġug":5928,"diff":5929,"Ġauthent":5930,"Ġcities":5931,"Ġpointed":5932,"Ġtempl":5933,"Ġraised":5934,"Ġafric":5935,"Ġsummer":5936,"Ġchampion":5937,"Ġterminal":5938,"Ġsophisticated":5939,"bling":5940,"Ġbul":5941,"Ġharv":5942,"pal":5943,"Ġentertain":5944,"Ġwaves":5945,"Ġtheoretically":5946,"Ġestablish":5947,"Ġfruit":5948,"Ġcham":5949,"Ġinvented":5950,"Ġwallet":5951,"pass":5952,"Ġserve":5953,"Ġembar":5954,"Ġrestrict":5955,"Ġdiscount":5956,"Ġexercise":5957,"gonna":5958,"Ġtoy":5959,"Ġinform":5960,"Ġreject":5961,"Ġoptimized":5962,"Ġkilling":5963,"Ġneurons":5964,"Ġpretend":5965,"Ġagency":5966,"Ġswitches":5967,"Ġmusk":5968,"Ġack":5969,"Ġgall":5970,"Ġkern":5971,"Ġequations":5972,"Ġprotection":5973,"Ġconsequence":5974,"Ġserial":5975,"ale":5976,"Ġfusion":5977,"urning":5978,"Ġslides":5979,"Ġgenerating":5980,"Ġcombine":5981,"Ġphrase":5982,"Ġclub":5983,"rog":5984,"ief":5985,"Ġmatches":5986,"fin":5987,"oo":5988,"Ġtheme":5989,"Ġhilar":5990,"lled":5991,"Ġjames":5992,"Ġanx":5993,"Ġhire":5994,"tech":5995,"Ġcauses":5996,"Ġcorrespo":5997,"Ġchampionship":5998,"game":5999,"ret":6000,"utation":6001,"Ġcompatible":6002,"Ġpartner":6003,"Ġinterrupt":6004,"illa":6005,"Ġscheme":6006,"Ġdigits":6007,"Ġinstitutions":6008,"Ġbritish":6009,"Ġnotch":6010,"Ġloose":6011,"Ġlying":6012,"Ġtwitch":6013,"ishing":6014,"Ġemployees":6015,"Ġdragon":6016,"Ġbomb":6017,"Ġneut":6018,"odies":6019,"Ġcapabilities":6020,"Ġholds":6021,"Ġfriendly":6022,"Ġspo":6023,"Ġuncom":6024,"Ġproductive":6025,"onym":6026,"Ġinfinity":6027,"Ġscenes":6028,"lymp":6029,"Ġclutch":6030,"whel":6031,"Ġemb":6032,"prene":6033,"Ġyounger":6034,"kers":6035,"reed":6036,"Ġprize":6037,"js":6038,"Ġbishops":6039,"Ġincrement":6040,"olic":6041,"Ġusual":6042,"Ġreset":6043,"Ġtrial":6044,"bet":6045,"Ġfet":6046,"Ġworkers":6047,"Ġrequirements":6048,"Ġfortun":6049,"reprene":6050,"Ġinfect":6051,"Ġreliable":6052,"jared":6053,"Ġpars":6054,"Ġcheating":6055,"Ġtriple":6056,"Ġcollea":6057,"Ġhitler":6058,"Ġproviding":6059,"Ġletters":6060,"Ġbrady":6061,"Ġbrut":6062,"Ġcrimin":6063,"Ġplugged":6064,"Ġseat":6065,"Ġmanually":6066,"class":6067,"Ġtexture":6068,"Ġhilarious":6069,"would":6070,"Ġbow":6071,"ppy":6072,"Ġtex":6073,"Ġdigit":6074,"Ġtrend":6075,"eros":6076,"Ġfashion":6077,"erson":6078,"Ġyield":6079,"Ġnich":6080,"Ġrewr":6081,"Ġbuilds":6082,"Ġangry":6083,"Ġvectors":6084,"Ġ2016":6085,"Ġnft":6086,"Ġprinting":6087,"Ġsession":6088,"Ġcs":6089,"weight":6090,"Ġmega":6091,"Ġmixed":6092,"zing":6093,"Ġrespons":6094,"Ġfingerprint":6095,"Ġcognitive":6096,"Ġdisease":6097,"Ġexperts":6098,"Ġ196":6099,"Ġwalls":6100,"Ġenterpr":6101,"Ġvoltage":6102,"Ġolymp":6103,"Ġju":6104,"ometers":6105,"Ġdefending":6106,"Ġtricks":6107,"Ġhistorical":6108,"conds":6109,"Ġentreprene":6110,"aker":6111,"Ġremoving":6112,"Ġinnovation":6113,"ologically":6114,"Ġaccounts":6115,"Ġjudge":6116,"veness":6117,"Ġintermedi":6118,"Ġmillise":6119,"forcement":6120,"yle":6121,"Ġios":6122,"make":6123,"Ġplans":6124,"Ġheadset":6125,"cules":6126,"Ġstronger":6127,"Ġevolved":6128,"Ġleadership":6129,"Ġsustain":6130,"who":6131,"Ġlegs":6132,"Ġloops":6133,"Ġfingers":6134,"Ġvictim":6135,"Ġbrains":6136,"called":6137,"Ġcath":6138,"ifi":6139,"Ġwik":6140,"oying":6141,"road":6142,"Ġchemistry":6143,"Ġexpansion":6144,"Ġformer":6145,"Ġcel":6146,"okes":6147,"Ġsurf":6148,"Ġsupporting":6149,"Ġinnov":6150,"than":6151,"Ġoutcome":6152,"ctured":6153,"Ġdensity":6154,"Ġbible":6155,"greg":6156,"itarian":6157,"ids":6158,"Ġrepublic":6159,"Ġheadphone":6160,"Ġsir":6161,"Ġmur":6162,"Ġfool":6163,"ups":6164,"Ġelectrical":6165,"Ġusage":6166,"etooth":6167,"Ġcares":6168,"Ġsoul":6169,"Ġkorea":6170,"Ġwrestling":6171,"Ġtill":6172,"stru":6173,"Ġdesigns":6174,"Ġlogical":6175,"Ġstruggling":6176,"nel":6177,"rink":6178,"ounder":6179,"erent":6180,"Ġeasiest":6181,"Ġheader":6182,"Ġreviews":6183,"Ġurl":6184,"hell":6185,"pie":6186,"inch":6187,"Ġexisted":6188,"Ġpsychology":6189,"Ġanalyze":6190,"Ġstal":6191,"Ġsteering":6192,"Ġshapes":6193,"Ġdrawn":6194,"little":6195,"Ġfraction":6196,"Ġconvinced":6197,"ipedia":6198,"asp":6199,"Ġ48":6200,"Ġlessons":6201,"Ġevolutionary":6202,"Ġgro":6203,"orph":6204,"Ġexplos":6205,"uckles":6206,"Ġconstructor":6207,"Ġrequests":6208,"Ġdash":6209,"Ġcodes":6210,"oline":6211,"Ġextract":6212,"Ġtemperatures":6213,"Ġsurprisingly":6214,"Ġmotivation":6215,"Ġwarning":6216,"uary":6217,"Ġgolden":6218,"mu":6219,"iration":6220,"Ġplants":6221,"Ġarms":6222,"Ġcompeting":6223,"car":6224,"nis":6225,"adays":6226,"Ġmacro":6227,"Ġgather":6228,"urance":6229,"ulator":6230,"Ġ75":6231,"Ġamounts":6232,"Ġsensitive":6233,"Ġassistant":6234,"Ġbuddy":6235,"Ġadminist":6236,"Ġimproving":6237,"Ġcategories":6238,"\".":6239,"eared":6240,"Ġbelieved":6241,"Ġbrown":6242,"Ġaliens":6243,"Ġdestroyed":6244,"Ġtheoretical":6245,"oken":6246,"Ġsett":6247,"Ġafterwards":6248,"build":6249,"Ġnowadays":6250,"oms":6251,"Ġsheet":6252,"lause":6253,"Ġconvince":6254,"Ġconstraints":6255,"Ġacknow":6256,"Ġpatch":6257,"omi":6258,"Ġpersonality":6259,"Ġtrigger":6260,"Ġdoctor":6261,"into":6262,"Ġmenu":6263,"ingu":6264,"Ġhardest":6265,"Ġintegers":6266,"remend":6267,"Ġocean":6268,"Ġcarefully":6269,"Ġparticipate":6270,"Ġ##":6271,"Ġoptimal":6272,"Ġdependency":6273,"Ġbenchmark":6274,"Ġpurchase":6275,"Ġemiss":6276,"Ġannounce":6277,"Ġbluetooth":6278,"Ġbiden":6279,"Ġsmarter":6280,"Ġcrew":6281,"Ġprototy":6282,"Ġpainful":6283,"Ġclients":6284,"wo":6285,"Ġchances":6286,"Ġtired":6287,"elling":6288,"Ġ95":6289,"Ġprofit":6290,"Ġaustral":6291,"Ġhorizont":6292,"Ġgirl":6293,"Ġoffered":6294,"Ġreplaced":6295,"Ġcurrency":6296,"han":6297,"rass":6298,"Ġbell":6299,"Ġreci":6300,"Ġcoach":6301,"oded":6302,"itty":6303,"Ġconnector":6304,"ashing":6305,"Ġlightning":6306,"Ġacting":6307,"Ġdescribing":6308,"Ġexplicitly":6309,"sl":6310,"Ġfiguring":6311,"Ġorient":6312,"efficient":6313,"Ġvote":6314,"Ġenemy":6315,"Ġwikipedia":6316,"wide":6317,"Ġblame":6318,"Ġsigned":6319,"ja":6320,"Ġ250":6321,"Ġgradient":6322,"Ġroutine":6323,"Ġmillimeter":6324,"Ġpartly":6325,"Ġsmartphones":6326,"Ġpackaging":6327,"Ġpleasure":6328,"Ġber":6329,"idel":6330,"Ġloves":6331,"Ġtablet":6332,"Ġappropriate":6333,"vial":6334,"rad":6335,"osp":6336,"Ġknights":6337,"vision":6338,"Ġtremend":6339,"Ġempath":6340,"Ġara":6341,"Ġcounting":6342,"wid":6343,"wind":6344,"Ġcancer":6345,"Ġsale":6346,"angles":6347,"Ġintegration":6348,"Ġsegment":6349,"Ġshoes":6350,"Ġbother":6351,"Ġmale":6352,"iff":6353,"Ġpins":6354,"Ġstabil":6355,"Ġprofound":6356,"Ġsocket":6357,"Ġrational":6358,"Ġoverwhel":6359,"Ġmechanisms":6360,"Ġlawy":6361,"Ġdying":6362,"Ġgift":6363,"Ġoverl":6364,"Ġassets":6365,"Ġplanets":6366,"books":6367,"Ġpropos":6368,"Ġembarrass":6369,"Ġpartners":6370,"gets":6371,"Ġencounter":6372,"Ġ800":6373,"Ġfraud":6374,"Ġmarkets":6375,"Ġcit":6376,"Ġlag":6377,"Ġtrash":6378,"Ġexponent":6379,"Ġabsurd":6380,"Ġprotest":6381,"Ġweapon":6382,"Ġneighbor":6383,"Ġlegend":6384,"Ġjs":6385,"Ġmanufacturers":6386,"Ġintellectual":6387,"200":6388,"mes":6389,"ober":6390,"Ġba":6391,"Ġadmit":6392,"produ":6393,"Ġrou":6394,"ortion":6395,"osen":6396,"Ġsla":6397,"Ġfuck":6398,"Ġmedic":6399,"Ġtraveling":6400,"Ġmolecules":6401,"Ġborder":6402,"Ġmeat":6403,"Ġlicense":6404,"scre":6405,"Ġtends":6406,"Ġdiss":6407,"Ġchecked":6408,"Ġdirectory":6409,"Ġinspired":6410,"Ġacademic":6411,"cers":6412,"dis":6413,"kin":6414,"Ġcollapse":6415,"Ġintended":6416,"Ġsuccessfully":6417,"Ġprecisely":6418,"Ġddr":6419,"Ġjewish":6420,"Ġbrick":6421,"aneously":6422,"Ġconcur":6423,"Ġreturning":6424,"Ġaccuracy":6425,"Ġorders":6426,"Ġliterature":6427,"Ġasync":6428,"Ġgeometry":6429,"icial":6430,"olf":6431,"Ġheavily":6432,"Ġanalogy":6433,"host":6434,"Ġlen":6435,"roph":6436,"Ġmoses":6437,"Ġremains":6438,"Ġpackages":6439,"Ġiphones":6440,"Ġcd":6441,"store":6442,"Ġxia":6443,"Ġdirections":6444,"Ġdependencies":6445,"Ġencourage":6446,"Ġdiscipl":6447,"etary":6448,"Ġgenerations":6449,"Ġbusinesses":6450,"Ġbullet":6451,"Ġjanuary":6452,"width":6453,"Ġarticles":6454,"Ġkernel":6455,"Ġredd":6456,"Ġjun":6457,"Ġrows":6458,"ptic":6459,"Ġperman":6460,"Ġbusy":6461,"Ġdece":6462,"Ġartist":6463,"Ġtoward":6464,"Ġgram":6465,"Ġdivers":6466,"Ġmonster":6467,"Ġexit":6468,"Ġ2017":6469,"Ġcolumns":6470,"Ġreader":6471,"ns":6472,"inction":6473,"ener":6474,"Ġrealistic":6475,"Ġclosely":6476,"Ġlogo":6477,"applause":6478,"pher":6479,"asy":6480,"icip":6481,"Ġprediction":6482,"Ġwalked":6483,"Ġminimal":6484,"Ġstudied":6485,"Ġcompact":6486,"Ġhappiness":6487,"Ġslots":6488,"Ġelo":6489,"Ġfucking":6490,"Ġiran":6491,"Ġofficially":6492,"Ġroman":6493,"Ġextend":6494,"Ġsubtract":6495,"ued":6496,"Ġclim":6497,"Ġreasoning":6498,"Ġproductivity":6499,"Ġilleg":6500,"Ġcontinued":6501,"Ġspinning":6502,"Ġstores":6503,"Ġrevenue":6504,"usi":6505,"Ġrecurs":6506,"Ġbegins":6507,"Ġlabs":6508,"Ġhill":6509,"berg":6510,"process":6511,"semb":6512,"ager":6513,"Ġbelong":6514,"Ġpursu":6515,"hd":6516,"Ġterr":6517,"Ġtransport":6518,"Ġtransaction":6519,"Ġbun":6520,"Ġdisp":6521,"Ġhumor":6522,"Ġconnecting":6523,"Ġmagical":6524,"Ġthreatening":6525,"Ġnanometer":6526,"Ġexclusive":6527,"uous":6528,"Ġborrow":6529,"Ġspa":6530,"irect":6531,"Ġselected":6532,"Ġburning":6533,"Ġoctober":6534,"Ġtub":6535,"Ġbat":6536,"Ġgard":6537,"Ġcompre":6538,"Ġmemor":6539,"Ġoptional":6540,"Ġcastles":6541,"Ġapproaches":6542,"Ġenterprise":6543,"comm":6544,"Ġbrake":6545,"Ġelectronic":6546,"Ġderivative":6547,"Ġmig":6548,"cho":6549,"Ġintent":6550,"Ġefforts":6551,"Ġleak":6552,"Ġ2024":6553,"Ġpresence":6554,"Ġtwist":6555,"Ġtrill":6556,"Ġformal":6557,"Ġcommunities":6558,"ience":6559,"kend":6560,"Ġworlds":6561,"Ġmodify":6562,"Ġpace":6563,"Ġjeff":6564,"essed":6565,"Ġlaid":6566,"Ġapolog":6567,"Ġmaths":6568,"Ġshocking":6569,"Ġether":6570,"Ġeuropean":6571,"Ġsink":6572,"Ġhosp":6573,"ama":6574,"Ġswitching":6575,"Ġtheorem":6576,"Ġuncertain":6577,"Ġcircumstances":6578,"urb":6579,"Ġmemories":6580,"Ġstopping":6581,"rent":6582,"Ġinterse":6583,"Ġ36":6584,"Ġbottle":6585,"Ġgeorge":6586,"fortable":6587,"Ġjiu":6588,"Ġshield":6589,"Ġtier":6590,"cif":6591,"Ġroles":6592,"Ġaccum":6593,"Ġcontinuous":6594,"25":6595,"lim":6596,"pad":6597,"Ġblitz":6598,"Ġtranslate":6599,"Ġconservative":6600,"chris":6601,"Ġalumin":6602,"Ġcave":6603,"Ġxiaomi":6604,"Ġshorter":6605,"Ġpoke":6606,"Ġrandomly":6607,"Ġmatching":6608,"Ġconvention":6609,"Ġsimult":6610,"Ġatomic":6611,"Ġevaluate":6612,"Ġfifth":6613,"Ġtan":6614,"Ġagreed":6615,"Ġ360":6616,"Ġconsumption":6617,"Ġarts":6618,"Ġsexual":6619,"Ġbandwidth":6620,"Ġcrime":6621,"Ġhiring":6622,"Ġbye":6623,"Ġdisconnect":6624,"Ġcreators":6625,"atibility":6626,"Ġpsyched":6627,"Ġstrip":6628,"Ġsuspect":6629,"Ġdisappear":6630,"ragon":6631,"gypt":6632,"Ġharvard":6633,"racle":6634,"Ġincreases":6635,"Ġvisible":6636,"Ġbios":6637,"Ġautomatic":6638,"Ġinteracting":6639,"16":6640,"Ġbeam":6641,"Ġcoverage":6642,"Ġchart":6643,"Ġcontrolling":6644,"Ġbonus":6645,"Ġmeme":6646,"ander":6647,"Ġcaus":6648,"anned":6649,"hum":6650,"Ġtel":6651,"inger":6652,"Ġcampa":6653,"Ġterrifying":6654,"eel":6655,"Ġfer":6656,"Ġspoke":6657,"Ġcorners":6658,"Ġpolitic":6659,"Ġprotected":6660,"rics":6661,"Ġcommitted":6662,"Ġrepair":6663,"Ġincreased":6664,"Ġfran":6665,"Ġemails":6666,"Ġpist":6667,"ocur":6668,"mmer":6669,"Ġsd":6670,"Ġdice":6671,"ston":6672,"Ġbasket":6673,"Ġjumping":6674,"Ġcrucial":6675,"Ġtranslation":6676,"Ġbesides":6677,"Ġfulf":6678,"Ġanimation":6679,"offs":6680,"Ġlucy":6681,"Ġstalin":6682,"Ġpd":6683,"Ġdifferential":6684,"Ġgambit":6685,"Ġlegacy":6686,"Ġrotation":6687,"Ġflexible":6688,"Ġfulfill":6689,"reon":6690,"Ġbodies":6691,"isible":6692,"Ġunus":6693,"Ġarmy":6694,"Ġpresented":6695,"Ġathle":6696,"Ġpsychedel":6697,"cc":6698,"Ġnas":6699,"Ġweights":6700,"Ġrichard":6701,"ba":6702,"matic":6703,"Ġdna":6704,"Ġegypt":6705,"iforn":6706,"Ġfinite":6707,"Ġestablished":6708,"mat":6709,"Ġtrades":6710,"Ġsilver":6711,"Ġcryptocur":6712,"wood":6713,"Ġdiscovery":6714,"Ġpanels":6715,"Ġinjection":6716,"Ġfrankly":6717,"anes":6718,"aron":6719,"them":6720,"Ġremark":6721,"Ġbias":6722,"Ġsymbols":6723,"Ġcovering":6724,"even":6725,"win":6726,"Ġcort":6727,"Ġvary":6728,"Ġcompelling":6729,"Ġexplained":6730,"Ġaxis":6731,"Ġatmosphere":6732,"Ġtexas":6733,"cision":6734,"sey":6735,"Ġsemi":6736,"Ġ2015":6737,"Ġmike":6738,"Ġenth":6739,"Ġfriction":6740,"Ġincorrect":6741,"Ġbrutal":6742,"15":6743,"yal":6744,"Ġrend":6745,"umber":6746,"lessly":6747,"Ġtransactions":6748,"Ġnest":6749,"Ġexplaining":6750,"Ġpublicly":6751,"dragon":6752,"uum":6753,"Ġrent":6754,"Ġapplies":6755,"Ġfoll":6756,"Ġconspi":6757,"comes":6758,"Ġequally":6759,"Ġfigures":6760,"Ġwesley":6761,"Ġmartin":6762,"Ġvall":6763,"Ġfeelings":6764,"Ġparticle":6765,"Ġaccessible":6766,"Ġsubstant":6767,"ture":6768,"Ġhex":6769,"Ġrush":6770,"Ġinvolves":6771,"Ġillust":6772,"Ġpatreon":6773,"ancing":6774,"Ġwet":6775,"Ġcausing":6776,"Ġexposed":6777,"Ġstrategies":6778,"Ġgates":6779,"Ġinfo":6780,"Ġchoosing":6781,"Ġdiscord":6782,"Ġradius":6783,"Ġgasoline":6784,"Ġcontainer":6785,"ifornia":6786,"Ġeinstein":6787,"Ġstability":6788,"Ġbanks":6789,"Ġattempts":6790,"org":6791,"Ġcorrel":6792,"Ġwebsites":6793,"Ġsuffer":6794,"ugging":6795,"okay":6796,"Ġstrict":6797,"Ġcultural":6798,"Ġnewslet":6799,"Ġlowest":6800,"Ġdepos":6801,"Ġepic":6802,"Ġsenior":6803,"Ġunbelievable":6804,"Ġchamber":6805,"den":6806,"Ġdict":6807,"Ġnail":6808,"sius":6809,"Ġportra":6810,"Ġanalyt":6811,"Ġevolve":6812,"Ġcooper":6813,"Ġ42":6814,"Ġeric":6815,"Ġloaded":6816,"Ġprimarily":6817,"Ġbath":6818,"Ġsurely":6819,"Ġconstit":6820,"charger":6821,"Ġio":6822,"Ġending":6823,"Ġimmediate":6824,"Ġcriticism":6825,"Ġschedule":6826,"cs":6827,"gues":6828,"list":6829,"mind":6830,"inter":6831,"Ġanonym":6832,"Ġempire":6833,"Ġintermediate":6834,"Ġcampaign":6835,"Ġ`":6836,"Ġnin":6837,"ilian":6838,"Ġreprodu":6839,"riend":6840,"Ġvaccine":6841,"Ġspi":6842,"Ġmarx":6843,"Ġdefining":6844,"Ġreferences":6845,"Ġprimes":6846,"Ġrecognition":6847,"Ġinches":6848,"Ġoxy":6849,"Ġmultiplied":6850,"Ġportion":6851,"Ġvacuum":6852,"Ġugly":6853,"Ġcelsius":6854,"Ġcitiz":6855,"Ġenthusi":6856,"Ġstages":6857,"Ġshrink":6858,"Ġhybri":6859,"Ġdependent":6860,"cracy":6861,"Ġdogs":6862,"Ġchosen":6863,"Ġjoined":6864,"Ġillusion":6865,"Ġtemplates":6866,"gar":6867,"Ġgut":6868,"Ġmainly":6869,"cil":6870,"vy":6871,"imal":6872,"Ġcommitt":6873,"Ġ65":6874,"Ġgym":6875,"cience":6876,"Ġ33":6877,"Ġatoms":6878,"nda":6879,"Ġproced":6880,"Ġlists":6881,"Ġcalifornia":6882,"Ġeconomics":6883,"Ġpul":6884,"Ġstrang":6885,"Ġ1980":6886,"Ġdistinct":6887,"conscious":6888,"Ġmolec":6889,"Ġ.":6890,"rection":6891,"Ġnit":6892,"Ġnons":6893,"Ġmonitors":6894,"Ġsubscription":6895,"Ġgrandm":6896,"Ġromantic":6897,"Ġhypothesis":6898,"fun":6899,"Ġhtt":6900,"Ġnaz":6901,"abit":6902,"Ġbubble":6903,"Ġreflection":6904,"Ġdetailed":6905,"Ġoccup":6906,"Ġsnapdragon":6907,"uber":6908,"Ġcab":6909,"Ġstatistics":6910,"Ġdirty":6911,"Ġbeats":6912,"ifies":6913,"Ġconsoles":6914,"Ġviewers":6915,"Ġrepeated":6916,"oto":6917,"Ġstro":6918,"Ġcomparing":6919,"Ġcarl":6920,"Ġcircles":6921,"Ġopinions":6922,"Ġfro":6923,"Ġeb":6924,"Ġrac":6925,"Ġenjoying":6926,"Ġfunding":6927,"Ġstrike":6928,"Ġmilliseconds":6929,"Ġsizes":6930,"Ġhmm":6931,"Ġnull":6932,"rain":6933,"Ġrealizing":6934,"Ġlighter":6935,"Ġinvesting":6936,"Ġcuriosity":6937,"Ġfle":6938,"Ġcloth":6939,"Ġappeal":6940,"Ġhikaro":6941,"Ġradical":6942,"Ġuncomfortable":6943,"iety":6944,"Ġshame":6945,"cred":6946,"Ġdelivery":6947,"pods":6948,"Ġlap":6949,"Ġages":6950,"Ġanticip":6951,"Ġintegrate":6952,"Ġtransparent":6953,"Ġcycles":6954,"Ġrapidly":6955,"Ġattribute":6956,"Ġego":6957,"Ġworship":6958,"Ġdocuments":6959,"soever":6960,"Ġcombin":6961,"Ġpsychological":6962,"Ġcopies":6963,"Ġliteral":6964,"Ġpolar":6965,"Ġfolding":6966,"ek":6967,"ji":6968,"press":6969,"ato":6970,"vember":6971,"Ġcosm":6972,"Ġnewer":6973,"Ġstandpoint":6974,"Ġpasses":6975,"Ġprinted":6976,"Ġadapter":6977,"Ġzeros":6978,"Ġmining":6979,"Ġscra":6980,"Ġdebt":6981,"Ġdemocracy":6982,"Ġlenses":6983,"Ġscaling":6984,"fined":6985,"Ġscenarios":6986,"hello":6987,"Ġgit":6988,"Ġinherent":6989,"Ġwhatsoever":6990,"Ġouter":6991,"Ġoverflow":6992,"Ġtrap":6993,"Ġposted":6994,"Ġuniversities":6995,"Ġthrown":6996,"Ġprepare":6997,"band":6998,"Ġexcess":6999,"Ġcompatibility":7000,"comple":7001,"Ġtraject":7002,"Ġowned":7003,"Ġrecall":7004,"Ġtouching":7005,"happ":7006,"isters":7007,"Ġdeals":7008,"Ġbots":7009,"Ġfiber":7010,"Ġ29":7011,"Ġembra":7012,"Ġjudo":7013,"Ġsurvey":7014,"tions":7015,"take":7016,"Ġaward":7017,"agger":7018,"Ġmarried":7019,"Ġsar":7020,"Ġclicking":7021,"Ġtrapped":7022,"Ġquicker":7023,"Ġgigabytes":7024,"Ġstays":7025,"Ġclosest":7026,"night":7027,"ald":7028,"Ġunknown":7029,"Ġpainting":7030,"Ġodds":7031,").":7032,"uri":7033,"Ġcrit":7034,"Ġthankfully":7035,"Ġbenchmar":7036,"bles":7037,"Ġincome":7038,"start":7039,"Ġsake":7040,"agon":7041,"Ġenvironments":7042,"Ġcommands":7043,"Ġutility":7044,"etics":7045,"Ġreserv":7046,"Ġnetworking":7047,"Ġbeginner":7048,"Ġfetch":7049,"Ġbeating":7050,"ril":7051,"Ġmexic":7052,"Ġrit":7053,"Ġprocessors":7054,"Ġsimplest":7055,"Ġstaff":7056,"Ġcontroversial":7057,"bolt":7058,"Ġlux":7059,"Ġcryst":7060,"Ġprotein":7061,"Ġmyster":7062,"Ġagi":7063,"Ġhired":7064,"Ġloading":7065,"Ġclosing":7066,"Ġthor":7067,"Ġalert":7068,"oker":7069,"Ġboat":7070,"Ġproduces":7071,"Ġrecorded":7072,"Ġprofession":7073,"Ġtonight":7074,".)":7075,"Ġjune":7076,"quote":7077,"Ġnovember":7078,"Ġdisaster":7079,"world":7080,"Ġrendering":7081,"ford":7082,"Ġstone":7083,"iled":7084,"imately":7085,"Ġcoun":7086,"Ġassumption":7087,"Ġgiga":7088,"Ġexceptions":7089,"hey":7090,"Ġdomest":7091,"Ġuna":7092,"Ġinternally":7093,"Ġcalculation":7094,"Ġsits":7095,"Ġrealm":7096,"Ġ128":7097,"Ġwinter":7098,"Ġmindset":7099,"Ġbehave":7100,"Ġvariation":7101,"Ġreinforcement":7102,"Ġcoins":7103,"Ġneck":7104,"Ġdesper":7105,"Ġfilming":7106,"Ġcalm":7107,"Ġdiscussed":7108,"Ġangles":7109,"Ġintroduction":7110,"Ġtaste":7111,"Ġoxygen":7112,"Ġturing":7113,"Ġfewer":7114,"Ġrepos":7115,"Ġdecides":7116,"Ġreaching":7117,"Ġbite":7118,"urg":7119,"Ġchristians":7120,"Ġpaths":7121,"Ġethical":7122,"Ġ1990":7123,"Ġkilow":7124,"Ġanxiety":7125,"Ġplain":7126,"Ġactively":7127,"expect":7128,"does":7129,"Ġnicer":7130,"Ġteacher":7131,"Ġdaughter":7132,"Ġidiot":7133,"different":7134,"gl":7135,"pet":7136,"ica":7137,"Ġvill":7138,"Ġinstantly":7139,"Ġdistinction":7140,"Ġstaying":7141,"Ġpromote":7142,"Ġaccepted":7143,"Ġinj":7144,"Ġjail":7145,"Ġsimilarly":7146,"Ġschools":7147,"Ġsynchron":7148,"Ġgreek":7149,"och":7150,"uting":7151,"Ġwashing":7152,"Ġenh":7153,"Ġlazy":7154,"Ġrecru":7155,"Ġreplacement":7156,"Ġinheritance":7157,"Ġconspiracy":7158,"Ġvalley":7159,"plane":7160,"wheel":7161,"Ġexploration":7162,"Ġpresentation":7163,"Ġefficiently":7164,"Ġballs":7165,"Ġwider":7166,"Ġtables":7167,"Ġfabric":7168,"Ġcarrying":7169,"Ġlegitimate":7170,"Ġnewsletter":7171,"irst":7172,"Ġrail":7173,"Ġinteractions":7174,"paper":7175,"Ġbriefly":7176,"Ġfollows":7177,"Ġtraum":7178,"Ġexploring":7179,"Ġreturned":7180,"Ġmicrophone":7181,"Ġpipeline":7182,"Ġagents":7183,"Ġregret":7184,"Ġfrequently":7185,"Ġextended":7186,"bot":7187,"Ġhp":7188,"Ġstan":7189,"Ġcheat":7190,"Ġgrind":7191,"driver":7192,"Ġenabled":7193,"Ġemissions":7194,"kb":7195,"Ġorange":7196,"Ġfiring":7197,"Ġdesigning":7198,"Ġwarrant":7199,"Ġmainstream":7200,"Ġdirector":7201,"Ġencoding":7202,"Ġrecon":7203,"Ġplaced":7204,"Ġnumer":7205,"Ġmeetings":7206,"Ġcapitalism":7207,"want":7208,"Ġthri":7209,"Ġni":7210,"Ġren":7211,"enses":7212,"Ġrelax":7213,"Ġtrivial":7214,"Ġordered":7215,"Ġtreatment":7216,"bits":7217,"Ġasp":7218,"Ġups":7219,"Ġdiet":7220,"Ġexposure":7221,"metic":7222,"Ġiteration":7223,"Ġbroadly":7224,"Ġreferring":7225,"Ġreddit":7226,"Ġaluminum":7227,"Ġwit":7228,"Ġcss":7229,"Ġhiding":7230,"Ġchest":7231,"Ġvid":7232,"Ġupside":7233,"Ġmodular":7234,"Ġsneak":7235,"Ġhorizontal":7236,"Ġportrait":7237,"Ġbatch":7238,"Ġfired":7239,"Ġpatient":7240,"Ġbin":7241,"Ġchapter":7242,"Ġaggreg":7243,"Ġsmallest":7244,"Ġartists":7245,"Ġ2014":7246,"Ġgarden":7247,"Ġhabit":7248,"Ġforcing":7249,"Ġgee":7250,"Ġanch":7251,"Ġtorch":7252,"person":7253,"Ġvertices":7254,"Ġnonsense":7255,"lam":7256,"interest":7257,"Ġrestaur":7258,"Ġsync":7259,"Ġattributes":7260,"Ġownership":7261,"hol":7262,"Ġusable":7263,"Ġphp":7264,"Ġdropping":7265,"Ġcollective":7266,"Ġdetection":7267,"Ġdiagonal":7268,"Ġyan":7269,"Ġdiam":7270,"cool":7271,"Ġoverload":7272,"Ġgovernments":7273,"Ġdrops":7274,"Ġfails":7275,"Ġinvestors":7276,"Ġinvolve":7277,"Ġrisks":7278,"Ġcontinuing":7279,"Ġpriority":7280,"Ġpent":7281,"Ġnations":7282,"Ġreputation":7283,"Ġcalculus":7284,"Ġpairs":7285,"Ġsymmetry":7286,"Ġtremendous":7287,"bby":7288,"Ġlies":7289,"Ġcopper":7290,"Ġsept":7291,"Ġwriter":7292,"Ġdevil":7293,"Ġportable":7294,"safe":7295,"Ġritual":7296,"Ġshirt":7297,"Ġbelt":7298,"Ġextens":7299,"Ġscripture":7300,"Ġlimitations":7301,"Ġinspiration":7302,"Ġjews":7303,"Ġterritory":7304,"Ġbread":7305,"Ġrum":7306,"Ġprecision":7307,"Ġschem":7308,"ographic":7309,"Ġhistorically":7310,"life":7311,"oir":7312,"Ġcompass":7313,"Ġacts":7314,"Ġthreats":7315,"Ġluckily":7316,"die":7317,"wing":7318,"Ġdoom":7319,"cam":7320,"Ġtwenty":7321,"Ġpoet":7322,"ologists":7323,"Ġtechnological":7324,"Ġoccasion":7325,"Ġarrive":7326,"Ġrubber":7327,"Ġrogan":7328,"Ġterror":7329,"Ġpeter":7330,"Ġillegal":7331,"hu":7332,"erved":7333,"Ġguest":7334,"Ġcapability":7335,"Ġreducing":7336,"Ġmultiplication":7337,"cd":7338,"pes":7339,"Ġing":7340,"Ġchill":7341,"Ġcomma":7342,"Ġterabyte":7343,"ologist":7344,"Ġframeworks":7345,"Ġestimate":7346,"Ġdreams":7347,"did":7348,"edge":7349,"Ġcovers":7350,"xture":7351,"Ġcake":7352,"Ġsignature":7353,"Ġblocking":7354,"800":7355,"Ġfried":7356,"Ġecho":7357,"Ġnewton":7358,"Ġimportance":7359,"Ġcraft":7360,"Ġcounts":7361,"Ġsimultaneously":7362,"600":7363,"eed":7364,"idents":7365,"Ġgoods":7366,"Ġovercome":7367,"Ġmodes":7368,"Ġzen":7369,"Ġbracket":7370,"Ġ700":7371,"necess":7372,"Ġdifficulty":7373,"Ġlocations":7374,"Ġcaptured":7375,"Ġinterfaces":7376,"Ġpcie":7377,"Ġtent":7378,"gebra":7379,"Ġairpods":7380,"Ġmathematicians":7381,"inians":7382,"owing":7383,"ota":7384,"Ġsends":7385,"ague":7386,"Ġtrace":7387,"Ġconsult":7388,"Ġvariant":7389,"Ġturb":7390,"reshold":7391,"Ġspotify":7392,"Ġemotions":7393,"Ġcolleagues":7394,"Ġtube":7395,"then":7396,"thern":7397,"Ġlovely":7398,"Ġconnects":7399,"Ġmanaging":7400,"Ġreduction":7401,"Ġkarl":7402,"fo":7403,"Ġsight":7404,"nday":7405,"Ġjet":7406,"Ġnotic":7407,"cale":7408,"oked":7409,"ourse":7410,"Ġbund":7411,"Ġhybrid":7412,"Ġcoal":7413,"Ġcovid":7414,"Ġeveryday":7415,"Ġsigns":7416,"Ġinfinitely":7417,"Ġjudgment":7418,"Ġastron":7419,"Ġliberal":7420,"Ġimplicit":7421,"Ġcrowd":7422,"uce":7423,"Ġtet":7424,"Ġcow":7425,"Ġdim":7426,"ember":7427,"Ġlineup":7428,"Ġgraphs":7429,"Ġmeasuring":7430,"Ġgears":7431,"Ġsacrifices":7432,"lig":7433,"itate":7434,"Ġdear":7435,"ilies":7436,"ading":7437,"Ġmerge":7438,"Ġinstrument":7439,"acter":7440,"Ġbackup":7441,"berry":7442,"Ġgamers":7443,"Ġrevel":7444,"Ġentity":7445,"Ġears":7446,"Ġadventure":7447,"Ġreduced":7448,"Ġsticks":7449,"Ġmerch":7450,"Ġcommittee":7451,"give":7452,"von":7453,"Ġted":7454,"Ġtoler":7455,"Ġsoil":7456,"Ġvpn":7457,"ards":7458,"Ġelev":7459,"Ġcontemp":7460,"Ġachieved":7461,"Ġlandscape":7462,"theless":7463,"Ġlee":7464,"ifier":7465,"Ġjoint":7466,"Ġkingdom":7467,"Ġoriented":7468,"Ġladies":7469,"being":7470,"Ġunix":7471,"Ġelection":7472,"Ġformed":7473,"Ġsummar":7474,"Ġmetaphor":7475,"Ġthunderbolt":7476,"86":7477,"both":7478,"mitted":7479,"Ġsic":7480,"Ġresearchers":7481,"Ġoutputs":7482,"Ġimmers":7483,"Ġaugust":7484,"Ġ195":7485,"Ġstrongly":7486,"Ġprague":7487,"Ġcluster":7488,"Ġseptember":7489,"fall":7490,"yeah":7491,"Ġpiz":7492,"Ġkong":7493,"Ġchick":7494,"ateful":7495,"ola":7496,"Ġpoll":7497,"Ġuseless":7498,"anging":7499,"Ġperforming":7500,"Ġagreement":7501,"Ġ+":7502,"Ġteen":7503,"Ġnevertheless":7504,"Ġmonst":7505,"Ġsmell":7506,"Ġlithography":7507,"vis":7508,"Ġassemb":7509,"Ġideally":7510,"Ġfilters":7511,"Ġsearching":7512,"vpn":7513,"eration":7514,"erge":7515,"Ġblank":7516,"Ġencoura":7517,"Ġprototype":7518,"isco":7519,"umptions":7520,"Ġtitan":7521,"Ġcorporate":7522,"elect":7523,"were":7524,"zes":7525,"Ġthreshold":7526,"Ġcree":7527,"Ġdots":7528,"mps":7529,"Ġrul":7530,"rous":7531,"Ġ256":7532,"Ġdecember":7533,"Ġapologize":7534,"hot":7535,"Ġfitting":7536,"Ġhammer":7537,"ums":7538,"Ġsubmit":7539,"Ġswim":7540,"Ġschol":7541,"Ġbrian":7542,"Ġstreams":7543,"Ġtargets":7544,"Ġhttp":7545,"Ġcongr":7546,"Ġouts":7547,"Ġ98":7548,"Ġdebugging":7549,"Ġunde":7550,"Ġexpanding":7551,"Ġniche":7552,"Ġfiction":7553,"Ġspoken":7554,"mingly":7555,"Ġorganized":7556,"Ġdivine":7557,"Ġschedul":7558,"mill":7559,"tal":7560,"Ġdb":7561,"Ġandre":7562,"Ġunbox":7563,"Ġpricing":7564,"Ġhub":7565,"Ġfinance":7566,"Ġstayed":7567,"Ġdramatic":7568,"much":7569,"human":7570,"Ġwolf":7571,"Ġpati":7572,"bell":7573,"telling":7574,"their":7575,"Ġbrakes":7576,"Ġbrackets":7577,"Ġ1970":7578,"Ġmagnet":7579,"Ġhorizon":7580,"Ġtemporary":7581,"900":7582,"Ġcompos":7583,"Ġcompleted":7584,"Ġneuros":7585,"Ġaesthetic":7586,"could":7587,"istan":7588,"Ġaccus":7589,"Ġalongside":7590,"Ġphenomena":7591,"14":7592,"esc":7593,"Ġze":7594,"Ġgods":7595,"Ġmagnitude":7596,"Ġelectro":7597,"Ġcuts":7598,"Ġenvironmental":7599,"Ġcatal":7600,"Ġcandidate":7601,"Ġcelebrate":7602,"standing":7603,"Ġdinner":7604,"Ġspecul":7605,"Ġslope":7606,"Ġapril":7607,"anny":7608,"Ġdupl":7609,"Ġow":7610,"others":7611,"Ġblender":7612,"Ġincreasingly":7613,"had":7614,"ini":7615,"Ġrigor":7616,"Ġconj":7617,"Ġdonald":7618,"pled":7619,"Ġunderstands":7620,"cla":7621,"Ġorganizations":7622,"Ġtensor":7623,"bru":7624,"Ġbay":7625,"Ġhint":7626,"Ġadvoc":7627,"Ġinstalling":7628,"Ġmanipulate":7629,"Ġtangent":7630,"Ġreservoir":7631,"Ġdelic":7632,"Ġresign":7633,"Ġabsor":7634,"Ġoptimistic":7635,"Ġgirls":7636,"Ġnavigate":7637,"Ġafrica":7638,"pol":7639,"Ġdownside":7640,"udes":7641,"Ġawk":7642,"prof":7643,"Ġpasswords":7644,"Ġencryption":7645,"good":7646,"Ġpors":7647,"around":7648,"Ġalco":7649,"Ġpressing":7650,"Ġexpressions":7651,"Ġethernet":7652,"ativity":7653,"ancy":7654,"Ġgt":7655,"Ġcompens":7656,"Ġphd":7657,"yson":7658,"akers":7659,"Ġconversion":7660,"Ġsociet":7661,"Ġethere":7662,"bruary":7663,"equ":7664,"fers":7665,"kill":7666,"Ġjose":7667,"Ġjustice":7668,"opath":7669,"Ġshuff":7670,"Ġrab":7671,"Ġgenetic":7672,"Ġaccessories":7673,"Ġscand":7674,"Ġdatabases":7675,"Ġarrived":7676,"Ġtherapy":7677,"Ġannot":7678,"Ġalgebra":7679,"Ġarrest":7680,"Ġfamilies":7681,"Ġgrown":7682,"Ġscrewed":7683,"Ġreferred":7684,"Ġevaluation":7685,"Ġdramatically":7686,"Ġmedicine":7687,"Ġgim":7688,"Ġinterests":7689,"Ġemerge":7690,"Ġpresum":7691,"Ġviral":7692,"Ġunlikely":7693,"built":7694,"Ġguaranteed":7695,"700":7696,"Ġtyler":7697,"Ġzip":7698,"Ġ55":7699,"Ġmassively":7700,"Ġtouched":7701,"Ġrepresenting":7702,"Ġpolicies":7703,"Ġcompreh":7704,"Ġexam":7705,"Ġopenings":7706,"Ġconnectors":7707,"Ġwalks":7708,"Ġbreakthrough":7709,"Ġcompetitors":7710,"Ġinspiring":7711,"Ġmexico":7712,"zed":7713,"Ġorbit":7714,"Ġfebruary":7715,"apore":7716,"Ġautonomy":7717,"Ġdepression":7718,"stop":7719,"Ġmand":7720,"Ġranges":7721,"ago":7722,"phile":7723,"Ġsmoke":7724,"Ġdecor":7725,"Ġsimulate":7726,"Ġdiagram":7727,"Ġtunnel":7728,"Ġdetermined":7729,"Ġmel":7730,"Ġoverclock":7731,"Ġelite":7732,"Ġswift":7733,"Ġsqueal":7734,"Ġapis":7735,"Ġstoring":7736,"Ġ2013":7737,"Ġdimensional":7738,"Ġdeliber":7739,"Ġjoining":7740,"Ġcharged":7741,"Ġbuildings":7742,"Ġrobust":7743,"Ġpractices":7744,"Ġestate":7745,"Ġlosses":7746,"Ġsubscribed":7747,"Ġpoker":7748,"opia":7749,"atell":7750,"Ġspots":7751,"Ġparties":7752,"Ġmessy":7753,"Ġ2010":7754,"Ġfrustrating":7755,"Ġperceive":7756,"fold":7757,"uries":7758,"Ġmapping":7759,"astroph":7760,"Ġmatte":7761,"Ġassumptions":7762,"Ġtreated":7763,"Ġaffordable":7764,"ban":7765,"Ġrip":7766,"Ġties":7767,"Ġcurves":7768,"Ġpassive":7769,"Ġsites":7770,"Ġposts":7771,"Ġconduct":7772,"Ġrussians":7773,"Ġsubscribers":7774,"Ġtransistors":7775,"Ġcriminal":7776,"Ġrewrite":7777,"Ġaud":7778,"Ġoops":7779,"Ġpink":7780,"Ġfounder":7781,"Ġkim":7782,"Ġmakers":7783,"Ġconcent":7784,"Ġwafer":7785,"Ġtriangles":7786,"Ġcraz":7787,"Ġinflation":7788,"Ġcryptocurrency":7789,"pilot":7790,"Ġbass":7791,"Ġwoke":7792,"Ġpcs":7793,"etheless":7794,"Ġuncertainty":7795,"Ġoverhead":7796,"agan":7797,"Ġflav":7798,"Ġnonetheless":7799,"comput":7800,"Ġtitles":7801,"Ġkicked":7802,"Ġmanufacturer":7803,"Ġconfirm":7804,"Ġunusual":7805,"expected":7806,"field":7807,"say":7808,"Ġtone":7809,"Ġbone":7810,"onic":7811,"Ġgenesis":7812,"Ġfunds":7813,"need":7814,"Ġscales":7815,"Ġclips":7816,"two":7817,"Ġaaron":7818,"Ġwrites":7819,"Ġ900":7820,"Ġrespo":7821,"Ġmeasures":7822,"Ġrouter":7823,"ropy":7824,"Ġjustify":7825,"Ġloving":7826,"izable":7827,"kesh":7828,"Ġmarks":7829,"Ġgrateful":7830,"Ġcoordinates":7831,"hen":7832,"Ġfract":7833,"Ġprev":7834,"Ġleague":7835,"Ġswitched":7836,"Ġcombat":7837,"Ġexecuted":7838,"Ġmotivated":7839,"Ġdrinking":7840,"Ġbreath":7841,"Ġlunch":7842,"Ġaligned":7843,"agn":7844,"Ġtrigg":7845,"Ġsubsid":7846,"Ġcatastroph":7847,"Ġforgotten":7848,"Ġcancel":7849,"Ġisolated":7850,"Ġcens":7851,"Ġdrew":7852,"been":7853,"Ġreports":7854,"Ġmillimeters":7855,"300":7856,"itect":7857,"Ġentered":7858,"Ġsingapore":7859,"Ġmotors":7860,"Ġporsche":7861,"bud":7862,"Ġ...":7863,"Ġsean":7864,"Ġvoid":7865,"Ġusbc":7866,"Ġmartial":7867,"Ġstorm":7868,"Ġford":7869,"Ġblink":7870,"Ġslip":7871,"Ġsupplies":7872,"Ġtyped":7873,"Ġlanding":7874,"Ġgranted":7875,"riage":7876,"Ġreads":7877,"Ġ194":7878,"Ġoperators":7879,"Ġfundamentals":7880,"Ġscrewdriver":7881,"Ġaccelerate":7882,"Ġexpectations":7883,"Ġpromising":7884,"Ġsalt":7885,"19":7886,"ipe":7887,"Ġicons":7888,"Ġdoors":7889,"Ġtemple":7890,"Ġdisrupt":7891,"Ġinvested":7892,"Ġmeasured":7893,"Ġmonitoring":7894,"Ġverify":7895,"Ġkilometers":7896,"Ġdemonstrate":7897,"Ġacknowledge":7898,"Ġarab":7899,"Ġgigahertz":7900,"Ġsatell":7901,"Ġlis":7902,"iters":7903,"Ġnick":7904,"Ġmeal":7905,"osis":7906,"ressed":7907,"Ġimagination":7908,"Ġflexibility":7909,"Ġinsights":7910,"screen":7911,"dp":7912,"Ġmute":7913,"thes":7914,"Ġvin":7915,"Ġexistential":7916,"Ġbrid":7917,"Ġincorpor":7918,"Ġampl":7919,"Ġwired":7920,"anda":7921,"Ġsquee":7922,"Ġgrows":7923,"Ġiniti":7924,"Ġpromised":7925,"Ġdeclar":7926,"Ġacadem":7927,"Ġtrillion":7928,"oon":7929,"Ġdistract":7930,"Ġwoo":7931,"Ġbroader":7932,"Ġdominant":7933,"Ġmathematician":7934,"Ġdomestic":7935,"iveness":7936,"eding":7937,"Ġheap":7938,"Ġbold":7939,"Ġrepet":7940,"Ġpride":7941,"Ġmodeling":7942,"Ġsicilian":7943,"Ġethereum":7944,"bt":7945,"hal":7946,"hop":7947,"vet":7948,"Ġasian":7949,"Ġregions":7950,"Ġautomated":7951,"Ġcompilers":7952,"Ġethi":7953,"Ġaffected":7954,"assis":7955,"Ġscot":7956,"Ġhalfway":7957,"Ġmasters":7958,"Ġrequirement":7959,"Ġital":7960,"Ġmere":7961,"iamp":7962,"Ġsingular":7963,"Ġspecialized":7964,"Ġcosmic":7965,"Ġbenchmarks":7966,"Ġpizza":7967,"eness":7968,"advant":7969,"Ġ1000":7970,"Ġrazer":7971,"Ġengland":7972,"male":7973,"Ġdrama":7974,"Ġdialog":7975,"Ġmortality":7976,"Ġkaf":7977,"Ġproven":7978,"Ġoffline":7979,"Ġreasonably":7980,"Ġrotating":7981,"Ġconsistently":7982,"Ġexpertise":7983,"Ġcoordinate":7984,"ura":7985,"Ġcv":7986,"opher":7987,"Ġcale":7988,"Ġstruck":7989,"Ġcompiled":7990,"Ġhurts":7991,"Ġsummary":7992,"Ġinstitution":7993,"Ġweaknesses":7994,"Ġebay":7995,"Ġrede":7996,"Ġstem":7997,"Ġjam":7998,"Ġsacred":7999,"anged":8000,"Ġinstances":8001,"Ġselfie":8002,"Ġarrays":8003,"Ġcontrollers":8004,"Ġregularly":8005,"Ġorientation":8006,"Ġwitness":8007,"hed":8008,"vol":8009,"arn":8010,"Ġneov":8011,"Ġours":8012,"Ġtranscend":8013,"Ġmeter":8014,"Ġlightweight":8015,"Ġ2012":8016,"Ġgrammar":8017,"made":8018,"number":8019,"step":8020,"Ġbutter":8021,"Ġpron":8022,"Ġrelate":8023,"Ġgamer":8024,"Ġmetric":8025,"Ġrefact":8026,"Ġordinary":8027,"Ġhotel":8028,"Ġreported":8029,"Ġlegitimately":8030,"Ġexponential":8031,"rist":8032,"Ġsaves":8033,"Ġenables":8034,"Ġinsurance":8035,"Ġtimer":8036,"Ġobservation":8037,"ouncing":8038,"Ġrarely":8039,"party":8040,"Ġsemant":8041,"bas":8042,"Ġsticking":8043,"stra":8044,"Ġimper":8045,"Ġsword":8046,"Ġfights":8047,"Ġobserve":8048,"Ġdecentral":8049,"Ġcomedy":8050,"Ġasks":8051,"Ġrealistically":8052,"Ġelsewhere":8053,"Ġcrush":8054,"Ġ85":8055,"Ġmomentum":8056,"Ġpractically":8057,"bye":8058,"Ġcalculated":8059,"Ġsalary":8060,"Ġspanish":8061,"mx":8062,"Ġgad":8063,"perform":8064,"Ġunexpected":8065,"Ġcontest":8066,"Ġkills":8067,"supp":8068,"Ġluke":8069,"Ġrevelation":8070,"Ġawkward":8071,"Ġdish":8072,"Ġandy":8073,"enn":8074,"Ġgotham":8075,"Ġhandy":8076,"Ġfailing":8077,"Ġviruses":8078,"Ġboundary":8079,"Ġcontracts":8080,"war":8081,"Ġwires":8082,"Ġbure":8083,"Ġneeding":8084,"photo":8085,"orders":8086,"Ġmilliamp":8087,"Ġarchitect":8088,"Ġresolve":8089,"kbhd":8090,"Ġunnecess":8091,"iform":8092,"Ġdistingu":8093,"Ġconceptual":8094,"Ġmaximize":8095,"Ġconstructed":8096,"Ġtuned":8097,"Ġdestruction":8098,"Ġtelesc":8099,"free":8100,"Ġhing":8101,"Ġdc":8102,"Ġcharges":8103,"Ġbrothers":8104,"Ġsacrificing":8105,"Ġsurvival":8106,"Ġcircuits":8107,"Ġparadig":8108,"Ġkafka":8109,"fs":8110,"rical":8111,"rame":8112,"Ġpersist":8113,"orship":8114,"Ġcontribute":8115,"Ġunp":8116,"Ġblunder":8117,"Ġeleg":8118,"Ġsuggestions":8119,"Ġphenomenon":8120,"only":8121,"enance":8122,"Ġinverse":8123,"Ġchassis":8124,"Ġlake":8125,"Ġships":8126,"Ġcanadian":8127,"cp":8128,"Ġfought":8129,"Ġswear":8130,"Ġfrance":8131,"Ġcleaner":8132,"Ġcleaning":8133,"Ġbalanced":8134,"Ġrectangle":8135,"Ġstroke":8136,"complete":8137,"Ġburea":8138,"Ġgang":8139,"Ġnotation":8140,"asty":8141,"odynam":8142,"Ġinterestingly":8143,"Ġassert":8144,"Ġpops":8145,"Ġforest":8146,"Ġbarrier":8147,"Ġwidely":8148,"men":8149,"Ġhong":8150,"Ġdut":8151,"Ġislam":8152,"chuckles":8153,"Ġhumility":8154,"athers":8155,"Ġ2008":8156,"Ġminimize":8157,"Ġmixture":8158,"oly":8159,"Ġpile":8160,"Ġpla":8161,"Ġ1960":8162,"Ġhype":8163,"Ġpassionate":8164,"Ġneutral":8165,"Ġpiston":8166,"dra":8167,"iors":8168,"Ġtheater":8169,"Ġosc":8170,"Ġjokes":8171,"Ġplu":8172,"Ġdesert":8173,"tex":8174,"Ġmanagers":8175,"Ġtargeting":8176,"Ġdescribes":8177,"Ġoccurs":8178,"Ġfranc":8179,"Ġthrew":8180,"Ġod":8181,"Ġeve":8182,"Ġperipher":8183,"Ġslice":8184,"licity":8185,"Ġhandles":8186,"Ġfounded":8187,"ladies":8188,"Ġdiversity":8189,"dle":8190,"Ġje":8191}