{"!":0,"\"":1,"#":2,"$":3,"%":4,"&":5,"'":6,"(":7,")":8,"*":9,"+":10,",":11,"-":12,".":13,"/":14,"0":15,"1":16,"2":17,"3":18,"4":19,"5":20,"6":21,"7":22,"8":23,"9":24,":":25,";":26,"<":27,"=":28,">":29,"?":30,"@":31,"A":32,"B":33,"C":34,"D":35,"E":36,"F":37,"G":38,"H":39,"I":40,"J":41,"K":42,"L":43,"M":44,"N":45,"O":46,"P":47,"Q":48,"R":49,"S":50,"T":51,"U":52,"V":53,"W":54,"X":55,"Y":56,"Z":57,"[":58,"\\":59,"]":60,"^":61,"_":62,"`":63,"a":64,"b":65,"c":66,"d":67,"e":68,"f":69,"g":70,"h":71,"i":72,"j":73,"k":74,"l":75,"m":76,"n":77,"o":78,"p":79,"q":80,"r":81,"s":82,"t":83,"u":84,"v":85,"w":86,"x":87,"y":88,"z":89,"{":90,"|":91,"}":92,"~":93,"¡":94,"¢":95,"£":96,"¤":97,"¥":98,"¦":99,"§":100,"¨":101,"©":102,"ª":103,"«":104,"¬":105,"®":106,"¯":107,"°":108,"±":109,"²":110,"³":111,"´":112,"µ":113,"¶":114,"·":115,"¸":116,"¹":117,"º":118,"»":119,"¼":120,"½":121,"¾":122,"¿":123,"À":124,"Á":125,"Â":126,"Ã":127,"Ä":128,"Å":129,"Æ":130,"Ç":131,"È":132,"É":133,"Ê":134,"Ë":135,"Ì":136,"Í":137,"Î":138,"Ï":139,"Ð":140,"Ñ":141,"Ò":142,"Ó":143,"Ô":144,"Õ":145,"Ö":146,"×":147,"Ø":148,"Ù":149,"Ú":150,"Û":151,"Ü":152,"Ý":153,"Þ":154,"ß":155,"à":156,"á":157,"â":158,"ã":159,"ä":160,"å":161,"æ":162,"ç":163,"è":164,"é":165,"ê":166,"ë":167,"ì":168,"í":169,"î":170,"ï":171,"ð":172,"ñ":173,"ò":174,"ó":175,"ô":176,"õ":177,"ö":178,"÷":179,"ø":180,"ù":181,"ú":182,"û":183,"ü":184,"ý":185,"þ":186,"ÿ":187,"Ā":188,"ā":189,"Ă":190,"ă":191,"Ą":192,"ą":193,"Ć":194,"ć":195,"Ĉ":196,"ĉ":197,"Ċ":198,"ċ":199,"Č":200,"č":201,"Ď":202,"ď":203,"Đ":204,"đ":205,"Ē":206,"ē":207,"Ĕ":208,"ĕ":209,"Ė":210,"ė":211,"Ę":212,"ę":213,"Ě":214,"ě":215,"Ĝ":216,"ĝ":217,"Ğ":218,"ğ":219,"Ġ":220,"ġ":221,"Ģ":222,"ģ":223,"Ĥ":224,"ĥ":225,"Ħ":226,"ħ":227,"Ĩ":228,"ĩ":229,"Ī":230,"ī":231,"Ĭ":232,"ĭ":233,"Į":234,"į":235,"İ":236,"ı":237,"Ĳ":238,"ĳ":239,"Ĵ":240,"ĵ":241,"Ķ":242,"ķ":243,"ĸ":244,"Ĺ":245,"ĺ":246,"Ļ":247,"ļ":248,"Ľ":249,"ľ":250,"Ŀ":251,"ŀ":252,"Ł":253,"ł":254,"Ń":255,"Ġt":256,"Ġa":257,"in":258,"he":259,"re":260,"on":261,"Ġthe":262,"er":263,"Ġs":264,"at":265,"Ġo":266,"Ġw":267,"nd":268,"it":269,"Ġc":270,"ou":271,"is":272,"es":273,"or":274,"en":275,"ing":276,"Ġb":277,"Ġp":278,"Ġf":279,"an":280,"al":281,"Ġto":282,"ed":283,"Ġm":284,"Ġand":285,"čĊ":286,"Ġof":287,"ar":288,"Ġin":289,"Ġd":290,"ic":291,"Ġth":292,"le":293,"ion":294,"Ġh":295,"om":296,"as":297,"Ġy":298,"ent":299,"ll":300,"Ġl":301,"Ġyou":302,"us":303,"Ġn":304,"Ġe":305,"ve":306,"ro":307,"Ġre":308,"ĠI":309,"ct":310,"Ġg":311,"ly":312,"Ġbe":313,"ot":314,"ut":315,"et":316,"Ġis":317,"ow":318,"ĠT":319,"id":320,"Ġthat":321,"ur":322,"ĠS":323,"ce":324,"ay":325,"Ġfor":326,"st":327,"im":328,"Ġon":329,"ig":330,"ĠA":331,"ĠC":332,"ation":333,"âĢ":334,"ad":335,"Ġit":336,"ver":337,"ch":338,"Ġhe":339,"ith":340,"am":341,"Ġwe":342,"il":343,"se":344,"ol":345,"Ġwith":346,"Ġst":347,"ir":348,"Ġwh":349,"Ġan":350,"if":351,"ĠP":352,"Ġu":353,"ra":354,"ĠM":355,"Ġor":356,"Ġas":357,"ers":358,"Ġpro":359,"ke":360,"ess":361,"Ġcon":362,"ĠB":363,"Ġha":364,"Ġare":365,"ge":366,"oo":367,"ill":368,"ment":369,"ate":370,"ter":371,"her":372,"ul":373,"ab":374,"ld":375,"igh":376,"ri":377,"pp":378,"Ġcom":379,"Ġthis":380,"'s":381,"Ġse":382,"ist":383,"ĠW":384,"Ġyour":385,"Ġde":386,"ac":387,"est":388,"ĠD":389,"Ġex":390,"ore":391,"Ġnot":392,"ĠH":393,"ĠF":394,"ity":395,"th":396,"Ġus":397,"qu":398,"ust":399,"Ġwas":400,"ĠR":401,"ant":402,"pe":403,"Ġsu":404,"Ġat":405,"ĠThe":406,"âĢĻ":407,"Ġcan":408,"ive":409,"ight":410,"Ġr":411,"ain":412,"ĠĠ":413,"rom":414,"Ġne":415,"Ġv":416,"ĠL":417,"ies":418,"Ġhave":419,"te":420,"res":421,"Ġso":422,"ĠG":423,"and":424,"ĠE":425,"ort":426,"Ġby":427,"op":428,"un":429,"Ġsh":430,"os":431,"art":432,"el":433,"Ġdo":434,"um":435,"nt":436,"em":437,"Ġle":438,"Ġal":439,"ard":440,"Ġfrom":441,"Ġk":442,"Ġch":443,"od":444,"Ġall":445,"ĠN":446,"red":447,"ould":448,"ally":449,"all":450,"iv":451,"ome":452,"Ġj":453,"ĠO":454,"Ġ(":455,"out":456,"ie":457,"our":458,"Ġab":459,"Ġme":460,"ud":461,"oc":462,"Ġwor":463,"gh":464,"per":465,"ost":466,"pt":467,"Ġbut":468,"ure":469,"ction":470,"Ġwhe":471,"Ġad":472,"ide":473,"rou":474,"Ġ2":475,"Ġthey":476,"Ġwill":477,"ial":478,"Ġ1":479,"fe":480,"Ġli":481,"king":482,"ine":483,"for":484,"ag":485,"Ġpl":486,"ich":487,"Ġen":488,"ther":489,"pl":490,"Ġgo":491,"age":492,"able":493,"ice":494,"cc":495,"ĠâĢ":496,"ite":497,"ind":498,"very":499,"Ġour":500,"are":501,"Ġlike":502,"ast":503,"ĠU":504,"Ġup":505,"og":506,"Ġany":507,"Ġtr":508,"Ġma":509,"Ġhis":510,"ance":511,"ook":512,"Ġmy":513,"ĠJ":514,"form":515,"Ġtheir":516,"Ġim":517,"ions":518,"Ġout":519,"ous":520,"ated":521,"one":522,"iz":523,"ear":524,"now":525,"ack":526,"Ġone":527,"ime":528,"Ġcomp":529,"Ġwhich":530,"ĠIn":531,"Ġcont":532,"Ġhas":533,"ame":534,"ia":535,"ong":536,"ans":537,"ip":538,"Ġte":539,"erv":540,"ib":541,"Ġthere":542,"Ġmore":543,"act":544,"ood":545,"Ġman":546,"Ġwhat":547,"Ġcl":548,"cl":549,"Ġif":550,"Ġres":551,"ign":552,"Ġapp":553,"ĠY":554,"'t":555,"ations":556,"Ġknow":557,"ence":558,"Ġabout":559,"ne":560,"ail":561,"du":562,"so":563,"ire":564,"ĠTh":565,"Ġfe":566,"ase":567,"ry":568,"to":569,"Ġwho":570,"Ġother":571,"ree":572,"ks":573,"ep":574,"Ġjust":575,"reat":576,"Ġ20":577,"ult":578,"Ġhad":579,"ace":580,"ber":581,"Ġtime":582,"Ġun":583,"The":584,"Ġthem":585,"Ġdis":586,"Ġmay":587,"ical":588,"Ġper":589,"ue":590,"ary":591,"ap":592,"Ġsa":593,"ount":594,"ven":595,"ass":596,"Ġag":597,"Ġqu":598,"ff":599,"ach":600,"Ġno":601,"Ġher":602,"Ġpart":603,"Ġsome":604,"ings":605,"Ġalso":606,"ub":607,"ress":608,"Ġoff":609,"nder":610,"âĢĿ":611,"Ġwhen":612,"Ġacc":613,"ĠK":614,"ĠSt":615,"Ġget":616,"ru":617,"Ġsp":618,"ile":619,"ose":620,"ays":621,"use":622,"ors":623,"ition":624,"vel":625,"Ġta":626,"end":627,"ĠV":628,"Ġimp":629,"ord":630,"ark":631,"Ġhow":632,"Ġbec":633,"Ġar":634,"00":635,"Ġwere":636,"av":637,"xt":638,"Ġright":639,"ove":640,"Ġwould":641,"Ġpre":642,"Ġprov":643,"Ġpe":644,"Ġbeen":645,"ĠâĢľ":646,"Ġthese":647,"ink":648,"bs":649,"Ġspe":650,"ond":651,"Ġover":652,"ough":653,"ick":654,"ĠCh":655,"Ġinto":656,"ck":657,"Ġneed":658,"ish":659,"ents":660,"Ġuse":661,"wn":662,"ens":663,"ments":664,"Ġnew":665,"rough":666,"ren":667,"itt":668,"ons":669,"Ġcomm":670,"Ġem":671,"ound":672,"ause":673,"ang":674,"Ġshe":675,"Ġthan":676,"ces":677,"Ġhim":678,"Ġsc":679,"Ġro":680,"ater":681,"formation":682,"ĠWe":683,"ild":684,"own":685,"ĠIt":686,"ual":687,"ices":688,"Ġam":689,"Ġ\"":690,"ory":691,"lic":692,"Ġsee":693,"ople":694,"Ġind":695,"int":696,"Ġrec":697,"Ġunder":698,"old":699,"ov":700,"Ġwork":701,"cial":702,"ĠĠĠĠ":703,"ect":704,"Ġnow":705,"ak":706,"Ġdes":707,"ious":708,"'re":709,"Ġadd":710,"..":711,"ade":712,"Ġits":713,"lect":714,"of":715,"sel":716,"Ġthen":717,"ĠHe":718,"Ġhere":719,"ific":720,"oy":721,"clud":722,"vers":723,"Ġgoing":724,"Ġcons":725,"ning":726,"erm":727,"ob":728,"Ġpeople":729,"we":730,"Ġyear":731,"oll":732,"Ġonly":733,"irst":734,"Ġact":735,"ise":736,"ric":737,"Ġevery":738,"Ġserv":739,"ĠThis":740,"ates":741,"Ġwant":742,"cess":743,"Ġmake":744,"Ġaf":745,"erson":746,"Ġwell":747,"ject":748,"Ġwhere":749,"Ġinformation":750,"ĠRe":751,"ities":752,"ility":753,"Ġthrough":754,"lp":755,"Ġbet":756,"tern":757,"hing":758,"ian":759,"fect":760,"Ġreg":761,"Ġdon":762,"Ġ-":763,"ah":764,"??":765,"ont":766,"Ġvery":767,"rent":768,"iss":769,"Ġtw":770,"hed":771,"Ġhelp":772,"row":773,"Ġexper":774,"aw":775,"ull":776,"Ġbl":777,"li":778,"ph":779,"ating":780,"Ġpr":781,"Ġcould":782,"Ġinclud":783,"ft":784,"Ġsuch":785,"Ġ3":786,"ible":787,"Ġtra":788,"ert":789,"ience":790,"fore":791,"Ġbecause":792,"Ġback":793,"Ġway":794,"urn":795,"Ġprodu":796,"Ġfirst":797,"ĠPro":798,"ife":799,"Ġdif":800,"ange":801,"iew":802,"iness":803,"ful":804,"Ġrep":805,"olog":806,"Ġass":807,"Ġmost":808,"Ġrem":809,"ily":810,"'m":811,"Ġph":812,"Ġdid":813,"ata":814,"Ġshould":815,"rib":816,"ĠYou":817,"the":818,"Ġgood":819,"Ġgu":820,"ures":821,"oss":822,"Ġbu":823,"ty":824,"Ġ&":825,"les":826,"gr":827,"Ġsupp":828,"ting":829,"com":830,"Ġperson":831,"Ġinv":832,"ited":833,"ced":834,"Ġeven":835,"round":836,"Ġbo":837,"Ġthink":838,"ĠAnd":839,"Ġcol":840,"Ġke":841,"amp":842,"Ġent":843,"ics":844,"pect":845,"uch":846,"Ġsaid":847,"Ġpo":848,"Ġlook":849,"Ġrel":850,"ss":851,"Ġrequ":852,"Ġtwo":853,"mer":854,"Ġfl":855,"ys":856,"Ġown":857,"Ġ[":858,"ath":859,"Ġsy":860,"ĠCom":861,"Ġsec":862,"riv":863,"Ġinte":864,"usiness":865,"Ġinc":866,"ower":867,"ew":868,"Ġco":869,"Ġset":870,"Ġdown":871,"Ġlet":872,"self":873,"ular":874,"hen":875,"ĠUn":876,"any":877,"Ġagain":878,"Ġi":879,"get":880,"ward":881,"ract":882,"Ġev":883,"ener":884,"ually":885,"Ġinst":886,"ident":887,"ci":888,"alth":889,"Ġac":890,"Ġmany":891,"uring":892,"Ġplay":893,"ĠIf":894,"rit":895,"ative":896,"omet":897,"oth":898,"ock":899,"ts":900,"ied":901,"Ġ202":902,"Ġgreat":903,"--":904,"land":905,"Ġafter":906,"als":907,"its":908,"Ġprovid":909,"ational":910,"Ġdoes":911,"cy":912,"chn":913,"Ġsay":914,"Ġtrans":915,"Ġdiffe":916,"hip":917,"ased":918,"other":919,"Ġthose":920,"stem":921,"Ġsm":922,"line":923,"Ġmuch":924,"Ġtake":925,"ps":926,"Ġmod":927,"Ġpost":928,"Ġreally":929,"ĠSe":930,"Ġpur":931,"Ġuh":932,"Ġins":933,"Ġfin":934,"air":935,"Ġmade":936,"Ġbefore":937,"Ġfind":938,"ng":939,"Ġlong":940,"ĠWh":941,"velop":942,"ĠFor":943,"Ġyears":944,"Ġra":945,"Ġtoo":946,"led":947,"Ġhigh":948,"Ġsub":949,"ness":950,"Ġbeing":951,"Ġwebs":952,"ator":953,"arch":954,"ble":955,"und":956,"Ġdata":957,"ages":958,"Ġworld":959,"hes":960,"Ġbel":961,"arket":962,").":963,"Ġstart":964,"cept":965,"Ġhand":966,"ustom":967,"be":968,"Ġgot":969,"Ġatt":970,"Ġcre":971,"ner":972,"Ġbusiness":973,"ient":974,"ctions":975,"gan":976,"ittle":977,"ĠâĢĵ":978,"Ġdec":979,"Ġused":980,"Ġread":981,"rest":982,"Ġret":983,"Ġprocess":984,"Ġlife":985,"Ġsomet":986,"Ġcar":987,"ave":988,"Ġend":989,"Ġcall":990,"olut":991,"ool":992,"Ġproduct":993,"ĠAn":994,"Ġvis":995,"Ġbr":996,"lease":997,"Ġopt":998,"Ġdet":999,"min":1000,"Ġthough":1001,"Ġform":1002,"ality":1003,"Ġstr":1004,"Ġexp":1005,"Ġav":1006,"Ġ4":1007,"way":1008,"ĠDe":1009,"Ġye":1010,"ĠAr":1011,"Ġday":1012,"Ġpres":1013,"Ġche":1014,"In":1015,"usic":1016,"ollow":1017,"Ġaut":1018,"ict":1019,"ional":1020,"Ġsim":1021,"ize":1022,"Ġstud":1023,"ather":1024,"stand":1025,"Ġtop":1026,"Ġlittle":1027,"Ġsign":1028,"Ġdisc":1029,"Ġbest":1030,"istr":1031,"Ġinter":1032,"Ġnum":1033,".\"":1034,"Ġadv":1035,"ives":1036,"der":1037,"Th":1038,"ene":1039,"Ġdifferent":1040,"Ġ5":1041,"text":1042,"Ġloc":1043,"Ġdesign":1044,"ublic":1045,"ER":1046,"Ġsystem":1047,"Ġthings":1048,"arm":1049,"ouse":1050,"Ġob":1051,"Ġwhile":1052,"less":1053,"day":1054,"ever":1055,"Ġaccess":1056,"Ġwebsite":1057,"ody":1058,"ĠSh":1059,"Ġsur":1060,"Ġcome":1061,"ized":1062,"Ġprof":1063,"Ġfun":1064,"ork":1065,"ank":1066,"Ġfeel":1067,"Ġdevelop":1068,"up":1069,"ĠĠĠĠĠ":1070,"Ġshow":1071,"io":1072,"Ġcommun":1073,"Ġop":1074,"Ġhome":1075,"ten":1076,"Ġed":1077,"Ġtechn":1078,"ines":1079,"Ġvar":1080,"Ġmon":1081,"Ġboard":1082,"Ġmet":1083,"Ġwithout":1084,"ology":1085,"Ġeach":1086,"ale":1087,"Ġcare":1088,"thing":1089,"Ġart":1090,"ĠAd":1091,"Ġ19":1092,"Ġimport":1093,"Ġcomple":1094,"olic":1095,"Ġyeah":1096,"Ġ201":1097,"Ġref":1098,"Ġpass":1099,"Ġexperience":1100,"Ġfollow":1101,"Ġsupport":1102,"ital":1103,"Ġgl":1104,"Ġval":1105,"),":1106,"Ġlead":1107,"ffect":1108,"Ġsame":1109,"ween":1110,"Ġhapp":1111,"Ġchar":1112,"Ġmed":1113,"read":1114,"az":1115,"ving":1116,"Ġmust":1117,"Ġcustom":1118,"Ġcur":1119,"Ġallow":1120,"Ġmin":1121,"ues":1122,"ĠIs":1123,"Ġcour":1124,"kes":1125,"irect":1126,"erg":1127,"ake":1128,"Ġstill":1129,"Ġlist":1130,"Ġappro":1131,"Ġlot":1132,"ering":1133,"Ġcount":1134,"'ll":1135,"ways":1136,"Ġfam":1137,"ety":1138,"au":1139,"ĠAs":1140,"ature":1141,"Ġear":1142,"Ġsl":1143,"atch":1144,"ix":1145,"Ġgr":1146,"gram":1147,"Ġusing":1148,"Ġposs":1149,"ically":1150,"view":1151,"oun":1152,"ern":1153,"Ġcle":1154,"ying":1155,"Ġreal":1156,"Ġresp":1157,"ĠBe":1158,"ash":1159,"ple":1160,"Ġbetween":1161,"Ġmarket":1162,"Ġsomething":1163,"rol":1164,"Ġmem":1165,"Ġgener":1166,"'ve":1167,"ertain":1168,"ĠNew":1169,"Ġ|":1170,"Ġprovide":1171,"ense":1172,"Ġkind":1173,"ivers":1174,"riend":1175,"imes":1176,"ins":1177,"Ġeas":1178,"We":1179,"oftext":1180,"<|":1181,"|>":1182,"endoftext":1183,"ince":1184,"Ġcor":1185,"Ġservices":1186,"Ġpartic":1187,"ason":1188,"Ġspec":1189,"ered":1190,"Ġty":1191,"Ġsk":1192,"Ġmight":1193,"ars":1194,"ames":1195,"ired":1196,"Ġboth":1197,"Ġrece":1198,"Ġplace":1199,"acy":1200,"Ġfound":1201,"Ġhealth":1202,"ware":1203,"Ġconf":1204,"Ġlaw":1205,"erms":1206,"ĠBut":1207,"Ġincluding":1208,"Ġpoint":1209,"ĠAl":1210,"ĠAll":1211,"vent":1212,"ĠServ":1213,"alk":1214,"ministr":1215,"Ġput":1216,"Ġdef":1217,"Ġext":1218,"ateg":1219,"orts":1220,"Ġkeep":1221,"Ġaround":1222,"Ġchild":1223,"ms":1224,"iqu":1225,"over":1226,"Ġum":1227,"ĠLe":1228,"ĠEx":1229,"Ġpersonal":1230,"ability":1231,"Ġeffect":1232,"ooking":1233,"Ġunderstand":1234,"Ġwithin":1235,"pr":1236,"ird":1237,"con":1238,"Ġcook":1239,"ural":1240,"ross":1241,"ants":1242,"Ġfull":1243,"rand":1244,"ĠCl":1245,"Ġinterest":1246,"chool":1247,"ling":1248,"Ġdist":1249,"ved":1250,"Ġthing":1251,"uc":1252,"Ġleg":1253,"Ġlast":1254,"Ġpay":1255,"ining":1256,"Wh":1257,"ĠThey":1258,"ribut":1259,"ets":1260,"ivid":1261,"Ġmain":1262,"ential":1263,"Ġexpl":1264,"pos":1265,"Ġcontin":1266,"Ġser":1267,"Ġfree":1268,"kay":1269,"oad":1270,"Ġlear":1271,"Ġshall":1272,"ĠTe":1273,"man":1274,"Ġoh":1275,"IN":1276,"Ġgive":1277,"Ġnever":1278,"Ġwhy":1279,"ves":1280,"Ġmean":1281,"ton":1282,"Ġresult":1283,"iving":1284,"Ġteam":1285,"ailable":1286,"roup":1287,"ined":1288,"gg":1289,"Ġfact":1290,"Ġservice":1291,"Ġproper":1292,"ier":1293,"Ġalways":1294,"here":1295,"ared":1296,"Ġ$":1297,"Ġimportant":1298,"Ġlove":1299,"ĠTo":1300,"Ġnumber":1301,"not":1302,"Ġpower":1303,"aut":1304,"Ġinf":1305,"Ġanother":1306,"Ġthree":1307,"Ġokay":1308,"Ġens":1309,"ffic":1310,"ccess":1311,",\"":1312,"Ġquest":1313,"Ġonline":1314,"ĠHow":1315,"tt":1316,"ĠGod":1317,"ES":1318,"Ġactually":1319,"Ġbook":1320,"ished":1321,"20":1322,"ON":1323,"ĠPl":1324,"ien":1325,"Ġstate":1326,"itions":1327,"pend":1328,"ĠTr":1329,"Ġsure":1330,"ĠInd":1331,"Ġwr":1332,"Ġadministr":1333,"Ġfr":1334,"Ġinvest":1335,"Ġpat":1336,"Ġorder":1337,"Ġaccount":1338,"Ġstand":1339,"ield":1340,"Ġide":1341,"Ġopen":1342,"Ġbetter":1343,"Ġbro":1344,"Ġlar":1345,"ism":1346,"ode":1347,"ately":1348,"att":1349,"Ġrun":1350,"Ġint":1351,"Ġprote":1352,"Ġperform":1353,"Ġold":1354,"Ġnext":1355,"Ġrest":1356,"gin":1357,"Ġbuild":1358,"me":1359,"ision":1360,"Ġ6":1361,"hor":1362,"cing":1363,"ret":1364,"eng":1365,"ĠOn":1366,"oci":1367,"Ġplan":1368,"uss":1369,"Ġduring":1370,"agement":1371,"bers":1372,"Ġeng":1373,"Ġiss":1374,"ery":1375,"????":1376,"Ġlevel":1377,"ĠCont":1378,"Ġorgan":1379,"meric":1380,"oney":1381,"Ġavailable":1382,"Ġgame":1383,"Ġable":1384,"ividual":1385,"This":1386,"Ġchange":1387,"Ġcompany":1388,"ron":1389,"Ġprogram":1390,"Ġmaking":1391,"ell":1392,"ĠRes":1393,"Ġemail":1394,"Ġbelie":1395,"Ġ'":1396,"ists":1397,"Ġopp":1398,"ights":1399,"raph":1400,"Ġsmall":1401,"rict":1402,"oot":1403,"Ġ10":1404,"sc":1405,"ĠBl":1406,"ploy":1407,"Ġprom":1408,"tain":1409,"...":1410,"ĠQ":1411,"Ġuser":1412,"Ġname":1413,"Ġwater":1414,"Ġfew":1415,"Music":1416,"Ġcas":1417,"ruct":1418,"ission":1419,"ified":1420,"Ġest":1421,"iron":1422,"Ġdirect":1423,"els":1424,"Ġfriend":1425,"ĠSp":1426,"Ġequ":1427,"ĠShe":1428,"ify":1429,"Ġconst":1430,"ina":1431,"Ġoper":1432,"ider":1433,"Ġbig":1434,"Ġhead":1435,"Ġindividual":1436,"Ġoffer":1437,"Ġel":1438,"Ġcontent":1439,"Ġincre":1440,"Ġpos":1441,"co":1442,"br":1443,"iversity":1444,"AT":1445,"atter":1446,"ortun":1447,"Ġcreat":1448,"Ġapplic":1449,"Ġcond":1450,"Ġcost":1451,"aterial":1452,"Ġhum":1453,"let":1454,"ĠCon":1455,"Ġproject":1456,"por":1457,"Ġcertain":1458,"Ġbas":1459,"ization":1460,"Ġpract":1461,"Ġagree":1462,"ites":1463,"Ġask":1464,"med":1465,"Ġprofess":1466,"Ġgrow":1467,"ĠAmeric":1468,"Ġview":1469,"Ġproble":1470,"ably":1471,"OR":1472,"Ġaway":1473,"Ġchang":1474,"Ġcookies":1475,"ĠThere":1476,"olicy":1477,"omm":1478,"rist":1479,"ĠTH":1480,"Ġpublic":1481,"outh":1482,"urity":1483,"ĠPh":1484,"AN":1485,"Ġreturn":1486,"orn":1487,"Ġsite":1488,"Ġcontact":1489,"Ġbeh":1490,"Ġca":1491,"Ġword":1492,"Ġaddition":1493,"Ġhard":1494,"Ġimpro":1495,"Ġcreate":1496,"ex":1497,"ising":1498,"000":1499,"ĠSo":1500,"ĠWith":1501,"Ġspecific":1502,"Ġlim":1503,"Ġtrad":1504,"Ġwom":1505,"Ġ7":1506,"Ġdi":1507,"ral":1508,"Ġusers":1509,"ĠMan":1510,"ax":1511,"ug":1512,"Ġaddress":1513,"ĠZ":1514,"ino":1515,"ute":1516,"rence":1517,"ems":1518,"ript":1519,"Ġtell":1520,"ently":1521,"ention":1522,"reen":1523,"Ġpriv":1524,"Ġconne":1525,"ĠSc":1526,"tem":1527,"ither":1528,"Ġdays":1529,"lection":1530,"Ġbre":1531,"Ġjo":1532,"Ġturn":1533,"Ġcent":1534,"ww":1535,"Ġupon":1536,"Ġident":1537,"ream":1538,"Ġfil":1539,"ĠThese":1540,"Ġcase":1541,"Ġtest":1542,"lement":1543,"ĠComm":1544,"AR":1545,"ised":1546,"ior":1547,"opy":1548,"Ġagainst":1549,"Ġoften":1550,".âĢĿ":1551,"ek":1552,"ients":1553,"Ġproducts":1554,"Ġfamily":1555,"cu":1556,"lish":1557,"ĠJo":1558,"Ġrese":1559,"Ġve":1560,"Ġpossible":1561,"Ġcap":1562,"orm":1563,"Ġ2024":1564,"ories":1565,"part":1566,"Ġmove":1567,"ived":1568,"ample":1569,"na":1570,"ote":1571,"ique":1572,"Ġ8":1573,"atures":1574,"ney":1575,"Ġcourse":1576,"Ġconc":1577,"EN":1578,"Ġlooking":1579,"Ġvisit":1580,"Ġmonth":1581,"work":1582,"Ġless":1583,"ken":1584,"aim":1585,"enef":1586,"ipp":1587,"iven":1588,"Ġes":1589,"Ġvide":1590,"ards":1591,"Ġdoing":1592,"port":1593,"Ġsecond":1594,"ĠYour":1595,"Ġpot":1596,"Ġmeans":1597,"Ġmind":1598,"viron":1599,"Ġbit":1600,"Ġmaterial":1601,"Ġdem":1602,"ium":1603,"ĠCol":1604,"Ġmoney":1605,"Ġstore":1606,"Ġclass":1607,"itive":1608,"Ġland":1609,"Ġintern":1610,"orth":1611,"Ġindust":1612,"ĠNo":1613,"Ġmar":1614,"Ġcr":1615,"ser":1616,"aking":1617,"ec":1618,"Ġmov":1619,"aster":1620,"ĠCan":1621,"Ġ9":1622,"Ġdev":1623,"ains":1624,"Ġhouse":1625,"ted":1626,"ĠComp":1627,"ills":1628,"duct":1629,"icle":1630,"Ġocc":1631,"oor":1632,"IT":1633,"Ġmen":1634,"ocus":1635,"ination":1636,"Ġlog":1637,"Ġtri":1638,"ury":1639,"Ġactiv":1640,"Ġdone":1641,"Ġwar":1642,"Ġspecial":1643,"oice":1644,"bo":1645,"inal":1646,"uture":1647,"Ġtry":1648,"err":1649,"ait":1650,"ger":1651,"Ġpresent":1652,"Ġneeds":1653,"You":1654,"Ġlight":1655,"Ġrequire":1656,"ency":1657,"Ġfac":1658,"Ġsince":1659,"Ġever":1660,"aly":1661,"Ġonce":1662,"vern":1663,"Ġsuccess":1664,"ope":1665,"Ġdra":1666,"ĠEng":1667,"Ġcontrol":1668,"Ġadministrator":1669,"fter":1670,"olution":1671,"Ġdetail":1672,"ancial":1673,"Ġworking":1674,"Ġhist":1675,"Ġcame":1676,"Ġrespons":1677,"Ġhaving":1678,"Ġey":1679,"Ġthought":1680,"Ġtoday":1681,"ead":1682,"Ġparticular":1683,"Ġcurrent":1684,"Ġsoft":1685,"Ġpop":1686,"Ġpar":1687,"Ġmom":1688,"ĠWhat":1689,"ĠFr":1690,"ibility":1691,"wards":1692,"ĠMar":1693,"pro":1694,"ances":1695,"Ġunt":1696,"Ġmeet":1697,"Ġ200":1698,"app":1699,"joy":1700,"Ġleft":1701,"Ġdidn":1702,"gether":1703,"Ġpa":1704,"Ġtogether":1705,"Ġelect":1706,"sh":1707,"Ġfunction":1708,"ours":1709,"Ġgovern":1710,"de":1711,"ready":1712,"Ġroom":1713,"Ġhold":1714,"Ġair":1715,"ann":1716,"AL":1717,"Ġworks":1718,"ured":1719,"Ġlearn":1720,"idd":1721,"Ġbased":1722,"aring":1723,"Ġthird":1724,"It":1725,"urther":1726,"Ġbenef":1727,"Ġris":1728,"hod":1729,"Ġcheck":1730,"Ġterms":1731,"//":1732,"right":1733,"vironment":1734,"ley":1735,"uro":1736,"Ġreason":1737,"Ġside":1738,"ged":1739,"10":1740,"Ġpol":1741,"Ġtre":1742,"ump":1743,"vious":1744,"If":1745,"Ġeverything":1746,"imate":1747,"Ġquick":1748,"ĠUS":1749,"Ġcomplete":1750,"Ġmult":1751,"Ġmess":1752,"by":1753,"Ġtreat":1754,"tend":1755,"conom":1756,"uck":1757,"Ġbecome":1758,"Ġquality":1759,"ĠPr":1760,"Ġemploy":1761,"Ġcalled":1762,"ries":1763,"Ġwent":1764,"Ġpurch":1765,"ĠMr":1766,"wh":1767,"Ġhappen":1768,"side":1769,"Ġtyp":1770,"Ġsw":1771,"Ġalready":1772,"Ġsocial":1773,"rap":1774,"ators":1775,"Ġperfect":1776,"Ġschool":1777,"Ġtimes":1778,"crib":1779,"Ġappear":1780,"Ġfore":1781,"IC":1782,"Ġfocus":1783,"Ġexample":1784,"ai":1785,"IS":1786,"Ġpri":1787,"ĠSu":1788,"fer":1789,"Ġdeal":1790,"Ġpage":1791,"most":1792,"ĠChrist":1793,"ott":1794,"Ġgroup":1795,"Ġfuture":1796,"Ġfour":1797,"Ġspace":1798,"ots":1799,"arent":1800,"ĠMed":1801,"Ġacross":1802,"ape":1803,"ĠOur":1804,"Ġkey":1805,"Ġsing":1806,"ĠOr":1807,"Ġchildren":1808,"ee":1809,"Ġenough":1810,"ĠUniversity":1811,"Ġfollowing":1812,"Ġnecess":1813,"Ġlarge":1814,"Ġcommunity":1815,"Ġtool":1816,"Ġfar":1817,"Ġdeli":1818,"ED":1819,"Ġtext":1820,"new":1821,"Ġheart":1822,"play":1823,"Ġauthor":1824,"Ġeasy":1825,"cript":1826,"vert":1827,"Ġarea":1828,"ĠBy":1829,"ats":1830,"lev":1831,"Ġpain":1832,"Ġbeaut":1833,"oint":1834,"ully":1835,"Ġcountry":1836,"mb":1837,"Ġvari":1838,"alf":1839,"Ġrequest":1840,"Ġcannot":1841,"Ġlive":1842,"Ġreport":1843,"resent":1844,"ister":1845,"Ġenjoy":1846,"Ġresearch":1847,"Ġmakes":1848,"ication":1849,"Ġexpect":1850,"Ġbody":1851,"yle":1852,"obal":1853,"Ġwhole":1854,"ĠCent":1855,"atform":1856,"Ġalong":1857,"Ġess":1858,"Ġothers":1859,"Ġdri":1860,"Ġwin":1861,"irl":1862,"Ġoffers":1863,"Ġlocal":1864,"Ġinclude":1865,"Ġnon":1866,"ane":1867,"Ġstep":1868,"Ġgetting":1869,"ental":1870,"Ġfeatures":1871,"ĠRep":1872,"ĠWhen":1873,"Ġyoung":1874,"Ġcomes":1875,"Ġ=":1876,"Ġsearch":1877,"oose":1878,"ids":1879,"Ġplease":1880,"Ġevent":1881,"Ġtem":1882,"osed":1883,"How":1884,"room":1885,"Ġfood":1886,"Ġcollect":1887,"Ġopportun":1888,"ush":1889,"igital":1890,"ilities":1891,"ember":1892,"Ġdoesn":1893,"Ġprovided":1894,"ales":1895,"ledge":1896,"ĠÂ":1897,"body":1898,"Ġcompan":1899,"ĠAt":1900,"Ġyet":1901,"ĠServices":1902,"Ġdr":1903,"Ġwhether":1904,"Ġprotect":1905,"Ġann":1906,"Ġreview":1907,"uff":1908,"ĠEn":1909,"Ġbring":1910,"âĢľ":1911,"ĠCar":1912,"Ġvideo":1913,"atic":1914,"Ġsignific":1915,"Ġperm":1916,"clus":1917,"Ġensure":1918,"Ġclear":1919,"ĠUnited":1920,"Ġdel":1921,"âĢĶ":1922,"Ġprob":1923,"ĠGu":1924,"Ġnear":1925,"veral":1926,"Ġwrit":1927,"augh":1928,"Ġnet":1929,"Ġcharact":1930,"ĠThat":1931,");":1932,"Ġline":1933,"Ch":1934,"What":1935,"lf":1936,"Ġvarious":1937,"Ġchall":1938,"Ġredu":1939,"Ġhuman":1940,"Ġrecomm":1941,"Ġlink":1942,"Ġrecommend":1943,"ĠIntern":1944,"ners":1945,"Ġstrateg":1946,"ively":1947,"ources":1948,"net":1949,"ides":1950,"ony":1951,"illion":1952,"St":1953,"Ġcult":1954,"Ġeduc":1955,"aging":1956,"Ġtax":1957,"Ġsit":1958,"Ġface":1959,"iod":1960,"ĠFl":1961,"Ġsubject":1962,"ogn":1963,"Ġrights":1964,"par":1965,"19":1966,"amb":1967,"Ġdevelopment":1968,"Ġmethod":1969,"Ġindustry":1970,"atural":1971,"Ġbelieve":1972,"Ġ18":1973,"Ġnothing":1974,"Ġstrong":1975,"Ġrecord":1976,"ift":1977,"idence":1978,"ained":1979,"ched":1980,"Ġ/":1981,"rop":1982,"Ġlegal":1983,"Ġshort":1984,"Ġinvol":1985,"?\"":1986,"ĠNe":1987,"selves":1988,"Ġsol":1989,"ows":1990,"Ġpast":1991,"://":1992,"itted":1993,"Ġdam":1994,"Ġoptions":1995,"Ġuntil":1996,"Ġenvironment":1997,"ches":1998,"Ġbegin":1999,"Ġknown":2000,"Ġtalk":2001,"Ġshare":2002,"Ġmembers":2003,"Ġseveral":2004,"Ġtook":2005,"aces":2006,"Ġvalue":2007,"Ġla":2008,"ĠHowever":2009,"BB":2010,"verse":2011,"cle":2012,"Ġdocu":2013,"oring":2014,"Ġorig":2015,"Ġconsider":2016,"Ġcompl":2017,"Ġquestion":2018,"ĠSy":2019,"Ġimprove":2020,"Ġanything":2021,"Ġwind":2022,"ergy":2023,"Ġproperty":2024,"cially":2025,"ases":2026,"Ġ0":2027,"Ġvers":2028,"Ġgiven":2029,"lling":2030,"fully":2031,"Ġrelations":2032,"ĠAg":2033,"ification":2034,"sw":2035,"Ġseen":2036,"Ġbrand":2037,"Ġupd":2038,"Ġfield":2039,"ĠDist":2040,"Ġcra":2041,"OU":2042,"Ġtechnology":2043,"angu":2044,"ik":2045,"Ġlater":2046,"Ġhig":2047,"Ġtal":2048,"AS":2049,"nov":2050,"anced":2051,"ource":2052,"Ġwait":2053,"Ġphys":2054,"Ġmanagement":2055,"fort":2056,"ĠApp":2057,"Ġnight":2058,"Ġleast":2059,"Ġcred":2060,"aps":2061,"ograph":2062,"Ġfurther":2063,"ulation":2064,"Ġunique":2065,"ĠAm":2066,"Ġsecurity":2067,"Ġabs":2068,"ĠCo":2069,"cent":2070,"erved":2071,"hn":2072,"ili":2073,"ĠService":2074,"Ġsays":2075,"Ġclose":2076,"Ġaud":2077,"Ġfinancial":2078,"rect":2079,"Ġstory":2080,"ĠâĢĺ":2081,"Ġsoftware":2082,"illed":2083,"ilt":2084,"Ġplatform":2085,"Ġcomb":2086,"Ġamount":2087,"ĠAss":2088,"load":2089,"ĠAN":2090,"Ġentire":2091,"Ġsignificant":2092,"ĠTHE":2093,"Ġcommon":2094,"utes":2095,"ĠInst":2096,"Ġamong":2097,"ried":2098,"Ġgames":2099,"Ġsend":2100,"Ġsuper":2101,"Ġfund":2102,"word":2103,"ĠSec":2104,"abor":2105,"rain":2106,"Ġsomeone":2107,"ued":2108,"gle":2109,"ĠMy":2110,"ĠPlease":2111,"ones":2112,"RE":2113,"che":2114,"come":2115,"Ġport":2116,"Ġclean":2117,"Ġproblem":2118,",âĢĿ":2119,"Ġbrow":2120,"Ġstay":2121,"jor":2122,"ges":2123,"Ġprofessional":2124,"asing":2125,"Ġce":2126,"Ġ{":2127,"Ġsent":2128,"Ġnews":2129,"Ġenc":2130,"rew":2131,"Ġperformance":2132,"Ġfre":2133,"lished":2134,"50":2135,"iter":2136,"Ġrange":2137,"ze":2138,"Ġexperien":2139,"Ġeither":2140,"Ġenergy":2141,"Ġimpact":2142,"Ġcompanies":2143,"Ġresults":2144,"Ġquite":2145,"dd":2146,"Ġlow":2147,"Ġstudents":2148,"ĠIsland":2149,"ians":2150,"Ġet":2151,"izing":2152,"As":2153,"Ġbuy":2154,"ĠIm":2155,"osp":2156,"Ġsubs":2157,"ĠDis":2158,"Ġrepl":2159,"__":2160,"Ġjour":2161,"aff":2162,"Ġtype":2163,"Ġperiod":2164,"Ġpress":2165,"cell":2166,"Ġcou":2167,"ĠX":2168,"Ġenh":2169,"ĠEm":2170,"pose":2171,"Ġaccept":2172,"pBB":2173,"Ġhowever":2174,"Ġ.":2175,"chie":2176,"icated":2177,"Ġpie":2178,"Ġregard":2179,".,":2180,"ole":2181,"ĠWor":2182,"Ġprice":2183,"ilar":2184,"my":2185,"Ġcal":2186,"Ġsound":2187,"sy":2188,"Ġweb":2189,"Ġprevent":2190,"ĠDo":2191,"ike":2192,"Ġjob":2193,"elt":2194,"inking":2195,"ĠStates":2196,"Ġyourself":2197,"Ġprobably":2198,"opyright":2199,"Ġclaim":2200,"ĠDes":2201,"book":2202,"ING":2203,"Ġmoment":2204,"lt":2205,"He":2206,"Ġparty":2207,"ĠTra":2208,"Ġpotential":2209,"eth":2210,"urope":2211,"ford":2212,"Ġpret":2213,"Ġseem":2214,"Ġtrying":2215,"enn":2216,"Ġdiscuss":2217,"Ġmatter":2218,"irm":2219,"Ġelse":2220,"ply":2221,"fact":2222,"Ġconsum":2223,"Ġrequired":2224,"nam":2225,"AC":2226,"af":2227,"Ġrespect":2228,"Ġassoci":2229,"ored":2230,"ox":2231,"Ġeff":2232,"Ġrepresent":2233,"Ġphot":2234,"Sh":2235,"Ġexpress":2236,"ording":2237,"Ġrisk":2238,"avor":2239,"Ġsafe":2240,"Ġinstall":2241,"Ġeconom":2242,"lu":2243,"Ġtrue":2244,"Ġhimself":2245,"Ġcompet":2246,"berg":2247,"Ġz":2248,"Ġ12":2249,"Ġmil":2250,"ĠArt":2251,"Ġself":2252,"urs":2253,"Ġalmost":2254,"Ġreceive":2255,"Ġweek":2256,"Ġsat":2257,"ips":2258,"Ġoffic":2259,"Ġprovides":2260,"Ġnecessary":2261,"Ġrelationship":2262,"uation":2263,"Ġdeterm":2264,"Ġexist":2265,"Ġage":2266,"ires":2267,"arr":2268,"Ġwatch":2269,"Ġconnect":2270,"Ġexc":2271,"Ġmeas":2272,"Ġwomen":2273,"Ġ30":2274,"Ġdepend":2275,"Ġcustomers":2276,"olutions":2277,"Ġyes":2278,"Ġcir":2279,"ler":2280,"ada":2281,"val":2282,"Ġdiff":2283,"Ġdue":2284,"Ġidea":2285,"Ġpretty":2286,"Ġconditions":2287,"Ġgovernment":2288,"ĠAmerican":2289,"Ġstarted":2290,"An":2291,"Ġhope":2292,"âĢ¦":2293,"ĠLord":2294,"Ġcustomer":2295,"ude":2296,"Ġcut":2297,"Ġissues":2298,"Ġmor":2299,"Ġbelow":2300,"To":2301,"ĠState":2302,"ID":2303,"Ġfive":2304,"ference":2305,"urance":2306,"apt":2307,"Ġfriends":2308,"pecially":2309,"inc":2310,"icult":2311,"11":2312,"ially":2313,"ĠNot":2314,"Ġmajor":2315,"Ġcoming":2316,"ceed":2317,"Ġprivate":2318,"lex":2319,"aur":2320,"ĠGl":2321,"Ġinit":2322,"Ġhistory":2323,"ĠPart":2324,"ctor":2325,"Ġassist":2326,"Ġmaybe":2327,"ĠâĢĶ":2328,"Ġquestions":2329,"Ġsingle":2330,"alt":2331,"urch":2332,"Ġmusic":2333,"bit":2334,"Ġselect":2335,"hib":2336,"medi":2337,"ples":2338,"ison":2339,"ĠFin":2340,"Ġcity":2341,"opp":2342,"Ġtaking":2343,"Ġgra":2344,"rodu":2345,"ĠDistrict":2346,"oid":2347,"pri":2348,"roll":2349,"go":2350,"Ġprior":2351,"Ġinde":2352,"Ġknowledge":2353,"Ġmedia":2354,"Ġblack":2355,"Ġhon":2356,"irt":2357,"Ġobject":2358,"Ġsaw":2359,"Ġnatural":2360,"Ġeffic":2361,"Ġbad":2362,"action":2363,"une":2364,"ruction":2365,"ĠSte":2366,"irit":2367,"ĠTerms":2368,"iple":2369,"Ġcrit":2370,"iful":2371,"ĠReg":2372,"Ġdeep":2373,"Ġpub":2374,"Ġterm":2375,"Ġcover":2376,"Ġposition":2377,"Ġstat":2378,"Ġabove":2379,"Ġcamp":2380,"Ġchanges":2381,"Ġearly":2382,"son":2383,"ĠEurope":2384,"Ġforum":2385,"ION":2386,"ĠBr":2387,"Ġpack":2388,"where":2389,"arget":2390,"Ġgirl":2391,"Ġliving":2392,"ask":2393,"Ġste":2394,"Ġmonths":2395,"omes":2396,"ĠOne":2397,"ĠMe":2398,"Ġwords":2399,"Re":2400,"Ġpolicy":2401,"Ġfall":2402,"aged":2403,"ules":2404,"Ġsense":2405,"Ġautom":2406,"ux":2407,"Ġapproach":2408,"ĠPriv":2409,"Ġvol":2410,"iting":2411,"Ġproviding":2412,"iol":2413,"Ġ#":2414,"Ġhours":2415,"ĠOF":2416,"Ġsystems":2417,"Ġhy":2418,"umb":2419,"used":2420,"Ġways":2421,"wise":2422,"Ġbar":2423,"Ġmaintain":2424,"Ġut":2425,"12":2426,"Ġmot":2427,"roups":2428,"gu":2429,"ĠĠĠ":2430,"Ġbuilding":2431,"ration":2432,"cer":2433,"ĠCal":2434,"Ġreceived":2435,"ĠProject":2436,"earch":2437,"Ġchoose":2438,"though":2439,"Ġ}":2440,"ging":2441,"Ġaction":2442,"head":2443,"For":2444,"ster":2445,"ĠHealth":2446,"Ġestab":2447,"âĢĿ,":2448,"Ġcharacter":2449,"Ġlangu":2450,"itional":2451,"Ġcomput":2452,"Ġtopic":2453,"Ġant":2454,"Ġtrust":2455,"ĠphpBB":2456,"Ġeyes":2457,"bel":2458,"Ġansw":2459,"ĠEd":2460,"ĠIN":2461,"ufact":2462,"!\"":2463,"ĠJohn":2464,"Ġespecially":2465,"Ġitems":2466,"Ġdifficult":2467,"Ġparticip":2468,"Ġachie":2469,"Ġ15":2470,"oon":2471,"wor":2472,"ttps":2473,"Ġsum":2474,"Ġrecogn":2475,"rences":2476,"gy":2477,"Ġfail":2478,"Ġcoll":2479,"Ġdou":2480,"ĠSouth":2481,"unch":2482,"ĠFe":2483,"Ġtaken":2484,"ands":2485,"Ġtold":2486,"Ġsoon":2487,"Ġtable":2488,"Ġeveryone":2489,"Ġwond":2490,"Ġfire":2491,"oved":2492,"rown":2493,"Ġcontribut":2494,"Ġhalf":2495,"ĠCons":2496,"Ġdest":2497,"rant":2498,"Ġobs":2499,"Ġoption":2500,"Ġdesigned":2501,"EC":2502,"Ġrather":2503,"rem":2504,"ĠGe":2505,"Ġremember":2506,"itten":2507,"uten":2508,"Ġrelated":2509,"Ġwon":2510,"atory":2511,"reet":2512,"Ġpers":2513,"Ġgeneral":2514,"Ġcomfort":2515,"When":2516,"Ġclick":2517,"AM":2518,"itut":2519,"Ġstruct":2520,"Ġtravel":2521,"Ġlay":2522,"Ġdetails":2523,"put":2524,"Ġposts":2525,"ises":2526,"Ġchalleng":2527,"gress":2528,"Ġbed":2529,"erc":2530,"itor":2531,"Ġdigital":2532,"Ġsimply":2533,"Ġareas":2534,"Ġmag":2535,"ĠCity":2536,"'d":2537,"Ġpurpose":2538,"Ġmach":2539,"Ġessential":2540,"alys":2541,"eral":2542,"org":2543,"Ġinside":2544,"ensive":2545,"ĠSchool":2546,"ĠAb":2547,"Ġrole":2548,"Ġsimple":2549,"ĠPolicy":2550,"Ġhot":2551,"hold":2552,"Ġlic":2553,"Ġmarketing":2554,"Ġtraining":2555,"ille":2556,"Ġsort":2557,"ĠQu":2558,"Ġtools":2559,"Ġvia":2560,"Ġtou":2561,"ggest":2562,"Ġ100":2563,"Ġdate":2564,"Ġele":2565,"Ġmodel":2566,"ĠCor":2567,"Ġleave":2568,"inks":2569,"ades":2570,"ok":2571,"Ġdocument":2572,"Ġsett":2573,"uly":2574,"Ġtot":2575,"Ġready":2576,"ĠDr":2577,"ĠPar":2578,"Ġsimilar":2579,"ĠMin":2580,"Ġwide":2581,"back":2582,"Ġitself":2583,"Ġexact":2584,"oke":2585,"Ġdefin":2586,"reg":2587,"ĠInc":2588,"ĠHis":2589,"ault":2590,"ĠAI":2591,"aced":2592,"ĠAf":2593,"ĠCount":2594,"Ġsaying":2595,"Ġlearning":2596,"Ġexcept":2597,"obile":2598,"Ġstop":2599,"face":2600,"reme":2601,"ring":2602,"Ġincludes":2603,"overed":2604,"ume":2605,"24":2606,"Ġfront":2607,"Ġexam":2608,"ĠNorth":2609,"Ġfather":2610,"Ġpopular":2611,"Ġcreated":2612,"Ġhands":2613,"Ġfoot":2614,"ĠPer":2615,"oogle":2616,"Ġbehind":2617,"sing":2618,"Ġindividuals":2619,"itting":2620,"Ġloss":2621,"Ġstudy":2622,"ronic":2623,"ung":2624,"Ġcontinue":2625,"oul":2626,"Ġple":2627,"Ġground":2628,"Ġsubm":2629,"adem":2630,"Ġcard":2631,"Ġengine":2632,"ĠGener":2633,"Ġlonger":2634,"Ġbreak":2635,"aching":2636,"Ġdeath":2637,"uth":2638,"oud":2639,"Ġevents":2640,"reng":2641,"Ġnature":2642,"issions":2643,"Ġpolit":2644,"Ġtakes":2645,"Ġwanted":2646,"ana":2647,"Ġadditional":2648,"ivity":2649,"ĠĠĠĠĠĠĠĠ":2650,"Ġconcern":2651,"Ġwhite":2652,"icro":2653,"Ġprep":2654,"ĠCO":2655,"Ġoutside":2656,"ĠCompany":2657,"Ġintegr":2658,"bt":2659,"Ġlaws":2660,"Ġbeautiful":2661,"istic":2662,"ĠStud":2663,"Ġquickly":2664,"ĠLaw":2665,"Ġapply":2666,"IL":2667,"Ġetc":2668,"iction":2669,"rie":2670,"iet":2671,"ustain":2672,"RO":2673,"ĠAct":2674,"Ġsle":2675,"rought":2676,"Ġgen":2677,"Ġimmedi":2678,"There":2679,"30":2680,"hers":2681,"light":2682,"ĠKing":2683,"anel":2684,"isions":2685,"Ġemb":2686,"Ġaffect":2687,"itation":2688,"Ġthemselves":2689,"ager":2690,"Ġcredit":2691,"kl":2692,"Ġconsent":2693,"Ġguys":2694,"yond":2695,"Ġasked":2696,"Ġgrowth":2697,"ha":2698,"Ġsuggest":2699,"Ġaff":2700,"ĠFrom":2701,"ided":2702,"Ġ11":2703,"olute":2704,"Ġusually":2705,"ables":2706,"Ġwalk":2707,"Ġnice":2708,"Ġextra":2709,"mber":2710,"ĠMay":2711,"anks":2712,"ening":2713,"Ġmillion":2714,"Ġparent":2715,"ĠYork":2716,"ming":2717,"Ġdom":2718,"aint":2719,"Ġdistribut":2720,"Ġcode":2721,"ief":2722,"Ġred":2723,"Ġcorrect":2724,"Ġability":2725,"Ġunderstanding":2726,"ĠChe":2727,"time":2728,"inary":2729,"ĠAdd":2730,"ĠBu":2731,"Ġanaly":2732,"ological":2733,"Ġglobal":2734,"Ġcontract":2735,"Ġbox":2736,"aving":2737,"rael":2738,"ned":2739,"OT":2740,"Ġveh":2741,"ĠTechn":2742,"just":2743,"Ġsaf":2744,"Ġforward":2745,"ET":2746,"Ġallows":2747,"Ġneeded":2748,"Ġthank":2749,"Ġregul":2750,"airs":2751,"Ġtreatment":2752,"Ġcool":2753,"Ġhigher":2754,"Ġcause":2755,"Ġincrease":2756,"Ġfast":2757,"erve":2758,"tm":2759,"nal":2760,"iance":2761,"Ġdirectly":2762,"oura":2763,"Ġnote":2764,"Ġisn":2765,"Ġlooks":2766,"Ġcasino":2767,"ĠBar":2768,"Ġord":2769,"Ġprint":2770,"Ġaccur":2771,"Ġtowards":2772,"Ġinnov":2773,"ĠAut":2774,"xim":2775,"Ġwoman":2776,"Ġclients":2777,"Ġsize":2778,"Ġoffice":2779,"ĠBo":2780,"Ġneg":2781,"Ġheard":2782,"Ġeffective":2783,"Ġspeak":2784,"Ġhear":2785,"Ġdownload":2786,"alysis":2787,"Ġappropri":2788,"ĠPrivacy":2789,"15":2790,"uses":2791,"EL":2792,"utenberg":2793,"Ġdoor":2794,"ram":2795,"nds":2796,"dom":2797,"Ġcontain":2798,"Ġsix":2799,"Ġpick":2800,"vest":2801,"pre":2802,"Ġviol":2803,"Ġmiss":2804,"ĠAust":2805,"lege":2806,"Ġexpert":2807,"Ġgoes":2808,"Ġfit":2809,"Ġfig":2810,"Ġerr":2811,"Ġpurchase":2812,"iam":2813,"Ġmaterials":2814,"....":2815,"Ġsil":2816,"Ġknew":2817,"On":2818,"ees":2819,"Ġnotice":2820,"Ġanyone":2821,"Ġproblems":2822,"tempt":2823,"Ġdisplay":2824,"Ġheld":2825,"Ġlikely":2826,"Ġtarget":2827,"ĠBusiness":2828,"Ġill":2829,"poses":2830,"ĠSome":2831,"imal":2832,"ĠOf":2833,"Ġdraw":2834,"icles":2835,"Ġresponsible":2836,"Ġwrong":2837,"Pro":2838,"Ġstreng":2839,"Ġcreating":2840,"ĠWorld":2841,"Ġwriting":2842,"ption":2843,"ober":2844,"ĠWill":2845,"ĠChar":2846,"Ġenter":2847,"US":2848,"Ġhost":2849,"isf":2850,"Ġdescrib":2851,"Ġlimited":2852,"Ġlanguage":2853,"Ġcoun":2854,"Ġrev":2855,"Ġimm":2856,"Ġactivities":2857,"Ġadded":2858,"itch":2859,"Ġsens":2860,"ari":2861,"resh":2862,"Ġmyself":2863,"Ġcommit":2864,"Ġfavor":2865,"Ġstuff":2866,"Ġimage":2867,"Ġopportunity":2868,"ĠInternational":2869,"ached":2870,"cul":2871,"ĠDep":2872,"cast":2873,"18":2874,"Ġmother":2875,"ops":2876,"uge":2877,"ications":2878,"Ġhappy":2879,"that":2880,"cking":2881,"Ġda":2882,"Ġinflu":2883,"ĠControl":2884,"Ġstaff":2885,"All":2886,"arant":2887,"Ġwritten":2888,"Ġminutes":2889,"('":2890,"Ġstyle":2891,"Ġpractice":2892,"ership":2893,"unt":2894,"Ġtypes":2895,"Ġimages":2896,"Ġded":2897,"igation":2898,"Ġbenefits":2899,"imited":2900,"Ġregular":2901,"Ġking":2902,"ipment":2903,"ecut":2904,"Ġsafety":2905,"Ġadvert":2906,"Ġ????":2907,"Ġwish":2908,"idge":2909,"haps":2910,"asons":2911,"Ġplayers":2912,"And":2913,"Ġthroughout":2914,"Ġskills":2915,"Ġlat":2916,"su":2917,"Ġcru":2918,"ession":2919,"www":2920,"cription":2921,"Ġeducation":2922,"Ġoriginal":2923,"ĠAfter":2924,"Ġinvestment":2925,"ĠPe":2926,"onna":2927,"Ġapplication":2928,"ara":2929,"Ġwall":2930,"raw":2931,"ences":2932,"Ġprevious":2933,"ĠHer":2934,"istered":2935,"astic":2936,"Ġcolor":2937,"Ġmodern":2938,"ĠMore":2939,"ĠSm":2940,"erous":2941,"edd":2942,"fl":2943,"akes":2944,"Ġcell":2945,"ĠTw":2946,"Ġchoice":2947,"Ġreli":2948,"Ġassociated":2949,"Ġbuilt":2950,"onse":2951,"Ġ]":2952,"Ġattention":2953,"Ġcapt":2954,"Ġbrought":2955,"ĠOff":2956,"ĠAcc":2957,"Ġoccur":2958,"with":2959,"ĠTrans":2960,"Ġdecision":2961,"Ġfelt":2962,"ĠSpe":2963,"Ġfight":2964,"Ġspirit":2965,"Ġsell":2966,"Ġinstead":2967,"Un":2968,"Ġago":2969,"Ġbal":2970,"Ġpurposes":2971,"Ġcy":2972,"ray":2973,"Ġ16":2974,"Ġnor":2975,"ĠUser":2976,"Ġcomplex":2977,"het":2978,"atives":2979,"Ġsun":2980,"Ġrunning":2981,"Ġseason":2982,"Ġswe":2983,"ĠCommun":2984,"ival":2985,"Ġvariety":2986,"icking":2987,"Ġinstru":2988,"Ġinform":2989,"Ġjourney":2990,"gest":2991,"Ġrequirements":2992,"isc":2993,"ENT":2994,"ĠHigh":2995,"itle":2996,"Ġhor":2997,"Ġmass":2998,"Ġissue":2999,"Ġabsolute":3000,"lebr":3001,"ĠAND":3002,"AP":3003,"ĠWhile":3004,"Ġ199":3005,"itc":3006,"Ġbur":3007,"aby":3008,"Ġsolutions":3009,"Ar":3010,"ĠMon":3011,"Ġbrowser":3012,"Ġfinal":3013,"Ġseries":3014,"eal":3015,"By":3016,"str":3017,"ground":3018,"ball":3019,"Ġmanufact":3020,"ĠOR":3021,"atever":3022,"ferences":3023,"like":3024,"ĠGroup":3025,"Ġdark":3026,"ma":3027,"ĠBro":3028,"uz":3029,"ama":3030,"Ġsometimes":3031,"fered":3032,"Ġcateg":3033,"ĠInformation":3034,"Ġresources":3035,"Ġattack":3036,"Ġworth":3037,"Ġcases":3038,"Ġcollection":3039,"anc":3040,"Ġmedical":3041,"Ġson":3042,"gs":3043,"ĠMarket":3044,"Ġexcell":3045,"UR":3046,"Ġ13":3047,"illing":3048,"ancing":3049,"Ġpaper":3050,"Ġwee":3051,"Ġpromot":3052,"But":3053,"Ġcosts":3054,"Ġbott":3055,"Ġconvers":3056,"Ġpict":3057,"Ġdeliver":3058,"Ġmultiple":3059,"Ġstri":3060,"Ġ50":3061,"Ġver":3062,"Ġaccording":3063,"Ġbusinesses":3064,"Ġeasily":3065,"Ġannoun":3066,"add":3067,"Ġjud":3068,"Ġ14":3069,"Ġphysical":3070,"ened":3071,"14":3072,"Ġprim":3073,"Ġgave":3074,"Ġdrive":3075,"Ġconduct":3076,"ĠNet":3077,"Ġroad":3078,"Ġobtain":3079,"ady":3080,"Ġmember":3081,"Ġlives":3082,"Ġfell":3083,"Ġpassword":3084,"pped":3085,"orage":3086,"Ġnav":3087,"ĠVal":3088,"Ġblood":3089,"Ġpayment":3090,"Ġremain":3091,"ĠIslands":3092,"EO":3093,"Ġlif":3094,"ĠNational":3095,"iddle":3096,"ĠKe":3097,"Ġbi":3098,"Ġbecame":3099,"Ġliter":3100,"iring":3101,"Ġthinking":3102,"ĠSw":3103,"Ġmention":3104,"Ġenhance":3105,"ĠNow":3106,"Ġhelps":3107,"vis":3108,"azing":3109,"sych":3110,"13":3111,"Ġpath":3112,"Ġ24":3113,"Ġlooked":3114,"ĠAc":3115,"ĠEl":3116,"Ġattempt":3117,"based":3118,"Ġtrack":3119,"Ġbegan":3120,"ologies":3121,"Ġrate":3122,"Ġleading":3123,"oes":3124,"Ġsoci":3125,"aries":3126,"Ġrad":3127,"ĠCour":3128,"ĠAfric":3129,"Ġplaying":3130,"cks":3131,"ĠIsrael":3132,"Ġparts":3133,"Ġanswer":3134,"Ġtouch":3135,"Ġemot":3136,"Ġcondition":3137,"Se":3138,"ests":3139,"oly":3140,"OS":3141,"Ġsection":3142,"Ġappropriate":3143,"Ġgonna":3144,"Cl":3145,"Ġround":3146,"Ġnetwork":3147,"Ġlo":3148,"hood":3149,"Ġlost":3150,"rel":3151,"Ġstra":3152,"Ġspend":3153,"ham":3154,"Ġfair":3155,"Ġ__":3156,"ica":3157,"Ġcirc":3158,"ĠGoogle":3159,"Ġhighly":3160,"Ġtalking":3161,"chan":3162,"ils":3163,"Ġprec":3164,"}}":3165,"Ġinternational":3166,"urg":3167,"Ġbeyond":3168,"Ġseems":3169,"Ġimplement":3170,"Ġ2023":3171,"era":3172,"Ġesc":3173,"Ġmoder":3174,"Ġlevels":3175,"undred":3176,"rench":3177,"Ġpartners":3178,"Ġcourt":3179,"Ġspeed":3180,"AD":3181,"uel":3182,"Ġdiv":3183,"Ġotherwise":3184,"Ġlower":3185,"Ġnorm":3186,"Ġmis":3187,"Ġthous":3188,"16":3189,"Ġfeature":3190,"Ġwonder":3191,"Ġdamage":3192,"Ġge":3193,"ĠTO":3194,"Ġprojects":3195,"place":3196,"more":3197,"ker":3198,"sequ":3199,"Our":3200,"hens":3201,"Ġgroups":3202,"ipping":3203,"Ġdeg":3204,"Ġsecure":3205,"itute":3206,"Ġsave":3207,"mon":3208,"arily":3209,"Ġgrant":3210,"ties":3211,"itary":3212,"Ġdead":3213,"bela":3214,"Ġcomputer":3215,"ĠData":3216,"Ġimag":3217,"ĠWest":3218,"ule":3219,"Ġprocessing":3220,"Ġbutton":3221,"Ġsolution":3222,"Ġsold":3223,"itely":3224,"Ġsales":3225,"Ġcountries":3226,"ĠEnglish":3227,"oph":3228,"Ġones":3229,"klas":3230,"Ġaklas":3231,"Ġaklasbela":3232,"overn":3233,"Ġlocation":3234,"ĠDesign":3235,"hel":3236,"17":3237,"mar":3238,"Â©":3239,"olid":3240,"eter":3241,"hether":3242,"bl":3243,"Ġsepar":3244,"Ġsus":3245,"Ġoffering":3246,"Ġep":3247,"attle":3248,"ĠReal":3249,"Ġfeed":3250,"aches":3251,"ĠIndia":3252,"Ġexactly":3253,"Ġclos":3254,"Ġboy":3255,"Ġlatest":3256,"oom":3257,"Ġbase":3258,"ĠAmerica":3259,"Ġarch":3260,"Ġarticle":3261,"Ġdep":3262,"Ġinteresting":3263,"Ã©":3264,"Ġmorning":3265,"Ġdream":3266,"Ġinsp":3267,"Ġsqu":3268,"ters":3269,"Ġpred":3270,"Ġfine":3271,"Ġallowed":3272,"Ġskin":3273,"Ġguarant":3274,"Ġexerc":3275,"Ġlab":3276,"LE":3277,"bor":3278,"Ġter":3279,"Ġaware":3280,"lying":3281,"Al":3282,"Ġproduction":3283,"ĠIns":3284,"Ġbehav":3285,"Ġpositive":3286,"App":3287,"Ġhit":3288,"Ġsatisf":3289,"care":3290,"ĠPres":3291,"Ġuses":3292,"Ġintrodu":3293,"Ġsustain":3294,"zy":3295,"Ġfile":3296,"Ġwhom":3297,"ĠPa":3298,"Ġtown":3299,"Ġavoid":3300,"Ġideas":3301,"Ġrelev":3302,"ky":3303,"hern":3304,"men":3305,"Ġremove":3306,"aming":3307,"itable":3308,"Ġcouple":3309,"Ġimmediately":3310,"off":3311,"ĠPark":3312,"ĠProf":3313,"Ġwhatever":3314,"Ġfeeling":3315,"iding":3316,"Ġ17":3317,"raft":3318,"Ġpiece":3319,"ought":3320,"25":3321,"duc":3322,"Ġpoints":3323,"antly":3324,"ĠGeneral":3325,"Ġadvant":3326,"ĠEar":3327,"Ġcry":3328,"Ġsituation":3329,"Ġvoice":3330,"Ġbound":3331,"urb":3332,"Ġconsist":3333,"Ġworked":3334,"ĠGerm":3335,"iver":3336,"Ġreading":3337,"Ġresponse":3338,"Ġalone":3339,"Ġsex":3340,"Ġcommer":3341,"Ġcompletely":3342,"idered":3343,"Ġdevice":3344,"riving":3345,"enc":3346,"Ġcharge":3347,"Ġreach":3348,"ĠCanada":3349,"ĠDel":3350,"Ex":3351,"force":3352,"ĠCenter":3353,"aste":3354,"hem":3355,"set":3356,"Ġexplore":3357,"ĠAssoci":3358,"Ġmeaning":3359,"Your":3360,"ĠLimited":3361,"Ġtopics":3362,"aith":3363,"IM":3364,"Ġphone":3365,"Ġhundred":3366,"icate":3367,"iles":3368,"ibly":3369,"Ġextreme":3370,"rs":3371,"Ġaw":3372,"anch":3373,"ĠOut":3374,"ĠAir":3375,"Ġhappened":3376,"ĠBlack":3377,"Ġsites":3378,"Ġachieve":3379,"Ġsource":3380,"Ġmark":3381,"Ġaim":3382,"Ġfully":3383,"Ġinj":3384,"ĠAre":3385,"Ġprivacy":3386,"Ġdelivery":3387,"ulf":3388,"Ġencoura":3389,"Ġgold":3390,"Ġwasn":3391,"ĠGutenberg":3392,"Ġgiving":3393,"Ġpatients":3394,"Ġturned":3395,"Ġcommunication":3396,"Ġpoll":3397,"iforn":3398,"Ġaspect":3399,"Ġstru":3400,"Ġversion":3401,"Ġdifference":3402,"mail":3403,"EM":3404,"ĠDav":3405,"Ġwife":3406,"iff":3407,"Ġ:":3408,"Ġoverall":3409,"Ġstandard":3410,"Ġ25":3411,"Ġassess":3412,"ĠHere":3413,"enty":3414,"Ġincluded":3415,"Ġgets":3416,"igate":3417,"Ġparties":3418,"band":3419,"CH":3420,"ĠSite":3421,"artment":3422,"ĠUK":3423,"Ġemerg":3424,"actions":3425,"Ġorganization":3426,"ald":3427,"izes":3428,"Ġblock":3429,"Ġwhose":3430,"itter":3431,"Ġchallenges":3432,"verage":3433,"Ġcelebr":3434,"rast":3435,"Ġweight":3436,"Ġbra":3437,"Ġindepend":3438,"ĠUs":3439,"llig":3440,"Ġthy":3441,"Ġconnection":3442,"ously":3443,"ĠSim":3444,"Ġfear":3445,"ares":3446,"ĠWater":3447,"ĠUse":3448,"Ġjoin":3449,"Ġchance":3450,"ĠWar":3451,"Ġadvice":3452,"ederal":3453,"ĠDon":3454,"ifornia":3455,"nded":3456,"Ġprogress":3457,"ĠHome":3458,"Ġconsult":3459,"Ġidentify":3460,"ĠÂ©":3461,"Ġanalysis":3462,"Ġpublished":3463,"Ġprotection":3464,"Ġcarry":3465,"Ġbon":3466,"cel":3467,"Ġreasons":3468,"Ġpeace":3469,"Ġthreat":3470,"ĠEst":3471,"Ġcross":3472,"Ġeye":3473,"Ġmat":3474,"Ġharm":3475,"Ġfix":3476,"Ġsn":3477,"Ġinvolved":3478,"Ġtruth":3479,"Ġopportunities":3480,"ĠOnline":3481,"Ġdecl":3482,"Ġtherefore":3483,"Ġapplicable":3484,"Ġacqu":3485,"Ġreflect":3486,"ugh":3487,"Ġserious":3488,"Ġregistered":3489,"Ġpercent":3490,"Ġlimit":3491,"ĠProgram":3492,"Ġhttps":3493,"Ġpaid":3494,"wood":3495,"Ġsole":3496,"aughter":3497,"ĠRuss":3498,"Ġtotal":3499,"oe":3500,"Ġlocated":3501,"lier":3502,"Ġmobile":3503,"TH":3504,"ĠFirst":3505,"agn":3506,"aves":3507,"ĠJust":3508,"Ġmessage":3509,"Ġwood":3510,"ĠHar":3511,"Ġflow":3512,"ension":3513,"Ġshows":3514,"ags":3515,"Ġcurrently":3516,"Ġx":3517,"ĠBook":3518,"izations":3519,"Ġmoving":3520,"Ġprograms":3521,"Ġconcept":3522,"unction":3523,"Ġrelevant":3524,"Ġcert":3525,"itude":3526,"Ġtraditional":3527,"itchen":3528,"Ġparticularly":3529,"Ġslow":3530,"Ġsubst":3531,"board":3532,"Ġamazing":3533,"asure":3534,"ilies":3535,"irth":3536,"With":3537,"gal":3538,"Ġmount":3539,"Ġrules":3540,"22":3541,"Ġplant":3542,"aign":3543,"Ġprofession":3544,"Ġconsidered":3545,"ĠPre":3546,"Ġpowerful":3547,"ashing":3548,"well":3549,"ĠSub":3550,"ĠThen":3551,"ĠFound":3552,"Ġcomment":3553,"night":3554,"Ġnational":3555,"Ġfrequ":3556,"Ġequipment":3557,"but":3558,"ĠDevelop":3559,"asc":3560,"Ġlate":3561,"Ġrecent":3562,"ania":3563,"ĠCond":3564,"Ġhair":3565,"ĠManagement":3566,"ĠSystem":3567,"ĠBrit":3568,"itect":3569,"Ġgives":3570,"change":3571,"Ġdefinitely":3572,"ĠWeb":3573,"Ġfloor":3574,"ĠPanel":3575,"Ġ*":3576,"ĠAustral":3577,"ĠRepublic":3578,"Ġinternet":3579,"Ġdaily":3580,"Ġblog":3581,"Ġefficient":3582,"Ġwebsites":3583,"Com":3584,"Ġoptim":3585,"ersonal":3586,"Ġscreen":3587,"ĠUp":3588,"abled":3589,"Ġcat":3590,"Ġensuring":3591,"ength":3592,"ĠGr":3593,"uction":3594,"Ġbank":3595,"pper":3596,"Ġwrite":3597,"ifying":3598,"ishing":3599,"ocks":3600,"ĠMet":3601,"Ġexperiences":3602,"Ġexclus":3603,"Ġqual":3604,"ube":3605,"Ġhuge":3606,"Â®":3607,"rehens":3608,"ĠLet":3609,"key":3610,"ashion":3611,"Ġpoor":3612,"Ġsleep":3613,"yl":3614,"Ġstrength":3615,"Ġpages":3616,"At":3617,"Ġri":3618,"Ġbud":3619,"Ġcam":3620,"rupt":3621,"standing":3622,"Ġsurpr":3623,"Ġtour":3624,"Ġcollabor":3625,"ese":3626,"âĢĵ":3627,"Ġoil":3628,"Ġadm":3629,"Ġactivity":3630,"ĠDirect":3631,"Ġheav":3632,"aven":3633,"Ġmachine":3634,"Ġgone":3635,"Ġstorage":3636,"ĠJes":3637,"Ġcareer":3638,"omen":3639,"Ġmatch":3640,"Ġculture":3641,"Ġwel":3642,"ĠSupp":3643,"Ġbooks":3644,"iant":3645,"Ġmus":3646,"Ġdise":3647,"ny":3648,"Ġbasis":3649,"Ġfilm":3650,"ĠSan":3651,"Ġten":3652,"ST":3653,"Ġincor":3654,"Ġsports":3655,"Ġgrad":3656,"Ġitem":3657,"Ġopin":3658,"ero":3659,"Ġstream":3660,"Ġmessages":3661,"Ġahead":3662,"ĠMc":3663,"istics":3664,"Ġbroad":3665,"Ġregarding":3666,"ondon":3667,"lete":3668,"ĠPay":3669,"owered":3670,"istration":3671,"Ġexcellent":3672,"Ġult":3673,"istry":3674,"tered":3675,"rapy":3676,"Ġcand":3677,"Ġled":3678,"Ġkids":3679,"uate":3680,"New":3681,"Ġcopy":3682,"23":3683,"ancy":3684,"acc":3685,"Ġobl":3686,"Ġhistor":3687,"apan":3688,"Ġevidence":3689,"Ġdiscl":3690,"Ġperhaps":3691,"Ġstored":3692,"ĠBest":3693,"Ġeffects":3694,"cont":3695,"ynam":3696,"Ġfra":3697,"Ġeffort":3698,"arden":3699,"ĠRights":3700,"Ġstraight":3701,"ĠLib":3702,"Ġframe":3703,"Ġagreement":3704,"ivil":3705,"Ġball":3706,"Ġdemand":3707,"Ġconven":3708,"ĠCas":3709,"cious":3710,"ĠOther":3711,"Ġvehicle":3712,"cient":3713,"ico":3714,"ĠDepartment":3715,"Ġcommercial":3716,"ĠArch":3717,"Ġpolitical":3718,"Ġmid":3719,"Ġsoul":3720,"ĠLa":3721,"urt":3722,"idential":3723,"Ġeconomic":3724,"ĠInter":3725,"porate":3726,"Ġpull":3727,"ĠHouse":3728,"II":3729,"oft":3730,"Ġoffered":3731,"Ġ2022":3732,"Ġobvious":3733,"De":3734,"sec":3735,"Ġcontinu":3736,"aling":3737,"ĠNews":3738,"Ġgreen":3739,"istan":3740,"IV":3741,"Ġchanged":3742,"Ġstress":3743,"Ġ40":3744,"Ġrele":3745,"Ġund":3746,"Ġfresh":3747,"rial":3748,"Ġimpress":3749,"Ġcircum":3750,"ams":3751,"Ġearth":3752,"Ġrespond":3753,"ĠMod":3754,"ĠCoun":3755,"ĠEduc":3756,"ĠYOU":3757,"Ġbeginning":3758,"Ġsteps":3759,"Ġinsurance":3760,"aj":3761,"Ġthou":3762,"ĠJan":3763,"Ad":3764,"Ġrelig":3765,"Ġwal":3766,"Ġcapital":3767,"ĠCalifornia":3768,"Be":3769,"ĠGovern":3770,"Ġabsolutely":3771,"Ġpattern":3772,"Ġinterested":3773,"Ġreduce":3774,"Ġpractices":3775,"Ġmechan":3776,"Ġexhib":3777,"iency":3778,"IG":3779,"ĠPublic":3780,"enge":3781,"Ġguess":3782,"ĠPhil":3783,"Ġstates":3784,"Ġplayer":3785,"Ġcrucial":3786,"ography":3787,"Ġdepart":3788,"ĠCounty":3789,"ĠChina":3790,"Ġwindow":3791,"Ġguy":3792,"Ġfactors":3793,"Ġrefer":3794,"Ġguide":3795,"amed":3796,"Ġpros":3797,"rab":3798,"Ġhour":3799,"Ġmanage":3800,"Ġcash":3801,"Ġposting":3802,"atically":3803,"Ġrob":3804,"Ġstrategy":3805,"Ġadjust":3806,"Ġsuccessful":3807,"bsite":3808,"Ġcompon":3809,"60":3810,"Ġapplications":3811,"Ġestablish":3812,"Ġstock":3813,"Ġplaces":3814,"Ġgoal":3815,"iment":3816,"iling":3817,"ĠJe":3818,"No":3819,"AB":3820,"Ġmatt":3821,"Ġexecut":3822,"pping":3823,"21":3824,"Ġfeet":3825,"rive":3826,"Ġdepos":3827,"Ġ2020":3828,"Ġmethods":3829,"Ġreve":3830,"idden":3831,"acebook":3832,"Ġsale":3833,"hest":3834,"Ġ+":3835,"Ġtransfer":3836,"Ġattend":3837,"Ġmeeting":3838,"ML":3839,"Ġwarm":3840,"Ġdire":3841,"Ġproced":3842,"Ġbasic":3843,"ĠSl":3844,"ĠInte":3845,"Ġcritical":3846,"ocial":3847,"TER":3848,"Ġcenter":3849,"Ġdru":3850,"ĠRed":3851,"Ġdang":3852,"Ġ2021":3853,"OL":3854,"Ġsetting":3855,"Ġassign":3856,"nes":3857,"ĠPort":3858,"Ġerror":3859,"abilities":3860,"Ġaltern":3861,"reci":3862,"Ġaccom":3863,"oles":3864,"free":3865,"My":3866,"race":3867,"Ġextend":3868,"lied":3869,"ament":3870,"Ġeat":3871,"Ġpen":3872,"Ġemployees":3873,"ĠMiss":3874,"box":3875,"gment":3876,"Ġprem":3877,"Ġstarting":3878,"ĠRem":3879,"ipe":3880,"Ġefforts":3881,"Ġforce":3882,"ading":3883,"gar":3884,"entially":3885,"Ġweeks":3886,"uary":3887,"Ġgenerally":3888,"Ġincreasing":3889,"ĠPlay":3890,"Ġregister":3891,"house":3892,"LC":3893,"orrow":3894,"inner":3895,"eria":3896,"Ġwild":3897,"AG":3898,"you":3899,"met":3900,"apter":3901,"Ġinstitut":3902,"ĠEvery":3903,"pite":3904,"ĠPol":3905,"iques":3906,"Ġdemon":3907,"Ġâ":3908,"ii":3909,"Ġfinally":3910,"Ġparents":3911,"arter":3912,"Ġtrade":3913,"Ġforth":3914,"cil":3915,"Ġstage":3916,"ĠFrench":3917,"Ġgrowing":3918,"Ġfavorite":3919,"Ġscience":3920,"Ġguid":3921,"enses":3922,"ĠCare":3923,"Ġbenefit":3924,"Ġcertainly":3925,"atur":3926,"Ġtechnical":3927,"Ġ,":3928,"year":3929,"Ġmer":3930,"reed":3931,"ĠOct":3932,"pective":3933,"ris":3934,"ĠResearch":3935,"ĠJesus":3936,"Ġestate":3937,"ville":3938,"unk":3939,"Ġpatient":3940,"Ġgreater":3941,"Ġofficial":3942,"Ġserve":3943,"ga":3944,"Ġsubscrib":3945,"ĠCourt":3946,"Ġpropos":3947,"Ġdeveloped":3948,"Ġdecided":3949,"Ġcampaign":3950,"see":3951,"Ġtemper":3952,"pen":3953,"Ġdat":3954,"Te":3955,"ĠPat":3956,"ĠLondon":3957,"Ġcommand":3958,"ĠSch":3959,"ĠPal":3960,"works":3961,"Ġsal":3962,"ught":3963,"Ġtrou":3964,"aks":3965,"Ġmaster":3966,"Ġbrother":3967,"Ġdefe":3968,"estern":3969,"Ġclient":3970,"Ġutil":3971,"Ġactual":3972,"ĠRec":3973,"lation":3974,"ooth":3975,"ĠMost":3976,"idents":3977,"Ġmaxim":3978,"Ġregion":3979,"Ġplanning":3980,"Ġminim":3981,"mas":3982,"Ġrecently":3983,"was":3984,"Ġpressure":3985,"Ġseemed":3986,"Ġteac":3987,"ĠFoundation":3988,"Ġload":3989,"Ġspot":3990,"urning":3991,"sp":3992,"ĠST":3993,"Ġfaith":3994,"Ġplans":3995,"Ġrequires":3996,"Ġprot":3997,"CT":3998,"ani":3999,"Ġbottom":4000,"ĠEuropean":4001,"Ġcontinued":4002,"asion":4003,"ĠWhether":4004,"Ġneigh":4005,"Ġsurv":4006,"orge":4007,"Ġclicking":4008,"orry":4009,"ĠAnt":4010,"Ġapart":4011,"Ġstructure":4012,"Ġanim":4013,"imin":4014,"icine":4015,"ĠIT":4016,"Ġeval":4017,"Ġcast":4018,"vey":4019,"Is":4020,"Ġformer":4021,"Ġincred":4022,"):":4023,"know":4024,"Ġedit":4025,"Ġdevices":4026,"rehensive":4027,"Ġfirm":4028,"uk":4029,"acity":4030,"Ġvirt":4031,"ĠAdv":4032,"One":4033,"Ġrepe":4034,"Ġmeasure":4035,"Ġrich":4036,"Ġunf":4037,"opping":4038,"Ġeasier":4039,"Ġaudience":4040,"Ġbreat":4041,"ĠMich":4042,"oices":4043,"itionally":4044,"uable":4045,"Ġvalid":4046,"Ġstudent":4047,"Ġmix":4048,"omb":4049,"Ġelectronic":4050,"Ġble":4051,"Ġpassed":4052,"icip":4053,"ĠCle":4054,"Ġiniti":4055,"Ġsong":4056,"ĠJour":4057,"Ġden":4058,"Ġgain":4059,"Ġfees":4060,"Ġappreci":4061,"Ne":4062,"down":4063,"Ġcomments":4064,"Ġrates":4065,"itness":4066,"Ġmanner":4067,"Ġdog":4068,"Ġmental":4069,"Ġafford":4070,"Ġgoals":4071,"Ġprices":4072,"Ġkept":4073,"ruit":4074,"OM":4075,"Ġdoll":4076,"Ġtrading":4077,"oming":4078,"inos":4079,"Ġpray":4080,"door":4081,"Ġstatus":4082,"ĠIS":4083,"Ġvisitors":4084,"PR":4085,"Ġstories":4086,"ĠSer":4087,"ĠDay":4088,"Ġkn":4089,"ague":4090,"friend":4091,"olicies":4092,"Ġtransform":4093,"Ġseeing":4094,"CC":4095,"Ġshown":4096,"Ġscient":4097,"tenance":4098,"dden":4099,"ĠUnder":4100,"Ġexpected":4101,"Ġsecret":4102,"ĠHel":4103,"ĠWell":4104,"ĠAv":4105,"Ġowner":4106,"lin":4107,"Ġsociety":4108,"Ġelements":4109,"Ġsurround":4110,"Why":4111,"Ġcraft":4112,"Ġcircumst":4113,"ĠJud":4114,"lies":4115,"Ġshared":4116,"Ġattract":4117,"Ġallowing":4118,".)":4119,"do":4120,"Ġplaced":4121,"ĠTy":4122,"Ġheat":4123,"Ġinterview":4124,"Ġsym":4125,"Ġtruly":4126,"Ġvict":4127,"Ġunc":4128,"Ġlinks":4129,"Ġactive":4130,"fr":4131,"Ġcold":4132,"Ġsurface":4133,"Ġincreased":4134,"ĠAny":4135,"ervation":4136,"Ġbaby":4137,"ATION":4138,"Ġforg":4139,"hips":4140,"ambling":4141,"Ġarr":4142,"ĠFore":4143,"ĠBank":4144,"Ġletter":4145,"Ġrelease":4146,"ĠSecurity":4147,"Ġmist":4148,"Ġhelping":4149,"Ġsettings":4150,"abric":4151,"ĠStr":4152,"ĠInternet":4153,"Ġadop":4154,"Ġforeign":4155,"Ġbeauty":4156,"Ġdedicated":4157,"bon":4158,"term":4159,"ĠJer":4160,"ĠIndian":4161,"wide":4162,"Ġmodels":4163,"ĠWebsite":4164,"osing":4165,"Ġdro":4166,"oyal":4167,"Con":4168,"ĠRE":4169,"Ġarm":4170,"ĠTur":4171,"Ġexperienced":4172,"Ġsudden":4173,"irgin":4174,"Ġadvanced":4175,"Ġhonest":4176,"ota":4177,"Ġhous":4178,"edding":4179,"imb":4180,"Ġhar":4181,"Ġstrugg":4182,"Ġenable":4183,"Ġresponsibility":4184,"Ġstrategies":4185,"Ġreliable":4186,"ĠEast":4187,"Ġfigure":4188,"Ġbasically":4189,"roy":4190,"Ġnormal":4191,"Ġcopyright":4192,"ĠJapan":4193,"ĠSep":4194,"ĠInvest":4195,"ĠElect":4196,"ĠFOR":4197,"Ġappoint":4198,"tr":4199,"Ġvot":4200,"Ġoperations":4201,"ĠEngine":4202,"Ġdetermine":4203,"Ġcouldn":4204,"Ġplayed":4205,"ĠDavid":4206,"ĠEv":4207,"Ph":4208,"rary":4209,"ĠProduct":4210,"osure":4211,"Ġconstruction":4212,"Ġpassion":4213,"ĠTechnology":4214,"Ġadvertising":4215,"Ġlandsc":4216,"vin":4217,"ĠFacebook":4218,"Ġdiscover":4219,"Ġpsych":4220,"Ġarriv":4221,"Ġpresence":4222,"tee":4223,"inct":4224,"Ġtim":4225,"Ġexercise":4226,"Ġpreferences":4227,"40":4228,"ĠEducation":4229,"Ġclin":4230,"Ġfarm":4231,"80":4232,"Ġexisting":4233,"Ġdisp":4234,"ios":4235,"icks":4236,"Ġemp":4237,"Ġseven":4238,"Ġnumbers":4239,"ĠFree":4240,"Ġhealthy":4241,"Ġstandards":4242,"Ġreserved":4243,"ĠForum":4244,"Ġtransport":4245,"Ġtechnologies":4246,"ĠContact":4247,"ĠOver":4248,"Ġtypically":4249,"ida":4250,"Ġproperties":4251,"PA":4252,"porary":4253,"Ġselection":4254,"Ġic":4255,"Ġorganizations":4256,"Ġunless":4257,"Ġtitle":4258,"Ġdur":4259,"ĠGreen":4260,"Ġchurch":4261,"order":4262,"Ġwarrant":4263,"ĠRel":4264,"umn":4265,"Ġdecisions":4266,"Ġchann":4267,"Ġbus":4268,"Ġthanks":4269,"ĠSur":4270,"Ġwat":4271,"ĠID":4272,"Ġdegree":4273,"Bl":4274,"aled":4275,"Ġsea":4276,"Ġtried":4277,"Ġmiddle":4278,"ĠCustom":4279,"Ġassistance":4280,"Ġvisual":4281,"Ġmission":4282,"urities":4283,"Ġproceed":4284,"Ġprotected":4285,"Ġviews":4286,"Ġelectric":4287,"ĠSa":4288,"Ġglass":4289,"So":4290,"Ġmovement":4291,"Ġthus":4292,"Ġsupply":4293,"Ġbirth":4294,"ipped":4295,"ael":4296,"Ġsmart":4297,"never":4298,"Ġorigin":4299,"Ġbrain":4300,"ĠPlan":4301,"Ġideal":4302,"press":4303,"Ġreplace":4304,"Ġplus":4305,"ovember":4306,"which":4307,"Le":4308,"Ġbackground":4309,"lands":4310,"Ġloved":4311,"Ġrent":4312,"Ġir":4313,"ĠPresident":4314,"Ġprefer":4315,"Ġgar":4316,"Ġalthough":4317,"Ġmilitary":4318,"Ġsummer":4319,"Ġmentioned":4320,"Ġvalues":4321,"oms":4322,"ĠLife":4323,"ols":4324,"Ġknows":4325,"Ġfat":4326,"td":4327,"ĠReview":4328,"ĠWilliam":4329,"Ġpermissions":4330,"ospital":4331,"ĠSea":4332,"ĠLear":4333,"PS":4334,"Ġhappens":4335,"ĠScience":4336,"Ġtail":4337,"gen":4338,"ĠSk":4339,"Ġdress":4340,"nect":4341,"iation":4342,"Ġexpand":4343,"Ġreturned":4344,"Ġnut":4345,"Ġpartner":4346,"Ġsuff":4347,"Ġimpl":4348,"ĠCook":4349,"Ġprofessionals":4350,"Ġeight":4351,"Ġlock":4352,"ĠSing":4353,"Ġpieces":4354,"Ġdry":4355,"ĠGo":4356,"this":4357,"Ġkitchen":4358,"ugust":4359,"Ġbecomes":4360,"fficient":4361,"anging":4362,"Ġlogin":4363,"eds":4364,"Ġincome":4365,"Ġadapt":4366,"Ġwants":4367,"Ġimportance":4368,"ores":4369,"ĠWind":4370,"IR":4371,"Ġadvantage":4372,"BC":4373,"fee":4374,"inter":4375,"Ġhaven":4376,"Ġupdate":4377,"aker":4378,"Ġkill":4379,"dis":4380,"ĠSam":4381,"Ġshipping":4382,"iers":4383,"ĠAccess":4384,"Ġcommitment":4385,"tember":4386,"ĠDevelopment":4387,"cknow":4388,"Ġfamilies":4389,"Ġregistration":4390,"Ġ2019":4391,"Ġactions":4392,"ĠHist":4393,"roud":4394,"Ġtraffic":4395,"Ġcomfortable":4396,".'":4397,"ĠWhy":4398,"Ġreality":4399,"Ġintellig":4400,"Ġinteract":4401,"ĠCap":4402,"venue":4403,"Ġentertain":4404,"ĠTV":4405,"rote":4406,"Ġchem":4407,"que":4408,"Ġlearned":4409,"99":4410,"Ġhey":4411,"Ġattach":4412,"yer":4413,"Ġspent":4414,"atively":4415,"Ġ_":4416,"Ġsche":4417,"ĠMrs":4418,"MS":4419,"Ġprimary":4420,"Ġhus":4421,"omin":4422,"abase":4423,"ĠChristian":4424,"ocr":4425,"Ġleader":4426,"ĠMarch":4427,"oving":4428,"uman":4429,"ĠMal":4430,"Ġrestrict":4431,"Ġquant":4432,"pril":4433,"Ġgas":4434,"entle":4435,"Ġcommunities":4436,"PL":4437,"arc":4438,"Ġprocesses":4439,"Ġextremely":4440,"ĠCollege":4441,"Ġtransm":4442,"ĠBoard":4443,"ĠOctober":4444,"Ġclaims":4445,"Ġforms":4446,"Ġgrand":4447,"Ġfollowed":4448,"Ġbath":4449,"ĠAssociation":4450,"Ġtrain":4451,"Ġclimate":4452,"anda":4453,"Ġestablished":4454,"ĠCommunity":4455,"Ġaccurate":4456,"cause":4457,"riage":4458,"Ġdynam":4459,"Ġaverage":4460,"itiz":4461,"Ġlarger":4462,"Ġlack":4463,"Ġproduce":4464,"draw":4465,"quality":4466,"Ġnation":4467,"Ġhandle":4468,"Ġannounce":4469,"amily":4470,"Ġdoubt":4471,"Ġfurn":4472,"inger":4473,"ĠMary":4474,"Ġchallenge":4475,"Ġproviders":4476,"Ġrelationships":4477,"Tr":4478,"ĠGlobal":4479,"Ġing":4480,"ĠBritish":4481,"Ġstatement":4482,"ears":4483,"coming":4484,"nding":4485,"Ġuns":4486,"Ġnearly":4487,"ĠJune":4488,"Ġhighest":4489,"Ġexpertise":4490,"Ġban":4491,"Ġacknow":4492,"ius":4493,"Ġcomprehensive":4494,"ĠJack":4495,"vere":4496,"Ġslight":4497,"rief":4498,"Ġbalance":4499,"Ġpolicies":4500,"Ġmicro":4501,"iny":4502,"Ġfee":4503,"ĠRet":4504,"ĠBill":4505,"Ġstudies":4506,"Ġtechniques":4507,"Ġserver":4508,"OW":4509,"ran":4510,"ĠBel":4511,"Ġaffili":4512,"Ġexplain":4513,"Ġbudget":4514,"cean":4515,"udd":4516,"ĠQue":4517,"encies":4518,"craft":4519,"ĠProte":4520,"oration":4521,"ago":4522,"ls":4523,"clusion":4524,"Ġlines":4525,"Ġlux":4526,"Ġreports":4527,"ĠEarth":4528,"Ġforget":4529,"ĠAnn":4530,"Ġblue":4531,"Ġdisease":4532,"ĠMad":4533,"eared":4534,"overy":4535,"Ġfem":4536,"Ġnavigate":4537,"ĠProfess":4538,"Ġupdated":4539,"yn":4540,"Ġshoot":4541,"pid":4542,"Ġcovered":4543,"ett":4544,"Ġspread":4545,"Ġinterests":4546,"ifts":4547,"Ġinfluence":4548,"Ġfunctions":4549,"asts":4550,"Ġresist":4551,"lause":4552,"usion":4553,"ĠPersonal":4554,"Please":4555,"Cont":4556,"Ġroll":4557,"Ġdriving":4558,"enture":4559,"Ġcreative":4560,"ults":4561,"ĠEach":4562,"ashington":4563,"ĠGet":4564,"Ġthrow":4565,"party":4566,"Ġinstallation":4567,"osh":4568,"Copyright":4569,"ĠGreat":4570,"Ġgraph":4571,"Ġcompliance":4572,"Ġvision":4573,"Ġcookie":4574,"âĢĿ.":4575,"ocal":4576,"',":4577,"Ġlicense":4578,"Ġmatters":4579,"Ġcalcul":4580,"ĠOffice":4581,"Ġbehavior":4582,"fol":4583,"Ġshot":4584,"Ġorders":4585,"Ġfinding":4586,"pa":4587,"Ġcompared":4588,"reement":4589,"ston":4590,"Ġwatching":4591,"Ġfashion":4592,"ĠEngland":4593,"ĠCH":4594,"ses":4595,"zer":4596,"Ġcop":4597,"hent":4598,"DA":4599,"Ġmulti":4600,"Ġwouldn":4601,"Ġ--":4602,"offee":4603,"ĠLtd":4604,"VID":4605,"tics":4606,"ya":4607,"Ġplatforms":4608,"Ġconcerns":4609,"Ġdescribed":4610,"Ġ{{":4611,"eed":4612,"Ġgod":4613,"ĠMor":4614,"ternal":4615,"Ġtesting":4616,"Ġscene":4617,"ĠMany":4618,"Ġlisten":4619,"Ġcounter":4620,"Ġ????????":4621,"rees":4622,"Ġcuz":4623,"Ġthr":4624,"ructure":4625,"Ġvaluable":4626,"ĠPost":4627,"ĠMedia":4628,"lam":4629,"using":4630,"Ġlength":4631,"Ġ21":4632,"ĠTop":4633,"bu":4634,"Ġdemonstr":4635,"Ġunit":4636,"Ġremains":4637,"Ġearlier":4638,"Ġintended":4639,"Ġpicture":4640,"Ġtree":4641,"Ġuseful":4642,"Ġship":4643,"ĠVis":4644,"Ġ2018":4645,"Yes":4646,"Ġadvance":4647,"ĠMag":4648,"his":4649,"ĠTheir":4650,"ĠJames":4651,"ĠAS":4652,"Ġscen":4653,"Ġchanging":4654,"Ġrock":4655,"Pl":4656,"resp":4657,"Ġpet":4658,"Ġsweet":4659,"Ġsymb":4660,"Ġfiles":4661,"useum":4662,"Ġlisted":4663,"Ġwrote":4664,"enior":4665,"ĠAfrica":4666,"Ġrout":4667,"ĠLic":4668,"Ġflex":4669,"ĠDem":4670,"ĠCouncil":4671,"Ġsources":4672,"odes":4673,"ym":4674,"Ġchat":4675,"ĠNovember":4676,"Ġdie":4677,"Ġindependent":4678,"Ġautomatically":4679,"Ġlose":4680,"Ġcommitted":4681,"\",":4682,"cember":4683,"going":4684,"Ġbeg":4685,"Ġearn":4686,"ĠExper":4687,"Ġvideos":4688,"gypt":4689,"agram":4690,"mark":4691,"Ġhelped":4692,"Ġfant":4693,"Ġsorry":4694,"Ġnumerous":4695,"la":4696,"Ġsac":4697,"ĠEven":4698,"what":4699,"Ġprovider":4700,"Ind":4701,"ĠSoci":4702,"Ġhop":4703,"Ġjoy":4704,"ĠSuper":4705,"ĠSee":4706,"IA":4707,"field":4708,"Ġ60":4709,"Ġwear":4710,"under":4711,"ĠGold":4712,"ection":4713,"Ġspecifically":4714,"Ġwelcome":4715,"Ġprofile":4716,"Ġfulf":4717,"Ġvill":4718,"Applause":4719,"Ġinitial":4720,"oman":4721,"ĠSocial":4722,"oh":4723,"oost":4724,"Ġmur":4725,"cluding":4726,"iture":4727,"Ġhusband":4728,"bour":4729,"UT":4730,"Ġshape":4731,"Ġclot":4732,"ĠArab":4733,"Ġsty":4734,"ĠPower":4735,"Ġvib":4736,"Ġkeeping":4737,"Ġdiverse":4738,"Ġpolice":4739,"Ġrestaur":4740,"HT":4741,"ĠGovernment":4742,"Ġcircumstances":4743,"ĠFinancial":4744,"Ġthee":4745,"Ġtoward":4746,"Ġmanufacture":4747,"ĠReserved":4748,"Ġcultural":4749,"ĠAustralia":4750,"Ġheavy":4751,"Ġeverybody":4752,"Ġcategory":4753,"alse":4754,"Ġenem":4755,"acing":4756,"IP":4757,"Ġcharacters":4758,"leg":4759,"iled":4760,"200":4761,"unning":4762,"Ġaward":4763,"Ġmeant":4764,"ĠSeptember":4765,"known":4766,"Ġarchitect":4767,"ĠWork":4768,"Ġseek":4769,"Ġaccessible":4770,"Ġscale":4771,"70":4772,"ESS":4773,"sey":4774,"ĠSoft":4775,"ribe":4776,"Ġindic":4777,"owers":4778,"ĠInstitute":4779,"ttp":4780,"Ġmoved":4781,"Ġran":4782,"NA":4783,"Ġherself":4784,"Ġrace":4785,"Ġdeveloping":4786,"Ġcivil":4787,"Ġanx":4788,"Ġrelax":4789,"Ġdirection":4790,"Ġopinion":4791,"ĠAugust":4792,"Ġproduced":4793,"Ġpan":4794,"char":4795,"Ġdelete":4796,"Ġfort":4797,"Ġlicens":4798,"Ġunl":4799,"Ġcontext":4800,"Ġexperts":4801,"Ġuserg":4802,"bert":4803,"ĠApril":4804,"Ġsmooth":4805,"Ġrefund":4806,"Ġtask":4807,"ĠRich":4808,"Ġeffectively":4809,"point":4810,"Ġaren":4811,"Ġdut":4812,"Ġreleased":4813,"Ġclearly":4814,"Ġcloud":4815,"En":4816,"ĠStreet":4817,"Ġdepending":4818,"ĠĠĠĠĠĠĠ":4819,"ishes":4820,"Ġdisapp":4821,"Ġeth":4822,"iliar":4823,"een":4824,"Ġmemory":4825,"29":4826,"azon":4827,"Ġmovie":4828,"ĠPRO":4829,"ĠConst":4830,"Ġseeking":4831,"Ġefficiency":4832,"Ġstar":4833,"Ġmeasures":4834,"Ġgift":4835,"ala":4836,"tion":4837,"Ġroof":4838,"ĠJew":4839,"Ġmaintenance":4840,"iveness":4841,"ĠBet":4842,"Ġentered":4843,"ĠProv":4844,"Ġacadem":4845,"Ġprepared":4846,"Ġconsequ":4847,"ado":4848,"Ġenvironmental":4849,"Ġbelong":4850,"ĠLLC":4851,"top":4852,"ooper":4853,"Ġcaused":4854,"Ġcancer":4855,"Ġserved":4856,"Ġconsumers":4857,"vention":4858,"Ġbonus":4859,"Ġwaiting":4860,"That":4861,"ername":4862,"Ġhealthcare":4863,"Ġgirls":4864,"Ġdaughter":4865,"ivered":4866,"Ġcore":4867,"ĠOh":4868,"bb":4869,"olf":4870,"Ġreviews":4871,"Ġconnected":4872,"ech":4873,"ĠGuide":4874,"Share":4875,"ĠChild":4876,"Ġcapacity":4877,"Ġtips":4878,"Ġprop":4879,"Ġconversation":4880,"how":4881,"Ġargu":4882,"life":4883,"asy":4884,"Ġweather":4885,"Ġreported":4886,"ĠGood":4887,"ĠMem":4888,"Ġwaste":4889,"26":4890,"Ġfederal":4891,"isation":4892,"ilit":4893,"ĠMa":4894,"ĠVe":4895,"Ġdoctor":4896,"Ġprin":4897,"Ġsharing":4898,"!!":4899,"Ġdiet":4900,"Ġcentury":4901,"Ġfields":4902,"ĠPaul":4903,"Ġcleaning":4904,"33":4905,"Ġdefault":4906,"Ġwonderful":4907,"uris":4908,"ĠDisc":4909,"ĠFund":4910,"ĠDigital":4911,"ĠFrance":4912,"Ġfill":4913,"Ġnames":4914,"Ġrecommended":4915,"Ġconflic":4916,"rian":4917,"Ġign":4918,"ordin":4919,"semb":4920,"Ġborn":4921,"ĠBon":4922,"Ġappeal":4923,"ĠWhite":4924,"Ġproperly":4925,"Ġinstructions":4926,"rely":4927,"Ġseparate":4928,"Ġusername":4929,"Ġdig":4930,"oosing":4931,"llect":4932,"Ġder":4933,"Ġdrop":4934,"Ġpaint":4935,"ĠMac":4936,"Ġpresented":4937,"These":4938,"sm":4939,"(\"":4940,"Ġreached":4941,"emed":4942,"Ġsolid":4943,"ĠIP":4944,"Ġphil":4945,"Ġgambling":4946,"https":4947,"ena":4948,"Ġguarantee":4949,"âĢĿ)":4950,"ĠPhot":4951,"Ġworry":4952,"Ġtend":4953,"Ġindeed":4954,"Ġrepair":4955,"ĠHy":4956,"Ġbatter":4957,"Ġalign":4958,"Ġschools":4959,"Ġteams":4960,"Ġshop":4961,"Ġcollected":4962,"ĠJournal":4963,"ĠTre":4964,"Ġevening":4965,"ups":4966,"Ġbattle":4967,"ĠMicro":4968,"ciples":4969,"Ġinstance":4970,"ĠCasino":4971,"Ġ2016":4972,"Ġdocuments":4973,"emic":4974,"ossible":4975,"dule":4976,"ĠRead":4977,"Ġrule":4978,"col":4979,"rete":4980,"Ġleaving":4981,"Ġinsights":4982,"Ġrisks":4983,"Ġdouble":4984,"gt":4985,"olly":4986,"ĠCur":4987,"Ġthoughts":4988,"Ġspecies":4989,"illa":4990,"claim":4991,"ails":4992,"Ġconfidence":4993,"ucky":4994,"Ġsector":4995,"rier":4996,"ĠUN":4997,"iced":4998,"Ġlots":4999,"gl":5000,"27":5001,"Ġgentle":5002,"hab":5003,"ĠSal":5004,"Ġgranted":5005,"spe":5006,"Ġhell":5007,"Ġjump":5008,"ij":5009,"reek":5010,"Ġoperation":5011,"Ġupdates":5012,"Ġplants":5013,"Ġoperating":5014,"ĠChristmas":5015,"ounds":5016,"Ġourselves":5017,"Ġ2017":5018,"ĠIndust":5019,"Ġfunds":5020,"oves":5021,"ifications":5022,"She":5023,"onym":5024,"yth":5025,"Ġreput":5026,"Ġfabric":5027,"Ġregulations":5028,"Ġinformed":5029,"ĠJuly":5030,"amin":5031,"ĠTex":5032,"iable":5033,"Ġprinc":5034,"pet":5035,"phone":5036,"Ġlargest":5037,"Ġmill":5038,"ĠOnce":5039,"CE":5040,"Ġdealer":5041,"Ġcab":5042,"Ġpractical":5043,"Ġauthority":5044,"asks":5045,"Ġdelic":5046,"Sp":5047,"ĠFood":5048,"==":5049,"ĠNor":5050,"ĠON":5051,"Ġcandid":5052,"Ġcontinues":5053,"Ġleaders":5054,"rey":5055,"Not":5056,"ception":5057,"Ġobviously":5058,"Ġweak":5059,"Ġthousand":5060,"Ġleadership":5061,"olar":5062,"Ġcompleted":5063,"ĠProper":5064,"ĠNOT":5065,"Ġworkers":5066,"Ġensures":5067,"inte":5068,"ĠAtt":5069,"being":5070,"Ġfinish":5071,"ether":5072,"ria":5073,"erves":5074,"Ġcarried":5075,"Ġagent":5076,"ĠDecember":5077,"Ġsignificantly":5078,"acking":5079,"Ġmale":5080,"Ġbecoming":5081,"Ġvary":5082,"Ġaspects":5083,"oday":5084,"Ġmap":5085,"Ġowners":5086,"Ġauthent":5087,"Ġtrip":5088,"ĠFlor":5089,"urisd":5090,"hetic":5091,"Ġrise":5092,"rim":5093,"Ġdied":5094,"ĠAgreement":5095,"eless":5096,"ĠCommission":5097,"hi":5098,"imately":5099,"Ġpopulation":5100,"ustr":5101,"ĠEstate":5102,"Ġposted":5103,"Ġselected":5104,"hus":5105,"she":5106,"LS":5107,"Ġfish":5108,"ĠPet":5109,"Ġmut":5110,"Ġdeposit":5111,"ĠAdditionally":5112,"Ġsession":5113,"ĠSil":5114,"ĠWashington":5115,"ilding":5116,"Ġaccord":5117,"ulture":5118,"Ġinnovative":5119,"osen":5120,"Ġsomebody":5121,"Ġgun":5122,"Ġhelpful":5123,"ĠBay":5124,"Ġwww":5125,"Ġcombination":5126,"Ġdatabase":5127,"Ġcontem":5128,"pload":5129,",'":5130,"poration":5131,"ĠJanuary":5132,"uations":5133,"Ġfeat":5134,"rastructure":5135,"phas":5136,"oma":5137,"Ġremind":5138,"RA":5139,"ĠTwitter":5140,"bre":5141,"Ġbrings":5142,"fection":5143,"ctors":5144,"Ġagency":5145,"Ġoblig":5146,"Ġ22":5147,"Ġgoods":5148,"Ġfeels":5149,"Ġweap":5150,"Ġdeb":5151,"rig":5152,"Ġ23":5153,"Ġquiet":5154,"Ġrid":5155,"Ġrapid":5156,"Ġnamed":5157,"usive":5158,"ĠCarol":5159,"nergy":5160,"ĠMex":5161,"ĠVirgin":5162,"Ġoccurred":5163,"Ġdesire":5164,"Ġbul":5165,"Ġtradem":5166,"Post":5167,"Ġhighlight":5168,"ented":5169,"Ġdistance":5170,"ĠSociety":5171,"ĠMaster":5172,"Ġminute":5173,"ias":5174,"Ġbird":5175,"ĠFire":5176,"orthern":5177,"inafter":5178,"ician":5179,"Ġstood":5180,"Ġformat":5181,"oop":5182,"ĠLou":5183,"win":5184,"ĠSpr":5185,"Ġhidden":5186,"Ġapplied":5187,"comm":5188,"Ġcarefully":5189,"CA":5190,"ĠSpecial":5191,"Ġ...":5192,"Ġ198":5193,"ĠCam":5194,"prof":5195,"Ġsustainable":5196,"Ġopening":5197,"Ġfilled":5198,"Ġolder":5199,"Ġretail":5200,"iat":5201,"Ġcatch":5202,"ĠEgypt":5203,"Ġdetailed":5204,"ĠRob":5205,"Ġsav":5206,"Ġnone":5207,"ĠMat":5208,"ror":5209,"Ġended":5210,"Ġthousands":5211,"Ġcolle":5212,"Ġpermission":5213,"mosp":5214,"ocking":5215,"Ġmarkets":5216,"Ġfocused":5217,"Ġeconomy":5218,"ua":5219,"Ġterr":5220,"Ġanti":5221,"ĠConditions":5222,"ĠBen":5223,"Ġtick":5224,"comes":5225,"Ġmouth":5226,"orough":5227,"Ġcreation":5228,"100":5229,"Ġdelivered":5230,"ĠâĢ¢":5231,"Ġcompar":5232,"Ġnotes":5233,"ava":5234,"Ġcollege":5235,"Ġexchange":5236,"ĠFeb":5237,"hol":5238,"Ġhomes":5239,"ĠAM":5240,"Ġassum":5241,"Ġassets":5242,"class":5243,"Ġopened":5244,"ĠChurch":5245,"Ġcards":5246,"road":5247,"Ġnovel":5248,"Ġdestroy":5249,"ĠClub":5250,"Ġinnovation":5251,"Ġjobs":5252,"Ġlibr":5253,"Ġmenu":5254,"hereinafter":5255,"Ġknowing":5256,"ression":5257,"ĠEnter":5258,"**":5259,"Ġap":5260,"Ġfunctional":5261,"ae":5262,"Ġprompt":5263,"arks":5264,"Ġreply":5265,"iration":5266,"alog":5267,"ĠCy":5268,"Ġcontroll":5269,"Ġdetect":5270,"ĠAuthor":5271,"Ġepis":5272,"Ġec":5273,"ĠMain":5274,"UN":5275,"onic":5276,"Ġmo":5277,"oses":5278,"bet":5279,"LA":5280,"cles":5281,"ĠClass":5282,"ĠAP":5283,"apers":5284,"Ġwitness":5285,"].":5286,"Ġdesigns":5287,"Ġidentity":5288,"Ġpursu":5289,"ĠEqu":5290,"ĠTexas":5291,"ĠSun":5292,"Ġproud":5293,"ste":5294,"Ġspeaking":5295,"Ġadding":5296,"Ġrecords":5297,"Ġtrees":5298,"pass":5299,"ĠCON":5300,"estic":5301,"osition":5302,"Ġwhenever":5303,"rowd":5304,"ĠInf":5305,"eper":5306,"pret":5307,"ona":5308,"ortunately":5309,"()":5310,"Ġbes":5311,"Ġaccident":5312,"ĠContent":5313,"arian":5314,"Ġasking":5315,"ĠMart":5316,"lements":5317,"ĠMont":5318,"inese":5319,"ĠMot":5320,"Ġlandscape":5321,"rooms":5322,"iverse":5323,"Ġneither":5324,"aser":5325,"ĠBi":5326,"Ġclub":5327,"Ġancient":5328,"ulated":5329,"antic":5330,"Ġlabor":5331,"Ġfriendly":5332,"28":5333,"ev":5334,"Ġequal":5335,"Ġdistribution":5336,"Ġcitiz":5337,"ĠEconom":5338,"ĠAnge":5339,"uries":5340,"Ġartist":5341,"Do":5342,"Ġbow":5343,"Ġartists":5344,"Ġmiles":5345,"Select":5346,"Ġengage":5347,"Ġsupposed":5348,"ĠTime":5349,"ship":5350,"ulate":5351,"ĠSoftware":5352,"ula":5353,"Ġconsumer":5354,"Ġcris":5355,"Ġpredict":5356,"Ġrank":5357,"ĠMusic":5358,"Ġbright":5359,"65":5360,"LL":5361,"Ġwilling":5362,"Ġextent":5363,"water":5364,"ĠAccount":5365,"ĠBra":5366,"Ġputting":5367,"pic":5368,"ĠStar":5369,"can":5370,"umm":5371,"ĠAbout":5372,"List":5373,"Ġresol":5374,"itors":5375,"Ġune":5376,"Ġcells":5377,"Ġsitting":5378,"Ġoccasion":5379,"ĠMarketing":5380,"allow":5381,"umber":5382,"Ġsets":5383,"ĠCentral":5384,"Ġaccounts":5385,"iana":5386,"ĠInsurance":5387,"ĠLight":5388,"Ġestim":5389,"Ġstreet":5390,"Ġoutdoor":5391,"orial":5392,"ĠHot":5393,"Ġremark":5394,"Ġconfirm":5395,"While":5396,"After":5397,"Ġshowed":5398,"onds":5399,"Ġliterally":5400,"ĠBack":5401,"alle":5402,"Ġpossess":5403,"CO":5404,"uality":5405,"no":5406,"pan":5407,"Ġpayments":5408,"Ġsounds":5409,"iety":5410,"Ġappearance":5411,"Ġvul":5412,"Ġcentral":5413,"Ġemotional":5414,"Ġcorner":5415,"Ġsolar":5416,"Ġfalse":5417,"Ġstick":5418,"Ġfellow":5419,"Ġentry":5420,"Ġimagine":5421,"Element":5422,"Ġgarden":5423,"ĠCamp":5424,"Ġconsid":5425,"Ġbroken":5426,"Ġtele":5427,"pected":5428,"SE":5429,"Ġemphas":5430,"za":5431,"odcast":5432,"llectual":5433,"Ġdetermined":5434,"ĠParis":5435,"Ġgaming":5436,"Ġnegative":5437,"Ġ>":5438,"arrow":5439,"ĠMount":5440,"Ġcalls":5441,"ĠLand":5442,"Ġspl":5443,"Ġmine":5444,"Ġstanding":5445,"Ġsending":5446,"Ġgather":5447,"lessly":5448,"ĠBecause":5449,"ĠRiver":5450,"Ġscr":5451,"Ġfamiliar":5452,"had":5453,"ĠIts":5454,"Ġslot":5455,"Ġsight":5456,"cipl":5457,"ĠMichael":5458,"ĠCong":5459,"Ġvac":5460,"Ġunw":5461,"ocation":5462,"Ġrou":5463,"Ġshut":5464,"Ġteaching":5465,"ĠTrump":5466,"Ġarrange":5467,"hand":5468,"Ġstation":5469,"Ġsmaller":5470,"Ġmoments":5471,"Ġmarked":5472,"Ġholid":5473,"odies":5474,"ibilities":5475,"Ġspect":5476,"Ġwalking":5477,"ka":5478,"Ġfeedback":5479,"ĠAlso":5480,"Ġcontains":5481,"Ġband":5482,"arsh":5483,"Ġremote":5484,"ĠFamily":5485,"Ġdrug":5486,"otic":5487,"Ġcolors":5488,"ĠThrough":5489,"Ġtill":5490,"ruary":5491,"ĠSEO":5492,"ĠAlex":5493,"ĠUlt":5494,"prise":5495,"ĠYes":5496,"Ġcomponents":5497,"Ġselling":5498,"Ġsubmit":5499,"IF":5500,"swe":5501,"Ġwedding":5502,"Ġdecide":5503,"ĠDirector":5504,"ĠExpl":5505,"cons":5506,"agraph":5507,"Ġjournal":5508,"Ġpromote":5509,"Im":5510,"Ġgeneration":5511,"Ġhorse":5512,"list":5513,"Ġbiggest":5514,"Ġelement":5515,"Ġelev":5516,"ĠAcadem":5517,"Ġlived":5518,"Ġbelief":5519,"Ġsignature":5520,"Ġfreed":5521,"35":5522,"Oh":5523,"Ġwa":5524,"ĠLat":5525,"ĠOrgan":5526,"Ġguard":5527,"Ġplays":5528,"Ġreasonable":5529,"rical":5530,"Ġfav":5531,"Ġclosed":5532,"ĠCall":5533,"Ġreference":5534,"Ġdescription":5535,"Ġsch":5536,"ims":5537,"Ġwealth":5538,"Ġperfectly":5539,"from":5540,"Ġtransl":5541,"ushed":5542,"Qu":5543,"Ġpric":5544,"Ġbillion":5545,"ocol":5546,"Ġwithdraw":5547,"bed":5548,"Ġmort":5549,"ked":5550,"Ġtrial":5551,"ument":5552,"ĠMil":5553,"Ġcolour":5554,"Ġflu":5555,"Ġatmosp":5556,"umin":5557,"Ġpal":5558,"Ġtherapy":5559,"Ġfol":5560,"ĠSign":5561,"Ġbag":5562,"Ġraised":5563,"Ġsimpl":5564,"Ġinternal":5565,"ĠAud":5566,"ĠLake":5567,"Ġ80":5568,"Ġkilled":5569,"Ġexciting":5570,"ros":5571,"orney":5572,"Ġcoffee":5573,"Ġfaster":5574,"Ġbill":5575,"Ġstone":5576,"retion":5577,"Ġalternative":5578,"Ġgreatest":5579,"ĠGrand":5580,"ache":5581,"Ġevol":5582,"ĠWord":5583,"Ġanimals":5584,"Res":5585,"ĠRoad":5586,"ĠTraining":5587,"Ġsand":5588,"Ġnarr":5589,"Ġappeared":5590,"Ġcrazy":5591,"upp":5592,"Ġseam":5593,"Ġfacilit":5594,"Ġdebt":5595,"Ġoccup":5596,"Don":5597,"aught":5598,"Ġfost":5599,"Ġchoices":5600,"Ġcharges":5601,"itoring":5602,"2024":5603,"Ġlady":5604,"Ġbeat":5605,"ĠANY":5606,"\".":5607,"Ġadvis":5608,"Ġhath":5609,"Ġcompetitive":5610,"Ġrat":5611,"Ġdiscovered":5612,"ishop":5613,"Ġingred":5614,"outhern":5615,"Ġmajority":5616,"ĠPeople":5617,"Ġguidance":5618,"adian":5619,"Ġshopping":5620,"Ġaccordance":5621,"lear":5622,"estyle":5623,"mercial":5624,"Ġleads":5625,"arp":5626,"ĠTom":5627,"ĠCard":5628,"azine":5629,"roid":5630,"Ġpool":5631,"Ġrain":5632,"Ġexclusive":5633,"Ġencourage":5634,"Ġfuel":5635,"ĠInt":5636,"function":5637,"uine":5638,"Ġpush":5639,"Ġhistorical":5640,"Ġamend":5641,"Ġspo":5642,"ĠGeorge":5643,"ns":5644,"Ġyouth":5645,"unte":5646,"Ġfailure":5647,"Ġguests":5648,"ĠAsia":5649,"Ġboost":5650,"grad":5651,"Ġeventually":5652,"ĠMo":5653,"Ġholding":5654,"ĠVol":5655,"Ġprison":5656,"Ġconvenient":5657,"ĠDiv":5658,"Ġpersonally":5659,"Ġclassic":5660,"Ġpatterns":5661,"Book":5662,"Ġ28":5663,"Ġliability":5664,"Ġcasinos":5665,"Ġshowing":5666,"Ġfamous":5667,"ĠBre":5668,"Ġedge":5669,"Ġsubscribe":5670,"Ġtrouble":5671,"Ġ90":5672,"Ġhotel":5673,"Ġpictures":5674,"ĠLicense":5675,"ĠUSA":5676,"Ġpleasure":5677,"ĠCreat":5678,"rency":5679,"ĠMedical":5680,"Ġpersons":5681,"ĠCode":5682,"Ġmanaged":5683,"Ġsigns":5684,"Ġenthus":5685,"Ġminor":5686,"45":5687,"Ġamb":5688,"Ġfan":5689,"ulations":5690,"anta":5691,"Ġexcited":5692,"Ġaccuracy":5693,"Ġquarter":5694,"him":5695,"ĠTest":5696,"Ġconfig":5697,"Ġbreath":5698,"75":5699,"ĠPass":5700,"ECT":5701,"Ġanywhere":5702,"Ġentirely":5703,"uated":5704,"friendly":5705,"----":5706,"Ġloan":5707,"ĠOper":5708,"Can":5709,"ini":5710,"Ġhearing":5711,"Ġcontained":5712,"Ġtab":5713,"ĠUnion":5714,"related":5715,"oval":5716,"Ġdear":5717,"Jo":5718,"ette":5719,"Ġonto":5720,"Ġdomain":5721,"ĠAmazon":5722,"Ġphotos":5723,"gn":5724,"Ġspoke":5725,"apes":5726,"DS":5727,"Ġton":5728,"Ġpreviously":5729,"Ġice":5730,"Ġperman":5731,"ĠWestern":5732,"elines":5733,"ĠKnow":5734,"ĠDef":5735,"Ġappears":5736,"Ġfif":5737,"etic":5738,"Ġmaximum":5739,"Ġdollars":5740,"ERS":5741,"Ġdiagn":5742,"Ġarticles":5743,"iber":5744,"allery":5745,"ĠValley":5746,"gor":5747,"ander":5748,"anged":5749,"ye":5750,"Ġkid":5751,"Col":5752,"Ġtheory":5753,"Ġextensive":5754,"ĠReport":5755,"inding":5756,"ĠUk":5757,"Ġcart":5758,"ĠII":5759,"Ġbrands":5760,"Ġintelligence":5761,"case":5762,"???":5763,"ounder":5764,"osis":5765,"Ġlaunch":5766,"Ġinput":5767,"Ġaccompl":5768,"Ġ2015":5769,"ĠSince":5770,"Ġdiscussion":5771,"ommod":5772,"ĠAfrican":5773,"iors":5774,"Ġhappening":5775,"Ġmanager":5776,"ĠGerman":5777,"Get":5778,"Ġannual":5779,"Ġremoved":5780,"ĠHT":5781,"ĠOpen":5782,"Ġdiscount":5783,"formance":5784,"ugg":5785,"ĠDet":5786,"Ġfinished":5787,"Ġstatements":5788,"ĠColor":5789,"Ġsuddenly":5790,"ailability":5791,"ĠView":5792,"77":5793,"Ġalt":5794,"OC":5795,"Ġadministrators":5796,"Ġsad":5797,"icial":5798,"Ġlegis":5799,"ĠTax":5800,"ingu":5801,"Ġburn":5802,"ĠBrand":5803,"Ġfacilities":5804,"Ġunable":5805,"Ġforgot":5806,"ĠLog":5807,"alls":5808,"Ġreferred":5809,"Ġreceiving":5810,"Ġmoderator":5811,"Ġtrends":5812,"Ġsquare":5813,"ĠStand":5814,"Ġdiscretion":5815,"Ġhur":5816,"Ġissued":5817,"ban":5818,"Ġmotor":5819,"Ġtaste":5820,"ANT":5821,"Ġcorporate":5822,"Ġexpression":5823,"Ġstated":5824,"Tube":5825,"Ġtelling":5826,"bar":5827,"Ġrecip":5828,"Ġobjects":5829,"Ġplenty":5830,"lor":5831,"Ġshares":5832,"opped":5833,"Ġchosen":5834,"Ġarms":5835,"ta":5836,"ĠBer":5837,"Ġchair":5838,"Ġdynamic":5839,"IES":5840,"Ġwine":5841,"Ġreligious":5842,"Ġcompetition":5843,"BS":5844,"Ġcities":5845,"ĠBig":5846,"fast":5847,"AY":5848,"inn":5849,"Ġincredible":5850,"Ġ26":5851,"Ġstarts":5852,"prene":5853,"ĠRussia":5854,"akers":5855,"ĠCommit":5856,"Ġfold":5857,"ĠList":5858,"Ġroot":5859,"Ġluxury":5860,"Ġtemperature":5861,"den":5862,"ĠDi":5863,"ĠEnergy":5864,"ĠSecret":5865,"making":5866,"ĠGen":5867,"ĠFlorida":5868,"soft":5869,"90":5870,"Ġbringing":5871,"Ġpun":5872,"Ġidentif":5873,"Ġnorth":5874,"ĠLu":5875,"Ġlad":5876,"andemic":5877,"ĠYear":5878,"Ġtaxes":5879,"Ġsnow":5880,"Ġprovision":5881,"Ġsequ":5882,"Ġjurisd":5883,"ĠBeach":5884,"reprene":5885,"ki":5886,"Ġscript":5887,"ĠMult":5888,"Ġsuit":5889,"including":5890,"Ġsan":5891,"Ġvir":5892,"Ġabusive":5893,"they":5894,"Ġbuying":5895,"Ġcars":5896,"itime":5897,"ĠTim":5898,"Top":5899,"yers":5900,"Ġwid":5901,"ĠWho":5902,"Ġcrowd":5903,"Ġmode":5904,"Ġcrypt":5905,"Per":5906,"agers":5907,"Ġspiritual":5908,"Ġdelight":5909,"Ġsympt":5910,"BA":5911,"Ġteach":5912,"Ġsurg":5913,"Ġthorough":5914,"plate":5915,"Ġreplied":5916,"Ġexpenses":5917,"Ġlegit":5918,"Ġdirector":5919,"Ġinvestig":5920,"Ġtasks":5921,"ĠMark":5922,"Ġmedium":5923,"Ġid":5924,"They":5925,"Ġattachments":5926,"Ġer":5927,"Ġengagement":5928,"ĠStudies":5929,"amm":5930,"Home":5931,"Ġaid":5932,"raine":5933,"Ġwinter":5934,"Ġcos":5935,"Ġimpossible":5936,"Ġtransactions":5937,"ĠIre":5938,"ĠChinese":5939,"Ġsuitable":5940,"Ġregularly":5941,"Ġment":5942,"Ġmir":5943,"Ġvast":5944,"ogether":5945,"Ġneighbor":5946,"Ġsport":5947,"Ġstrange":5948,"Ġtotally":5949,"Ġsin":5950,"ĠOb":5951,"ints":5952,"Ġdespite":5953,"ĠLab":5954,"Ġcamera":5955,"ĠHuman":5956,"Ġmaintaining":5957,"Ġjustice":5958,"rible":5959,"Ġperspective":5960,"look":5961,"Ġdrink":5962,"Ġdistinct":5963,"rip":5964,"Ġforums":5965,"ðŁ":5966,"Ġskill":5967,"Ġlocations":5968,"Ġliqu":5969,"Ġrand":5970,"Ġvolume":5971,"ĠFebruary":5972,"ĠPri":5973,"Ġbetting":5974,"Ġarbit":5975,"ĠArticle":5976,"ĠGermany":5977,"Ġinfrastructure":5978,"Ġinqu":5979,"Ġindex":5980,"Ġeducational":5981,"nel":5982,"ĠLead":5983,"ĠMake":5984,"Ġstrategic":5985,"TR":5986,"Ġpossibly":5987,"pat":5988,"hered":5989,"ĠTer":5990,"ĠStrateg":5991,"500":5992,"Ġiron":5993,"Ġrealize":5994,"gon":5995,"ĠQueen":5996,"Ġcomply":5997,"ĠNetwork":5998,"letter":5999,"Ġang":6000,"rec":6001,"Ġzero":6002,"stood":6003,"Ġparagraph":6004,"PT":6005,"Ġ2014":6006,"Ġbear":6007,"Ġvehicles":6008,"osoph":6009,"Ġchannel":6010,"Ġconstantly":6011,"Ġriver":6012,"Ġclinical":6013,"aning":6014,"ĠMel":6015,"respond":6016,"ĠProtection":6017,"ĠAR":6018,"ĠMus":6019,"Ġreturns":6020,"Ġexhibition":6021,"Ġprocedures":6022,"Ġconscious":6023,"ĠWood":6024,"Ġspaces":6025,"ĠMer":6026,"Ġmarriage":6027,"ĠBE":6028,"Ġsir":6029,"Ġbehalf":6030,"Ġinvolves":6031,"acific":6032,"ĠDuring":6033,"Ġ27":6034,"ĠThom":6035,"Ġvirtual":6036,"Ġchemical":6037,"Ġaccepted":6038,"lo":6039,"Ġcoverage":6040,"Ġpure":6041,"ĠThank":6042,"ĠKore":6043,"49":6044,"Well":6045,"ĠRussian":6046,"Ġcapabilities":6047,"');":6048,"ĠEngineering":6049,"ĠTem":6050,"Ġanimal":6051,"rad":6052,"SS":6053,"icians":6054,"Ġappreciate":6055,"ĠWhere":6056,"Ġsecurities":6057,"Ġtom":6058,"Ġenforce":6059,"Ġads":6060,"Ġhyd":6061,"Ġforces":6062,"ĠTherefore":6063,"Ġscientific":6064,"Ġexpensive":6065,"ĠLike":6066,"ideo":6067,"ĠAlthough":6068,"Ġpresident":6069,"ĠBur":6070,"Ġkinds":6071,"Ġrandom":6072,"Ġminimum":6073,"Ġleaves":6074,"ĠFil":6075,"Ġfantastic":6076,"ĠOpt":6077,"aping":6078,"ITY":6079,"Ġwinning":6080,"otes":6081,"ĠCOVID":6082,"swered":6083,"ĠMill":6084,"Ġtro":6085,"etary":6086,"Ġflat":6087,"Ġmassive":6088,"Ġsupporting":6089,"unting":6090,"ĠGame":6091,"Ġmanufacturing":6092,"Ġresource":6093,"Id":6094,"Ġcutting":6095,"ĠPC":6096,"Ġsteel":6097,"ushing":6098,"merce":6099,"Ġmetal":6100,"Ġparticipants":6101,"ĠDec":6102,"Ġrooms":6103,"ĠSolutions":6104,"ĠLong":6105,"ĠRev":6106,"ĠRober":6107,"ĠEsc":6108,"ĠOffic":6109,"irty":6110,"ĠBlue":6111,"Ġpark":6112,"Ġbless":6113,"Ġslightly":6114,"Ġworse":6115,"Ġur":6116,"have":6117,"Ġapparent":6118,"Ġcommunications":6119,"Ġwalls":6120,"Ġobtained":6121,"Ġhom":6122,"otal":6123,"isk":6124,"aren":6125,"Ġvital":6126,"anger":6127,"Ġinterpret":6128,"olars":6129,"reate":6130,"Ġcontribute":6131,"ario":6132,"ĠWomen":6133,"ĠYouTube":6134,"Ġdefined":6135,"ĠCarolina":6136,"rid":6137,"ĠCert":6138,"Ġswitch":6139,"Ġanswered":6140,"ĠPress":6141,"Ġportion":6142,"Wor":6143,"Or":6144,"Ġbelieved":6145,"Ġprohib":6146,"Ġinstitutions":6147,"Ġscore":6148,"Ġschedule":6149,"Ġstands":6150,"orgia":6151,"Ġwow":6152,"Ġtransp":6153,"ĠSupport":6154,"kin":6155,"tra":6156,"Ġbattery":6157,"xy":6158,"Ġbrief":6159,"Ġresidents":6160,"ĠRequ":6161,"Ġsoil":6162,"Ġspending":6163,"obe":6164,"ĠAdministr":6165,"Ġsubstant":6166,"Ġ2013":6167,"Dr":6168,"Ġidentified":6169,"Ġrot":6170,"edy":6171,"Ġrecovery":6172,"aped":6173,"ĠTrust":6174,"Ġfreedom":6175,"Ġagents":6176,"folio":6177,"ĠWall":6178,"ĠOld":6179,"Ġcharm":6180,"lines":6181,"Ġpaying":6182,"Ġdepartment":6183,"Ġfrequently":6184,"gorith":6185,"ĠHead":6186,"Ġinvestors":6187,"Ġpackage":6188,"Ġoutput":6189,"Ġaccommod":6190,"--\"":6191,"Ġanalyze":6192,"Des":6193,"Ġmarried":6194,"Ġfans":6195,"ĠWH":6196,"there":6197,"Ġexceptional":6198,"ĠRest":6199,"olit":6200,"ĠSystems":6201,"Ġdeemed":6202,"Ġimproved":6203,"Ġaudio":6204,"ĠLove":6205,"equ":6206,"Ġcourses":6207,"Ġtit":6208,"ĠBlog":6209,"Ġdangerous":6210,"adow":6211,"Ġpremium":6212,"Ġdinner":6213,"Ġenabled":6214,"ĠSand":6215,"Ġusage":6216,"Ġpair":6217,"Ġunits":6218,"ĠLibrary":6219,"Ġconsidering":6220,"EW":6221,"LY":6222,"asant":6223,"Ġperformed":6224,"34":6225,"Ġacademic":6226,"bi":6227,"gage":6228,"Ġfle":6229,"asp":6230,"grade":6231,"Ġflo":6232,"ican":6233,"arts":6234,"Ġpurchased":6235,"Ġspring":6236,"Ġfunding":6237,"thlet":6238,"Ġeating":6239,"Ġexternal":6240,"outs":6241,"Now":6242,"Ġtracking":6243,"your":6244,"Ġstret":6245,"ĠRock":6246,"ulous":6247,"Ġpotentially":6248,"Ġhospital":6249,"Ġexamples":6250,"Ġturning":6251,"isms":6252,"Ġsister":6253,"celer":6254,"estival":6255,"ĠAnaly":6256,"Ġfacility":6257,"ĠSmith":6258,"ĠTown":6259,"Add":6260,"atar":6261,"Ġlie":6262,"criptions":6263,"ĠKingdom":6264,"Ġ2010":6265,"ĠCentre":6266,"elcome":6267,"Ġchain":6268,"ords":6269,"Ġprepare":6270,"Ġconv":6271,"ĠHistory":6272,"Ġsupported":6273,"mes":6274,"ĠSqu":6275,"Ġadvoc":6276,"Ġexpectations":6277,"alian":6278,"From":6279,"OD":6280,"anish":6281,"greg":6282,"Ġupload":6283,"ĠEX":6284,"ĠGar":6285,"ĠArts":6286,"Ġdecor":6287,"Ġcalling":6288,"Ġrecognized":6289,"Ġdu":6290,"anges":6291,"clusive":6292,"Ġofficer":6293,"Ġsatisfaction":6294,"Sub":6295,"active":6296,"Ġevil":6297,"Ġglad":6298,"Ġnetworks":6299,"cher":6300,"ĠLiter":6301,"ef":6302,"Ġsouth":6303,"omy":6304,"Ġtaught":6305,"Ġprecise":6306,"des":6307,"Ġhate":6308,"Ġturns":6309,"enced":6310,"Ġdecre":6311,"Ġprinciples":6312,"Ġfixed":6313,"UM":6314,"Ġmissing":6315,"Ġdepth":6316,"ĠHill":6317,"Ġcauses":6318,"Ġtells":6319,"Ġconcent":6320,"Ġchallenging":6321,"Ġsufficient":6322,"icity":6323,"Ġcollaboration":6324,"zz":6325,"erning":6326,"Ġproof":6327,"Ġexceed":6328,"lets":6329,"ayer":6330,"Ġteachers":6331,"ĠPack":6332,"ĠFurther":6333,"redit":6334,"inations":6335,"Ġimproving":6336,"Ġreporting":6337,"Ġdepends":6338,"Ġhttp":6339,"Ġlicensed":6340,"Ġliber":6341,"icken":6342,"Ġmal":6343,"Ġlaugh":6344,"raid":6345,"Ġheaven":6346,"Ġcoast":6347,"Ġtalked":6348,"Ġtransition":6349,"Ġindustrial":6350,"Ġodd":6351,"ola":6352,"rate":6353,"elf":6354,"Ġnobody":6355,"Ġtwenty":6356,"Ġsky":6357,"Ġepisode":6358,"Ġlaun":6359,"zen":6360,"Ġdecades":6361,"ĠCommittee":6362,"Ġdisplayed":6363,"Ġcompens":6364,"Ġclasses":6365,"Ġtow":6366,"ultural":6367,"Ġreducing":6368,"Sc":6369,"onymous":6370,"Ġattribut":6371,"Ġpermitted":6372,"ĠInnov":6373,"ĠCanadian":6374,"Ġconflict":6375,"Ġanxiety":6376,"âĦ":6377,"Ġteeth":6378,"Ġaffordable":6379,"Ġrelating":6380,"Ġholds":6381,"oti":6382,"Ġinvolve":6383,"ĠCir":6384,"pes":6385,"pot":6386,"Ġworldwide":6387,"tml":6388,"Ġsilver":6389,"ensions":6390,"Ġengaging":6391,"Ġcombined":6392,"Ġ70":6393,"Ġviolence":6394,"Ġforest":6395,"36":6396,"Ġradio":6397,"Ġisland":6398,"cessary":6399,"ĠOnly":6400,"').":6401,"ĠTor":6402,"Ġletters":6403,"Ġfunctionality":6404,"Ġconcerned":6405,"Ġcrisis":6406,"ĠMass":6407,"ĠMexico":6408,"Ġhabit":6409,"Ġdisabled":6410,"Ġapproved":6411,"requ":6412,"Ġcaught":6413,"TS":6414,"rics":6415,"ĠId":6416,"Ġsacr":6417,"Ġchief":6418,"Ġrecognize":6419,"Ġflight":6420,"Ġadministration":6421,"Ġjoined":6422,"{{":6423,"irms":6424,"Ġarmy":6425,"esome":6426,"Ġcommission":6427,"Ġdefense":6428,"Ġfactor":6429,"scribe":6430,"Ġmotiv":6431,"88":6432,"ĠHam":6433,"aturally":6434,"ĠRight":6435,"ĠGames":6436,"Ġstores":6437,"Ġsick":6438,"Ġfly":6439,"ĠLo":6440,"ocked":6441,"osite":6442,"Ġprovisions":6443,"ĠFrid":6444,"holders":6445,"Ġconsistent":6446,"Ġsymptoms":6447,"rum":6448,"Ġintellectual":6449,"Ġ2012":6450,"ĠFranc":6451,"ĠAward":6452,"Ġbigger":6453,"eration":6454,"Ġring":6455,"stone":6456,"aine":6457,"Ġ29":6458,"aver":6459,"Ġsuc":6460,"Art":6461,"icago":6462,"ĠGra":6463,"Ġcrim":6464,"Some":6465,"ĠCat":6466,"Ġapps":6467,"Ġsmile":6468,"aid":6469,"usal":6470,"Ġtransaction":6471,"ĠDev":6472,"Ġmachines":6473,"Ġrare":6474,"Ġasset":6475,"Ġguest":6476,"Ġcabin":6477,"Ġexcess":6478,"ĠLouis":6479,"ceived":6480,"Ġwriter":6481,"ĠCA":6482,"abet":6483,"ĠJose":6484,"izer":6485,"Ġserves":6486,"ĠÃ":6487,"Ġemployee":6488,"Ġongoing":6489,"urban":6490,"ystem":6491,"Ġ//":6492,"Ġparam":6493,"Ġstrict":6494,"Ġcolumn":6495,"âĦ¢":6496,"rance":6497,"Ġcontinuing":6498,"Ġrenew":6499,"Ġdoors":6500,"athy":6501,"eline":6502,"Ġmail":6503,"Ġseconds":6504,"Ġdelay":6505,"Ġjudge":6506,"Ġthick":6507,"Ġlifestyle":6508,"Ġdrawing":6509,"Ġpandemic":6510,"Ġease":6511,"Ġintroduced":6512,"MA":6513,"icit":6514,"Ġphoto":6515,"Ġenjoyed":6516,"Ġmonitor":6517,"Ġengineering":6518,"Ġfurniture":6519,"ĠWindows":6520,"ĠInstagram":6521,"ĠTravel":6522,"ĠCa":6523,"ĠDown":6524,"ĠNav":6525,"ĠRad":6526,"Ġcitizens":6527,"Ġtight":6528,"Ġdiam":6529,"Ġshift":6530,"Ġdogs":6531,"Ġarrived":6532,"Ġchoosing":6533,"Ġassessment":6534,"Ġsucceed":6535,"ĠPrem":6536,"Ġdriver":6537,"ographic":6538,"Ġinstalled":6539,"Man":6540,"Ġerrors":6541,"Ġinvent":6542,"Ġfeelings":6543,"Ġteacher":6544,"eling":6545,"Ġassigned":6546,"Ġvulner":6547,"Ġnine":6548,"Ġsolely":6549,"ĠâĢ¦":6550,"ificial":6551,"abling":6552,"Ġdim":6553,"Ġcounsel":6554,"ĠKey":6555,"Ġmonitoring":6556,"front":6557,"32":6558,"Ġingredients":6559,"Ġpra":6560,"Ġlibrary":6561,"Ġdeploy":6562,"ospit":6563,"ĠCharles":6564,"Ġrub":6565,"gers":6566,"IB":6567,"Ġgrew":6568,"Ġrevolution":6569,"ixt":6570,"Click":6571,"ĠDu":6572,"sell":6573,"Ġstopped":6574,"Ġreward":6575,"Ġpersonalized":6576,"ĠVirginia":6577,"Ġtrig":6578,"igan":6579,"Ġmostly":6580,"Ġserving":6581,"Ġraise":6582,"Posted":6583,"Ġstars":6584,"Ġinn":6585,"ĠTake":6586,"Ġalgorith":6587,"Ġhundreds":6588,"Ġinjury":6589,"Ġ31":6590,"hemat":6591,"Ĥ¬":6592,"Ġseat":6593,"Ġagreed":6594,"Ġ(âĢľ":6595,"aked":6596,"Ġmotion":6597,"Ġpurchasing":6598,"ĠAuction":6599,"Ġfemale":6600,"Ġbought":6601,"ĠVer":6602,"31":6603,"worth":6604,"Ġride":6605,"Ġconfident":6606,"ĠSci":6607,"ordan":6608,"OP":6609,"ali":6610,"Ġimplementation":6611,"ĠHen":6612,"Ġuniverse":6613,"Ġsaved":6614,"Ġcrime":6615,"Ġheight":6616,"ĠDen":6617,"Ġannounced":6618,"Ġeleg":6619,"ĠAG":6620,"ĠFinance":6621,"lled":6622,"Ġvote":6623,"Ġcarbon":6624,"iest":6625,"itage":6626,"ĠSund":6627,"Ġofficers":6628,"rome":6629,"ĠParty":6630,"them":6631,"Ġapproval":6632,"Press":6633,"while":6634,"Ġemergency":6635,"Ġelimin":6636,"Ġwindows":6637,"Ġowned":6638,"Ġproposed":6639,"EE":6640,"Ġindicate":6641,"Ġempt":6642,"interest":6643,"Ġabuse":6644,"Ġ<":6645,"Ġliable":6646,"Ġaffected":6647,"igration":6648,"Ġelection":6649,"Ġsevere":6650,"ĠÂ£":6651,"Ġlights":6652,"Ġbid":6653,"Ġrevenue":6654,"ĠFind":6655,"44":6656,"Gl":6657,"Mr":6658,"ads":6659,"host":6660,"zone":6661,"ĠEU":6662,"Ġoperate":6663,"ĠApple":6664,"ĠAcademy":6665,"Ġultimately":6666,"Ġencoun":6667,"ĠTool":6668,"Ġunivers":6669,"cuit":6670,"ĠIreland":6671,"Ġlinked":6672,"Ġfailed":6673,"Ġatmosphere":6674,"Ġhero":6675,"ĠMuseum":6676,"Ġreduced":6677,"Ġconstruct":6678,"Ġlayer":6679,"UD":6680,"Ġvan":6681,"Ġfoundation":6682,"ĠTour":6683,"Ġstunning":6684,"ĠStart":6685,"Ġfootball":6686,"Ġbusy":6687,"Ġentertainment":6688,"ĠToday":6689,"Ġspeech":6690,"ĠFrank":6691,"Ġreserve":6692,"Ġmanaging":6693,",--":6694,"Ġdial":6695,"lim":6696,"DF":6697,"Ġdance":6698,"ighter":6699,"House":6700,"Ġboat":6701,"Ġslowly":6702,"Ġarg":6703,"aken":6704,"ĠTeam":6705,"anned":6706,"zing":6707,"Ġcorrespond":6708,"Ġgenerate":6709,"Ġsituations":6710,"essions":6711,"ograp":6712,"Ġprofit":6713,"isher":6714,"orders":6715,"ocket":6716,"Ġcried":6717,"Ġoutcomes":6718,"Ġgenuine":6719,"ĠSaf":6720,"âĢ¢":6721,"ĠProducts":6722,"uer":6723,"Ġcategories":6724,"Ġliquid":6725,"Ġentering":6726,"Ġ500":6727,"ĠTwo":6728,"ulty":6729,"acle":6730,"ĠPract":6731,"ĠMax":6732,"Ġast":6733,"ĠPhys":6734,"Ġfruit":6735,"ĠCEO":6736,"Ġcapable":6737,"Ġsumm":6738,"alled":6739,"ĠEr":6740,"Ġeditor":6741,"Ġemployment":6742,"ĠFriday":6743,"Ġafraid":6744,"Ġsenior":6745,"Ġfasc":6746,"acks":6747,"ĠCopyright":6748,"Ġpromise":6749,"fin":6750,"Ġmedicine":6751,"ĠEnvironment":6752,"bles":6753,"Ġauction":6754,"VE":6755,"ĠMach":6756,"Ab":6757,"orter":6758,"Ġadventure":6759,"chant":6760,"Ġprocedure":6761,"Ġdeeper":6762,"ansion":6763,"urd":6764,"Ġversat":6765,"Ġ?":6766,"Ġhousehold":6767,"ĠHTML":6768,"Ke":6769,"Ġresulting":6770,"Ġhonor":6771,"ĠComput":6772,"........":6773,"Med":6774,"Ġtech":6775,"Ġconcerning":6776,"Ġsexual":6777,"Ġduty":6778,"Ġcloser":6779,"eer":6780,"Ġ<|":6781,"Ġforced":6782,"Ġassemb":6783,"cluded":6784,"39":6785,"ador":6786,"data":6787,"Ġstre":6788,"Ġconstant":6789,"\":":6790,"ĠColl":6791,"Ġarray":6792,"ĠShop":6793,"ĠSelect":6794,"ĠSU":6795,"Ġweird":6796,"ĠWal":6797,"Ġsched":6798,"ĠMedicine":6799,"Ġslots":6800,"Ġelig":6801,"Ġconvenience":6802,"icked":6803,"Ġbunch":6804,"ĠAdvanced":6805,"CL":6806,"Ġconclusion":6807,"Ġnecessarily":6808,"ocument":6809,"ĠDou":6810,"ĠSH":6811,"Ġtreated":6812,"South":6813,"Are":6814,"ĠKn":6815,"Ġveget":6816,"bal":6817,"Ġparticipate":6818,"Ġtun":6819,"ĠCr":6820,"Ġtermin":6821,"Ġreputation":6822,"Ġlies":6823,"Ġanyway":6824,"Ġawareness":6825,"urse":6826,"Ġdispos":6827,"ximately":6828,"Ġclosely":6829,"Ġincorpor":6830,"ĠCath":6831,"Ġpanel":6832,"Ġpublish":6833,"ĠApplic":6834,"Ġsubmitted":6835,"Where":6836,"Ġgate":6837,"Ġassume":6838,"ĠĠĠĠĠĠĠĠĠĠĠĠĠĠĠĠ":6839,"isdom":6840,"Ġuniversity":6841,"Ġresistance":6842,"ĠProperty":6843,"Ġneighborhood":6844,"aints":6845,"Ġfacts":6846,"Ġdelivering":6847,"asting":6848,"Ġspons":6849,"Ġlaid":6850,"asters":6851,"ITH":6852,"ĠAtl":6853,"Ġdomin":6854,"then":6855,"38":6856,"ilst":6857,"Am":6858,"Ġmand":6859,"Pre":6860,"after":6861,"ora":6862,"ĠThanks":6863,"ĠItaly":6864,"Ġsuccessfully":6865,"ĠCorporation":6866,"Ġtea":6867,"Ġprev":6868,"ato":6869,"Ġbeach":6870,"Ġblind":6871,"Ġreaders":6872,"ĠBible":6873,"uled":6874,"Ġmel":6875,"Ġpricing":6876,"Me":6877,"Ġven":6878,"umes":6879,"reens":6880,"Ġwheel":6881,"ĠSol":6882,"gend":6883,"Ġdelet":6884,"ĠFriend":6885,"Ġexplained":6886,"RS":6887,"ĠSpirit":6888,"ĠPrice":6889,"Ġroutine":6890,"37":6891,"ĠShow":6892,"Ġcomponent":6893,"aniel":6894,"Ġneck":6895,"Ġrough":6896,"Ġlistening":6897,"Ġvolunte":6898,"ĠEnt":6899,"Ġengaged":6900,"Ġprospect":6901,"Ġremoval":6902,"Ġbread":6903,"tw":6904,"ĠAccording":6905,"Ġplanet":6906,"ĠCustomer":6907,"Ġfighting":6908,"eping":6909,"jo":6910,"llow":6911,"Ġprove":6912,"Ġfraud":6913,"Ġavailability":6914,"Ġhouses":6915,"ĠIr":6916,"ĠChildren":6917,"ĠGD":6918,"Ġlegally":6919,"Ġpositions":6920,"yd":6921,"Ġsides":6922,"UL":6923,"wing":6924,"Ġwire":6925,"rypt":6926,"Ġdefend":6927,"ĠSP":6928,"Ġexistence":6929,"Ġwalked":6930,"arn":6931,"ita":6932,"Ġsugar":6933,"working":6934,"state":6935,"Ġinterior":6936,"Ġpossibility":6937,"Ġcooper":6938,"Ġhat":6939,"ĠSection":6940,"lights":6941,"Ġunderstood":6942,"Ġ2011":6943,"Ġenthusi":6944,"ĠForm":6945,"iences":6946,"ĠPsych":6947,"ĠHall":6948,"ĠLook":6949,"ĠSearch":6950,"Ġinspired":6951,"Ġgender":6952,"ownt":6953,"ĠAD":6954,"Ġ35":6955,"Ġruns":6956,"wear":6957,"Ġcrew":6958,"Ġtrained":6959,"Ġexpressed":6960,"Gu":6961,"ĠSir":6962,"ĠWin":6963,"Ġjurisdiction":6964,"Ġ2009":6965,"mm":6966,"ĠExt":6967,"ĠSports":6968,"hop":6969,"ĠBefore":6970,"Ġsurprise":6971,"ĠSaint":6972,"Ġremaining":6973,"Ġholiday":6974,"ĠFarm":6975,"Ġbrowsing":6976,"Ġsymbol":6977,"Ġpainting":6978,"long":6979,"Ġcontemporary":6980,"ificate":6981,"bum":6982,"Ġcareful":6983,"ĠFrancis":6984,"Ġanalytics":6985,"ounce":6986,"Ġpill":6987,"Ġdude":6988,"ipt":6989,"FOR":6990,"Ġsubscription":6991,"Ġcreates":6992,"ĠChicago":6993,"iously":6994,"html":6995,"ĠPeter":6996,"Ġsigned":6997,"Ġcriminal":6998,"ĠStep":6999,"Ġframework":7000,"eries":7001,"Ġkeeps":7002,"Ġimmediate":7003,"Ġmoderators":7004,"Ġcharged":7005,"Ġconducted":7006,"ĠAT":7007,"Ġremained":7008,"Ġrestaurant":7009,"Pr":7010,"Ġnotify":7011,"ĠUt":7012,"Ġcalm":7013,"lla":7014,"rage":7015,"ĠJava":7016,"Ġlogged":7017,"CS":7018,"Ġtrusted":7019,"ĠBroad":7020,"reation":7021,"utter":7022,"Ġsupports":7023,"Ġrecorded":7024,"ller":7025,"ĠPR":7026,"ĠLink":7027,"Ġmillions":7028,"ĠAff":7029,"ĠDa":7030,"ca":7031,"Ġrein":7032,"Ġimprovement":7033,"ingly":7034,"Ġacknowledge":7035,"ĠBrown":7036,"ĠChief":7037,"Ġswim":7038,"Ġundert":7039,"Ġsomewhere":7040,"Ġorganic":7041,"Ġescape":7042,"Ġrealized":7043,"Ġrose":7044,"Ġreligion":7045,"ĠJapanese":7046,"48":7047,"po":7048,"rated":7049,"Ġtheme":7050,"Ġpicked":7051,"ĠMartin":7052,"Ġprepar":7053,"Ġplastic":7054,"AND":7055,"Ġalive":7056,"ĠVan":7057,"ounded":7058,"ILL":7059,"Ġbare":7060,"Ġnoise":7061,"enate":7062,"Ġbodies":7063,"mod":7064,"oted":7065,"car":7066,"Here":7067,"ĠDub":7068,"fo":7069,"ĠThus":7070,"Ġbegins":7071,"ĠMinister":7072,"icing":7073,"ĠCost":7074,"uma":7075,"Ġentity":7076,"ĠKen":7077,"cies":7078,"Ġobserved":7079,"ĠCheck":7080,"Ġsam":7081,"ĠBas":7082,"Ġalter":7083,"Ġrelief":7084,"Ġsurrounding":7085,"ĠFederal":7086,"Ġclar":7087,"Ġworst":7088,"Ġattacks":7089,"secut":7090,"ĠCongress":7091,"Ġspin":7092,"Ġdining":7093,"isters":7094,"Ġlatter":7095,"Ġhandling":7096,"ĠEnd":7097,"ĠSar":7098,"Ġusual":7099,"Ġsustainability":7100,"ĠCommon":7101,"ĠFord":7102,"ĠCapital":7103,"orne":7104,"Ġcycle":7105,"tical":7106,"Ġocean":7107,"Ġintent":7108,"Ġcontrast":7109,"Ġagencies":7110,"Ġportfolio":7111,"ĠColumb":7112,"wan":7113,"Ġcomprom":7114,"Ġhousing":7115,"riting":7116,"Ġdraft":7117,"Ġrelation":7118,"ipal":7119,"Ġinstrument":7120,".;":7121,"Ġadults":7122,"Ġvibrant":7123,"profit":7124,"umer":7125,"Ġhumans":7126,"Ġresearc":7127,"ĠPrince":7128,"ĠRoyal":7129,"Ġaest":7130,"illiant":7131,"real":7132,"rives":7133,"Ġphilosoph":7134,"rd":7135,"vity":7136,"hors":7137,"Ġinfo":7138,"Ġemails":7139,"Ġjoint":7140,"Ġstructures":7141,"cohol":7142,"Ġ2008":7143,"Ġpil":7144,"ocratic":7145,"Ġphase":7146,"Ġinstant":7147,"Ġawesome":7148,"Ġpodcast":7149,"ĠLearn":7150,"Ġfunny":7151,"Ġdealing":7152,"SP":7153,"ĠAmericans":7154,"Ġblow":7155,"Ġmoves":7156,"date":7157,"Ġconference":7158,"itution":7159,"Ġnuc":7160,"ython":7161,"illy":7162,"away":7163,"ĠScott":7164,"Ġegg":7165,"ĠHave":7166,"resents":7167,"Ġessentially":7168,"ĠCe":7169,"ĠSales":7170,"ĠMen":7171,"ĠFull":7172,"47":7173,"una":7174,"Ġmountain":7175,"Ġexplan":7176,"ĠProfessional":7177,"Ġfollows":7178,"ĠSecretary":7179,"iger":7180,"ĠGal":7181,"author":7182,"Ġrequests":7183,"Car":7184,"Mar":7185,"Ġcancel":7186,"ĠQuest":7187,"95":7188,"Ġought":7189,"Ġnaturally":7190,"ĠEV":7191,"ĠJon":7192,"ĠPoint":7193,"Ġnoted":7194,"Ġ45":7195,"west":7196,"ĠManager":7197,"Ġsensitive":7198,"Ġtailored":7199,"ulpt":7200,"ART":7201,"Ġadvantages":7202,"essel":7203,"Ġterrit":7204,"ĠLive":7205,"Ġtwice":7206,"Bu":7207,"home":7208,"name":7209,"Ġ@":7210,"kend":7211,"66":7212,"PU":7213,"Ġmerely":7214,"ĠPacific":7215,"Ġfault":7216,"Ġnoticed":7217,"ĠChapter":7218,"Ġacceler":7219,"lections":7220,"Ġmeal":7221,"their":7222,"oured":7223,"ĠFac":7224,"Ġdescribe":7225,"uzz":7226,"han":7227,"Ġvs":7228,"Ġmanif":7229,"Ġrig":7230,"ĠGeorgia":7231,"Ġempty":7232,"Ġanymore":7233,"inent":7234,"ĠCross":7235,"ĠHand":7236,"Ġdifferences":7237,"SA":7238,"Ġru":7239,"wind":7240,"ishment":7241,"Read":7242,"Ġcontents":7243,"coin":7244,"Ġblank":7245,"umps":7246,"ĠKnight":7247,"Ġsurgery":7248,"made":7249,"Ġdestination":7250,"Ġben":7251,"asty":7252,"ano":7253,"Ġdiss":7254,"world":7255,"Ġstruggle":7256,"istant":7257,"ĠExecut":7258,"Ġdamages":7259,"Ġends":7260,"ĠHold":7261,"Ġconcrete":7262,"Ġpublicly":7263,"Ġspecified":7264,"Ġfitness":7265,"ĠUkraine":7266,"ket":7267,"ĠBBC":7268,"osystem":7269,"Ġchapter":7270,"Ġtechnique":7271,"Ġdistributed":7272,"Ġhurt":7273,"Ġdeeply":7274,"FT":7275,"gas":7276,"ĠWild":7277,"Ġcovers":7278,"ĠHaw":7279,"ĠVict":7280,"Ġrecommendations":7281,"levision":7282,"Ġroles":7283,"Ġhole":7284,"ensity":7285,"Ġsupplement":7286,"Ġphen":7287,"Ġvisiting":7288,"onial":7289,"Ġexperiment":7290,"ĠYe":7291,"Ġdrugs":7292,"stein":7293,"Ġpipe":7294,"Ġluck":7295,"Ġbuildings":7296,"Ġsyn":7297,"Ġsubsequ":7298,"Ġdiscussions":7299,"Ġanswers":7300,"Ġlimits":7301,"ĠRoom":7302,"Ġped":7303,"Ġlit":7304,"Ġreject":7305,"Ġpassing":7306,"Ġapproximately":7307,"Ġjack":7308,"FL":7309,"igned":7310,"ĠConsult":7311,"Ġsought":7312,"tery":7313,"Ġoverw":7314,"Ġtone":7315,"teen":7316,"Ġ197":7317,"Ġpurs":7318,"Ġexploring":7319,"Ġphr":7320,"ĠSet":7321,"ĠJim":7322,"Ġconnections":7323,"Ġtests":7324,"Ġstyles":7325,"Ġregardless":7326,"ĠTHIS":7327,"Ġgro":7328,"Ġdriven":7329,"ĠBox":7330,"Ġenables":7331,"Ġcapture":7332,"FA":7333,"lly":7334,"Ġanticip":7335,"ĠAuthority":7336,"uls":7337,"Ġpoly":7338,"Ġgrown":7339,"Ġrom":7340,"ĠTHAT":7341,"Americ":7342,"aining":7343,"apore":7344,"Ġusergroups":7345,"Ġalert":7346,"inder":7347,"Ġextended":7348,"Ġauthorities":7349,"Ġtalent":7350,"\")":7351,"Ġtruck":7352,"Ġcyber":7353,"ĠRichard":7354,"Ġstring":7355,"ĠAgency":7356,"Ġsharp":7357,"vironments":7358,"ĠSuch":7359,"ĠMiddle":7360,"ĠHor":7361,"Any":7362,"Ġenemy":7363,"Ġrepresents":7364,"Ġtrend":7365,"Ġpartnership":7366,"uous":7367,"Ġconsideration":7368,"Ġtrademark":7369,"Let":7370,"ĠIll":7371,"Ġappointment":7372,"Ġacknowled":7373,"agon":7374,"Ġescort":7375,"ĠMid":7376,"AK":7377,"ennes":7378,"iti":7379,"iler":7380,"Ġcreativity":7381,"Ġultimate":7382,"ĠAnother":7383,"Ġdelicious":7384,"Ġintegration":7385,"Ġgear":7386,"Ġreplacement":7387,"rich":7388,"Ġbanks":7389,"Ġhealing":7390,"Ġindustries":7391,"ĠPartners":7392,"Ġregulatory":7393,"ĠPlus":7394,"Ġarchitecture":7395,"Ġhang":7396,"achel":7397,"Ġrobust":7398,"lv":7399,"Ġemotions":7400,"Ġillustr":7401,"amber":7402,"ĠPan":7403,"Ġincredibly":7404,"ĠEss":7405,"Ġobserv":7406,"pm":7407,"ĠNon":7408,"Ġwave":7409,"ĠSS":7410,"ĠSpace":7411,"iche":7412,"Ġsurvey":7413,"mp":7414,"Ġcoordin":7415,"ĠDoes":7416,"ĠLearning":7417,"ĠCredit":7418,"Ġdefect":7419,"Ġnegoti":7420,"ĠItalian":7421,"Ġgrass":7422,"ĠRealty":7423,"bro":7424,"ĠAC":7425,"Ġdesk":7426,"looking":7427,"ĠClin":7428,"Ġincreasingly":7429,"igen":7430,"Ġille":7431,"Ġinterface":7432,"Ġguaranteed":7433,"Ġcommonly":7434,"Ġjudgment":7435,"ĠJoseph":7436,"Ġresil":7437,"Ġentreprene":7438,"Ġwarranty":7439,"?âĢĿ":7440,"ĠStock":7441,"osit":7442,"will":7443,"ĠStat":7444,"php":7445,"Ġdegrees":7446,"Ġcampaigns":7447,"ĠNap":7448,"ĠRobert":7449,"Ġchecking":7450,"Ġopposite":7451,"Ġimpressive":7452,"arte":7453,"plete":7454,"ĠHelp":7455,"Ġfavour":7456,"Ġpride":7457,"Ġprocessed":7458,"ĠConnect":7459,"ĠSunday":7460,"Ġunlike":7461,"och":7462,"Ġcup":7463,"burg":7464,"Ġrelatively":7465,"Ġdomestic":7466,"Ġsuffering":7467,"Ġaircraft":7468,"rition":7469,"Ġquote":7470,"ternoon":7471,"ĠScot":7472,"appy":7473,"ĠSciences":7474,"Ġlosing":7475,"ĠSeries":7476,"Ġera":7477,"Ġtor":7478,"ĠFed":7479,"gent":7480,"Ġformed":7481,"Who":7482,"Ġregions":7483,"uration":7484,"orses":7485,"ERV":7486,"Ġrepeated":7487,"ĠMicrosoft":7488,"pel":7489,"Ġlovely":7490,"Ġenabling":7491,"gener":7492,"Ġcooking":7493,"stery":7494,"Ġjew":7495,"ĠBoth":7496,"Ġblocks":7497,"Ġvend":7498,"Ġloyal":7499,"utch":7500,"Ġadult":7501,"Ġincorrect":7502,"Ġcro":7503,"Ġpump":7504,"Ġcritic":7505,"Ġadvertise":7506,"irmed":7507,"ĠLos":7508,"Ġsoph":7509,"Ġdesired":7510,"ĠIslam":7511,"Ġviewing":7512,"oral":7513,"ifies":7514,"Ġdeals":7515,"Ġeverywhere":7516,"Ġterror":7517,"Ġrequested":7518,"kins":7519,"ologist":7520,"Ġobst":7521,"Ġlegitimate":7522,"Ġtough":7523,"Ġwise":7524,"ĠProcess":7525,"Ġmagic":7526,"Ġfourth":7527,"ĠThomas":7528,"Ġcorrectly":7529,"Ġvillage":7530,"anted":7531,"ĠArea":7532,"nings":7533,"Ġattorney":7534,"bell":7535,"aza":7536,"Fin":7537,"amental":7538,"ĠYet":7539,"REE":7540,"ceive":7541,"Ġauthorized":7542,"ĠMaterial":7543,"ĠWE":7544,"Ġabsor":7545,"Ġrecognition":7546,"ĠForeign":7547,"product":7548,"Ġpills":7549,"Ġdrawn":7550,"46":7551,"Ġfro":7552,"Ġdivid":7553,"weight":7554,"ĠManufact":7555,"Ġclothes":7556,"Ġfinger":7557,"Ġdiscussed":7558,"Ġrestrictions":7559,"Pal":7560,"Ġfool":7561,"Ġarrest":7562,"Ġhi":7563,"ĠHard":7564,"cling":7565,"Ġdram":7566,"sub":7567,"Ġnarrow":7568,"Ġrely":7569,"Ġblend":7570,"Acc":7571,"ouses":7572,"ĠAutom":7573,"Ġhes":7574,"ĠCOM":7575,"iar":7576,"ĠFoot":7577,"Ġresolution":7578,"ĠBeaut":7579,"Ġheads":7580,"Ġbathroom":7581,"bur":7582,"Ġsurf":7583,"Ġstead":7584,"Ġfilter":7585,"Ġguidelines":7586,"ĠCoast":7587,"IGHT":7588,"Ġunto":7589,"')":7590,"law":7591,"Ġacts":7592,"Ġapplies":7593,"However":7594,"Ġremarkable":7595,"Ġinsight":7596,"Custom":7597,"vy":7598,"Ġfirms":7599,"Ġroy":7600,"Ġdiscipl":7601,"Ġsolve":7602,"Ġmagn":7603,"Ġseriously":7604,"Ġregional":7605,"ĠShould":7606,"Ġapproaches":7607,"Ġedited":7608,"Ġintegrated":7609,"Ġcontrolled":7610,"Ġnative":7611,"Ġstake":7612,"ansas":7613,"Ġpleased":7614,"Ġunex":7615,"pir":7616,"Ġcheap":7617,"Ġcompensation":7618,"entures":7619,"Ġcommunicate":7620,"eding":7621,"ĠPayment":7622,"Spe":7623,"riers":7624,"Ġoutstanding":7625,"Ġboards":7626,"Ġweapons":7627,"Ġathlet":7628,"Ġsessions":7629,"Ġconver":7630,"Every":7631,"ĠFollow":7632,"ffective":7633,"ĠImp":7634,"ĠSecond":7635,"Ġpackaging":7636,"aska":7637,"Ġcream":7638,"yan":7639,"Ġdates":7640,"Ġincident":7641,"Ġformal":7642,"ĠJac":7643,"ĠKorea":7644,"ĠLux":7645,"ĠVideo":7646,"Ġflood":7647,"ERE":7648,"ordinary":7649,"Ġprogramming":7650,"Ġuncertain":7651,"Ġconsequences":7652,"Ġchamp":7653,"Ġprince":7654,"First":7655,"ĠIde":7656,"ĠMort":7657,"Ġdreams":7658,"itzer":7659,"Ġmad":7660,"Ġstim":7661,"Ġanybody":7662,"Ġfinance":7663,"Ġqueen":7664,"ĠBooks":7665,"Ġefficiently":7666,"ĠAdministration":7667,"Ġwisdom":7668,"Ġpoet":7669,"Ġlisting":7670,"Ġmonthly":7671,"Ġtreatments":7672,"ĠNext":7673,"Ġforever":7674,"ĠAng":7675,"ĠNorthern":7676,"Ġequipped":7677,"Ġboss":7678,"ĠMike":7679,"iel":7680,"Ġargument":7681,"Ġincreases":7682,"Ġexclusively":7683,"ura":7684,"Ġpresents":7685,"Ġpromoting":7686,"Ġboys":7687,"Ġobligations":7688,"Ġurban":7689,"Ġsatisfied":7690,"hire":7691,"ĠBid":7692,"atre":7693,"ĠWil":7694,"Ġyield":7695,"elry":7696,"Ġdism":7697,"onday":7698,"Ġhast":7699,"ĠBit":7700,"Ġsomewhat":7701,"Ġoverwhel":7702,"Ġreprodu":7703,"Ġvisited":7704,"Ġamounts":7705,"Up":7706,"orable":7707,"eness":7708,"Ġfacing":7709,"Ġvessel":7710,"Ġoutcome":7711,"Ġcarrying":7712,"Save":7713,"ĠWorks":7714,"oof":7715,"ressed":7716,"();":7717,"post":7718,"Ġtag":7719,"azz":7720,"Ġadmin":7721,"Ġorganized":7722,"ĠBuilding":7723,"iments":7724,"Reg":7725,"Ġflavor":7726,"Ġdating":7727,"ĠDE":7728,"Ġprimarily":7729,"Ste":7730,"EST":7731,"ĠTrade":7732,"Ġincent":7733,"tense":7734,"AA":7735,"Ġtrick":7736,"Ġalbum":7737,"Of":7738,"Ġinstruct":7739,"Ġtiny":7740,"Ġsections":7741,"Ġmeat":7742,"Then":7743,"ĠWay":7744,"Ġ2000":7745,"Ġkne":7746,"ĠCharl":7747,"Ġliterature":7748,"ĠRom":7749,"Ġplain":7750,"Ġmoist":7751,"55":7752,"ogue":7753,"Ġreform":7754,"Ġupper":7755,"Ġdust":7756,"Ġshoes":7757,"peror":7758,"covery":7759,"style":7760,"ruption":7761,"cludes":7762,"Ġhyper":7763,"flow":7764,"ĠKong":7765,"raction":7766,"BD":7767,"ref":7768,"ĠTreat":7769,"Ġbedroom":7770,"Ġlabel":7771,"iner":7772,"onia":7773,"Ġgifts":7774,"ĠMatt":7775,"ourse":7776,"Ġlighting":7777,"Ġpriorit":7778,"More":7779,"Ġopinions":7780,"itled":7781,"Ġevolution":7782,"uh":7783,"Ġvit":7784,"ĠGallery":7785,"Ġimper":7786,"chain":7787,"rolog":7788,"Comm":7789,"Ġinner":7790,"lder":7791,"Ġinvesting":7792,"ĠZeal":7793,"Ġalle":7794,"ometimes":7795,"lers":7796,"Ġpapers":7797,"Ġspr":7798,"ĠBal":7799,"ĠLocal":7800,"oleon":7801,"ennessee":7802,"Ġmit":7803,"ĠLegal":7804,"Ġsuppose":7805,"Ġtransmission":7806,"Ġhall":7807,"ĠDra":7808,"comfort":7809,"ribution":7810,"Ġrepresentation":7811,"IVE":7812,"ivery":7813,"oned":7814,"Ġarts":7815,"Ġcontrols":7816,"Ġax":7817,"ĠFair":7818,"Ġenvironments":7819,"Ġrow":7820,"Ġlogo":7821,"iffe":7822,"Ġadds":7823,"akistan":7824,"ĠAdvis":7825,"arge":7826,"ĠConference":7827,"Ġscan":7828,"ba":7829,"ati":7830,"ĠDrive":7831,"through":7832,"Ġtimezone":7833,"liers":7834,"irement":7835,"Other":7836,"Ġresidential":7837,"power":7838,"Ġinspe":7839,"Ġshouldn":7840,"haust":7841,"Ġlaunched":7842,"igating":7843,"Ġagric":7844,"Ġinvestigation":7845,"edge":7846,"ĠProm":7847,"aze":7848,"level":7849,"Ġownership":7850,"ĠLeg":7851,"Ġmovies":7852,"Ġconsumption":7853,"âĢĿ),":7854,"aware":7855,"Ġhappiness":7856,"Ġlists":7857,"Ġdanger":7858,"ĠProfessor":7859,"Under":7860,"Ġreb":7861,"Ġeveryday":7862,"Ġaccessories":7863,"Ġquantity":7864,"Ġinteraction":7865,"ĠOcean":7866,"ĠElectric":7867,"Ġflexibility":7868,"ĠClick":7869,"Ġwaters":7870,"Ġcontro":7871,"Ġacting":7872,"bridge":7873,"Ġenemies":7874,"jection":7875,"Ġannouncements":7876,"Ġsample":7877,"ĠGrow":7878,"Ġinvestments":7879,"ĠAngeles":7880,"Ġnewsletter":7881,"Ġkingdom":7882,"ĠHoly":7883,"ĠJordan":7884,"Ġdifficulty":7885,"ĠCookie":7886,"Ġnurs":7887,"Ġroute":7888,"Name":7889,"Ġtherap":7890,"Ġwarning":7891,"Ġaddresses":7892,"pany":7893,"Ġrespective":7894,"Ġ300":7895,"Ġhire":7896,"mo":7897,"ova":7898,"Ġpregn":7899,"Ġsearching":7900,"IAL":7901,"esty":7902,"ĠFuture":7903,"ĠRef":7904,"paper":7905,"Ġsignal":7906,"Ġrapidly":7907,"Ġpermanent":7908,"aria":7909,"Ġfigures":7910,"olt":7911,"Ġclimb":7912,"Ġtact":7913,"ĠPlace":7914,"Ġcharacteristics":7915,"uling":7916,"Ġyounger":7917,"terday":7918,"bered":7919,"Ġstronger":7920,"Ġterrible":7921,"Ġcater":7922,"Sw":7923,"ĠExecutive":7924,"pie":7925,"tle":7926,"inity":7927,"Ġsem":7928,"Ġscar":7929,"Ġfolks":7930,"Ġrising":7931,"ĠLady":7932,"Ġgenerated":7933,"ĠStore":7934,"Ġexposure":7935,"aturday":7936,"Ġvisible":7937,"Ġordered":7938,"GB":7939,"ĠFact":7940,"ĠYoung":7941,"Ġtransformation":7942,"who":7943,"Another":7944,"rogen":7945,"ĠBY":7946,"Each":7947,"uster":7948,"Ġrecon":7949,"Ġmeets":7950,"duction":7951,"ĠForce":7952,"ĠZealand":7953,"Ġenterprise":7954,"irts":7955,"ĠWat":7956,"Ġrevealed":7957,"Ġsplit":7958,"Ġbond":7959,"ICE":7960,"Ġexcite":7961,"aud":7962,"Ġrender":7963,"ĠWITH":7964,"Ġsophist":7965,"ĠConf":7966,"Ġyellow":7967,"FF":7968,"Ġ2007":7969,"ĠNeed":7970,"Ġsavings":7971,"Ġfairly":7972,"ĠRoman":7973,"Ġbreaking":7974,"Ġfascin":7975,"Ġcausing":7976,"Ġphenomen":7977,"Ġju":7978,"sole":7979,"ĠPlatform":7980,"isted":7981,"Ġpolitics":7982,"ĠIss":7983,"Ġusergroup":7984,"acious":7985,"ĠAndrew":7986,"APTER":7987,"Ġnarrative":7988,"Ġrear":7989,"ĠTR":7990,"Ġflowers":7991,"Ġmuscle":7992,"Ġfundamental":7993,"ACK":7994,"Ġsurprised":7995,"ĠALL":7996,"Ġempower":7997,"oding":7998,"ĠShare":7999,"ĠColorado":8000,"Ġqualified":8001,"Ġlawyer":8002,"Ġloans":8003,"uce":8004,"Ġgrace":8005,"Ġattached":8006,"such":8007,"astern":8008,"Script":8009,"oston":8010,"ĠBan":8011,"Ġnations":8012,"ĠÂ·":8013,"Ġphotograph":8014,"Ġgained":8015,"iances":8016,"United":8017,"Ġbuyer":8018,"racy":8019,"Ġafternoon":8020,"Ġtradition":8021,"iot":8022,"liament":8023,"Ġaccessing":8024,"Ġequity":8025,"Ġscholars":8026,"itar":8027,"Ġsupplies":8028,"Ġbroker":8029,"Ġobligation":8030,"oys":8031,"Ġdemands":8032,"Ġdevelopers":8033,"PC":8034,"ĠTimes":8035,"ifting":8036,"Ġauthors":8037,"ĠBang":8038,"Ġtested":8039,"page":8040,"sect":8041,"Ġecosystem":8042,"igure":8043,"riven":8044,"uct":8045,"Ġcontributions":8046,"Ġtur":8047,"Ġvacc":8048,"ĠJersey":8049,"Ġpreferred":8050,"ĠLow":8051,"ĠUsing":8052,"ĠInstead":8053,"Ġmanufacturer":8054,"Ġstability":8055,"ĠAvailable":8056,"Ġchannels":8057,"aya":8058,"Ġstorm":8059,"kers":8060,"Ġmoral":8061,"Ġprayer":8062,"aparte":8063,"Ġbroke":8064,"phpBB":8065,"Ġstuck":8066,"Ġcoach":8067,"ĠWeek":8068,"Ġdesert":8069,"anguage":8070,"Ġmoon":8071,"oty":8072,"ching":8073,"ĠMur":8074,"ateful":8075,"Ġtypical":8076,"ras":8077,"Ġwearing":8078,"Ġoccas":8079,"Ġchances":8080,"Ġreader":8081,"Ġachieved":8082,"Ġcul":8083,"Ġspam":8084,"ĠAustralian":8085,"68":8086,"ĠNY":8087,"Ġtransportation":8088,"count":8089,"Ġfinds":8090,"ĠTech":8091,"ALL":8092,"uts":8093,"def":8094,"Ġmurder":8095,"Ġeligible":8096,"Ġsizes":8097,"ĠCatholic":8098,"riz":8099,"Ġinfring":8100,"Christ":8101,"ĠType":8102,"Ġsacrif":8103,"Ġdish":8104,"ĠPub":8105,"ĠDam":8106,"Ġfocusing":8107,"oga":8108,"eters":8109,"Selector":8110,"=\"":8111,"Dis":8112,"lls":8113,"Ġstreets":8114,"Ġdental":8115,"Ġevident":8116,"bits":8117,"ĠCapt":8118,"Ġbridge":8119,"ĠWithout":8120,"Ġintegrity":8121,"Ġtall":8122,"etime":8123,"stream":8124,"Ġrepeat":8125,"Che":8126,"ja":8127,"Ġwidely":8128,"charge":8129,"Ġprotein":8130,"ventional":8131,"Ġsuperior":8132,"Sec":8133,"gov":8134,"Ġloves":8135,"Ġconfidential":8136,"Ġintense":8137,"Ġpowers":8138,"ĠLevel":8139,"ped":8140,"Ġbeneficial":8141,"Ġpin":8142,"Ġaside":8143,"Ġdistingu":8144,"ĠJeff":8145,"zil":8146,"Ġgreatly":8147,"urious":8148,"Ġcompat":8149,"Ġinspiration":8150,"oa":8151,"ĠSouthern":8152,"Eng":8153,"Ġwest":8154,"ĠPot":8155,"PM":8156,"Sm":8157,"Ġwhilst":8158,"ummer":8159,"Ġinstruments":8160,"ĠJudge":8161,"table":8162,"ĠExchange":8163,"Ġplane":8164,"ĠEmploy":8165,"ĠMLS":8166,"rix":8167,"Ġbonuses":8168,"Ġmanifest":8169,"ĠSpain":8170,"Ġversus":8171,"Ġlosses":8172,"';":8173,"Ġpowered":8174,"alty":8175,"Ġthin":8176,"ĠPhilipp":8177,"cular":8178,"Ġkeys":8179,"Ġsynt":8180,"Ġnormally":8181,"Ġreceipt":8182,"usalem":8183,"Ge":8184,"ĠSanta":8185,"ĠEth":8186,"va":8187,"ailing":8188,"Ġsons":8189,"Ġcancell":8190}